<unk>	0
<s>	0
</s>	0
<pad>	0
<0x00>	0
<0x01>	0
<0x02>	0
<0x03>	0
<0x04>	0
<0x05>	0
<0x06>	0
<0x07>	0
<0x08>	0
<0x09>	0
<0x0A>	0
<0x0B>	0
<0x0C>	0
<0x0D>	0
<0x0E>	0
<0x0F>	0
<0x10>	0
<0x11>	0
<0x12>	0
<0x13>	0
<0x14>	0
<0x15>	0
<0x16>	0
<0x17>	0
<0x18>	0
<0x19>	0
<0x1A>	0
<0x1B>	0
<0x1C>	0
<0x1D>	0
<0x1E>	0
<0x1F>	0
<0x20>	0
<0x21>	0
<0x22>	0
<0x23>	0
<0x24>	0
<0x25>	0
<0x26>	0
<0x27>	0
<0x28>	0
<0x29>	0
<0x2A>	0
<0x2B>	0
<0x2C>	0
<0x2D>	0
<0x2E>	0
<0x2F>	0
<0x30>	0
<0x31>	0
<0x32>	0
<0x33>	0
<0x34>	0
<0x35>	0
<0x36>	0
<0x37>	0
<0x38>	0
<0x39>	0
<0x3A>	0
<0x3B>	0
<0x3C>	0
<0x3D>	0
<0x3E>	0
<0x3F>	0
<0x40>	0
<0x41>	0
<0x42>	0
<0x43>	0
<0x44>	0
<0x45>	0
<0x46>	0
<0x47>	0
<0x48>	0
<0x49>	0
<0x4A>	0
<0x4B>	0
<0x4C>	0
<0x4D>	0
<0x4E>	0
<0x4F>	0
<0x50>	0
<0x51>	0
<0x52>	0
<0x53>	0
<0x54>	0
<0x55>	0
<0x56>	0
<0x57>	0
<0x58>	0
<0x59>	0
<0x5A>	0
<0x5B>	0
<0x5C>	0
<0x5D>	0
<0x5E>	0
<0x5F>	0
<0x60>	0
<0x61>	0
<0x62>	0
<0x63>	0
<0x64>	0
<0x65>	0
<0x66>	0
<0x67>	0
<0x68>	0
<0x69>	0
<0x6A>	0
<0x6B>	0
<0x6C>	0
<0x6D>	0
<0x6E>	0
<0x6F>	0
<0x70>	0
<0x71>	0
<0x72>	0
<0x73>	0
<0x74>	0
<0x75>	0
<0x76>	0
<0x77>	0
<0x78>	0
<0x79>	0
<0x7A>	0
<0x7B>	0
<0x7C>	0
<0x7D>	0
<0x7E>	0
<0x7F>	0
<0x80>	0
<0x81>	0
<0x82>	0
<0x83>	0
<0x84>	0
<0x85>	0
<0x86>	0
<0x87>	0
<0x88>	0
<0x89>	0
<0x8A>	0
<0x8B>	0
<0x8C>	0
<0x8D>	0
<0x8E>	0
<0x8F>	0
<0x90>	0
<0x91>	0
<0x92>	0
<0x93>	0
<0x94>	0
<0x95>	0
<0x96>	0
<0x97>	0
<0x98>	0
<0x99>	0
<0x9A>	0
<0x9B>	0
<0x9C>	0
<0x9D>	0
<0x9E>	0
<0x9F>	0
<0xA0>	0
<0xA1>	0
<0xA2>	0
<0xA3>	0
<0xA4>	0
<0xA5>	0
<0xA6>	0
<0xA7>	0
<0xA8>	0
<0xA9>	0
<0xAA>	0
<0xAB>	0
<0xAC>	0
<0xAD>	0
<0xAE>	0
<0xAF>	0
<0xB0>	0
<0xB1>	0
<0xB2>	0
<0xB3>	0
<0xB4>	0
<0xB5>	0
<0xB6>	0
<0xB7>	0
<0xB8>	0
<0xB9>	0
<0xBA>	0
<0xBB>	0
<0xBC>	0
<0xBD>	0
<0xBE>	0
<0xBF>	0
<0xC0>	0
<0xC1>	0
<0xC2>	0
<0xC3>	0
<0xC4>	0
<0xC5>	0
<0xC6>	0
<0xC7>	0
<0xC8>	0
<0xC9>	0
<0xCA>	0
<0xCB>	0
<0xCC>	0
<0xCD>	0
<0xCE>	0
<0xCF>	0
<0xD0>	0
<0xD1>	0
<0xD2>	0
<0xD3>	0
<0xD4>	0
<0xD5>	0
<0xD6>	0
<0xD7>	0
<0xD8>	0
<0xD9>	0
<0xDA>	0
<0xDB>	0
<0xDC>	0
<0xDD>	0
<0xDE>	0
<0xDF>	0
<0xE0>	0
<0xE1>	0
<0xE2>	0
<0xE3>	0
<0xE4>	0
<0xE5>	0
<0xE6>	0
<0xE7>	0
<0xE8>	0
<0xE9>	0
<0xEA>	0
<0xEB>	0
<0xEC>	0
<0xED>	0
<0xEE>	0
<0xEF>	0
<0xF0>	0
<0xF1>	0
<0xF2>	0
<0xF3>	0
<0xF4>	0
<0xF5>	0
<0xF6>	0
<0xF7>	0
<0xF8>	0
<0xF9>	0
<0xFA>	0
<0xFB>	0
<0xFC>	0
<0xFD>	0
<0xFE>	0
<0xFF>	0
the▁	-2.85981
of▁	-3.52246
in▁	-3.66183
and▁	-3.71811
a▁	-3.8969
to▁	-4.10939
was▁	-4.65547
is▁	-4.84983
as▁	-4.88056
on▁	-4.88159
for▁	-4.96654
by▁	-5.08151
with▁	-5.13859
at▁	-5.29697
he▁	-5.30806
from▁	-5.32591
that▁	-5.40837
his▁	-5.5577
an▁	-5.5634
it▁	-5.56889
s▁	-5.89411
were▁	-5.9948
are▁	-6.06844
also▁	-6.07462
which▁	-6.08741
or▁	-6.20122
be▁	-6.20246
this▁	-6.21668
had▁	-6.26674
first▁	-6.28778
new▁	-6.30788
has▁	-6.34281
one▁	-6.40053
its▁	-6.40142
her▁	-6.41865
s	-6.42172
i▁	-6.43029
their▁	-6.45242
after▁	-6.45683
she▁	-6.47225
who▁	-6.50715
but▁	-6.51908
references▁	-6.52059
not▁	-6.55136
they▁	-6.58083
american▁	-6.66785
people▁	-6.66792
two▁	-6.67458
have▁	-6.6808
been▁	-6.75837
re	-6.76435
other▁	-6.79364
th▁	-6.81221
a	-6.82742
us▁	-6.84918
all▁	-6.8543
when▁	-6.86375
during▁	-6.88253
e	-6.89461
time▁	-6.91617
1▁	-6.93617
university▁	-6.93798
united▁	-6.9403
into▁	-6.95515
school▁	-6.97613
world▁	-6.99969
may▁	-6.99992
national▁	-7.011
e▁	-7.01322
▁	-7.01621
de▁	-7.02616
there▁	-7.04356
more▁	-7.04818
2▁	-7.05217
no▁	-7.06369
born▁	-7.06579
states▁	-7.08489
state▁	-7.09012
players▁	-7.11035
years▁	-7.11234
over▁	-7.11241
up▁	-7.11783
external▁	-7.13749
links▁	-7.13908
film▁	-7.14367
only▁	-7.14519
d	-7.14554
would▁	-7.15437
city▁	-7.15461
year▁	-7.18052
between▁	-7.18172
out▁	-7.18318
later▁	-7.19282
about▁	-7.1932
most▁	-7.19959
where▁	-7.20351
him▁	-7.23894
season▁	-7.24944
some▁	-7.25441
war▁	-7.26498
south▁	-7.26639
then▁	-7.27287
made▁	-7.2773
in	-7.28188
history▁	-7.28555
ed▁	-7.28603
three▁	-7.28737
st▁	-7.28894
c	-7.29097
t	-7.29771
b	-7.298
used▁	-7.30218
series▁	-7.31898
can▁	-7.31941
part▁	-7.32548
while▁	-7.32697
league▁	-7.33533
team▁	-7.33565
such▁	-7.34072
known▁	-7.35749
county▁	-7.36036
second▁	-7.36128
under▁	-7.36135
o	-7.37829
3▁	-7.38209
than▁	-7.38781
music▁	-7.42374
district▁	-7.43049
became▁	-7.43167
before▁	-7.43168
see▁	-7.4403
de	-7.44312
many▁	-7.44687
p	-7.45201
through▁	-7.46109
north▁	-7.46453
these▁	-7.46493
including▁	-7.46499
football▁	-7.46758
being▁	-7.47226
well▁	-7.47291
man▁	-7.47386
f	-7.47493
house▁	-7.47552
life▁	-7.47596
k	-7.48071
un	-7.49183
films▁	-7.50052
g	-7.50224
against▁	-7.50257
group▁	-7.50369
d▁	-7.50823
both▁	-7.5097
ing▁	-7.51138
early▁	-7.51588
o▁	-7.5322
work▁	-7.53362
m▁	-7.53491
international▁	-7.53521
family▁	-7.53832
since▁	-7.55212
er▁	-7.55505
until▁	-7.56409
es▁	-7.56756
4▁	-7.56893
them▁	-7.56978
september▁	-7.57018
john▁	-7.57385
british▁	-7.57691
october▁	-7.58506
y▁	-7.59099
career▁	-7.59572
games▁	-7.59607
march▁	-7.59782
high▁	-7.60621
c▁	-7.61031
area▁	-7.61216
living▁	-7.61296
following▁	-7.61387
january▁	-7.61666
name▁	-7.61958
b▁	-7.62118
york▁	-7.62684
however▁	-7.62849
based▁	-7.64213
club▁	-7.64981
album▁	-7.65559
played▁	-7.65601
births▁	-7.66142
number▁	-7.66551
june▁	-7.66676
al	-7.66889
july▁	-7.66945
so▁	-7.66949
august▁	-7.6751
government▁	-7.6797
november▁	-7.68068
released▁	-7.68169
west▁	-7.68187
m	-7.6826
will▁	-7.68495
i	-7.68519
april▁	-7.68841
game▁	-7.68916
college▁	-7.68963
5▁	-7.6982
company▁	-7.7008
10▁	-7.70536
general▁	-7.70869
co	-7.71761
december▁	-7.71823
several▁	-7.72064
won▁	-7.72841
list▁	-7.73187
2010▁	-7.73325
6▁	-7.73486
former▁	-7.73696
four▁	-7.74027
english▁	-7.76729
each▁	-7.76752
place▁	-7.76846
members▁	-7.76851
if▁	-7.77341
called▁	-7.77496
son▁	-7.78227
town▁	-7.78254
day▁	-7.78418
best▁	-7.7869
2011▁	-7.78801
line▁	-7.78922
use▁	-7.79273
member▁	-7.79486
february▁	-7.80107
church▁	-7.80219
television▁	-7.81822
l	-7.81994
same▁	-7.82208
home▁	-7.83031
public▁	-7.83971
end▁	-7.84107
2008▁	-7.8411
2009▁	-7.84111
station▁	-7.84622
la▁	-7.84663
2012▁	-7.84855
2013▁	-7.84989
now▁	-7.85565
like▁	-7.8704
2007▁	-7.87383
back▁	-7.87566
art▁	-7.87696
ers▁	-7.8806
women▁	-7.88106
2014▁	-7.88165
song▁	-7.88168
found▁	-7.88416
en	-7.88479
service▁	-7.886
east▁	-7.89126
party▁	-7.89172
al▁	-7.89774
ii▁	-7.90173
w	-7.90362
2006▁	-7.90374
7▁	-7.90387
field▁	-7.90395
h	-7.90837
age▁	-7.90885
named▁	-7.90979
2015▁	-7.91119
began▁	-7.91412
u	-7.91471
9▁	-7.91599
held▁	-7.9175
order▁	-7.92534
french▁	-7.92556
12▁	-7.93699
established▁	-7.93771
century▁	-7.93821
set▁	-7.93936
2016▁	-7.9434
20▁	-7.9478
system▁	-7.95375
located▁	-7.9538
led▁	-7.95523
around▁	-7.96221
book▁	-7.96509
8▁	-7.97111
due▁	-7.97195
major▁	-7.97419
do▁	-7.97672
n	-7.97881
final▁	-7.97997
population▁	-7.9813
london▁	-7.98518
took▁	-7.98628
published▁	-7.9873
any▁	-7.98813
15▁	-7.98998
ma	-7.99197
did▁	-7.99479
died▁	-7.99656
division▁	-7.9977
air▁	-8.00028
2	-8.00079
because▁	-8.00206
german▁	-8.00257
built▁	-8.00409
river▁	-8.00791
could▁	-8.00811
6	-8.00985
president▁	-8.01
2017▁	-8.01299
served▁	-8.01388
land▁	-8.01534
army▁	-8.01695
death▁	-8.01887
t▁	-8.02243
local▁	-8.02478
le	-8.02696
2018▁	-8.02799
award▁	-8.0283
law▁	-8.03131
long▁	-8.03306
le▁	-8.04003
park▁	-8.04195
cup▁	-8.04289
show▁	-8.04517
11▁	-8.04859
association▁	-8.05083
within▁	-8.05188
received▁	-8.05242
another▁	-8.05245
player▁	-8.05371
20	-8.05374
left▁	-8.06024
er	-8.06441
p▁	-8.06445
education▁	-8.06512
l▁	-8.06836
v	-8.069
road▁	-8.06972
along▁	-8.07698
last▁	-8.07883
building▁	-8.08072
1	-8.08179
center▁	-8.08692
en▁	-8.08804
side▁	-8.0884
king▁	-8.08943
men▁	-8.09116
g▁	-8.09287
9	-8.09314
military▁	-8.09391
2005▁	-8.09786
2019▁	-8.09825
18▁	-8.10049
you▁	-8.10216
con	-8.10404
old▁	-8.11052
di	-8.11177
band▁	-8.11353
royal▁	-8.11481
way▁	-8.12369
third▁	-8.1247
central▁	-8.1268
five▁	-8.12939
water▁	-8.13026
said▁	-8.13133
30▁	-8.13245
3	-8.1338
main▁	-8.13515
se	-8.13638
small▁	-8.14059
off▁	-8.14214
village▁	-8.1462
to	-8.14814
head▁	-8.14932
13▁	-8.14951
court▁	-8.1503
single▁	-8.1507
el▁	-8.15083
16▁	-8.15271
great▁	-8.15304
n▁	-8.15598
id	-8.15996
down▁	-8.16364
top▁	-8.16468
own▁	-8.16616
k▁	-8.16792
ar	-8.17478
species▁	-8.1761
development▁	-8.17764
an	-8.17819
me▁	-8.18124
record▁	-8.18266
include▁	-8.18441
thcentury▁	-8.18544
2020▁	-8.18577
times▁	-8.18594
y	-8.18644
included▁	-8.18696
department▁	-8.18843
male▁	-8.18902
j	-8.19023
h▁	-8.19129
25▁	-8.19152
z	-8.1921
14▁	-8.19396
street▁	-8.19949
15	-8.20001
what▁	-8.20302
r▁	-8.20533
research▁	-8.20579
although▁	-8.20608
championship▁	-8.2067
2000▁	-8.20847
those▁	-8.2089
r	-8.21281
political▁	-8.21361
works▁	-8.21625
21▁	-8.21782
large▁	-8.2184
19▁	-8.21923
still▁	-8.22445
ca	-8.22457
union▁	-8.22567
video▁	-8.22854
2004▁	-8.22974
very▁	-8.23064
england▁	-8.23466
according▁	-8.23827
sa	-8.2392
play▁	-8.23982
council▁	-8.24021
summer▁	-8.24064
official▁	-8.24293
community▁	-8.24349
la	-8.24519
original▁	-8.24646
deaths▁	-8.24686
power▁	-8.24917
17▁	-8.25054
late▁	-8.25233
director▁	-8.25308
red▁	-8.25389
just▁	-8.25526
white▁	-8.25556
australia▁	-8.26535
24▁	-8.26731
william▁	-8.26732
office▁	-8.26873
black▁	-8.27014
production▁	-8.27232
radio▁	-8.27362
j▁	-8.27401
western▁	-8.27604
my▁	-8.27852
round▁	-8.28023
among▁	-8.2831
country▁	-8.28506
children▁	-8.28619
songs▁	-8.28788
dis	-8.28904
fc▁	-8.2905
california▁	-8.29075
australian▁	-8.29847
2003▁	-8.30041
near▁	-8.30142
track▁	-8.30203
form▁	-8.30237
again▁	-8.30315
moved▁	-8.30384
million▁	-8.30503
ne	-8.30528
island▁	-8.3065
even▁	-8.31017
able▁	-8.31228
2002▁	-8.3144
election▁	-8.31938
we▁	-8.32078
f▁	-8.32523
different▁	-8.32555
awards▁	-8.32594
title▁	-8.32749
indian▁	-8.3296
written▁	-8.33121
often▁	-8.33237
no	-8.333
4	-8.33479
v▁	-8.33733
further▁	-8.33779
france▁	-8.34035
produced▁	-8.34309
region▁	-8.34396
services▁	-8.34509
professional▁	-8.34611
force▁	-8.34745
european▁	-8.34746
ba	-8.34761
teams▁	-8.34843
india▁	-8.34927
records▁	-8.34964
per▁	-8.3512
young▁	-8.35153
san▁	-8.35551
na	-8.36184
bo	-8.362
social▁	-8.36299
22▁	-8.36312
police▁	-8.36342
described▁	-8.36381
business▁	-8.36405
northern▁	-8.36512
albums▁	-8.36516
support▁	-8.36687
point▁	-8.36693
society▁	-8.36861
much▁	-8.36869
make▁	-8.37082
non	-8.37302
site▁	-8.37401
ha	-8.3745
2001▁	-8.37469
u▁	-8.37586
james▁	-8.3769
george▁	-8.37766
version▁	-8.37873
5	-8.37943
father▁	-8.38252
ro	-8.38302
23▁	-8.38321
pre	-8.38339
given▁	-8.38384
role▁	-8.38448
board▁	-8.38575
x	-8.38626
w▁	-8.38775
railway▁	-8.38808
places▁	-8.38839
go▁	-8.3898
2021▁	-8.3956
total▁	-8.4
16	-8.40045
museum▁	-8.40065
six▁	-8.40249
less▁	-8.40433
km▁	-8.41245
canadian▁	-8.41339
mo	-8.41409
ka	-8.416
next▁	-8.41822
went▁	-8.4184
started▁	-8.41915
story▁	-8.42113
be	-8.42197
uk▁	-8.42205
announced▁	-8.42211
am▁	-8.42312
pro	-8.42523
live▁	-8.4258
period▁	-8.42675
lo	-8.42769
using▁	-8.42849
hall▁	-8.42996
having▁	-8.43053
press▁	-8.43482
various▁	-8.43771
books▁	-8.44037
married▁	-8.44421
science▁	-8.44801
27▁	-8.45017
go	-8.45293
mar	-8.45295
students▁	-8.45531
ni	-8.45591
canada▁	-8.45764
17	-8.4602
1999▁	-8.46122
created▁	-8.46195
ly▁	-8.46323
came▁	-8.4634
x▁	-8.4635
days▁	-8.46392
take▁	-8.46473
26▁	-8.46566
lost▁	-8.46576
schools▁	-8.46675
short▁	-8.46735
project▁	-8.46748
david▁	-8.46998
act▁	-8.4705
love▁	-8.47207
win▁	-8.47757
health▁	-8.47891
worked▁	-8.48298
language▁	-8.48595
28▁	-8.48848
me	-8.4912
run▁	-8.49243
et▁	-8.49533
joined▁	-8.49573
present▁	-8.49664
america▁	-8.49777
open▁	-8.49931
become▁	-8.50026
os▁	-8.50464
tv▁	-8.50493
special▁	-8.50619
class▁	-8.50699
germany▁	-8.50924
buildings▁	-8.51042
events▁	-8.51522
battle▁	-8.51606
design▁	-8.51692
bi	-8.52055
program▁	-8.52059
rock▁	-8.52092
ley▁	-8.52213
pa	-8.52366
media▁	-8.52391
without▁	-8.52419
level▁	-8.52593
or	-8.52806
mi	-8.52915
groups▁	-8.5304
man	-8.53824
1998▁	-8.53837
right▁	-8.54461
japanese▁	-8.54587
footballers▁	-8.54638
womens▁	-8.54645
southern▁	-8.54821
kingdom▁	-8.55109
position▁	-8.55387
29▁	-8.55476
minister▁	-8.55832
little▁	-8.56036
historic▁	-8.56038
da	-8.56264
robert▁	-8.56363
alumni▁	-8.56404
so	-8.5659
ko	-8.56629
returned▁	-8.57067
few▁	-8.57111
website▁	-8.5721
wrote▁	-8.57349
arts▁	-8.57384
together▁	-8.57401
1997▁	-8.57456
am	-8.57527
recorded▁	-8.57532
release▁	-8.57563
opened▁	-8.57583
el	-8.57689
how▁	-8.577
ie▁	-8.57765
case▁	-8.57773
ch	-8.5794
1996▁	-8.58319
match▁	-8.58432
21	-8.58694
ta	-8.58863
as	-8.58984
car	-8.59268
si	-8.59677
free▁	-8.59688
lead▁	-8.59878
tour▁	-8.59903
directed▁	-8.60066
sports▁	-8.60111
control▁	-8.60341
ten▁	-8.60501
areas▁	-8.60515
though▁	-8.60598
founded▁	-8.60658
ga	-8.60974
notes▁	-8.61021
human▁	-8.61159
100▁	-8.61183
china▁	-8.61277
institute▁	-8.61343
thomas▁	-8.61386
1992▁	-8.61433
russian▁	-8.6203
vi	-8.62034
making▁	-8.62109
mc	-8.62129
modern▁	-8.62641
every▁	-8.62707
ad	-8.62807
im	-8.63095
li	-8.63177
event▁	-8.63304
continued▁	-8.63438
others▁	-8.63626
information▁	-8.63644
results▁	-8.63663
forces▁	-8.6376
companies▁	-8.63775
away▁	-8.64261
italian▁	-8.64356
chinese▁	-8.64468
st	-8.64771
at	-8.64883
japan▁	-8.64934
1995▁	-8.64965
episode▁	-8.65131
chief▁	-8.65162
once▁	-8.65191
debut▁	-8.65219
charles▁	-8.65315
8	-8.65777
les▁	-8.65818
civil▁	-8.66184
points▁	-8.66379
working▁	-8.66432
race▁	-8.66517
los▁	-8.66681
washington▁	-8.66771
academy▁	-8.66829
wife▁	-8.66918
12	-8.67004
paul▁	-8.67082
per	-8.67265
31▁	-8.67401
festival▁	-8.67512
appointed▁	-8.67517
10	-8.67534
te	-8.67578
ic▁	-8.67639
light▁	-8.67678
common▁	-8.67696
training▁	-8.67841
considered▁	-8.67869
1994▁	-8.68055
good▁	-8.68248
night▁	-8.68263
never▁	-8.68329
co▁	-8.68658
province▁	-8.6895
construction▁	-8.68962
artists▁	-8.6903
formed▁	-8.69077
playing▁	-8.69148
important▁	-8.6916
completed▁	-8.69312
signed▁	-8.69396
7	-8.6942
michael▁	-8.69538
stage▁	-8.69539
ra	-8.69592
developed▁	-8.69706
ge	-8.6993
europe▁	-8.69953
gold▁	-8.70004
committee▁	-8.70025
eastern▁	-8.70034
basketball▁	-8.70102
personal▁	-8.70443
elected▁	-8.70497
sub	-8.70611
du	-8.70944
appeared▁	-8.71274
olympics▁	-8.71363
popular▁	-8.71742
space▁	-8.71826
style▁	-8.71864
us	-8.7202
originally▁	-8.72137
rights▁	-8.72192
1993▁	-8.72301
der▁	-8.72492
upon▁	-8.72537
1991▁	-8.72551
coach▁	-8.72581
es	-8.7263
nd▁	-8.72643
alignright▁	-8.72863
he	-8.72872
current▁	-8.72952
ian▁	-8.73133
centre▁	-8.73245
ri	-8.73274
daughter▁	-8.73356
star▁	-8.73393
sea▁	-8.73411
stations▁	-8.73668
body▁	-8.74021
tournament▁	-8.74182
hill▁	-8.74215
himself▁	-8.74469
lake▁	-8.74591
ci	-8.74608
performance▁	-8.74629
mother▁	-8.74677
route▁	-8.74825
ex	-8.74923
fire▁	-8.74956
across▁	-8.75153
result▁	-8.75302
study▁	-8.75626
1990▁	-8.75839
14	-8.75878
po	-8.75997
get▁	-8.76002
republic▁	-8.76105
z▁	-8.76387
mens▁	-8.76425
similar▁	-8.76563
lu	-8.76817
studies▁	-8.7699
texas▁	-8.77326
example▁	-8.77545
inter	-8.77729
1987▁	-8.77789
ia▁	-8.77833
female▁	-8.78025
su	-8.78098
culture▁	-8.78245
bridge▁	-8.78254
africa▁	-8.78505
19	-8.78509
seven▁	-8.78952
medical▁	-8.78998
on	-8.79097
character▁	-8.79205
theatre▁	-8.79303
hospital▁	-8.79407
ti	-8.79683
writers▁	-8.79879
our▁	-8.8004
anti	-8.80057
half▁	-8.80084
type▁	-8.80121
addition▁	-8.80176
grand▁	-8.80286
spanish▁	-8.80483
wood▁	-8.8059
car▁	-8.80769
week▁	-8.80862
1988▁	-8.80897
should▁	-8.80922
mid	-8.81028
professor▁	-8.8175
establishments▁	-8.81775
over	-8.81836
shows▁	-8.82084
killed▁	-8.82118
despite▁	-8.82124
bank▁	-8.82351
ke	-8.82426
do	-8.82668
green▁	-8.82879
pe	-8.82907
musical▁	-8.83095
henry▁	-8.83367
baseball▁	-8.83404
medal▁	-8.83521
chi	-8.83536
network▁	-8.8373
13	-8.83917
cast▁	-8.84027
1989▁	-8.84074
ship▁	-8.84097
news▁	-8.84108
com	-8.84197
front▁	-8.84218
tu	-8.84281
ja	-8.84445
section▁	-8.84621
available▁	-8.84643
18	-8.84769
har	-8.84888
peter▁	-8.84901
championships▁	-8.84915
federal▁	-8.85056
technology▁	-8.85081
designed▁	-8.85169
50▁	-8.85342
throughout▁	-8.85374
fa	-8.85508
zealand▁	-8.85518
bar	-8.85758
sold▁	-8.85762
gave▁	-8.85817
return▁	-8.85868
via▁	-8.8606
model▁	-8.86181
roman▁	-8.86244
singles▁	-8.86258
officer▁	-8.86445
big▁	-8.86569
management▁	-8.86625
performed▁	-8.86825
pi	-8.86981
currently▁	-8.86991
artist▁	-8.87111
range▁	-8.87145
includes▁	-8.87166
competition▁	-8.87167
aircraft▁	-8.87189
tri	-8.87232
taken▁	-8.87557
average▁	-8.8764
action▁	-8.87709
features▁	-8.88007
full▁	-8.88243
brother▁	-8.88388
private▁	-8.8841
followed▁	-8.88441
independent▁	-8.88529
di▁	-8.88662
politician▁	-8.88662
months▁	-8.8889
capital▁	-8.88959
paris▁	-8.88976
does▁	-8.88992
writing▁	-8.89028
term▁	-8.89067
seen▁	-8.89167
ice▁	-8.8917
dr▁	-8.89174
leading▁	-8.89246
studio▁	-8.89328
african▁	-8.8944
conference▁	-8.89881
actor▁	-8.89889
birth▁	-8.89913
base▁	-8.90003
middle▁	-8.90075
1984▁	-8.90114
is	-8.90133
1986▁	-8.90151
help▁	-8.90235
smith▁	-8.90251
ho	-8.90289
must▁	-8.90425
senior▁	-8.90703
awarded▁	-8.90819
eventually▁	-8.90928
mark▁	-8.91206
40▁	-8.91354
data▁	-8.91595
um▁	-8.91736
magazine▁	-8.91874
richard▁	-8.91877
rd▁	-8.91939
mount▁	-8.92027
bay▁	-8.92046
instead▁	-8.92184
fourth▁	-8.92227
related▁	-8.92251
primary▁	-8.92448
foreign▁	-8.92485
virginia▁	-8.92559
collection▁	-8.92596
ireland▁	-8.9266
writer▁	-8.92712
coast▁	-8.92751
te▁	-8.93043
navy▁	-8.93064
eight▁	-8.93067
featured▁	-8.93249
mor	-8.93283
remained▁	-8.93286
regional▁	-8.93368
change▁	-8.93384
movement▁	-8.9344
assembly▁	-8.93443
q	-8.93527
characters▁	-8.93529
sh	-8.93549
van▁	-8.93681
finished▁	-8.93732
olympic▁	-8.93827
reported▁	-8.93981
countries▁	-8.93981
christian▁	-8.93989
all	-8.93994
blue▁	-8.94087
catholic▁	-8.941
1980▁	-8.94241
listed▁	-8.94748
close▁	-8.94792
trade▁	-8.94994
campaign▁	-8.9523
1985▁	-8.95239
stone▁	-8.95248
guitar▁	-8.95272
woman▁	-8.95394
saw▁	-8.95492
systems▁	-8.95518
ton▁	-8.95551
process▁	-8.95584
ac	-8.95847
edition▁	-8.95857
novel▁	-8.9599
low▁	-8.96154
ler▁	-8.96183
era▁	-8.96314
post▁	-8.96445
mer	-8.9654
library▁	-8.96615
ground▁	-8.96851
introduced▁	-8.96891
largest▁	-8.97009
previous▁	-8.97011
organization▁	-8.97255
leader▁	-8.9738
usually▁	-8.97475
ma▁	-8.97537
thus▁	-8.97861
above▁	-8.98055
ford▁	-8.98245
des▁	-8.98249
sent▁	-8.98776
ships▁	-8.98966
notable▁	-8.99053
11	-8.99348
ed	-8.99415
brown▁	-8.99424
replaced▁	-8.99549
degree▁	-8.99805
industry▁	-8.99847
1983▁	-8.99937
rugby▁	-9.00055
florida▁	-9.00095
operations▁	-9.00217
added▁	-9.00235
sky▁	-9.00255
room▁	-9.00259
ber	-9.00266
lower▁	-9.00414
either▁	-9.00429
sir▁	-9.00493
ku	-9.00538
clubs▁	-9.0073
1979▁	-9.01013
valley▁	-9.01022
review▁	-9.01079
placed▁	-9.01203
bill▁	-9.01226
child▁	-9.01313
historical▁	-9.01504
involved▁	-9.01587
russia▁	-9.01615
ran▁	-9.01628
va	-9.01683
soviet▁	-9.01753
seasons▁	-9.01785
under	-9.01863
least▁	-9.0196
parliament▁	-9.02007
em	-9.02054
ru	-9.02121
governor▁	-9.02133
par	-9.02139
sources▁	-9.022
come▁	-9.02234
stated▁	-9.02292
mexico▁	-9.02343
italy▁	-9.0247
census▁	-9.02562
attack▁	-9.02636
wales▁	-9.02689
staff▁	-9.02691
singer▁	-9.02819
cu	-9.02987
market▁	-9.03012
natural▁	-9.03021
chicago▁	-9.03022
future▁	-9.03025
ver	-9.03171
ly	-9.03238
foundation▁	-9.03275
hockey▁	-9.03361
author▁	-9.03366
ling▁	-9.03434
irish▁	-9.03436
empire▁	-9.03487
reading▁	-9.03554
real▁	-9.03579
scored▁	-9.03793
1982▁	-9.03838
ab	-9.04013
islands▁	-9.04016
outside▁	-9.04023
parts▁	-9.04065
cross▁	-9.04188
producer▁	-9.04214
soon▁	-9.04262
food▁	-9.0439
1981▁	-9.04525
vocals▁	-9.04613
1978▁	-9.0474
standard▁	-9.05083
register▁	-9.0512
security▁	-9.05163
put▁	-9.05343
missing▁	-9.0539
too▁	-9.0544
winning▁	-9.0561
1945▁	-9.05702
jo	-9.05785
far▁	-9.05785
active▁	-9.05796
cultural▁	-9.05811
mountain▁	-9.05818
ce	-9.05861
th	-9.05864
plays▁	-9.05904
regular▁	-9.05939
economic▁	-9.05947
il	-9.06089
pennsylvania▁	-9.06211
rather▁	-9.06401
airport▁	-9.06413
lee▁	-9.06426
today▁	-9.06441
executive▁	-9.0656
key▁	-9.06602
1976▁	-9.06701
almost▁	-9.06724
captain▁	-9.06826
provided▁	-9.07
behind▁	-9.07001
commission▁	-9.07321
fi	-9.07327
na▁	-9.07502
reached▁	-9.0762
1974▁	-9.07674
structure▁	-9.08013
drama▁	-9.08043
decided▁	-9.08199
1972▁	-9.08433
selected▁	-9.08482
runs▁	-9.08603
da▁	-9.08745
houses▁	-9.08777
peak▁	-9.08809
footballer▁	-9.0883
port▁	-9.08953
beginning▁	-9.08961
ter	-9.08998
individual▁	-9.091
limited▁	-9.09135
previously▁	-9.09142
it	-9.09309
1977▁	-9.09377
manager▁	-9.09503
person▁	-9.09508
native▁	-9.09657
met▁	-9.0969
lines▁	-9.0972
sons▁	-9.09751
sch	-9.09758
ki	-9.09832
ad▁	-9.09943
channel▁	-9.09959
whose▁	-9.10005
course▁	-9.101
for	-9.10221
the	-9.10292
additional▁	-9.10321
hu	-9.10337
personnel▁	-9.10412
higher▁	-9.10456
martin▁	-9.10569
contract▁	-9.10738
1970▁	-9.10767
1975▁	-9.10793
approximately▁	-9.1087
nations▁	-9.10976
matches▁	-9.1106
closed▁	-9.11066
youth▁	-9.11255
mary▁	-9.1133
1973▁	-9.11339
start▁	-9.11346
attended▁	-9.11379
taking▁	-9.11449
greek▁	-9.11477
hit▁	-9.11503
rural▁	-9.11563
here▁	-9.11592
date▁	-9.11618
scottish▁	-9.11702
os	-9.11884
jewish▁	-9.11981
can	-9.12047
success▁	-9.12397
cor	-9.12579
units▁	-9.12681
engineering▁	-9.12724
sometimes▁	-9.13006
report▁	-9.13076
sound▁	-9.13355
goal▁	-9.13558
che	-9.13639
ended▁	-9.13751
angeles▁	-9.13764
energy▁	-9.13902
fe	-9.14147
ever▁	-9.14232
provide▁	-9.14324
unit▁	-9.1438
below▁	-9.14399
interest▁	-9.14426
annual▁	-9.14514
uses▁	-9.14526
stcentury▁	-9.14596
ys▁	-9.14612
plant▁	-9.14627
families▁	-9.14638
strong▁	-9.14854
brought▁	-9.15087
1969▁	-9.15122
plan▁	-9.15418
pan	-9.15418
successful▁	-9.15463
je	-9.15549
traditional▁	-9.15567
prize▁	-9.15619
prior▁	-9.15624
defeated▁	-9.15655
winter▁	-9.15679
operation▁	-9.15811
ation▁	-9.15878
past▁	-9.15907
justice▁	-9.15954
elections▁	-9.16028
online▁	-9.16029
hi	-9.16036
carolina▁	-9.1605
money▁	-9.1617
significant▁	-9.16194
ar▁	-9.1624
ism▁	-9.16409
expatriate▁	-9.16485
joseph▁	-9.16683
command▁	-9.16783
owned▁	-9.16955
location▁	-9.16971
test▁	-9.16998
mon	-9.17104
loss▁	-9.17185
square▁	-9.17199
1968▁	-9.17276
commercial▁	-9.17365
biography▁	-9.17411
initially▁	-9.17412
gu	-9.17539
policy▁	-9.1761
size▁	-9.17631
1971▁	-9.17666
issues▁	-9.17687
her	-9.17712
student▁	-9.17761
1967▁	-9.17917
ner▁	-9.18277
za	-9.18326
gi	-9.18368
associated▁	-9.18399
ville▁	-9.18515
ic	-9.18588
possible▁	-9.18725
practice▁	-9.18795
democratic▁	-9.18895
administrative▁	-9.18941
changed▁	-9.18987
decision▁	-9.18993
asian▁	-9.19081
mr▁	-9.19099
background▁	-9.191
wa	-9.1912
journal▁	-9.19146
shot▁	-9.19161
allowed▁	-9.19243
table▁	-9.19273
tor	-9.19296
nine▁	-9.19377
lord▁	-9.19527
fall▁	-9.19608
secretary▁	-9.19728
ya	-9.19826
got▁	-9.19922
mal	-9.19924
saint▁	-9.19999
represented▁	-9.20084
especially▁	-9.20105
up	-9.20143
legal▁	-9.20505
fight▁	-9.20546
movie▁	-9.20654
im▁	-9.20703
names▁	-9.20755
ir	-9.20875
san	-9.20931
fort▁	-9.20932
et	-9.2102
del▁	-9.21082
religious▁	-9.21103
property▁	-9.21205
access▁	-9.21208
du▁	-9.21248
master▁	-9.21335
care▁	-9.21399
running▁	-9.21455
1965▁	-9.21557
towards▁	-9.21618
silver▁	-9.21632
ve	-9.21706
goals▁	-9.21708
castle▁	-9.21871
spain▁	-9.21973
politicians▁	-9.22023
forest▁	-9.22063
ny	-9.22105
vo	-9.2214
winner▁	-9.22154
opening▁	-9.22237
move▁	-9.22385
going▁	-9.22517
ger	-9.226
heart▁	-9.22743
friends▁	-9.22756
transport▁	-9.23066
faculty▁	-9.23157
ts▁	-9.23182
kar	-9.23213
poland▁	-9.23261
1964▁	-9.23297
1960▁	-9.23298
tracks▁	-9.23336
spent▁	-9.23368
generally▁	-9.23421
dutch▁	-9.23424
ne▁	-9.23468
prince▁	-9.23631
scotland▁	-9.23838
issue▁	-9.23915
complete▁	-9.24079
dance▁	-9.24084
wide▁	-9.24118
regiment▁	-9.242
face▁	-9.24295
louis▁	-9.24304
chart▁	-9.24371
ko▁	-9.24413
changes▁	-9.24474
find▁	-9.24565
men	-9.24611
administration▁	-9.24621
districts▁	-9.24628
launched▁	-9.24721
super	-9.24721
financial▁	-9.24832
il▁	-9.24847
com▁	-9.24883
recording▁	-9.24889
means▁	-9.24897
junior▁	-9.24952
den▁	-9.25041
better▁	-9.25052
your▁	-9.25123
prime▁	-9.25134
highest▁	-9.2521
bu	-9.25317
bass▁	-9.25326
actors▁	-9.25349
michigan▁	-9.25414
mis	-9.25439
stars▁	-9.25451
rate▁	-9.25511
ol	-9.25545
ministry▁	-9.25574
activities▁	-9.25732
gar	-9.25752
voice▁	-9.25752
lived▁	-9.25909
gallery▁	-9.26
whom▁	-9.26005
thought▁	-9.26053
ist▁	-9.26095
champion▁	-9.2616
corps▁	-9.26165
programs▁	-9.26332
earlier▁	-9.26427
engine▁	-9.26429
actress▁	-9.26534
edward▁	-9.26651
contains▁	-9.26695
0	-9.26781
digital▁	-9.26808
view▁	-9.26854
literature▁	-9.26968
minor▁	-9.26975
assistant▁	-9.27072
congress▁	-9.27077
pp▁	-9.27166
ah▁	-9.27173
ak	-9.27225
ze	-9.27285
cover▁	-9.27297
source▁	-9.27556
iii▁	-9.27611
sister▁	-9.27644
victory▁	-9.27671
aligncenter▁	-9.27701
queen▁	-9.27793
seat▁	-9.27813
overall▁	-9.27894
jack▁	-9.27911
bur	-9.27927
ancient▁	-9.2794
1966▁	-9.27982
war	-9.27993
required▁	-9.28048
sp	-9.28058
feature▁	-9.2816
article▁	-9.28174
appearance▁	-9.28186
lands▁	-9.28292
se▁	-9.2841
status▁	-9.28426
officers▁	-9.28485
genus▁	-9.28489
score▁	-9.28649
page▁	-9.28747
pacific▁	-9.28819
ten	-9.28826
60▁	-9.28848
operated▁	-9.28979
1963▁	-9.29068
famous▁	-9.29129
comedy▁	-9.29143
rest▁	-9.29426
month▁	-9.29502
refer▁	-9.29505
cities▁	-9.29585
entered▁	-9.29696
ted▁	-9.29699
post	-9.29784
theory▁	-9.29809
mission▁	-9.29833
itself▁	-9.29864
meeting▁	-9.29974
noted▁	-9.30016
girl▁	-9.30093
wing▁	-9.30117
tar	-9.30121
ap	-9.30123
ham▁	-9.30261
bal	-9.30339
1944▁	-9.30378
complex▁	-9.30479
workers▁	-9.30487
mm▁	-9.3061
medalists▁	-9.30642
studied▁	-9.30709
sen▁	-9.30908
sportspeople▁	-9.31055
organizations▁	-9.3109
ohio▁	-9.31093
sport▁	-9.31124
asia▁	-9.31184
give▁	-9.31304
ka▁	-9.31413
sta	-9.31667
stadium▁	-9.31881
cases▁	-9.31998
1962▁	-9.32035
hours▁	-9.32066
highway▁	-9.32071
bishop▁	-9.32117
jones▁	-9.32154
starting▁	-9.32172
ine▁	-9.32178
super▁	-9.32251
subsequently▁	-9.32447
winners▁	-9.32507
structures▁	-9.32563
friend▁	-9.32578
der	-9.32584
weeks▁	-9.32642
cd▁	-9.32656
1952▁	-9.32689
die▁	-9.32695
already▁	-9.32747
1958▁	-9.32859
op	-9.33082
1956▁	-9.33146
minutes▁	-9.33194
ms▁	-9.33199
girls▁	-9.33248
oxford▁	-9.33257
1961▁	-9.33364
train▁	-9.33387
numerous▁	-9.3342
champions▁	-9.3342
mac	-9.33518
out	-9.33566
columbia▁	-9.33596
32▁	-9.33626
musicians▁	-9.3371
word▁	-9.33824
hand▁	-9.33854
self	-9.33978
cha	-9.34107
retired▁	-9.34121
marine▁	-9.34253
mu	-9.34275
ans▁	-9.3428
ring▁	-9.34333
architecture▁	-9.34402
parish▁	-9.34413
pu	-9.34414
caused▁	-9.34492
alexander▁	-9.34576
illinois▁	-9.34577
passed▁	-9.34759
appears▁	-9.34843
finally▁	-9.34871
naval▁	-9.34882
terms▁	-9.34996
ting▁	-9.35151
distribution▁	-9.35218
nature▁	-9.35293
multiple▁	-9.35341
forms▁	-9.35389
majority▁	-9.35395
sc	-9.35452
massachusetts▁	-9.3569
serving▁	-9.35724
municipality▁	-9.35805
supported▁	-9.35864
britain▁	-9.35865
commander▁	-9.35868
becoming▁	-9.3594
township▁	-9.35985
oil▁	-9.36084
stories▁	-9.36099
bc▁	-9.36213
polish▁	-9.36348
academic▁	-9.36404
takes▁	-9.36502
35▁	-9.36549
frank▁	-9.36573
ny▁	-9.36631
1943▁	-9.36649
fact▁	-9.36667
chairman▁	-9.3675
victoria▁	-9.36812
communities▁	-9.36871
ability▁	-9.36883
dar	-9.36966
si▁	-9.36972
volume▁	-9.3699
flight▁	-9.3699
marriage▁	-9.37228
response▁	-9.37228
1942▁	-9.37306
always▁	-9.37334
1957▁	-9.37361
let▁	-9.37464
beach▁	-9.37466
critical▁	-9.3747
ball▁	-9.37473
opera▁	-9.37584
parents▁	-9.3759
bar▁	-9.37612
lies▁	-9.37649
cal	-9.37753
1950▁	-9.37799
need▁	-9.37993
1939▁	-9.38091
increased▁	-9.38249
hotel▁	-9.38266
turn▁	-9.38276
45▁	-9.3835
call▁	-9.38368
fish▁	-9.38424
jersey▁	-9.38431
ul	-9.38452
li▁	-9.38552
computer▁	-9.38621
brothers▁	-9.38637
certain▁	-9.38653
ion	-9.38662
1970	-9.38689
earth▁	-9.3881
episodes▁	-9.38854
1959▁	-9.38866
1941▁	-9.38871
nu	-9.38954
global▁	-9.38982
jr▁	-9.39036
raised▁	-9.39075
claimed▁	-9.39185
vote▁	-9.39256
relationship▁	-9.39463
dc▁	-9.39499
fifth▁	-9.39531
boston▁	-9.39604
politics▁	-9.39608
entire▁	-9.39654
one	-9.39704
particularly▁	-9.39707
mostly▁	-9.39709
1980	-9.39713
bel	-9.39797
words▁	-9.39811
ness▁	-9.39853
villages▁	-9.39892
1947▁	-9.40153
variety▁	-9.40384
temple▁	-9.40393
software▁	-9.40446
older▁	-9.40543
1940▁	-9.40572
heavy▁	-9.40634
experience▁	-9.40691
1990	-9.40733
ina▁	-9.40762
idae▁	-9.40839
broadcast▁	-9.4088
leaving▁	-9.40883
racing▁	-9.40885
evidence▁	-9.40939
spring▁	-9.40964
specific▁	-9.41001
pen	-9.41011
presented▁	-9.41014
peoples▁	-9.41073
boys▁	-9.41083
don▁	-9.41101
competed▁	-9.41187
fellow▁	-9.41191
piano▁	-9.41229
sha	-9.41304
qu	-9.41312
create▁	-9.41384
1955▁	-9.41387
urban▁	-9.41445
contemporary▁	-9.41449
upper▁	-9.41481
ter▁	-9.41654
bor	-9.41708
forced▁	-9.41713
hong▁	-9.41785
shown▁	-9.41863
products▁	-9.41885
georgia▁	-9.41893
material▁	-9.41945
plot▁	-9.41946
70▁	-9.41986
languages▁	-9.42005
length▁	-9.42067
border▁	-9.42149
usa▁	-9.42253
ings▁	-9.42295
sen	-9.42355
ben	-9.42364
memorial▁	-9.42378
descent▁	-9.42381
200▁	-9.42437
done▁	-9.42468
mat	-9.42481
ry	-9.42533
lives▁	-9.42612
turned▁	-9.42644
far	-9.42743
grade▁	-9.42933
wall▁	-9.43005
pop▁	-9.43048
1948▁	-9.43086
lin	-9.43184
han	-9.43263
ca▁	-9.4328
recent▁	-9.43353
latin▁	-9.43389
electric▁	-9.4355
daily▁	-9.43584
un▁	-9.43619
red	-9.43728
ana▁	-9.43754
settlement▁	-9.43831
swedish▁	-9.43834
israel▁	-9.439
representatives▁	-9.43959
tower▁	-9.43966
earned▁	-9.43983
65▁	-9.4402
mass▁	-9.44062
tom▁	-9.44071
ate▁	-9.44218
williams▁	-9.44223
korean▁	-9.44283
rose▁	-9.44354
wilson▁	-9.44433
code▁	-9.44459
particular▁	-9.446
acting▁	-9.44624
shi	-9.44636
appearances▁	-9.44664
francisco▁	-9.44732
branch▁	-9.4475
featuring▁	-9.44793
relations▁	-9.44794
boy▁	-9.44814
acquired▁	-9.44986
composed▁	-9.45052
survey▁	-9.45116
camp▁	-9.45183
1953▁	-9.45194
editor▁	-9.45229
text▁	-9.45295
ing	-9.45396
description▁	-9.45569
ag	-9.4559
ke▁	-9.45712
deal▁	-9.45797
reception▁	-9.45829
dark▁	-9.45886
surface▁	-9.45904
ek▁	-9.45938
golden▁	-9.45981
ur	-9.46065
ies▁	-9.46071
cut▁	-9.4614
remains▁	-9.46155
1949▁	-9.46169
sun▁	-9.46182
my	-9.46195
promoted▁	-9.4622
consists▁	-9.46221
dead▁	-9.46251
land	-9.46326
peace▁	-9.46362
speed▁	-9.4637
attempt▁	-9.46482
lady▁	-9.46493
novels▁	-9.46515
premier▁	-9.46548
greater▁	-9.46554
1954▁	-9.46561
senate▁	-9.46567
covered▁	-9.46619
individuals▁	-9.46629
god▁	-9.46677
longer▁	-9.4673
val	-9.4675
told▁	-9.46894
soldiers▁	-9.47007
plans▁	-9.47011
increase▁	-9.47073
trans	-9.47115
kong▁	-9.4716
sur	-9.47207
effect▁	-9.4721
territory▁	-9.47469
extended▁	-9.47472
candidate▁	-9.47536
supreme▁	-9.47606
500▁	-9.47701
multi	-9.47743
mayor▁	-9.47791
might▁	-9.47801
kings▁	-9.4782
bus▁	-9.4811
troops▁	-9.48134
fiction▁	-9.48179
berlin▁	-9.4827
meaning▁	-9.48271
von▁	-9.48284
proposed▁	-9.48335
gor	-9.48352
ov▁	-9.48388
creek▁	-9.48605
affairs▁	-9.48668
projects▁	-9.48685
squadron▁	-9.48735
secondary▁	-9.48804
entertainment▁	-9.48805
eu	-9.48857
themselves▁	-9.48868
cars▁	-9.48869
larger▁	-9.48875
referred▁	-9.48945
leave▁	-9.48984
judge▁	-9.49004
re▁	-9.49019
ini▁	-9.4903
ski▁	-9.49106
id▁	-9.49107
subject▁	-9.49141
90▁	-9.49176
draw▁	-9.49188
estate▁	-9.49298
bands▁	-9.49364
failed▁	-9.49409
wanted▁	-9.49477
gun▁	-9.49489
1960	-9.49561
scott▁	-9.49586
berg▁	-9.49594
1946▁	-9.49627
pass▁	-9.49735
classical▁	-9.49811
air	-9.49862
soccer▁	-9.49952
son	-9.49984
enough▁	-9.50016
positive▁	-9.50088
elements▁	-9.50094
technical▁	-9.50152
sites▁	-9.50271
plants▁	-9.50285
physical▁	-9.50352
helped▁	-9.50362
formerly▁	-9.50492
col	-9.50496
den	-9.50509
inside▁	-9.50564
rules▁	-9.50603
tree▁	-9.50639
30	-9.50663
offered▁	-9.50697
sar	-9.50868
latter▁	-9.50902
sydney▁	-9.50906
husband▁	-9.50909
paper▁	-9.50915
sciences▁	-9.50916
jazz▁	-9.5098
vs▁	-9.51001
rail▁	-9.51038
towns▁	-9.5114
newspaper▁	-9.51181
korea▁	-9.51184
garden▁	-9.51202
makes▁	-9.51232
rule▁	-9.51258
1938▁	-9.514
know▁	-9.5144
carried▁	-9.51451
serve▁	-9.51469
box▁	-9.51491
leaders▁	-9.51535
hard▁	-9.5156
influence▁	-9.51658
hot▁	-9.51849
heritage▁	-9.51865
host▁	-9.51881
cambridge▁	-9.52079
ju	-9.52082
authority▁	-9.52212
nearly▁	-9.52309
whole▁	-9.5238
ones▁	-9.52593
types▁	-9.52607
mans▁	-9.52672
responsible▁	-9.52698
discovered▁	-9.52725
sal	-9.52759
conditions▁	-9.52776
hold▁	-9.5285
1937▁	-9.52857
nation▁	-9.52893
republican▁	-9.5298
io▁	-9.53004
long	-9.53081
believed▁	-9.53117
cricket▁	-9.53117
mixed▁	-9.53277
min	-9.53305
0▁	-9.53326
ja▁	-9.53378
statistics▁	-9.53468
engineer▁	-9.53541
joe▁	-9.53614
remaining▁	-9.53749
ban	-9.53785
1936▁	-9.53841
mike▁	-9.53876
johnson▁	-9.53897
cause▁	-9.54095
municipal▁	-9.54102
yet▁	-9.54255
avenue▁	-9.54298
medicine▁	-9.54316
scene▁	-9.54398
we	-9.54523
interview▁	-9.54761
arms▁	-9.54765
au▁	-9.54805
mainly▁	-9.54817
publications▁	-9.54884
issued▁	-9.54912
als▁	-9.54939
ns▁	-9.54951
nearby▁	-9.55023
zone▁	-9.55102
growth▁	-9.5524
zi	-9.55273
br	-9.55318
defense▁	-9.55383
brazil▁	-9.55455
profile▁	-9.55456
maria▁	-9.55471
ated▁	-9.55671
problems▁	-9.55753
birds▁	-9.55783
direct▁	-9.55825
solo▁	-9.55856
gas▁	-9.55858
gate▁	-9.56015
worth▁	-9.56215
ous▁	-9.56279
ya▁	-9.56281
agreement▁	-9.56293
ac▁	-9.56367
1951▁	-9.56408
independence▁	-9.56468
parties▁	-9.56551
formation▁	-9.56564
provides▁	-9.56608
hal	-9.56611
industrial▁	-9.56688
ser	-9.56736
para	-9.56756
crime▁	-9.56837
effects▁	-9.56843
ens▁	-9.56861
function▁	-9.57047
1935▁	-9.5707
iran▁	-9.57211
armed▁	-9.5723
bio	-9.57248
miles▁	-9.57255
separate▁	-9.57262
mountains▁	-9.57275
blood▁	-9.57287
80▁	-9.57326
ali▁	-9.57335
bbc▁	-9.57404
analysis▁	-9.57406
graduated▁	-9.57408
metal▁	-9.57465
cost▁	-9.57505
reserve▁	-9.57507
orchestra▁	-9.57555
constructed▁	-9.57592
36▁	-9.57828
value▁	-9.57852
true▁	-9.57906
emperor▁	-9.57921
jan	-9.57984
ge▁	-9.58095
therefore▁	-9.58142
documentary▁	-9.58142
net▁	-9.58155
fields▁	-9.58162
likely▁	-9.58234
painting▁	-9.58292
ce▁	-9.58305
reviews▁	-9.58487
treatment▁	-9.5851
1930▁	-9.58577
deputy▁	-9.58584
morning▁	-9.5859
fully▁	-9.58608
horse▁	-9.58615
ontario▁	-9.58732
color▁	-9.58841
ier▁	-9.58844
1919▁	-9.58878
guard▁	-9.58898
mel	-9.58925
officially▁	-9.58955
quality▁	-9.58959
ways▁	-9.58983
numbers▁	-9.5904
southeast▁	-9.59121
idea▁	-9.59153
ray▁	-9.59178
note▁	-9.59238
ite▁	-9.59288
corporation▁	-9.59318
dedicated▁	-9.59327
scientific▁	-9.59402
64▁	-9.59477
fleet▁	-9.5956
saying▁	-9.59574
levels▁	-9.59576
poor▁	-9.59603
leaves▁	-9.59606
double▁	-9.5966
things▁	-9.59876
yo	-9.59892
dor	-9.59918
crew▁	-9.59939
listing▁	-9.59941
continue▁	-9.60008
income▁	-9.60041
whether▁	-9.60074
ists▁	-9.60107
fo	-9.60108
articles▁	-9.60109
unknown▁	-9.60151
allow▁	-9.60188
prison▁	-9.60258
arrived▁	-9.60301
ham	-9.60316
mer▁	-9.60328
northwest▁	-9.60402
managed▁	-9.60541
lack▁	-9.60556
forward▁	-9.60845
kan	-9.6089
teacher▁	-9.60979
titles▁	-9.61008
ons▁	-9.61034
1918▁	-9.61057
leadership▁	-9.61131
asked▁	-9.61147
two	-9.61239
bob▁	-9.61248
tur	-9.61301
ash	-9.61422
activity▁	-9.61435
revolution▁	-9.61603
stop▁	-9.6166
transferred▁	-9.61741
34▁	-9.61813
representative▁	-9.61815
composer▁	-9.61817
q▁	-9.61851
des	-9.61856
safety▁	-9.61892
borough▁	-9.61893
southwest▁	-9.61914
populated▁	-9.61969
toronto▁	-9.6198
ized▁	-9.62068
high	-9.62127
bibliography▁	-9.62198
concert▁	-9.62206
basic▁	-9.62215
ch▁	-9.62237
moving▁	-9.6224
hand	-9.62244
equipment▁	-9.62274
ward▁	-9.62347
fighting▁	-9.62351
protection▁	-9.62351
mann▁	-9.624
1929▁	-9.62409
hol	-9.62463
letter▁	-9.62524
ton	-9.6255
childrens▁	-9.62659
bronze▁	-9.62739
um	-9.62766
rome▁	-9.62789
comes▁	-9.62944
figure▁	-9.62978
trial▁	-9.6299
dan	-9.63033
drive▁	-9.63058
duke▁	-9.63069
santa▁	-9.6308
campus▁	-9.63083
honor▁	-9.63149
charts▁	-9.63165
spacewatch▁	-9.63278
ste	-9.63346
bo▁	-9.63354
philadelphia▁	-9.63357
renamed▁	-9.63376
directly▁	-9.63442
coming▁	-9.63471
pakistan▁	-9.63512
models▁	-9.63526
micro	-9.63648
kitt▁	-9.63718
nominated▁	-9.63902
giving▁	-9.64059
ity▁	-9.64187
ks▁	-9.64198
vol▁	-9.64206
critics▁	-9.64233
housing▁	-9.64269
floor▁	-9.64419
climate▁	-9.64525
black	-9.64525
1920▁	-9.64528
machine▁	-9.64534
miss▁	-9.6461
joint▁	-9.6461
internet▁	-9.64623
appear▁	-9.64657
advanced▁	-9.64681
1934▁	-9.64706
cancer▁	-9.64762
residents▁	-9.64901
elizabeth▁	-9.64917
ra▁	-9.64994
revealed▁	-9.64996
ta▁	-9.65019
educational▁	-9.65033
keep▁	-9.65096
mi▁	-9.65123
resources▁	-9.65133
publishing▁	-9.65154
by	-9.65155
theater▁	-9.65156
draft▁	-9.65167
meet▁	-9.65223
ant▁	-9.6527
programming▁	-9.65312
alongside▁	-9.65391
exhibition▁	-9.65391
lemmon▁	-9.65392
gen	-9.65454
store▁	-9.6558
farm▁	-9.65589
platform▁	-9.65637
conducted▁	-9.65788
fine▁	-9.65928
primarily▁	-9.65947
environment▁	-9.66026
defeat▁	-9.6604
grant▁	-9.66049
lar	-9.66158
oblast▁	-9.66184
participated▁	-9.66265
drums▁	-9.66459
40	-9.66487
shortly▁	-9.66515
immediately▁	-9.66585
probably▁	-9.66665
exchange▁	-9.66707
vol	-9.66715
generation▁	-9.6672
direction▁	-9.66746
charge▁	-9.66888
deep▁	-9.66906
percent▁	-9.66992
ph	-9.67042
tons▁	-9.67131
netherlands▁	-9.67148
ob	-9.67151
1932▁	-9.67177
ros	-9.67194
24	-9.67335
churches▁	-9.67396
divided▁	-9.67535
ordered▁	-9.67565
arthur▁	-9.67624
agency▁	-9.67632
facilities▁	-9.67632
infantry▁	-9.67635
geography▁	-9.67639
races▁	-9.67645
say▁	-9.67661
iron▁	-9.67694
char	-9.67725
ram	-9.67859
environmental▁	-9.67875
impact▁	-9.67966
something▁	-9.68038
murder▁	-9.68053
grew▁	-9.68056
75▁	-9.68139
felt▁	-9.68383
except▁	-9.68446
mp▁	-9.68456
label▁	-9.68472
pay▁	-9.68517
ney▁	-9.68629
ey▁	-9.68629
travel▁	-9.68694
initial▁	-9.68861
yard▁	-9.68877
founder▁	-9.68884
ians▁	-9.68911
job▁	-9.68956
votes▁	-9.68956
1917▁	-9.69009
wi	-9.69032
hor	-9.69078
owner▁	-9.69081
planned▁	-9.691
ages▁	-9.69116
organized▁	-9.69149
prominent▁	-9.69182
25	-9.692
dont▁	-9.69258
needed▁	-9.69265
jackson▁	-9.69277
commonly▁	-9.69283
norwegian▁	-9.69349
removed▁	-9.69417
sea	-9.69492
economy▁	-9.69511
bad▁	-9.69564
sr▁	-9.69647
follows▁	-9.69677
look▁	-9.69706
efforts▁	-9.69759
tele	-9.69806
imperial▁	-9.69848
chris▁	-9.69901
ion▁	-9.69906
poetry▁	-9.69925
intended▁	-9.69942
1931▁	-9.69987
don	-9.70015
lieutenant▁	-9.70023
reach▁	-9.70058
cho	-9.70129
ak▁	-9.7014
positions▁	-9.70167
windows▁	-9.70173
headquarters▁	-9.70174
atlantic▁	-9.70238
roles▁	-9.70244
masters▁	-9.70268
doctor▁	-9.70345
goes▁	-9.70367
federation▁	-9.70392
secret▁	-9.70439
assigned▁	-9.70503
portuguese▁	-9.70509
ss▁	-9.70552
ard▁	-9.70617
block▁	-9.70755
applied▁	-9.70757
operating▁	-9.70757
daniel▁	-9.70769
steve▁	-9.70777
ep▁	-9.70786
adopted▁	-9.70926
format▁	-9.70957
cur	-9.70962
basis▁	-9.71045
ki▁	-9.71133
ty▁	-9.71188
titled▁	-9.71253
1933▁	-9.71283
comics▁	-9.71314
literary▁	-9.71343
fell▁	-9.71353
tra	-9.7138
palace▁	-9.71432
ana	-9.71464
colorado▁	-9.71511
inc▁	-9.71551
ins▁	-9.71583
davis▁	-9.71588
institutions▁	-9.71595
transportation▁	-9.71679
pressure▁	-9.7168
sin	-9.71684
ending▁	-9.71692
entry▁	-9.71709
directors▁	-9.71711
ates▁	-9.71732
1914▁	-9.71768
tax▁	-9.71813
captured▁	-9.71848
ur▁	-9.71859
ven	-9.71861
split▁	-9.71984
nt▁	-9.71984
pm▁	-9.71996
jan▁	-9.71997
capacity▁	-9.72017
42▁	-9.7203
kh	-9.72133
trust▁	-9.72225
produce▁	-9.72324
1926▁	-9.72339
yu	-9.72398
dr	-9.72419
focus▁	-9.72442
smaller▁	-9.7245
highly▁	-9.72464
lot▁	-9.72498
poet▁	-9.72501
becomes▁	-9.72549
ec	-9.7257
potential▁	-9.7261
hosted▁	-9.72629
principal▁	-9.72698
star	-9.72731
bra	-9.72826
fame▁	-9.72857
combined▁	-9.72866
quickly▁	-9.72869
mil	-9.729
recently▁	-9.72952
serves▁	-9.7299
eg▁	-9.73002
ben▁	-9.73025
33▁	-9.73078
content▁	-9.73134
jim▁	-9.73148
1950	-9.7315
purchased▁	-9.73208
card▁	-9.73229
1000▁	-9.7323
legislative▁	-9.73379
athletes▁	-9.73465
approach▁	-9.73551
sweden▁	-9.73553
rich▁	-9.73646
attention▁	-9.73809
sk▁	-9.73828
ff	-9.73903
ren	-9.73949
nar	-9.73984
clear▁	-9.74125
battalion▁	-9.74153
compared▁	-9.74153
image▁	-9.74188
cell▁	-9.7429
ty	-9.74292
mur	-9.74298
designated▁	-9.74326
labour▁	-9.74331
communications▁	-9.74413
tennis▁	-9.74418
method▁	-9.74421
regions▁	-9.74499
northeast▁	-9.74525
pal	-9.74531
ia	-9.74565
largely▁	-9.74588
lan	-9.74626
ai▁	-9.74638
mentioned▁	-9.74673
ette▁	-9.74688
fm▁	-9.748
pol	-9.74868
beyond▁	-9.74934
typically▁	-9.74935
presidential▁	-9.75145
om	-9.75185
vice▁	-9.75191
sil	-9.75243
want▁	-9.75294
300▁	-9.75367
join▁	-9.75373
francis▁	-9.75454
buried▁	-9.75458
guest▁	-9.75493
kansas▁	-9.75519
knowledge▁	-9.75625
rivers▁	-9.75632
44▁	-9.75649
distance▁	-9.75716
han▁	-9.75814
gained▁	-9.7587
concept▁	-9.75896
singers▁	-9.75907
38▁	-9.75931
hands▁	-9.75975
inspired▁	-9.75984
citizens▁	-9.75992
ji▁	-9.76006
disease▁	-9.7608
1915▁	-9.76083
bol	-9.76173
var	-9.76312
studios▁	-9.76339
brazilian▁	-9.76514
performances▁	-9.76522
styletextalign	-9.76564
1924▁	-9.76601
ends▁	-9.76627
ker	-9.76683
learning▁	-9.76726
ti▁	-9.76736
cul	-9.76767
laws▁	-9.76802
growing▁	-9.76902
piece▁	-9.76955
declared▁	-9.77046
supporting▁	-9.77046
taylor▁	-9.77049
younger▁	-9.77057
ts	-9.77092
educated▁	-9.77135
estimated▁	-9.77135
tan	-9.77173
indiana▁	-9.77187
artillery▁	-9.77224
sets▁	-9.77246
account▁	-9.77326
cs▁	-9.77471
kin	-9.77488
challenge▁	-9.77491
minnesota▁	-9.77494
trees▁	-9.77566
read▁	-9.77581
1916▁	-9.77585
av	-9.77688
rio▁	-9.77694
journalist▁	-9.7776
alignleft▁	-9.77784
stock▁	-9.77803
yards▁	-9.77844
af	-9.77932
ken	-9.77948
1928▁	-9.78004
em▁	-9.78108
agent▁	-9.78138
squad▁	-9.78146
teaching▁	-9.78209
end	-9.78231
feet▁	-9.78248
ocean▁	-9.78404
respectively▁	-9.78479
holy▁	-9.78506
els▁	-9.7851
athletics▁	-9.78576
kal	-9.78589
poly	-9.78647
eyes▁	-9.78683
que▁	-9.78691
bul	-9.78698
sides▁	-9.78704
weekly▁	-9.78753
22	-9.78761
wins▁	-9.78822
destroyed▁	-9.7884
worlds▁	-9.78846
origin▁	-9.78849
pin	-9.78855
liberal▁	-9.78947
jose▁	-9.78986
bon	-9.79052
traffic▁	-9.79117
performing▁	-9.79123
fu	-9.79158
build▁	-9.79201
christmas▁	-9.79204
1921▁	-9.79297
product▁	-9.79299
yellow▁	-9.79311
1912▁	-9.79316
paid▁	-9.79349
sam	-9.79361
flying▁	-9.7942
firm▁	-9.79467
ut	-9.79487
andrew▁	-9.79512
officials▁	-9.79569
mexican▁	-9.79579
cape▁	-9.7966
widely▁	-9.79663
reports▁	-9.79704
price▁	-9.79769
kind▁	-9.79823
religion▁	-9.79843
iv▁	-9.79853
powers▁	-9.79872
rank▁	-9.79918
occurred▁	-9.79933
twice▁	-9.79937
storm▁	-9.79965
steel▁	-9.7998
albert▁	-9.79982
and	-9.80003
actually▁	-9.80024
hour▁	-9.80054
op▁	-9.80087
anna▁	-9.80096
1925▁	-9.80112
cemetery▁	-9.80208
80	-9.80226
bell▁	-9.80231
try▁	-9.80241
chair▁	-9.80268
acts▁	-9.80345
classic▁	-9.80404
map▁	-9.80437
letters▁	-9.80446
tony▁	-9.80579
combat▁	-9.80589
50	-9.80614
az	-9.80614
express▁	-9.80681
gen▁	-9.80705
sales▁	-9.808
presence▁	-9.80853
promotion▁	-9.80871
1922▁	-9.80896
harry▁	-9.80963
billion▁	-9.8104
hy	-9.81272
ger▁	-9.81297
intelligence▁	-9.81318
metropolitan▁	-9.8132
scoring▁	-9.81411
mps▁	-9.81437
ni▁	-9.81478
ken▁	-9.81614
lists▁	-9.81692
ella▁	-9.81735
theme▁	-9.81751
wisconsin▁	-9.81785
amount▁	-9.81849
gra	-9.81858
dynasty▁	-9.81874
four	-9.81875
ranked▁	-9.81885
sense▁	-9.81886
ds▁	-9.81951
jean▁	-9.82
agreed▁	-9.82038
moscow▁	-9.82061
jews▁	-9.82065
aged▁	-9.82102
continues▁	-9.8216
well	-9.82173
swiss▁	-9.8223
sex▁	-9.82243
37▁	-9.82322
turkey▁	-9.82357
ha▁	-9.82452
1923▁	-9.82459
freedom▁	-9.82531
vehicles▁	-9.82534
problem▁	-9.82534
minute▁	-9.82541
off	-9.82556
creation▁	-9.82612
tennessee▁	-9.82623
begins▁	-9.82625
accepted▁	-9.82626
mind▁	-9.82691
zo	-9.82725
materials▁	-9.82762
starring▁	-9.82821
animals▁	-9.82825
rise▁	-9.82827
wind▁	-9.82839
ill	-9.82884
conservative▁	-9.82906
says▁	-9.82965
41▁	-9.82971
three	-9.83023
opposition▁	-9.83032
planning▁	-9.8319
railroad▁	-9.83198
ri▁	-9.83201
mir	-9.83217
returning▁	-9.83246
reference▁	-9.83252
kept▁	-9.83288
low	-9.83358
eye▁	-9.8338
identified▁	-9.83417
39▁	-9.83428
1927▁	-9.83551
publication▁	-9.83666
boat▁	-9.83717
60	-9.8372
coaches▁	-9.83762
pan▁	-9.83796
visit▁	-9.83897
brigade▁	-9.83952
defence▁	-9.83956
gan	-9.83997
tried▁	-9.84034
hills▁	-9.8405
musician▁	-9.84052
chamber▁	-9.8406
sol	-9.84112
dan▁	-9.84117
wal	-9.84142
phase▁	-9.84338
fox▁	-9.8439
paintings▁	-9.84426
share▁	-9.84509
damage▁	-9.84552
scale▁	-9.84584
taught▁	-9.84617
pieces▁	-9.84618
43▁	-9.84661
48▁	-9.84706
mag	-9.84718
bgcolore	-9.84729
sri▁	-9.84741
cat	-9.84752
seats▁	-9.84758
falls▁	-9.84792
sel	-9.84814
alliance▁	-9.84906
stephen▁	-9.8491
nuclear▁	-9.84919
norway▁	-9.84932
eric▁	-9.84966
ium▁	-9.84971
confirmed▁	-9.85002
ata▁	-9.85008
bre	-9.85039
expanded▁	-9.85098
danish▁	-9.85204
gal	-9.85262
chemical▁	-9.85291
bird▁	-9.85394
anne▁	-9.85401
ib	-9.85533
wars▁	-9.85627
count▁	-9.85648
choice▁	-9.85694
ish▁	-9.85723
claims▁	-9.85776
pri	-9.8581
painter▁	-9.8588
philippines▁	-9.85882
holding▁	-9.86076
ol▁	-9.86106
cells▁	-9.86111
free	-9.86117
recognition▁	-9.86177
foot▁	-9.86212
dal	-9.86228
sexual▁	-9.86245
connected▁	-9.86366
bring▁	-9.86385
turkish▁	-9.86461
ay	-9.86515
versions▁	-9.86533
ji	-9.86536
missouri▁	-9.86557
jo▁	-9.86563
israeli▁	-9.86576
why▁	-9.86588
ally▁	-9.86591
expected▁	-9.86596
web▁	-9.86611
win	-9.86628
sixth▁	-9.8672
aired▁	-9.86726
czech▁	-9.86755
granted▁	-9.8676
sk	-9.86817
claim▁	-9.86841
marked▁	-9.86855
oc	-9.86913
2000	-9.86923
recognized▁	-9.86946
alabama▁	-9.86947
400▁	-9.86966
greece▁	-9.87047
constitution▁	-9.87052
ors▁	-9.87094
bri	-9.87106
simply▁	-9.87153
ps▁	-9.8718
yan	-9.87214
communist▁	-9.87227
oregon▁	-9.87247
singapore▁	-9.87249
pur▁	-9.87262
commissioned▁	-9.87281
sun	-9.87288
manchester▁	-9.8735
pilot▁	-9.87359
remain▁	-9.87421
del	-9.87448
og	-9.87455
finals▁	-9.87465
gro	-9.87493
wild▁	-9.87532
alternative▁	-9.87539
brian▁	-9.87541
colonial▁	-9.87546
bgcolorf	-9.87565
ye	-9.87615
risk▁	-9.87751
tr	-9.87808
offer▁	-9.87809
colonel▁	-9.8784
unique▁	-9.87952
nat	-9.87992
1900▁	-9.87998
ul▁	-9.8802
wrestling▁	-9.88032
defined▁	-9.88039
category▁	-9.88041
23	-9.88062
dur	-9.88083
losing▁	-9.88114
figures▁	-9.88139
criminal▁	-9.88141
earl▁	-9.88189
males▁	-9.88218
obtained▁	-9.88231
surrounding▁	-9.88231
ot	-9.88275
offers▁	-9.8828
gives▁	-9.88283
wood	-9.88328
sand	-9.88401
guns▁	-9.88409
tradition▁	-9.88433
alone▁	-9.88458
semi	-9.88502
van	-9.88518
permanent▁	-9.8853
resulting▁	-9.88532
situation▁	-9.8863
resulted▁	-9.88632
door▁	-9.88646
max▁	-9.88648
1910▁	-9.88649
pl	-9.88654
pages▁	-9.88695
managers▁	-9.8873
tells▁	-9.888
interior▁	-9.8883
identity▁	-9.88838
animal▁	-9.88841
injury▁	-9.88876
mobile▁	-9.88934
mile▁	-9.8895
bgcolord	-9.88963
receive▁	-9.8903
recordings▁	-9.89031
allows▁	-9.89031
newly▁	-9.89055
she	-9.8923
reduced▁	-9.89231
lyrics▁	-9.89331
providing▁	-9.89331
hard	-9.89342
chi▁	-9.89367
flora▁	-9.89427
animated▁	-9.89433
develop▁	-9.89532
break▁	-9.89546
americans▁	-9.8957
west	-9.89576
suffered▁	-9.89633
ive▁	-9.89679
beat▁	-9.8975
nan	-9.89817
approved▁	-9.89842
crown▁	-9.89861
mad	-9.89894
hen	-9.90042
mine▁	-9.9008
couple▁	-9.90139
cathedral▁	-9.90242
oldest▁	-9.90281
pro▁	-9.90286
dean▁	-9.90307
glass▁	-9.90385
sign▁	-9.90402
partner▁	-9.90449
ius▁	-9.90518
agricultural▁	-9.90545
guide▁	-9.90606
labor▁	-9.90642
pictures▁	-9.90652
candidates▁	-9.90749
mo▁	-9.9075
vehicle▁	-9.90751
mas	-9.90839
communication▁	-9.90852
simon▁	-9.90946
factory▁	-9.90958
bat	-9.91006
1913▁	-9.91053
philosophy▁	-9.91055
mus	-9.91085
arab▁	-9.9113
walls▁	-9.91147
kentucky▁	-9.91158
switzerland▁	-9.91159
fund▁	-9.9121
ised▁	-9.91225
roads▁	-9.91273
edge▁	-9.91317
suggested▁	-9.91363
tokyo▁	-9.91365
memory▁	-9.91368
funding▁	-9.91476
26	-9.91541
standing▁	-9.91562
arrested▁	-9.91568
competitions▁	-9.91569
females▁	-9.9158
ker▁	-9.91596
gr	-9.91664
46▁	-9.9181
ping▁	-9.91823
hope▁	-9.91907
ba▁	-9.91974
chapter▁	-9.91982
cold▁	-9.92008
actresses▁	-9.92084
fer	-9.921
len	-9.92178
lane▁	-9.92196
think▁	-9.92206
sunday▁	-9.92232
conflict▁	-9.9229
passenger▁	-9.9229
examples▁	-9.92297
methods▁	-9.9232
ae▁	-9.9247
authorities▁	-9.92498
founding▁	-9.92609
ington▁	-9.92624
trains▁	-9.9263
howard▁	-9.92642
sy	-9.92666
rad	-9.92765
purpose▁	-9.92915
metres▁	-9.92936
aid▁	-9.93007
introduction▁	-9.93018
sti	-9.93085
composition▁	-9.93121
completely▁	-9.93123
pur	-9.93293
facility▁	-9.93332
creating▁	-9.93343
lewis▁	-9.93351
search▁	-9.93447
walter▁	-9.93471
surname▁	-9.93515
1930	-9.93527
properties▁	-9.93541
attacks▁	-9.93542
au	-9.93555
standards▁	-9.9358
top	-9.93615
succeeded▁	-9.93646
bought▁	-9.93653
sa▁	-9.93732
difficult▁	-9.93751
audience▁	-9.93752
showed▁	-9.93779
bas	-9.93847
parliamentary▁	-9.93962
nothing▁	-9.93983
unable▁	-9.94067
supply▁	-9.94069
reason▁	-9.9411
austria▁	-9.94178
ani▁	-9.94221
ff▁	-9.94267
wil	-9.94356
situated▁	-9.94384
ridge▁	-9.94419
historian▁	-9.94456
sam▁	-9.9448
fictional▁	-9.94492
convention▁	-9.94596
kill▁	-9.94596
broadcasting▁	-9.94596
effort▁	-9.94601
anderson▁	-9.94656
parks▁	-9.94659
arizona▁	-9.94702
las▁	-9.94758
teachers▁	-9.94808
oklahoma▁	-9.94862
ant	-9.94864
vi▁	-9.94896
classes▁	-9.94929
comic▁	-9.94984
fans▁	-9.95109
gun	-9.95171
reform▁	-9.95213
52▁	-9.95217
actions▁	-9.95294
setting▁	-9.95345
weight▁	-9.95428
gs▁	-9.95452
if	-9.95524
gre	-9.95546
belgium▁	-9.95555
transfer▁	-9.95566
weather▁	-9.95578
fr	-9.95627
normal▁	-9.95659
ization▁	-9.95715
47▁	-9.95738
application▁	-9.95768
subsequent▁	-9.95768
melbourne▁	-9.9577
stay▁	-9.95784
really▁	-9.95795
cre	-9.95814
ro▁	-9.95826
electronic▁	-9.95876
chosen▁	-9.95887
ensis▁	-9.95947
nor	-9.95969
tim▁	-9.9599
ang	-9.95994
scheduled▁	-9.9601
ran	-9.96068
maryland▁	-9.961
allowing▁	-9.96105
fair▁	-9.96111
str	-9.9613
su▁	-9.96154
effective▁	-9.96237
que	-9.96273
lo▁	-9.96279
occupied▁	-9.96306
cannot▁	-9.96314
sto	-9.96445
screen▁	-9.96485
honours▁	-9.9663
brand▁	-9.96723
expansion▁	-9.96738
simple▁	-9.96738
water	-9.96741
drug▁	-9.96753
core▁	-9.96776
ck▁	-9.96792
ary▁	-9.96822
existing▁	-9.96826
dy	-9.96826
internal▁	-9.96849
bed▁	-9.96862
commonwealth▁	-9.96955
anthony▁	-9.97063
etc▁	-9.97178
new	-9.97235
achieved▁	-9.9739
27	-9.97404
mun	-9.97433
hungarian▁	-9.97505
khan▁	-9.97603
rates▁	-9.97639
streets▁	-9.97663
und▁	-9.9767
launch▁	-9.97717
worldwide▁	-9.97831
quebec▁	-9.97834
ill▁	-9.97873
motion▁	-9.97899
trophy▁	-9.9794
finish▁	-9.97943
mono	-9.9797
cap	-9.97973
circuit▁	-9.98046
picture▁	-9.98056
mul	-9.98067
sho	-9.98097
heat▁	-9.98124
dog▁	-9.98134
fa▁	-9.98162
efefe	-9.98169
mont	-9.98231
kim▁	-9.98234
ncaa▁	-9.98272
doing▁	-9.98328
adult▁	-9.98376
ations▁	-9.98385
cro	-9.98444
agriculture▁	-9.98486
electoral▁	-9.98486
statement▁	-9.98598
domestic▁	-9.98601
may	-9.98654
magazines▁	-9.98721
miller▁	-9.98763
tam	-9.9877
fashion▁	-9.98822
ps	-9.98908
households▁	-9.98929
programme▁	-9.9893
athletic▁	-9.9893
queensland▁	-9.98933
quarter▁	-9.98943
55▁	-9.98943
bl	-9.98983
settled▁	-9.99038
weapons▁	-9.99038
determined▁	-9.99047
dale▁	-9.99122
heard▁	-9.99156
1908▁	-9.99169
billboard▁	-9.99267
orders▁	-9.99282
schedule▁	-9.99371
link▁	-9.99456
detroit▁	-9.99483
sale▁	-9.99484
alan▁	-9.99495
1905▁	-9.99505
investigation▁	-9.99594
1911▁	-9.99615
yearold▁	-9.99698
broke▁	-9.99713
tro	-9.99751
ating▁	-9.99824
necessary▁	-9.99873
talk▁	-9.99889
thi	-9.99903
architect▁	-9.99929
mar▁	-9.99935
2022▁	-10.0004
faced▁	-10.0005
pair▁	-10.0007
matter▁	-10.0008
sc▁	-10.0008
29	-10.0009
onto▁	-10.0014
welsh▁	-10.0016
ultimately▁	-10.0026
vel	-10.0029
vin	-10.0034
attempted▁	-10.0038
antonio▁	-10.0039
translation▁	-10.0049
provincial▁	-10.0049
fur	-10.0052
refused▁	-10.0053
banks▁	-10.0058
powerful▁	-10.006
egypt▁	-10.0062
canal▁	-10.0083
incident▁	-10.0083
ik▁	-10.0084
rat	-10.0092
productions▁	-10.0094
moon▁	-10.0095
details▁	-10.0095
folk▁	-10.0098
qui	-10.01
attorney▁	-10.0105
ukraine▁	-10.0105
saint	-10.011
wo	-10.0112
patrick▁	-10.0129
spread▁	-10.0129
fin	-10.0129
needs▁	-10.013
increasing▁	-10.0139
universities▁	-10.0139
islamic▁	-10.014
od	-10.0145
mp	-10.0146
graduate▁	-10.0148
applications▁	-10.0151
connection▁	-10.0151
qualified▁	-10.0159
tha	-10.0161
containing▁	-10.0162
mill▁	-10.0163
ann▁	-10.0174
ss	-10.0178
driver▁	-10.0183
establishment▁	-10.0185
puerto▁	-10.0185
argentina▁	-10.0185
35	-10.0185
broken▁	-10.0185
wings▁	-10.0187
portion▁	-10.0191
contact▁	-10.0196
collected▁	-10.0197
composers▁	-10.0197
killing▁	-10.0199
bowl▁	-10.02
51▁	-10.0201
arena▁	-10.0201
sim	-10.0202
dy▁	-10.0204
iz	-10.0208
mrs▁	-10.021
ari	-10.0216
connecticut▁	-10.0219
incorporated▁	-10.0225
sor	-10.0226
ist	-10.0227
ach	-10.0227
users▁	-10.0236
disambiguation▁	-10.0242
vietnam▁	-10.0242
relatively▁	-10.0253
medieval▁	-10.0254
tal	-10.0257
anniversary▁	-10.0265
focused▁	-10.0265
harvard▁	-10.0265
persons▁	-10.0266
lat	-10.0268
ish	-10.0277
outstanding▁	-10.0289
locations▁	-10.0289
enemy▁	-10.0291
muslim▁	-10.03
rating▁	-10.03
visual▁	-10.03
cy	-10.0302
dam	-10.0303
distinguished▁	-10.0311
thing▁	-10.0322
est▁	-10.0322
functions▁	-10.0325
kor	-10.0328
spot▁	-10.0335
crisis▁	-10.0336
ston▁	-10.0342
patients▁	-10.0346
iowa▁	-10.0347
write▁	-10.0348
head	-10.0355
mari	-10.0356
63▁	-10.0357
frequently▁	-10.0357
visited▁	-10.0357
ano▁	-10.0359
ltd▁	-10.0362
escape▁	-10.0365
kon	-10.0365
shared▁	-10.0366
begin▁	-10.0366
princess▁	-10.0369
speech▁	-10.0369
austrian▁	-10.037
blues▁	-10.0374
62▁	-10.0375
ov	-10.0378
herself▁	-10.0381
ze▁	-10.0381
cer	-10.0387
corner▁	-10.0387
dry▁	-10.0388
offices▁	-10.0392
amateur▁	-10.0392
douglas▁	-10.0392
bro	-10.0396
heads▁	-10.0397
cross	-10.0399
dropped▁	-10.0404
ica▁	-10.0404
dates▁	-10.0406
soul▁	-10.0421
maximum▁	-10.0427
ot▁	-10.0428
unlike▁	-10.0428
1906▁	-10.0429
sector▁	-10.043
entitled▁	-10.0432
holds▁	-10.0433
tropical▁	-10.0437
violence▁	-10.0439
trained▁	-10.044
hamilton▁	-10.044
uk	-10.0445
fighter▁	-10.0451
budget▁	-10.0451
ukrainian▁	-10.0451
museums▁	-10.0451
dvd▁	-10.0452
alex▁	-10.0453
dam▁	-10.046
montreal▁	-10.0463
dream▁	-10.0466
dun	-10.0474
extensive▁	-10.0474
chapel▁	-10.0475
ir▁	-10.0476
representing▁	-10.0477
question▁	-10.0486
54▁	-10.0488
display▁	-10.0489
governments▁	-10.049
save▁	-10.0498
toward▁	-10.0503
port	-10.0507
moore▁	-10.0514
bodies▁	-10.0521
bottom▁	-10.0523
68▁	-10.0531
motor▁	-10.0535
finance▁	-10.0545
looking▁	-10.0545
philip▁	-10.0545
diego▁	-10.0546
sing▁	-10.0552
ties▁	-10.0562
por	-10.0565
gil	-10.0577
eg	-10.0577
conservation▁	-10.058
edited▁	-10.0581
miami▁	-10.0581
cinema▁	-10.0581
formula▁	-10.0582
rick▁	-10.059
translated▁	-10.0592
aviation▁	-10.0593
trying▁	-10.0594
cl	-10.0601
partnership▁	-10.0604
prevent▁	-10.0606
selection▁	-10.0607
pa▁	-10.0607
finds▁	-10.0608
getting▁	-10.0614
ceremony▁	-10.0616
consisted▁	-10.0616
ethnic▁	-10.0616
lawyer▁	-10.0616
49	-10.0616
frederick▁	-10.0616
divisions▁	-10.0616
copies▁	-10.0617
allen▁	-10.0618
images▁	-10.0621
bay	-10.0625
ago▁	-10.0638
none▁	-10.0638
edinburgh▁	-10.0639
qualifying▁	-10.0639
africanamerican▁	-10.0641
employed▁	-10.0646
tre	-10.0646
protected▁	-10.0651
specifically▁	-10.0651
tom	-10.0654
resigned▁	-10.0661
attacked▁	-10.0663
receiving▁	-10.0663
70	-10.0677
band	-10.0677
denmark▁	-10.069
kur	-10.0694
failure▁	-10.0699
samuel▁	-10.07
walker▁	-10.0702
occurs▁	-10.0711
rs▁	-10.0712
yl	-10.0713
app	-10.0714
ryan▁	-10.0715
roy▁	-10.0716
quite▁	-10.0716
invasion▁	-10.0723
treaty▁	-10.0723
cas	-10.0727
ram▁	-10.0737
ev▁	-10.0746
fought▁	-10.0748
row▁	-10.075
flow▁	-10.0751
34	-10.0755
chu	-10.0759
controlled▁	-10.076
pittsburgh▁	-10.0771
derived▁	-10.0771
singh▁	-10.0773
contest▁	-10.0779
rock	-10.0782
houston▁	-10.0784
ai	-10.0791
covers▁	-10.0795
portugal▁	-10.0796
greatest▁	-10.0796
slightly▁	-10.0797
53▁	-10.0798
lay▁	-10.0809
49▁	-10.0813
abandoned▁	-10.082
louisiana▁	-10.082
regarding▁	-10.0832
straight▁	-10.0834
28	-10.0842
attempts▁	-10.0844
judges▁	-10.0844
ministers▁	-10.0846
ab▁	-10.0863
poems▁	-10.0869
hits▁	-10.0872
ft▁	-10.0878
mining▁	-10.088
ah	-10.0884
target▁	-10.0884
linear▁	-10.0885
art	-10.0887
juan▁	-10.0888
adam▁	-10.0897
mental▁	-10.0897
opposed▁	-10.09
datasortvalue	-10.0905
believe▁	-10.0905
meant▁	-10.0909
phone▁	-10.091
retirement▁	-10.0918
pr	-10.0922
calls▁	-10.0925
tell▁	-10.093
hungary▁	-10.093
elementary▁	-10.0942
recipients▁	-10.0954
belgian▁	-10.0959
ross▁	-10.0962
lie▁	-10.0964
hundred▁	-10.0967
stra	-10.0971
seventh▁	-10.0972
nes▁	-10.0976
plus▁	-10.0979
converted▁	-10.0979
residence▁	-10.0979
io	-10.0985
chan	-10.0988
serious▁	-10.0992
condition▁	-10.0992
loan▁	-10.0994
shop▁	-10.0996
ino▁	-10.1003
developing▁	-10.1004
1904▁	-10.1006
green	-10.1006
ideas▁	-10.101
grounds▁	-10.1014
importance▁	-10.1016
laid▁	-10.1022
ment	-10.1027
coastal▁	-10.1029
1909▁	-10.1031
rare▁	-10.1035
cricketers▁	-10.1041
invited▁	-10.1041
entrance▁	-10.1041
tech▁	-10.1058
90	-10.1061
trail▁	-10.1065
bru	-10.1066
centuries▁	-10.1066
spirit▁	-10.1068
of	-10.1075
investment▁	-10.1078
scenes▁	-10.1079
carl▁	-10.1087
magic▁	-10.1094
arkansas▁	-10.1095
funds▁	-10.1096
possibly▁	-10.1103
shooting▁	-10.1103
ottoman▁	-10.1104
ling	-10.1104
golf▁	-10.1105
reasons▁	-10.1116
fathers▁	-10.1117
causing▁	-10.1118
1903▁	-10.1118
ple	-10.112
ska▁	-10.1128
perform▁	-10.1139
painters▁	-10.1141
hair▁	-10.1144
chain▁	-10.1149
passing▁	-10.1155
baby▁	-10.1156
gordon▁	-10.1168
carry▁	-10.117
ry▁	-10.1171
mix▁	-10.1171
iv	-10.1176
cm▁	-10.1179
gene▁	-10.118
fast▁	-10.1181
audio▁	-10.1194
orthodox▁	-10.1204
ok▁	-10.1209
lor	-10.121
ou	-10.1211
everything▁	-10.1216
resistance▁	-10.1216
nfl▁	-10.1216
ung▁	-10.1221
88▁	-10.1221
stand▁	-10.1228
queens▁	-10.1231
causes▁	-10.1236
influenced▁	-10.1242
evening▁	-10.1243
ou▁	-10.1244
shape▁	-10.1244
1907▁	-10.1244
equal▁	-10.1244
angel▁	-10.1245
flowers▁	-10.1257
billy▁	-10.1259
calling▁	-10.126
legacy▁	-10.1267
scientists▁	-10.1267
pool▁	-10.1271
gardens▁	-10.1271
physics▁	-10.128
61▁	-10.128
tin	-10.1284
prix▁	-10.1284
enter▁	-10.129
temperature▁	-10.1292
rear▁	-10.1294
script▁	-10.1295
rooms▁	-10.1296
ky▁	-10.1299
57▁	-10.1299
typical▁	-10.1305
represent▁	-10.1313
romania▁	-10.1313
twelve▁	-10.1319
tier▁	-10.1321
bs▁	-10.133
andy▁	-10.133
bureau▁	-10.1331
height▁	-10.1332
passes▁	-10.1333
junction▁	-10.1333
north	-10.1337
ment▁	-10.1342
drawn▁	-10.1344
robinson▁	-10.1344
engineers▁	-10.1345
mouth▁	-10.1346
wa▁	-10.1347
ster	-10.1367
joining▁	-10.138
constituency▁	-10.1382
raj	-10.1385
reaching▁	-10.1389
2010	-10.1394
donald▁	-10.1405
manufacturing▁	-10.1408
courts▁	-10.1408
decades▁	-10.1408
margaret▁	-10.1408
back	-10.1409
compilation▁	-10.142
institution▁	-10.142
tz▁	-10.1424
utah▁	-10.1426
gay▁	-10.1427
je▁	-10.1428
affected▁	-10.1433
median▁	-10.1436
plane▁	-10.1441
ee▁	-10.1442
maine▁	-10.1446
drivers▁	-10.1448
1902▁	-10.1449
leg	-10.1449
tank▁	-10.1453
pope▁	-10.1454
sell▁	-10.1456
sn	-10.1459
collections▁	-10.1459
engines▁	-10.1459
christ▁	-10.1463
ok	-10.1465
employees▁	-10.1472
economics▁	-10.1472
inner▁	-10.1481
consecutive▁	-10.1485
producing▁	-10.1485
singing▁	-10.1487
geo	-10.1494
emergency▁	-10.1498
cycle▁	-10.1498
guards▁	-10.1503
swimming▁	-10.1511
expressed▁	-10.1513
ari▁	-10.1521
flat▁	-10.1522
seconds▁	-10.1524
vision▁	-10.1533
step▁	-10.1534
newspapers▁	-10.1539
liga▁	-10.1552
iya▁	-10.1557
refers▁	-10.1559
5000▁	-10.1562
ho▁	-10.1562
78▁	-10.1563
dia	-10.1565
signal▁	-10.1566
dra	-10.1568
izing▁	-10.1573
discography▁	-10.1576
protect▁	-10.1576
classification▁	-10.1576
bruce▁	-10.1577
watch▁	-10.158
contained▁	-10.1589
existence▁	-10.159
aka▁	-10.159
colspan	-10.1591
gender▁	-10.1594
ator▁	-10.1594
ise▁	-10.1595
72▁	-10.1599
38	-10.1606
58▁	-10.1608
objects▁	-10.161
ix▁	-10.1615
negative▁	-10.1616
nick▁	-10.1616
soundtrack▁	-10.1617
orange▁	-10.1618
gets▁	-10.1627
advance▁	-10.1629
romanian▁	-10.1631
session▁	-10.1641
kevin▁	-10.1643
values▁	-10.1644
kelly▁	-10.1645
meters▁	-10.165
defunct▁	-10.1655
contributed▁	-10.1655
injured▁	-10.1655
bla	-10.166
papers▁	-10.1663
views▁	-10.1664
string▁	-10.1664
aria▁	-10.1666
beautiful▁	-10.1668
scholars▁	-10.1669
unincorporated▁	-10.1675
hi▁	-10.168
combination▁	-10.1682
36	-10.1685
85▁	-10.169
bridges▁	-10.1691
fore	-10.1693
promote▁	-10.1695
universal▁	-10.1697
avoid▁	-10.1698
rice▁	-10.1698
skin▁	-10.17
ang▁	-10.1703
lers▁	-10.1704
distributed▁	-10.1708
playoffs▁	-10.1708
density▁	-10.1708
follow▁	-10.1709
improved▁	-10.171
leg▁	-10.1717
lawrence▁	-10.1722
extension▁	-10.1722
dave▁	-10.173
km	-10.1733
associate▁	-10.1736
1920	-10.1739
ig	-10.1739
alt	-10.1743
pra	-10.1746
proved▁	-10.1747
establish▁	-10.1748
din	-10.1751
100	-10.1757
tu▁	-10.1761
perhaps▁	-10.1761
improve▁	-10.1762
tie▁	-10.1764
crossing▁	-10.1768
shaped▁	-10.1776
wave▁	-10.1779
observed▁	-10.178
successfully▁	-10.1783
planet▁	-10.1791
eb	-10.1791
volleyball▁	-10.1802
household▁	-10.1802
77▁	-10.1815
pla	-10.1816
ron▁	-10.1821
authors▁	-10.1823
resolution▁	-10.1824
covid	-10.1824
gray▁	-10.1828
lincoln▁	-10.1829
cabinet▁	-10.1829
installed▁	-10.1829
150▁	-10.1832
uni	-10.1838
continental▁	-10.1842
closely▁	-10.1842
courses▁	-10.1844
roger▁	-10.1855
argued▁	-10.1855
expedition▁	-10.1856
indonesia▁	-10.1856
bit▁	-10.1861
homes▁	-10.1867
regulations▁	-10.1869
eu▁	-10.1871
cher	-10.1874
fred▁	-10.1876
understanding▁	-10.1877
ray	-10.1878
genera▁	-10.1878
producers▁	-10.1897
met	-10.1902
sisters▁	-10.1905
va▁	-10.1905
clark▁	-10.1914
address▁	-10.192
registered▁	-10.1923
ara▁	-10.1929
shore▁	-10.193
fan▁	-10.1933
premiered▁	-10.1936
wy	-10.1938
37	-10.194
actual▁	-10.195
merged▁	-10.1951
networks▁	-10.1954
measure▁	-10.1964
hollywood▁	-10.1964
tes▁	-10.1974
entirely▁	-10.1977
victor▁	-10.1979
fire	-10.1981
brain▁	-10.1984
fan	-10.1987
collaboration▁	-10.1991
reality▁	-10.1993
starts▁	-10.1996
factors▁	-10.1996
74▁	-10.2
revival▁	-10.2005
didnt▁	-10.2005
strike▁	-10.2005
mississippi▁	-10.2005
taiwan▁	-10.2005
phd▁	-10.2016
speaking▁	-10.2018
second	-10.2021
cin	-10.2032
techniques▁	-10.2032
ions▁	-10.2033
someone▁	-10.2036
ek	-10.2036
residential▁	-10.204
bury▁	-10.2041
designs▁	-10.2041
diocese▁	-10.2045
1895▁	-10.2048
ud	-10.2048
sought▁	-10.2049
legend▁	-10.205
backing▁	-10.2053
ful▁	-10.2058
amendment▁	-10.2059
strength▁	-10.2059
notably▁	-10.2059
ahead▁	-10.2062
finland▁	-10.2066
metro▁	-10.2066
adapted▁	-10.2073
engaged▁	-10.2074
cc▁	-10.2076
1901▁	-10.2076
gang▁	-10.208
semifinals▁	-10.2088
owners▁	-10.2097
neighborhood▁	-10.2101
faith▁	-10.2101
uncle▁	-10.2101
ett▁	-10.2104
path▁	-10.2106
flag▁	-10.2107
eli	-10.2111
occur▁	-10.2115
briefly▁	-10.2115
progress▁	-10.2117
kent▁	-10.2128
christopher▁	-10.2128
criticism▁	-10.2128
disc▁	-10.2141
humans▁	-10.2143
brief▁	-10.2144
documents▁	-10.2144
colleges▁	-10.2145
ster▁	-10.215
victims▁	-10.2157
web	-10.2159
fuel▁	-10.2161
headed▁	-10.2164
ev	-10.217
counties▁	-10.217
senator▁	-10.2171
nova▁	-10.2172
67▁	-10.2173
za▁	-10.2174
saturday▁	-10.2184
jesus▁	-10.2184
ches▁	-10.2185
ann	-10.2189
adams▁	-10.2196
dublin▁	-10.2198
tamil▁	-10.2199
nor▁	-10.22
ard	-10.2212
stylebackground	-10.2214
stating▁	-10.2219
white	-10.222
1890▁	-10.222
trip▁	-10.2223
finishing▁	-10.2226
behavior▁	-10.2226
cr	-10.2231
pul	-10.2233
mah	-10.2242
1898▁	-10.2242
ell▁	-10.2251
offensive▁	-10.2254
ara	-10.2255
56▁	-10.2263
interests▁	-10.2268
ambassador▁	-10.2268
knight▁	-10.2273
86▁	-10.2273
32	-10.2277
71▁	-10.2277
neo	-10.2277
roof▁	-10.228
maintained▁	-10.2282
seattle▁	-10.2282
leagues▁	-10.2285
discovery▁	-10.2296
charges▁	-10.2296
underground▁	-10.23
ali	-10.2302
indigenous▁	-10.231
malaysia▁	-10.231
reign▁	-10.2311
gulf▁	-10.2314
ep	-10.2317
ranking▁	-10.2317
stores▁	-10.232
skills▁	-10.232
hel	-10.2321
appeal▁	-10.2324
hired▁	-10.2325
walk▁	-10.2332
46	-10.2333
76▁	-10.2337
insurance▁	-10.2338
infrastructure▁	-10.2338
mos	-10.2339
designer▁	-10.2339
heavily▁	-10.2352
55	-10.2357
ruled▁	-10.2358
nomination▁	-10.2361
zu	-10.2366
johnny▁	-10.2367
aligncenter	-10.2372
uss▁	-10.2374
bear▁	-10.2379
opportunity▁	-10.2381
fantasy▁	-10.2381
ming▁	-10.2384
kr	-10.2387
territories▁	-10.2395
marie▁	-10.2397
protein▁	-10.2397
measures▁	-10.2409
kha	-10.2411
exist▁	-10.2417
feel▁	-10.2418
jar	-10.242
hampshire▁	-10.2423
routes▁	-10.2424
chance▁	-10.2427
gone▁	-10.243
formal▁	-10.2434
god	-10.2435
httpwww	-10.2438
forming▁	-10.2438
graham▁	-10.2439
goods▁	-10.2447
serbian▁	-10.2452
81▁	-10.2455
ology▁	-10.2457
til	-10.2458
baron▁	-10.2461
downtown▁	-10.247
kat	-10.2475
graphic▁	-10.2492
commissioner▁	-10.2495
finnish▁	-10.2495
painted▁	-10.2495
artistic▁	-10.2496
factor▁	-10.2498
bell	-10.25
voted▁	-10.2506
wounded▁	-10.2524
testing▁	-10.2525
stanley▁	-10.2525
med	-10.2534
shin	-10.2534
device▁	-10.2535
gri	-10.2544
jane▁	-10.2549
horn▁	-10.2551
sections▁	-10.2553
norman▁	-10.2555
task▁	-10.2565
accident▁	-10.2567
grey▁	-10.2567
sat	-10.2572
cited▁	-10.2572
user▁	-10.2576
mathematics▁	-10.2581
childhood▁	-10.2581
circle▁	-10.2582
priest▁	-10.2584
ically▁	-10.2591
rico▁	-10.2594
adjacent▁	-10.2596
contributions▁	-10.2596
peninsula▁	-10.2596
counter	-10.2597
1899▁	-10.2598
pat	-10.2606
lin▁	-10.2607
est	-10.261
organisation▁	-10.2613
additionally▁	-10.2625
consisting▁	-10.2625
involving▁	-10.2625
egyptian▁	-10.2625
creative▁	-10.2625
kam	-10.2629
sky	-10.2633
arm▁	-10.2634
drew▁	-10.2636
pt	-10.2636
regarded▁	-10.2639
regularly▁	-10.264
accused▁	-10.2643
66▁	-10.2648
stood▁	-10.2653
daughters▁	-10.2654
atlanta▁	-10.2657
poets▁	-10.2659
tel	-10.266
robin▁	-10.2663
videos▁	-10.2663
ceo▁	-10.2666
honorary▁	-10.2683
argentine▁	-10.2683
photography▁	-10.2684
credit▁	-10.2685
adventure▁	-10.2685
lakes▁	-10.2689
assistance▁	-10.2698
82▁	-10.27
harris▁	-10.2702
doubles▁	-10.2704
jordan▁	-10.2705
73▁	-10.2706
temporary▁	-10.271
cat▁	-10.2711
journey▁	-10.2713
kir	-10.2719
84▁	-10.272
gold	-10.272
seems▁	-10.2728
instruments▁	-10.2729
ova▁	-10.2734
91▁	-10.2738
landscape▁	-10.2742
playoff▁	-10.2744
strategy▁	-10.2757
ent	-10.276
sarah▁	-10.2761
tic▁	-10.2771
oz	-10.278
cleveland▁	-10.2787
coal▁	-10.2793
log	-10.2797
79▁	-10.2798
executed▁	-10.2801
ei	-10.2822
tries▁	-10.2825
waters▁	-10.2826
critic▁	-10.2832
purposes▁	-10.2834
tz	-10.2836
95▁	-10.2839
ip	-10.284
socialist▁	-10.2846
vocal▁	-10.2848
33	-10.2851
01▁	-10.2859
wear▁	-10.2859
items▁	-10.2861
ation	-10.2861
austin▁	-10.2866
stones▁	-10.2866
ap▁	-10.2871
attached▁	-10.2875
describes▁	-10.2876
sw	-10.2878
movies▁	-10.2879
nelson▁	-10.2888
pit	-10.2889
committed▁	-10.289
83▁	-10.2891
bach▁	-10.2893
47	-10.2899
selling▁	-10.2899
ass	-10.2904
organ▁	-10.2904
driving▁	-10.2905
inhabitants▁	-10.2905
capture▁	-10.2905
mac▁	-10.2909
request▁	-10.2911
ris	-10.2913
1891▁	-10.2923
ron	-10.2927
saints▁	-10.2927
az▁	-10.2927
97▁	-10.2929
iso	-10.2929
habitat▁	-10.293
passengers▁	-10.2935
prisoners▁	-10.2935
russell▁	-10.2935
dar▁	-10.2939
hans▁	-10.2942
800▁	-10.2943
rec	-10.2943
dating▁	-10.2958
59▁	-10.2958
credited▁	-10.296
ments▁	-10.2962
concluded▁	-10.2965
reduce▁	-10.2965
classified▁	-10.2965
defensive▁	-10.2965
mounted▁	-10.2969
lang	-10.297
duty▁	-10.297
guitarist▁	-10.298
poem▁	-10.2983
honors▁	-10.2986
ize▁	-10.299
ines▁	-10.2991
suicide▁	-10.2995
stages▁	-10.2998
hay	-10.3
ex▁	-10.3001
yo▁	-10.3005
venues▁	-10.3009
cards▁	-10.301
scholar▁	-10.3011
ae	-10.302
woods▁	-10.3022
serbia▁	-10.3026
romantic▁	-10.3026
revolutionary▁	-10.3027
epi	-10.3035
bil	-10.3035
87▁	-10.3036
sequence▁	-10.3038
demand▁	-10.3038
tag▁	-10.3038
vienna▁	-10.3041
stream▁	-10.3042
journalists▁	-10.3056
carlos▁	-10.3067
ash▁	-10.3067
wells▁	-10.3071
earliest▁	-10.3071
policies▁	-10.3071
gary▁	-10.3073
stan	-10.3073
brick▁	-10.3074
ars▁	-10.3075
index▁	-10.3075
petr	-10.3079
elli▁	-10.308
controversy▁	-10.3086
historians▁	-10.3087
pet	-10.3087
salt▁	-10.3087
markets▁	-10.3091
solar▁	-10.3092
stands▁	-10.3101
participation▁	-10.3102
bound▁	-10.3106
alfred▁	-10.3108
retained▁	-10.3117
easily▁	-10.3117
jimmy▁	-10.3117
scheme▁	-10.3118
centers▁	-10.3119
kil	-10.3124
600▁	-10.313
martial▁	-10.3133
leads▁	-10.314
39	-10.3142
editions▁	-10.3147
distinct▁	-10.3147
marketing▁	-10.3148
horror▁	-10.3148
credits▁	-10.3151
ita▁	-10.3157
ants▁	-10.3158
praised▁	-10.3159
debuted▁	-10.3163
1889▁	-10.3166
pole▁	-10.3167
baker▁	-10.3172
accounts▁	-10.3179
dallas▁	-10.318
qa	-10.3181
mol	-10.3183
turns▁	-10.3187
broad▁	-10.3188
styles▁	-10.3188
happy▁	-10.3188
knights▁	-10.3192
opposite▁	-10.3193
window▁	-10.3194
allied▁	-10.3195
boats▁	-10.3195
subjects▁	-10.3196
twenty▁	-10.3199
69▁	-10.3205
glasgow▁	-10.3209
participate▁	-10.3209
arranged▁	-10.321
fired▁	-10.321
morgan▁	-10.3217
citys▁	-10.3222
costs▁	-10.3223
knew▁	-10.3226
meanwhile▁	-10.3226
ida▁	-10.3229
roll▁	-10.323
voting▁	-10.3234
ola▁	-10.3235
soldier▁	-10.324
stein▁	-10.324
maintain▁	-10.324
wall	-10.3246
rated▁	-10.3247
ase▁	-10.3251
fly▁	-10.3251
equivalent▁	-10.3255
kra	-10.3257
ero▁	-10.3258
decade▁	-10.3259
ong▁	-10.3262
strategic▁	-10.3271
surgery▁	-10.3271
license▁	-10.3271
filled▁	-10.3275
mean▁	-10.3277
lock▁	-10.3283
biggest▁	-10.3286
filmography▁	-10.3286
ring	-10.3286
monument▁	-10.3287
campbell▁	-10.3288
kar▁	-10.3294
pp	-10.3295
gain▁	-10.3299
landing▁	-10.33
compete▁	-10.3303
1896▁	-10.3304
universe▁	-10.3304
fri	-10.331
ride▁	-10.3314
88	-10.3315
survived▁	-10.3317
prepared▁	-10.3317
devices▁	-10.3318
finding▁	-10.3319
96▁	-10.3319
ez	-10.3319
ms	-10.3327
rising▁	-10.3329
hosts▁	-10.3332
wer	-10.3333
friendly▁	-10.3333
restaurant▁	-10.3333
3000▁	-10.3335
englishlanguage▁	-10.3349
ges▁	-10.3355
shell▁	-10.3356
mills▁	-10.3359
cam	-10.3361
membership▁	-10.3365
purchase▁	-10.3365
south	-10.3367
fixed▁	-10.3367
tigers▁	-10.337
nazi▁	-10.3372
98▁	-10.3374
chemistry▁	-10.3379
hawaii▁	-10.338
contrast▁	-10.3382
object▁	-10.3383
shaw▁	-10.3388
put	-10.3394
ban▁	-10.3394
anything▁	-10.3396
ane▁	-10.3397
frame▁	-10.3398
channels▁	-10.3398
po▁	-10.34
nee▁	-10.3407
accompanied▁	-10.3411
thompson▁	-10.3411
laboratory▁	-10.3411
otherwise▁	-10.3411
matt▁	-10.3414
1892▁	-10.3414
restored▁	-10.3416
learned▁	-10.3422
plate▁	-10.3428
chose▁	-10.343
responsibility▁	-10.3443
00	-10.3443
damaged▁	-10.3444
iraq▁	-10.3444
dna▁	-10.345
burn▁	-10.3454
gul	-10.3456
yan▁	-10.3456
moths▁	-10.346
showing▁	-10.3464
xi	-10.3468
adaptation▁	-10.3475
thailand▁	-10.3475
easy▁	-10.3478
auto	-10.348
ani	-10.3481
bush▁	-10.3483
dated▁	-10.3483
lets▁	-10.3488
stewart▁	-10.349
single	-10.3491
thousand▁	-10.3491
bishops▁	-10.3495
changing▁	-10.3497
nd	-10.35
lp▁	-10.35
returns▁	-10.3502
cable▁	-10.3506
initiative▁	-10.3506
visiting▁	-10.3506
bears▁	-10.3515
ber▁	-10.3516
yang▁	-10.3519
1940	-10.3521
caught▁	-10.3522
ownership▁	-10.3522
losses▁	-10.3524
ning▁	-10.3525
alice▁	-10.3526
stopped▁	-10.3536
liverpool▁	-10.3539
pel	-10.3544
lt▁	-10.3548
employment▁	-10.3548
restoration▁	-10.3554
partners▁	-10.3554
beauty▁	-10.3554
constitutional▁	-10.3555
thousands▁	-10.3556
linked▁	-10.3557
dos▁	-10.3558
steam▁	-10.356
tribe▁	-10.3564
extra▁	-10.3569
snow▁	-10.3572
kas	-10.3574
wooden▁	-10.3575
eds▁	-10.3577
resident▁	-10.3578
burg▁	-10.3579
formally▁	-10.358
half	-10.3582
rag	-10.3584
delivered▁	-10.3586
difference▁	-10.3586
portrait▁	-10.3586
defeating▁	-10.3586
festivals▁	-10.3588
arrival▁	-10.3588
warner▁	-10.3589
chile▁	-10.359
vis	-10.3599
carrying▁	-10.3602
bou	-10.3612
bb	-10.3613
contain▁	-10.3619
delhi▁	-10.3619
shu	-10.3619
1894▁	-10.362
airlines▁	-10.3621
eve▁	-10.3632
charged▁	-10.3632
legislation▁	-10.3634
rejected▁	-10.3635
pierre▁	-10.3636
marks▁	-10.3642
reaction▁	-10.3644
ery▁	-10.3644
tall▁	-10.3646
evolution▁	-10.3647
nam	-10.3649
occupation▁	-10.365
require▁	-10.365
benjamin▁	-10.365
1893▁	-10.3653
missions▁	-10.3656
nc	-10.3665
rangers▁	-10.3667
ada▁	-10.3669
jason▁	-10.3675
apart▁	-10.3677
merchant▁	-10.3683
cbs▁	-10.3683
cc	-10.3684
eighth▁	-10.3684
fishing▁	-10.3685
pon	-10.3688
92▁	-10.3688
admitted▁	-10.3699
coaching▁	-10.3699
coverage▁	-10.3699
businesses▁	-10.37
ble	-10.37
rou	-10.37
birmingham▁	-10.3715
victorian▁	-10.3715
archive▁	-10.3719
forests▁	-10.372
adding▁	-10.373
happened▁	-10.3731
lam	-10.3735
89▁	-10.3735
lights▁	-10.3746
represents▁	-10.3755
replace▁	-10.3756
gur	-10.3767
medals▁	-10.3768
tv	-10.3773
innings▁	-10.3775
colony▁	-10.3782
meets▁	-10.3782
covering▁	-10.3783
revenue▁	-10.379
wright▁	-10.3792
neu	-10.3794
assumed▁	-10.3796
endemic▁	-10.3796
afterwards▁	-10.3796
practices▁	-10.3797
summary▁	-10.3797
ez▁	-10.3809
concerns▁	-10.3813
relief▁	-10.3813
pradesh▁	-10.3813
tunnel▁	-10.3813
psychology▁	-10.3813
pas	-10.3814
acted▁	-10.3816
gol	-10.3819
tests▁	-10.3819
99▁	-10.3819
net	-10.3821
achievement▁	-10.3829
respect▁	-10.3829
hunter▁	-10.3832
inn▁	-10.3832
brook▁	-10.3834
grave▁	-10.3842
kennedy▁	-10.3846
madrid▁	-10.3846
iranian▁	-10.3846
broadway▁	-10.3848
gh	-10.3853
yi▁	-10.3854
appearing▁	-10.3859
extremely▁	-10.3862
interested▁	-10.3862
opinion▁	-10.3862
electrical▁	-10.3862
terminal▁	-10.3863
tied▁	-10.3875
advantage▁	-10.3876
photo▁	-10.3876
48	-10.3877
kun	-10.3877
experienced▁	-10.3878
poverty▁	-10.3878
expression▁	-10.3879
pc▁	-10.3879
severe▁	-10.3883
kol	-10.3883
56	-10.3887
41	-10.389
fruit▁	-10.389
charity▁	-10.3896
perfect▁	-10.3897
kel	-10.3902
americas▁	-10.3914
les	-10.3914
bert▁	-10.3914
ert▁	-10.3915
parker▁	-10.3917
johns▁	-10.3921
sm	-10.3922
activist▁	-10.3928
starred▁	-10.3929
nic	-10.393
origins▁	-10.3932
osa▁	-10.3934
cle	-10.3938
hes▁	-10.394
hr	-10.394
lawyers▁	-10.3945
degrees▁	-10.3945
aspects▁	-10.3945
honour▁	-10.3946
moment▁	-10.3948
desert▁	-10.3948
pick▁	-10.3951
work	-10.3955
gi▁	-10.3956
operates▁	-10.3961
fifa▁	-10.3964
solid▁	-10.3967
safe▁	-10.3971
barr	-10.3972
berg	-10.3975
significantly▁	-10.3978
tourism▁	-10.3978
debate▁	-10.3979
1897▁	-10.3981
struck▁	-10.3992
admiral▁	-10.3994
municipalities▁	-10.3995
eau▁	-10.3998
capable▁	-10.3998
chen▁	-10.3998
time	-10.4005
hearing▁	-10.4005
wine▁	-10.4007
ding▁	-10.4011
differences▁	-10.4011
mediterranean▁	-10.4011
dol	-10.4026
inc	-10.4028
separated▁	-10.4028
brooklyn▁	-10.4028
uefa▁	-10.4028
silent▁	-10.4029
guy▁	-10.4031
operate▁	-10.4041
shed▁	-10.4044
businessman▁	-10.4046
warren▁	-10.4046
virgin▁	-10.4048
ye▁	-10.4049
components▁	-10.4061
speaker▁	-10.4062
genre▁	-10.4063
1885▁	-10.4064
duc	-10.4064
soft▁	-10.4075
affiliated▁	-10.4078
popularity▁	-10.4078
franchise▁	-10.4079
ner	-10.408
good	-10.4083
integrated▁	-10.4095
sh▁	-10.4104
abc▁	-10.4107
adults▁	-10.4112
frequency▁	-10.4112
portrayed▁	-10.4112
mill	-10.4113
law	-10.4118
panel▁	-10.4124
ance▁	-10.4126
parallel▁	-10.4131
cia▁	-10.4131
zh	-10.4139
signs▁	-10.4139
truth▁	-10.4146
agencies▁	-10.4146
commerce▁	-10.4146
activists▁	-10.4146
grove▁	-10.4146
1886▁	-10.4149
print▁	-10.4151
rit	-10.4151
railways▁	-10.4151
cash▁	-10.4158
legislature▁	-10.4163
ga▁	-10.4164
meta	-10.4168
acid▁	-10.417
fl	-10.417
inch▁	-10.4171
home	-10.4172
baltimore▁	-10.418
syn	-10.4184
jerusalem▁	-10.4197
voivodeship▁	-10.4197
orleans▁	-10.4197
franklin▁	-10.4197
instrumental▁	-10.4197
boxing▁	-10.42
1888▁	-10.42
requirements▁	-10.4214
facing▁	-10.4214
concrete▁	-10.4214
oh▁	-10.4215
grown▁	-10.4219
kes▁	-10.4222
93▁	-10.4225
criticized▁	-10.4231
tail▁	-10.4241
appointment▁	-10.4245
satellite▁	-10.4248
54	-10.4255
bir	-10.4256
springs▁	-10.4261
karl▁	-10.4262
rapid▁	-10.4266
mall▁	-10.4266
ore▁	-10.4268
storage▁	-10.4268
bin	-10.4285
hero▁	-10.4286
attend▁	-10.4287
portland▁	-10.4288
representation▁	-10.429
hole▁	-10.4293
spoken▁	-10.4299
suggests▁	-10.4299
database▁	-10.43
standings▁	-10.43
31	-10.43
message▁	-10.4301
grace▁	-10.4303
bad	-10.4304
lu▁	-10.4304
day	-10.4307
bangladesh▁	-10.4317
companys▁	-10.4318
wayne▁	-10.432
cra	-10.4327
grand	-10.4328
relative▁	-10.4334
scientist▁	-10.4334
experimental▁	-10.4334
powered▁	-10.4339
res▁	-10.4341
lev	-10.4343
89	-10.4349
afghanistan▁	-10.4351
archaeological▁	-10.4351
movements▁	-10.4351
percussion▁	-10.4352
breaking▁	-10.4353
rain▁	-10.4355
thai▁	-10.4355
rom	-10.4361
hil	-10.4363
summit▁	-10.4368
stayed▁	-10.4368
indicated▁	-10.4369
ensure▁	-10.4383
luis▁	-10.4384
questions▁	-10.4386
rifle▁	-10.4386
roughly▁	-10.4386
murray▁	-10.4387
drawing▁	-10.4388
sey▁	-10.4394
battery▁	-10.4403
technique▁	-10.4403
sang▁	-10.4407
peri	-10.4408
tales▁	-10.4417
barbara▁	-10.442
presidents▁	-10.4428
mes▁	-10.443
wind	-10.4434
down	-10.4436
cooperation▁	-10.4437
cricketer▁	-10.4438
rescue▁	-10.4438
pattern▁	-10.4438
animation▁	-10.4438
pakistani▁	-10.4439
duties▁	-10.444
fal	-10.4444
fear▁	-10.4444
dj▁	-10.4449
clinical▁	-10.4455
demographics▁	-10.4455
modified▁	-10.4456
industries▁	-10.4456
har▁	-10.4459
carbon▁	-10.4459
tel▁	-10.4461
entering▁	-10.4468
six	-10.4472
coalition▁	-10.4473
architectural▁	-10.449
nevada▁	-10.4491
tourist▁	-10.4491
element▁	-10.4495
nonfiction▁	-10.4496
context▁	-10.4499
uc	-10.4499
sar▁	-10.4503
horses▁	-10.4505
phil▁	-10.4506
eliminated▁	-10.4508
scholarship▁	-10.4508
tru	-10.4508
hyper	-10.4508
sab	-10.4515
45	-10.4518
pac	-10.4519
elle▁	-10.452
75	-10.4524
surviving▁	-10.4525
ast	-10.4528
matters▁	-10.4529
bun	-10.4533
yu▁	-10.454
pandemic▁	-10.4543
giant▁	-10.4547
rocks▁	-10.4547
jay▁	-10.4548
marshall▁	-10.4548
wang▁	-10.4552
res	-10.4559
bachelor▁	-10.4561
operational▁	-10.4561
dick▁	-10.4571
bi▁	-10.4575
jam	-10.4577
charlie▁	-10.4579
mitchell▁	-10.458
57	-10.4584
bond▁	-10.459
ik	-10.4594
whilst▁	-10.4596
philippine▁	-10.4597
agents▁	-10.4597
continuing▁	-10.4597
filed▁	-10.4599
roster▁	-10.4601
corporate▁	-10.4604
cook▁	-10.4607
huge▁	-10.4607
explained▁	-10.4614
trading▁	-10.4615
determine▁	-10.4616
guinea▁	-10.4619
tools▁	-10.4619
kids▁	-10.4627
architects▁	-10.4632
colombia▁	-10.4632
cousin▁	-10.4633
short	-10.4643
definition▁	-10.4649
ell	-10.465
transmission▁	-10.4652
narrow▁	-10.4653
wheel▁	-10.4653
jon▁	-10.4657
rounds▁	-10.4658
ets▁	-10.4658
everyone▁	-10.4667
rod	-10.4668
bomb▁	-10.4671
camera▁	-10.4671
falling▁	-10.4671
sweet▁	-10.4671
nba▁	-10.4675
gui	-10.4677
cant▁	-10.4677
dragon▁	-10.4678
signing▁	-10.4683
progressive▁	-10.4685
rabbi▁	-10.4687
lip	-10.4692
personality▁	-10.4703
successor▁	-10.4704
wildlife▁	-10.4708
mai	-10.471
meetings▁	-10.4721
jeff▁	-10.4723
ios▁	-10.4725
ao▁	-10.4726
pad	-10.4728
yn▁	-10.4732
mode▁	-10.4733
gy	-10.4735
mechanical▁	-10.4739
racial▁	-10.4739
talent▁	-10.474
outer▁	-10.4742
solution▁	-10.4743
mb	-10.4744
colour▁	-10.4744
zy	-10.4745
archives▁	-10.4746
farmers▁	-10.4758
slow▁	-10.4761
atus▁	-10.4766
file▁	-10.4767
annually▁	-10.4775
influential▁	-10.4775
matthew▁	-10.4775
voiced▁	-10.4776
hull▁	-10.4784
sounds▁	-10.4788
peru▁	-10.4791
vermont▁	-10.4794
maha	-10.48
learn▁	-10.4802
legs▁	-10.4804
250▁	-10.4808
yorkshire▁	-10.4811
chase▁	-10.4819
ering▁	-10.4828
prefecture▁	-10.4829
10000▁	-10.4836
basin▁	-10.4837
evil▁	-10.4841
nominations▁	-10.4842
ft	-10.4844
manga▁	-10.4846
qualification▁	-10.4847
fe▁	-10.4849
soil▁	-10.4851
eagles▁	-10.4851
medium▁	-10.4851
form	-10.4851
turner▁	-10.4854
ala	-10.4859
1880▁	-10.486
zi▁	-10.4861
lis	-10.4862
spin	-10.4864
electro	-10.4866
eri▁	-10.4867
limit▁	-10.4868
hom	-10.4869
wan▁	-10.4878
evans▁	-10.4885
eleven▁	-10.4886
charter▁	-10.4886
whereas▁	-10.4891
whit	-10.4893
arrest▁	-10.4897
hence▁	-10.4898
platforms▁	-10.4903
fur▁	-10.4904
contested▁	-10.4904
sl	-10.4904
08	-10.4908
craft▁	-10.4909
leeds▁	-10.4913
ites▁	-10.4915
rolling▁	-10.4917
approval▁	-10.492
contribution▁	-10.492
symphony▁	-10.492
occasionally▁	-10.492
cavalry▁	-10.492
indicate▁	-10.492
youtube▁	-10.492
remix▁	-10.4926
nas	-10.4926
seed▁	-10.4928
sees▁	-10.4933
rap	-10.495
ene▁	-10.4954
involvement▁	-10.4957
significance▁	-10.4957
nigeria▁	-10.4957
jonathan▁	-10.4958
ls▁	-10.496
istic▁	-10.4962
ira▁	-10.4968
dev	-10.4972
raf▁	-10.4974
graduating▁	-10.4975
penalty▁	-10.4975
balance▁	-10.4977
extreme▁	-10.4977
depth▁	-10.4978
bonus▁	-10.4979
bow	-10.498
gon	-10.4982
arch	-10.4987
wan	-10.4987
wedding▁	-10.4994
proper▁	-10.4994
characteristics▁	-10.4995
chess▁	-10.4996
depending▁	-10.4996
photographs▁	-10.4996
filmed▁	-10.4997
ian	-10.5
tha▁	-10.5003
licensed▁	-10.5012
richmond▁	-10.5012
layer▁	-10.5013
saudi▁	-10.5016
indians▁	-10.5019
nicholas▁	-10.5019
nik▁	-10.502
printed▁	-10.5022
hill	-10.5023
grow▁	-10.5028
inae▁	-10.5031
peaked▁	-10.5031
secure▁	-10.5032
flower▁	-10.5034
lac	-10.504
ferr	-10.5042
1863▁	-10.5045
domain▁	-10.5047
premiere▁	-10.5049
trinity▁	-10.505
ox	-10.5051
visitors▁	-10.5068
drop▁	-10.5074
mines▁	-10.5076
cos	-10.5078
comp	-10.5082
hon	-10.5086
boundary▁	-10.5086
organisations▁	-10.5086
eng	-10.5089
tribute▁	-10.5098
maritime▁	-10.5102
equipped▁	-10.5105
keeping▁	-10.5105
overseas▁	-10.5105
rowspan	-10.5108
ula▁	-10.511
bible▁	-10.5112
xi▁	-10.5114
then	-10.5115
belt▁	-10.512
vessels▁	-10.5124
superior▁	-10.5124
suit▁	-10.5124
mothers▁	-10.5124
threat▁	-10.5124
injuries▁	-10.5124
lanka▁	-10.5125
sporting▁	-10.5126
hugh▁	-10.5127
replacement▁	-10.5128
borders▁	-10.5129
corn	-10.513
cave▁	-10.5139
transit▁	-10.5139
zero▁	-10.514
has	-10.5141
ely▁	-10.5142
experiences▁	-10.5142
monastery▁	-10.5142
illustrated▁	-10.5142
processes▁	-10.5143
morris▁	-10.5144
bone▁	-10.5147
eh▁	-10.5152
gli	-10.5153
gas	-10.5154
mit	-10.5155
lap▁	-10.5155
fu▁	-10.5156
ready▁	-10.5156
spiritual▁	-10.5163
raise▁	-10.5164
tale▁	-10.5165
lic	-10.5165
aya▁	-10.5166
ther	-10.5168
jur	-10.517
wr	-10.5172
sul	-10.5174
generals▁	-10.5175
caribbean▁	-10.518
struggle▁	-10.518
ric	-10.518
locality▁	-10.518
hunt▁	-10.5181
instance▁	-10.5182
iss	-10.5182
twin▁	-10.5182
passage▁	-10.5183
oliver▁	-10.5191
ug	-10.5196
lgbt▁	-10.5199
journals▁	-10.5202
constant▁	-10.5203
load▁	-10.5209
carter▁	-10.521
way	-10.5212
ll	-10.5217
ski	-10.5218
branches▁	-10.5218
giants▁	-10.5219
costa▁	-10.5221
intersection▁	-10.5226
sson▁	-10.5229
ef	-10.5234
lon	-10.5235
buddhist▁	-10.5236
depression▁	-10.5236
jerry▁	-10.5237
dakota▁	-10.5237
clan▁	-10.5238
favor▁	-10.524
pop	-10.5242
swa	-10.5244
forum▁	-10.5246
arm	-10.5246
lei	-10.5246
advertising▁	-10.5255
apparently▁	-10.5255
threatened▁	-10.5255
claiming▁	-10.5255
bringing▁	-10.5255
villa▁	-10.5257
play	-10.5257
1865▁	-10.5259
montana▁	-10.5268
1862▁	-10.527
ve▁	-10.5274
shopping▁	-10.5274
singersongwriter	-10.5274
mass	-10.5275
row	-10.5276
gau	-10.5277
taxa▁	-10.5283
thr	-10.5285
increasingly▁	-10.5293
opponents▁	-10.5293
driven▁	-10.5294
biology▁	-10.5295
concerts▁	-10.5299
rot	-10.53
hospitals▁	-10.5301
walking▁	-10.5302
ky	-10.5308
qua	-10.5309
proposal▁	-10.5312
provinces▁	-10.5312
publishers▁	-10.5312
studying▁	-10.5312
siege▁	-10.5314
1887▁	-10.5315
cuba▁	-10.532
ns	-10.5321
venue▁	-10.5324
oak▁	-10.533
relationships▁	-10.5331
mystery▁	-10.5331
treated▁	-10.5337
roberts▁	-10.5338
mid▁	-10.534
tours▁	-10.534
burg	-10.5342
apple▁	-10.535
technologies▁	-10.535
celebrated▁	-10.535
liberation▁	-10.5351
weekend▁	-10.5351
fitted▁	-10.5351
violin▁	-10.5351
arabic▁	-10.5352
fresh▁	-10.5354
nbc▁	-10.5359
rich	-10.5363
buffalo▁	-10.5369
populations▁	-10.5369
processing▁	-10.537
themes▁	-10.5371
ec▁	-10.5373
roots▁	-10.5378
zan	-10.5379
dal▁	-10.5382
cut	-10.5388
considerable▁	-10.5388
53	-10.5389
decline▁	-10.5391
drugs▁	-10.5393
neck▁	-10.5398
sure▁	-10.54
ses▁	-10.5407
completion▁	-10.5408
requires▁	-10.5408
py	-10.5415
ale▁	-10.5415
tun	-10.542
leys▁	-10.5424
publisher▁	-10.5427
statue▁	-10.5427
column▁	-10.5427
crash▁	-10.5428
helping▁	-10.5429
mak	-10.5431
ninth▁	-10.5433
vit	-10.5434
sville▁	-10.5436
bright▁	-10.544
vas	-10.5446
competitors▁	-10.5446
feed▁	-10.5456
ese▁	-10.5464
ids▁	-10.5466
rogers▁	-10.5469
pay	-10.5476
hr▁	-10.5484
hai	-10.5484
incidents▁	-10.5485
democracy▁	-10.5485
rev▁	-10.5492
replacing▁	-10.5492
eagle▁	-10.5499
persian▁	-10.5502
hundreds▁	-10.5504
charlotte▁	-10.5504
cel	-10.5504
muhammad▁	-10.5505
sole▁	-10.5506
bernard▁	-10.5506
ghost▁	-10.551
pot	-10.551
disney▁	-10.551
oni▁	-10.5512
graph▁	-10.5513
fel	-10.5514
illa▁	-10.5517
competing▁	-10.5524
managing▁	-10.5525
nonprofit▁	-10.5525
1871▁	-10.5526
bobby▁	-10.5533
tone▁	-10.5533
sao▁	-10.5534
side	-10.5539
researchers▁	-10.5543
cap▁	-10.5544
double	-10.5559
hart▁	-10.556
94▁	-10.5562
demolished▁	-10.5563
alleged▁	-10.5563
plain▁	-10.5563
bus	-10.557
elder▁	-10.5575
turning▁	-10.5576
fit▁	-10.5578
surrounded▁	-10.5582
wearing▁	-10.5583
lions▁	-10.5584
ice	-10.5589
lit	-10.5592
competitive▁	-10.5602
locomotives▁	-10.5602
volumes▁	-10.5602
alberta▁	-10.5605
1881▁	-10.5605
leaf▁	-10.5608
ano	-10.5613
unions▁	-10.5613
first	-10.5616
coll	-10.5617
pe▁	-10.5617
blocks▁	-10.5617
ters▁	-10.5621
supporters▁	-10.5621
organised▁	-10.5621
benefit▁	-10.5621
principles▁	-10.5622
democrats▁	-10.5624
barry▁	-10.5629
allies▁	-10.5635
virus▁	-10.5635
flu	-10.5638
doors▁	-10.5642
edwards▁	-10.5642
releases▁	-10.5643
tribes▁	-10.5643
southwestern▁	-10.5644
jer	-10.5647
shah▁	-10.5647
1860▁	-10.565
ey	-10.5652
mut	-10.5659
absence▁	-10.5661
croatian▁	-10.5661
participants▁	-10.5661
dancing▁	-10.5661
ct	-10.5661
spoke▁	-10.5661
music	-10.5661
crimes▁	-10.5664
drum▁	-10.5667
ras	-10.567
som	-10.5678
conduct▁	-10.5679
embassy▁	-10.568
republicans▁	-10.5682
option▁	-10.5682
funded▁	-10.5683
steps▁	-10.5686
countrys▁	-10.5687
lim	-10.5695
ics▁	-10.5696
concern▁	-10.57
birthday▁	-10.5701
1882▁	-10.5703
else▁	-10.5703
sad	-10.5707
120▁	-10.5709
essex▁	-10.5711
islam▁	-10.5713
serie▁	-10.5715
ers	-10.5717
set	-10.5717
patient▁	-10.5719
athlete▁	-10.572
sponsored▁	-10.572
vancouver▁	-10.572
normally▁	-10.572
oh	-10.5722
1870▁	-10.5729
isation▁	-10.5732
hum	-10.5733
boards▁	-10.5733
1864▁	-10.5735
transition▁	-10.574
assault▁	-10.574
neither▁	-10.574
leo▁	-10.5742
1861▁	-10.5743
shares▁	-10.5751
65	-10.5754
58	-10.5756
kin▁	-10.5756
amongst▁	-10.576
consider▁	-10.576
destruction▁	-10.576
declined▁	-10.576
achieve▁	-10.576
keyboards▁	-10.576
segment▁	-10.576
1878▁	-10.5762
das▁	-10.5766
vir	-10.5773
spending▁	-10.5777
acoustic▁	-10.578
munich▁	-10.578
flows▁	-10.5781
viewers▁	-10.5789
euro	-10.5797
send▁	-10.5798
sugar▁	-10.5801
detailed▁	-10.5802
rub	-10.5805
arch▁	-10.5806
news	-10.5806
rovers▁	-10.5815
1866▁	-10.5819
zar	-10.5819
beijing▁	-10.5819
thinking▁	-10.5821
ath	-10.5821
sley▁	-10.5826
mega	-10.5831
protest▁	-10.5832
berry▁	-10.5832
lay	-10.5833
shift▁	-10.5841
denied▁	-10.5841
ler	-10.5843
anime▁	-10.5847
fs▁	-10.585
77	-10.5857
ich▁	-10.5863
1872▁	-10.5863
gods▁	-10.5863
touring▁	-10.5864
colors▁	-10.5865
visible▁	-10.5867
aki▁	-10.5868
ika▁	-10.5876
kg▁	-10.5877
gat	-10.5879
similarly▁	-10.588
existed▁	-10.588
abbey▁	-10.588
sacred▁	-10.5882
run	-10.5889
eta▁	-10.5889
kai	-10.5898
ivan▁	-10.5899
bristol▁	-10.59
maps▁	-10.59
minimum▁	-10.59
nepal▁	-10.5902
book	-10.591
gall	-10.5911
milan▁	-10.5914
moves▁	-10.5915
full	-10.5917
citizen▁	-10.5921
dom	-10.5928
ll▁	-10.5929
nica▁	-10.5929
07	-10.593
derby▁	-10.5931
aim▁	-10.5932
42	-10.594
maintenance▁	-10.594
suspended▁	-10.594
ag▁	-10.5941
photo	-10.5949
radi	-10.5954
seeds▁	-10.5955
neil▁	-10.5955
riding▁	-10.5956
ami	-10.5959
essential▁	-10.5961
strongly▁	-10.5961
trump▁	-10.5963
tai	-10.597
andor▁	-10.5974
tra▁	-10.5975
departure▁	-10.5981
diplomatic▁	-10.5981
petersburg▁	-10.5981
sit	-10.5982
southeastern▁	-10.5983
ale	-10.5983
uri	-10.5988
waiting▁	-10.5992
sid	-10.5992
lion▁	-10.5996
ratio▁	-10.5997
bit	-10.5997
venture▁	-10.6
ovic▁	-10.6001
spaces▁	-10.6001
sessions▁	-10.6001
dictionary▁	-10.6001
elevation▁	-10.6001
document▁	-10.6002
hot	-10.6003
maker▁	-10.6005
wants▁	-10.6007
germans▁	-10.6008
gan▁	-10.6013
ald	-10.602
associations▁	-10.6022
vessel▁	-10.6022
massive▁	-10.6022
fen	-10.6025
overview▁	-10.6027
jobs▁	-10.6029
nell▁	-10.603
disestablished▁	-10.6037
eur▁	-10.604
larry▁	-10.6045
etta▁	-10.6047
ena▁	-10.6056
speak▁	-10.6056
lie	-10.6061
armenian▁	-10.6063
offering▁	-10.6063
clothing▁	-10.6064
partial▁	-10.6064
collins▁	-10.6064
seeking▁	-10.6065
kho	-10.6065
five	-10.6065
gn	-10.6066
kov▁	-10.6067
shan	-10.6073
fol	-10.6074
cru	-10.6074
duo▁	-10.6078
stable▁	-10.6079
gin	-10.6081
accept▁	-10.6084
adventures▁	-10.6084
not	-10.6088
prim	-10.6092
runner▁	-10.6096
cy▁	-10.6097
mail▁	-10.6098
guardian▁	-10.6104
lloyd▁	-10.6104
looked▁	-10.6104
somewhat▁	-10.6105
biological▁	-10.6105
ser▁	-10.6107
ati▁	-10.6108
path	-10.6109
dies▁	-10.611
fra	-10.6118
chester▁	-10.612
athens▁	-10.6123
leon▁	-10.6124
therapy▁	-10.6124
ley	-10.6124
attributed▁	-10.6124
physician▁	-10.6124
partly▁	-10.6126
seeing▁	-10.6127
1883▁	-10.6129
1884▁	-10.6129
till▁	-10.6132
68	-10.6132
bid▁	-10.6133
pine▁	-10.6135
79	-10.6137
tend▁	-10.614
lau	-10.6143
apartment▁	-10.6145
alternate▁	-10.6145
eggs▁	-10.6146
recommended▁	-10.6147
crowd▁	-10.6147
76	-10.6148
closer▁	-10.6148
1874▁	-10.6149
ranks▁	-10.6159
polo▁	-10.616
battles▁	-10.6162
oid▁	-10.6164
ative▁	-10.6165
variant▁	-10.6166
herbert▁	-10.6167
1868▁	-10.6169
ruling▁	-10.6172
hei	-10.6176
ru▁	-10.6176
manner▁	-10.6179
gap▁	-10.6179
09	-10.6183
lasted▁	-10.6185
implementation▁	-10.6186
sang	-10.619
trials▁	-10.6191
ballet▁	-10.6191
indoor▁	-10.6192
loop▁	-10.6195
gla	-10.6208
categories▁	-10.6209
diseases▁	-10.6209
filming▁	-10.621
texts▁	-10.6217
ado▁	-10.6221
dreams▁	-10.6222
departments▁	-10.6228
drummer▁	-10.6228
alaska▁	-10.623
commune▁	-10.623
lords▁	-10.6233
ax	-10.6236
rin	-10.6237
wei	-10.6239
fil	-10.6241
boo	-10.6243
cad	-10.6247
anglican▁	-10.6249
mani	-10.6249
archbishop▁	-10.625
syria▁	-10.625
gam	-10.625
submarine▁	-10.6253
equi	-10.6254
vegas▁	-10.6255
1875▁	-10.6256
ality▁	-10.6258
ig▁	-10.6264
dh	-10.6265
harold▁	-10.6267
nebraska▁	-10.627
effectively▁	-10.627
civilian▁	-10.627
territorial▁	-10.627
legion▁	-10.6271
enberg▁	-10.6271
dennis▁	-10.6271
press	-10.6272
stuart▁	-10.6272
clean▁	-10.6274
gates▁	-10.6283
ear	-10.6286
ign	-10.6288
ck	-10.629
ottawa▁	-10.6291
ped	-10.6296
perry▁	-10.6298
zen	-10.6304
bis	-10.6306
tournaments▁	-10.6312
operator▁	-10.6312
cooper▁	-10.6313
lem	-10.6314
hindu▁	-10.6314
tang	-10.6318
helen▁	-10.6318
anyone▁	-10.6319
ologist▁	-10.6322
raz	-10.6326
clay▁	-10.6327
merit▁	-10.6327
oz▁	-10.6329
jury▁	-10.633
pioneer▁	-10.6333
che▁	-10.6333
butler▁	-10.6334
venice▁	-10.6337
mik	-10.6338
ei▁	-10.6338
gar▁	-10.6342
moth▁	-10.6345
faces▁	-10.6349
lind	-10.6352
retail▁	-10.6353
catherine▁	-10.6354
manhattan▁	-10.6354
defending▁	-10.6354
immigration▁	-10.6356
05▁	-10.6357
usage▁	-10.6358
yar	-10.6361
tul	-10.6363
kl	-10.6367
mes	-10.6368
light	-10.6374
controversial▁	-10.6375
reputation▁	-10.6375
electricity▁	-10.6375
norfolk▁	-10.6376
wick▁	-10.6382
hn	-10.6387
preserved▁	-10.6389
vincent▁	-10.6397
bengal▁	-10.6397
hughes▁	-10.6398
mixing▁	-10.6399
tsu	-10.6399
hunting▁	-10.6402
posted▁	-10.6403
ves▁	-10.6406
aires▁	-10.6411
syrian▁	-10.6417
violent▁	-10.6418
lebanon▁	-10.6418
patrol▁	-10.6418
adelaide▁	-10.6418
reg	-10.6418
elite▁	-10.642
rb▁	-10.6422
meat▁	-10.6422
roo	-10.6424
onia▁	-10.6425
02▁	-10.6426
moral▁	-10.6438
sculpture▁	-10.6439
ralph▁	-10.6439
minority▁	-10.6439
diameter▁	-10.6439
tim	-10.644
instrument▁	-10.644
sultan▁	-10.644
sample▁	-10.6442
1849▁	-10.6442
lig	-10.6443
chin	-10.6446
vil	-10.6451
deck▁	-10.6458
feeling▁	-10.646
widespread▁	-10.646
printing▁	-10.6461
delivery▁	-10.6463
lea	-10.6465
nhl▁	-10.6465
rod▁	-10.6469
gir	-10.6472
exercise▁	-10.6482
suffering▁	-10.6482
governors▁	-10.6482
voters▁	-10.6483
false▁	-10.6483
manor▁	-10.6485
forwards▁	-10.6489
commons▁	-10.6493
emb	-10.6493
reportedly▁	-10.6503
veterans▁	-10.6503
protests▁	-10.6506
bu▁	-10.6506
etti▁	-10.6509
ura▁	-10.651
harrison▁	-10.6514
ards▁	-10.6523
hu▁	-10.6524
concerned▁	-10.6524
comparison▁	-10.6524
welfare▁	-10.6524
plastic▁	-10.6524
certified▁	-10.6525
meter▁	-10.6527
tool▁	-10.6528
gel	-10.6528
doctors▁	-10.6528
writes▁	-10.6529
but	-10.6531
cop	-10.6532
rain	-10.6536
67	-10.6538
abroad▁	-10.654
lose▁	-10.6542
occasions▁	-10.6547
heroes▁	-10.6547
foot	-10.6548
marvel▁	-10.6548
terminus▁	-10.6549
act	-10.6549
apply▁	-10.655
northwestern▁	-10.655
dogs▁	-10.6551
hood▁	-10.6553
begun▁	-10.6553
adi	-10.6556
sher	-10.6563
warriors▁	-10.6567
fellows▁	-10.6568
andre▁	-10.6569
gmina▁	-10.657
reserves▁	-10.6572
camp	-10.6573
ku▁	-10.6577
alpine▁	-10.6578
structural▁	-10.659
bennett▁	-10.659
jefferson▁	-10.659
donated▁	-10.6591
1867▁	-10.6593
throne▁	-10.6608
jet▁	-10.6609
exhibitions▁	-10.6611
inaugural▁	-10.6611
madison▁	-10.6618
tan▁	-10.6619
2007	-10.6621
imp	-10.6625
ales▁	-10.6629
wu▁	-10.663
palm▁	-10.663
nov▁	-10.6631
defenders▁	-10.6632
rebellion▁	-10.6632
regulation▁	-10.6632
hidden▁	-10.6633
dominated▁	-10.6633
denver▁	-10.6633
understand▁	-10.6635
wolf▁	-10.664
ferry▁	-10.664
reporter▁	-10.6641
aimed▁	-10.6641
ori	-10.6643
power	-10.6649
pink▁	-10.6652
benefits▁	-10.6654
baptist▁	-10.6656
fighters▁	-10.6656
kre	-10.6657
1879▁	-10.6657
hydro	-10.6669
cargo▁	-10.6672
steven▁	-10.6674
remainder▁	-10.6676
historically▁	-10.6676
recovery▁	-10.6676
sitting▁	-10.6678
buy▁	-10.6679
sav	-10.6684
bha	-10.6684
eddie▁	-10.6688
85	-10.6691
ros▁	-10.6693
buck	-10.6696
auckland▁	-10.6698
pi▁	-10.67
illegal▁	-10.6703
wild	-10.6709
shar	-10.6712
pil	-10.6713
arrangement▁	-10.672
unusual▁	-10.6724
milk▁	-10.6729
jun	-10.6735
bb▁	-10.6735
seemed▁	-10.6742
carrier▁	-10.6743
holmes▁	-10.6744
cole▁	-10.6745
nav	-10.6747
picked▁	-10.6747
keith▁	-10.6747
haven▁	-10.6758
sean▁	-10.6761
tar▁	-10.6761
breeding▁	-10.6764
convicted▁	-10.6764
belonged▁	-10.6764
obtain▁	-10.6764
immigrants▁	-10.6764
700▁	-10.6767
jacob▁	-10.6769
rd	-10.677
closing▁	-10.6772
versus▁	-10.6774
dress▁	-10.6778
mel▁	-10.678
cf▁	-10.6781
emerged▁	-10.6781
angle▁	-10.6782
submitted▁	-10.6786
symbol▁	-10.6788
blue	-10.6801
lan▁	-10.6804
kul	-10.6807
framework▁	-10.6808
berkeley▁	-10.6808
dramatic▁	-10.6808
triple▁	-10.6812
tommy▁	-10.6812
tic	-10.6817
worker▁	-10.682
mala	-10.6821
ello▁	-10.6822
behalf▁	-10.6822
viewed▁	-10.6827
aa	-10.6829
manufacturers▁	-10.683
sentenced▁	-10.683
assisted▁	-10.683
suitable▁	-10.6831
mini	-10.6831
touch▁	-10.6835
1877▁	-10.6837
funeral▁	-10.6852
immediate▁	-10.6852
eldest▁	-10.6852
practical▁	-10.6852
noble▁	-10.6854
ere▁	-10.6855
tt▁	-10.686
photos▁	-10.686
fulltime▁	-10.6863
earning▁	-10.6873
amsterdam▁	-10.6874
attracted▁	-10.6874
enforcement▁	-10.6874
east	-10.6874
1500▁	-10.6876
missed▁	-10.6876
1848▁	-10.6879
shall▁	-10.6879
trio▁	-10.688
semifinal▁	-10.6882
hall	-10.6886
gl	-10.6889
wen	-10.6891
stock	-10.6891
dock▁	-10.6895
conductor▁	-10.6896
dangerous▁	-10.6896
erected▁	-10.6896
gothic▁	-10.6896
choir▁	-10.6898
mention▁	-10.6898
yale▁	-10.6899
compositions▁	-10.69
sd	-10.6901
pho	-10.6909
cell	-10.6918
doesnt▁	-10.6919
participating▁	-10.6919
speakers▁	-10.6919
useful▁	-10.6919
quarterfinals▁	-10.6919
kerala▁	-10.6919
output▁	-10.6923
strip▁	-10.693
ci▁	-10.693
akh	-10.6931
aceae▁	-10.6936
call	-10.694
discussion▁	-10.6941
settlements▁	-10.6941
shield▁	-10.6941
sierra▁	-10.6941
exception▁	-10.6941
supports▁	-10.6941
abuse▁	-10.6941
frequent▁	-10.6941
songwriter▁	-10.6942
enti	-10.6943
businesspeople▁	-10.6944
psycho	-10.6945
conversion▁	-10.6949
uncredited▁	-10.6949
turn	-10.6955
scores▁	-10.6956
dul	-10.6959
judicial▁	-10.6964
opportunities▁	-10.6964
produces▁	-10.6964
regime▁	-10.6964
radical▁	-10.6964
affair▁	-10.6967
sla	-10.6968
riders▁	-10.6969
rowers▁	-10.6969
scar	-10.6976
101▁	-10.6978
identify▁	-10.6986
holiday▁	-10.6986
hurricane▁	-10.6986
substantial▁	-10.6986
gilbert▁	-10.6987
foster▁	-10.6987
blind▁	-10.699
fre	-10.6992
greg▁	-10.6998
grandfather▁	-10.7
component▁	-10.7009
phoenix▁	-10.7009
wise▁	-10.7011
periods▁	-10.7011
ins	-10.7012
1876▁	-10.7013
nag	-10.7017
pitch▁	-10.7017
vor	-10.7026
rob▁	-10.7026
wire▁	-10.7028
encouraged▁	-10.7031
muslims▁	-10.7031
rapidly▁	-10.7031
youngest▁	-10.7031
google▁	-10.7032
desire▁	-10.7033
craig▁	-10.7033
rush▁	-10.7035
alive▁	-10.704
ober	-10.704
stor	-10.7045
iron	-10.7047
sharp▁	-10.7047
dd	-10.7048
lab▁	-10.705
raw▁	-10.705
stress▁	-10.7052
05	-10.7053
establishing▁	-10.7054
missile▁	-10.7054
renaissance▁	-10.7054
extent▁	-10.7054
om▁	-10.7054
organic▁	-10.7055
commanded▁	-10.7056
1873▁	-10.7057
marry▁	-10.7059
poll▁	-10.7068
leigh▁	-10.7069
fla	-10.707
ives▁	-10.7072
dominant▁	-10.7074
ip▁	-10.7076
genetic▁	-10.7077
microsoft▁	-10.7077
ratings▁	-10.708
freestyle▁	-10.708
tea▁	-10.7081
rocket▁	-10.7084
kara	-10.7087
emp	-10.7087
seek▁	-10.7089
kot	-10.7099
negotiations▁	-10.7099
psychological▁	-10.7099
expert▁	-10.7099
greatly▁	-10.71
59	-10.71
romance▁	-10.7104
shi▁	-10.7104
sung▁	-10.7104
tab	-10.7118
tt	-10.712
copy▁	-10.7121
detective▁	-10.7122
molecular▁	-10.7122
percentage▁	-10.7122
characterized▁	-10.7122
raj▁	-10.7127
thats▁	-10.7127
newcastle▁	-10.7128
ever	-10.7128
rocky▁	-10.7132
say	-10.7151
lineup▁	-10.7152
shipping▁	-10.7154
marcus▁	-10.7157
kit	-10.7157
ub	-10.7158
bert	-10.7159
wealth▁	-10.7168
congressional▁	-10.7168
indicates▁	-10.7168
thick▁	-10.7172
formations▁	-10.7173
rai	-10.7175
thereafter▁	-10.7176
lav	-10.7177
lifetime▁	-10.7177
wu	-10.7178
phil	-10.7178
earn▁	-10.7182
big	-10.7187
pos	-10.7187
conclusion▁	-10.7191
gradually▁	-10.7191
connect▁	-10.7193
friday▁	-10.7197
sy▁	-10.7198
74	-10.7199
coins▁	-10.7204
hin	-10.7204
socorro▁	-10.7214
customers▁	-10.7215
night	-10.7215
ju▁	-10.7216
ils▁	-10.7219
wake▁	-10.722
sum▁	-10.7221
resort▁	-10.7223
wol	-10.7224
centres▁	-10.7228
ng▁	-10.7236
possibility▁	-10.7237
bulgarian▁	-10.7237
withdrew▁	-10.7237
guilty▁	-10.7237
add▁	-10.7237
rival▁	-10.7238
stanford▁	-10.7239
ware▁	-10.7239
columbus▁	-10.724
pointed▁	-10.724
exists▁	-10.7245
pod	-10.7247
ens	-10.7252
fee▁	-10.7252
fun	-10.7253
yn	-10.7257
patterns▁	-10.726
connections▁	-10.726
choose▁	-10.726
byzantine▁	-10.726
tenure▁	-10.726
harbor▁	-10.7261
scope▁	-10.7278
rh	-10.728
abolished▁	-10.7283
assessment▁	-10.7283
cancelled▁	-10.7283
suburb▁	-10.7283
mechanism▁	-10.7283
attending▁	-10.7283
harvey▁	-10.7283
crystal▁	-10.7284
coat▁	-10.7284
sailing▁	-10.7285
jump▁	-10.7287
key	-10.729
radio	-10.7294
gab	-10.7296
hip▁	-10.7305
concerning▁	-10.7306
bulgaria▁	-10.7306
ial▁	-10.7306
exposed▁	-10.7307
describe▁	-10.7307
old	-10.7312
sau	-10.7314
terry▁	-10.7315
reelected▁	-10.7324
bills▁	-10.7324
jean	-10.7327
monthly▁	-10.7328
diamond▁	-10.733
jacques▁	-10.733
virtual▁	-10.7331
connecting▁	-10.7331
ask▁	-10.7337
ghana▁	-10.7339
64	-10.7341
spots▁	-10.7341
ned▁	-10.7341
eva▁	-10.7342
cs	-10.7348
rig	-10.7351
ille▁	-10.7351
survive▁	-10.7353
raymond▁	-10.7353
senators▁	-10.7353
civic▁	-10.7354
kenya▁	-10.7355
cardinals▁	-10.7358
manila▁	-10.7358
neuro	-10.736
78	-10.7361
ami▁	-10.7363
ence▁	-10.7366
mars▁	-10.7367
recipient▁	-10.7376
possession▁	-10.7376
lou	-10.738
margin▁	-10.7382
pseudo	-10.7388
stein	-10.7397
org▁	-10.7397
palestine▁	-10.7399
paralympics▁	-10.7399
thanks▁	-10.74
pilots▁	-10.74
illness▁	-10.7412
ports▁	-10.7415
zer▁	-10.7418
hl	-10.7418
stylebackgroundf	-10.7418
pure▁	-10.7418
cli	-10.7421
verse▁	-10.7422
inspiration▁	-10.7423
publicly▁	-10.7425
chiefs▁	-10.7426
punk▁	-10.7427
len▁	-10.743
displayed▁	-10.7431
martin	-10.7432
roll	-10.7433
crossed▁	-10.7437
aire▁	-10.7439
shan▁	-10.7445
ultimate▁	-10.7446
1869▁	-10.7446
awareness▁	-10.7446
longest▁	-10.7448
serial▁	-10.7449
gu▁	-10.7449
cd	-10.7449
tang▁	-10.745
1857▁	-10.7452
nice▁	-10.7458
ching▁	-10.7462
cattle▁	-10.747
shanghai▁	-10.747
barcelona▁	-10.747
jurisdiction▁	-10.747
traditions▁	-10.7472
indeed▁	-10.7472
monuments▁	-10.7472
marc	-10.7474
german	-10.748
pen▁	-10.748
fr▁	-10.748
yi	-10.7489
calendar▁	-10.7494
contributing▁	-10.7494
qualify▁	-10.7494
relegated▁	-10.7494
ingly▁	-10.7494
slave▁	-10.75
oscar▁	-10.7504
asks▁	-10.7511
twenty	-10.7517
brisbane▁	-10.7517
occasion▁	-10.7518
towers▁	-10.7519
harbour▁	-10.7519
emigrants▁	-10.7521
rab	-10.7521
nan▁	-10.7522
telling▁	-10.7525
nes	-10.7526
sch▁	-10.7527
03▁	-10.7527
color	-10.7528
fisher▁	-10.7529
advice▁	-10.753
cal▁	-10.7538
proto	-10.7538
bak	-10.7538
qi	-10.754
assist▁	-10.754
achievements▁	-10.7541
boundaries▁	-10.7541
reduction▁	-10.7541
angels▁	-10.7541
grammar▁	-10.7542
autumn▁	-10.7542
gauge▁	-10.7542
1859▁	-10.7545
acres▁	-10.7545
fk▁	-10.7545
noise▁	-10.7546
fun▁	-10.7548
fair	-10.7552
abu▁	-10.7563
brun	-10.7564
nevertheless▁	-10.7565
marathon▁	-10.7565
cincinnati▁	-10.7565
diverse▁	-10.757
logic▁	-10.757
aaron▁	-10.7573
ball	-10.7576
arn	-10.7578
dell▁	-10.7579
brands▁	-10.7579
ded▁	-10.7584
enzyme▁	-10.7589
reporting▁	-10.7589
partially▁	-10.7589
indonesian▁	-10.7589
garcia▁	-10.759
left	-10.7591
linda▁	-10.7594
ongoing▁	-10.7596
ren▁	-10.7602
open	-10.7603
sei	-10.7608
incumbent▁	-10.7613
respective▁	-10.7613
weapon▁	-10.7613
traditionally▁	-10.7613
continuous▁	-10.7613
flowering▁	-10.7614
facebook▁	-10.7615
merger▁	-10.7616
shops▁	-10.7618
besides▁	-10.7619
chorus▁	-10.7622
life	-10.7624
mont▁	-10.7626
winds▁	-10.7628
ladies▁	-10.7633
hoo	-10.7633
advisory▁	-10.7637
accessible▁	-10.7637
87	-10.7637
labels▁	-10.7637
maurice▁	-10.7638
awa	-10.7639
machines▁	-10.7643
coup▁	-10.7643
thirty▁	-10.7643
bull▁	-10.7653
cio▁	-10.7653
44	-10.7658
susan▁	-10.766
relation▁	-10.766
tested▁	-10.766
ensemble▁	-10.7661
florence▁	-10.7661
dollars▁	-10.7661
volunteer▁	-10.7662
eugene▁	-10.7663
firstclass▁	-10.7663
preservation▁	-10.7664
wrong▁	-10.7664
proteins▁	-10.7665
pain▁	-10.7667
86	-10.7668
vic	-10.7669
ibn▁	-10.7673
tor▁	-10.7682
furthermore▁	-10.7685
croatia▁	-10.7685
phillips▁	-10.7685
principle▁	-10.7685
gang	-10.7692
voices▁	-10.7692
kers▁	-10.7694
academics▁	-10.7696
shire▁	-10.7696
christians▁	-10.7697
hell▁	-10.7697
ernest▁	-10.77
sl▁	-10.7701
recovered▁	-10.7703
cant	-10.7704
responded▁	-10.7708
enjoyed▁	-10.7709
elsewhere▁	-10.7709
journalism▁	-10.7709
clinton▁	-10.7709
delta▁	-10.7712
63	-10.7713
99	-10.7715
vale▁	-10.7716
ators▁	-10.7717
tanks▁	-10.7717
lying▁	-10.7731
increases▁	-10.7733
murdered▁	-10.7733
runnerup▁	-10.7733
outdoor▁	-10.7735
tol	-10.7736
66	-10.7742
sten	-10.7743
mate▁	-10.7743
part	-10.7743
bases▁	-10.7743
talking▁	-10.7743
crosses▁	-10.7744
dai	-10.7745
plat	-10.7749
blo	-10.7756
parent▁	-10.7756
reservoir▁	-10.7757
traveled▁	-10.7757
interpretation▁	-10.7758
defended▁	-10.7758
volunteers▁	-10.7761
raid▁	-10.7763
ical▁	-10.7766
rid	-10.7767
bold▁	-10.7778
saskatchewan▁	-10.7782
hebrew▁	-10.7782
hudson▁	-10.7783
disaster▁	-10.7783
outbreak▁	-10.7784
nie▁	-10.7787
saved▁	-10.7791
keys▁	-10.7795
arc	-10.7799
axis▁	-10.7801
filipino▁	-10.7806
functional▁	-10.7807
spencer▁	-10.7807
sequel▁	-10.7807
restaurants▁	-10.7807
campaigns▁	-10.7808
dt▁	-10.7812
frances▁	-10.7812
sword▁	-10.7816
talks▁	-10.7817
gear▁	-10.7819
arctic▁	-10.783
emotional▁	-10.7831
enterprise▁	-10.7831
fellowship▁	-10.7831
heaven▁	-10.7831
initiated▁	-10.7831
writings▁	-10.7831
mumbai▁	-10.7831
rhythm▁	-10.7831
ranges▁	-10.7831
yama▁	-10.7832
bee▁	-10.7835
nos▁	-10.7837
root▁	-10.7837
step	-10.7838
select▁	-10.7838
84	-10.7843
tables▁	-10.7851
comprehensive▁	-10.7855
encyclopedia▁	-10.7855
belief▁	-10.7855
leonard▁	-10.7856
allstar▁	-10.7859
zo▁	-10.7871
unless▁	-10.7879
belonging▁	-10.788
feelings▁	-10.788
venezuela▁	-10.788
decides▁	-10.788
pyr	-10.7881
decisions▁	-10.7882
unsuccessful▁	-10.7884
04▁	-10.7886
pulled▁	-10.7887
sharing▁	-10.7889
sz	-10.7894
seem▁	-10.7895
bars▁	-10.79
rein	-10.7902
gran	-10.7904
discussed▁	-10.7904
exposure▁	-10.7904
heights▁	-10.7908
line	-10.7911
liu▁	-10.7911
hat	-10.7913
och	-10.7915
clo	-10.7919
rud	-10.7921
unity▁	-10.7925
yes▁	-10.7927
nai	-10.7929
artificial▁	-10.7929
cent▁	-10.7935
oli	-10.7941
monte	-10.7945
ost	-10.7945
ut▁	-10.7953
intellectual▁	-10.7954
manufactured▁	-10.7954
swimmers▁	-10.7954
automatic▁	-10.7954
consumer▁	-10.7955
founders▁	-10.7955
worship▁	-10.7957
rebuilt▁	-10.7961
toured▁	-10.7962
sters▁	-10.7963
hear▁	-10.7964
bran	-10.7965
generated▁	-10.7969
ech	-10.7977
confederate▁	-10.7979
graduation▁	-10.7979
perspective▁	-10.7979
societies▁	-10.7979
couples▁	-10.7979
secured▁	-10.7979
heavyweight▁	-10.7979
reaches▁	-10.7979
empty▁	-10.7979
king	-10.798
resource▁	-10.7982
warsaw▁	-10.7984
kn	-10.7989
tus▁	-10.7989
thesis▁	-10.7992
fallen▁	-10.7993
zhou▁	-10.7997
corn▁	-10.8002
focuses▁	-10.8003
substitute▁	-10.8003
mathematical▁	-10.8003
statistical▁	-10.8003
sentence▁	-10.8004
topics▁	-10.8004
43	-10.801
dual▁	-10.8012
marc▁	-10.8014
zen▁	-10.8015
ori▁	-10.8018
hs▁	-10.8019
rally▁	-10.802
1850▁	-10.8024
limits▁	-10.8028
declaration▁	-10.8028
narrative▁	-10.8028
restricted▁	-10.8028
friendship▁	-10.8029
vladimir▁	-10.8029
trouble▁	-10.803
cruz▁	-10.803
cou	-10.8031
rav	-10.8033
grades▁	-10.8034
radar▁	-10.8034
remove▁	-10.8034
worst▁	-10.8035
grants▁	-10.8035
wish▁	-10.8045
ners▁	-10.8046
chen	-10.8049
descendants▁	-10.8053
implemented▁	-10.8053
promoting▁	-10.8053
banned▁	-10.8054
touchdown▁	-10.8054
beck▁	-10.8063
leon	-10.8067
prices▁	-10.8067
00▁	-10.8068
wellknown▁	-10.807
lyn	-10.8071
punjab▁	-10.8078
compiled▁	-10.8078
bag	-10.808
mason▁	-10.8085
nt	-10.8087
capt▁	-10.8088
wh	-10.8089
dre	-10.8089
globe▁	-10.8093
ceased▁	-10.8098
thin▁	-10.8102
relocated▁	-10.8102
exclusively▁	-10.8104
yugoslavia▁	-10.8104
delaware▁	-10.8104
posts▁	-10.8106
pirates▁	-10.8108
burning▁	-10.8109
informed▁	-10.8113
wick	-10.8115
exp	-10.8116
duncan▁	-10.8118
mot	-10.8126
handed▁	-10.8127
ologists▁	-10.8127
concentration▁	-10.8129
preparation▁	-10.8129
symptoms▁	-10.8129
bour	-10.8129
marys▁	-10.8135
truck▁	-10.8135
ship	-10.8137
beating▁	-10.8147
03	-10.8148
rs	-10.8149
drafted▁	-10.815
isolated▁	-10.8154
midfielders▁	-10.8154
operators▁	-10.8154
militia▁	-10.8154
presentday▁	-10.8155
rarely▁	-10.8155
plaza▁	-10.8155
1855▁	-10.8157
watson▁	-10.8157
codes▁	-10.8171
pat▁	-10.8178
assets▁	-10.8179
execution▁	-10.8179
nephew▁	-10.8179
preliminary▁	-10.8179
idaho▁	-10.8179
kitchen▁	-10.818
revised▁	-10.818
photographer▁	-10.818
telephone▁	-10.8181
internationally▁	-10.8181
luc	-10.8185
grass▁	-10.8185
dog	-10.8186
buses▁	-10.819
las	-10.8192
ique▁	-10.8194
bai	-10.8195
bos	-10.8204
challenges▁	-10.8205
autonomous▁	-10.8205
registration▁	-10.8205
azerbaijan▁	-10.8205
presidency▁	-10.8207
dismissed▁	-10.8208
uniform▁	-10.8209
assists▁	-10.8211
sci	-10.8213
ml	-10.822
nights▁	-10.8221
congo▁	-10.8222
georgian▁	-10.8222
maj	-10.8226
arabia▁	-10.8227
advocate▁	-10.823
describing▁	-10.823
commentary▁	-10.823
manuscript▁	-10.823
housed▁	-10.8231
dancer▁	-10.8232
gabriel▁	-10.8234
joy▁	-10.8235
guests▁	-10.8236
parking▁	-10.8236
love	-10.8239
ew	-10.824
hydr	-10.825
excellent▁	-10.8256
treaties▁	-10.8256
attendance▁	-10.8256
fifteen▁	-10.8257
danny▁	-10.8258
timber▁	-10.826
fast	-10.8269
lisa▁	-10.8272
lowest▁	-10.8272
attractions▁	-10.8281
influences▁	-10.8281
intention▁	-10.8281
valuable▁	-10.8281
evolved▁	-10.8281
commented▁	-10.8282
ellis▁	-10.8283
warning▁	-10.8283
nik	-10.829
fi▁	-10.8291
nit	-10.8292
hal▁	-10.8293
aw	-10.8294
tak	-10.8302
road	-10.8305
favorite▁	-10.8307
celtic▁	-10.8307
oral▁	-10.8308
insky▁	-10.831
uganda▁	-10.8313
amp	-10.8326
uz	-10.833
ordinary▁	-10.8333
constituencies▁	-10.8333
identical▁	-10.8333
murphy▁	-10.8333
thriller▁	-10.8333
pursue▁	-10.8333
midfielder▁	-10.8333
integration▁	-10.8333
anc	-10.8333
prayer▁	-10.8334
democrat▁	-10.8334
pha	-10.8339
citing▁	-10.8342
looks▁	-10.8344
manuel▁	-10.8349
110▁	-10.835
appropriate▁	-10.8351
con▁	-10.8356
believes▁	-10.8358
completing▁	-10.8358
electronics▁	-10.8358
fastest▁	-10.8359
updated▁	-10.836
ama	-10.8361
cats▁	-10.8366
hur	-10.8368
pass	-10.8373
closure▁	-10.8378
anglo	-10.8379
bern	-10.8379
burns▁	-10.838
pete▁	-10.8381
vu	-10.8381
pairs▁	-10.8383
deployed▁	-10.8384
readers▁	-10.8387
yp▁	-10.8388
aside▁	-10.8388
beam▁	-10.8393
stem▁	-10.8394
presentation▁	-10.8399
otto▁	-10.8402
ante▁	-10.8402
var▁	-10.8404
iti	-10.8407
dig	-10.8407
recognised▁	-10.841
reveals▁	-10.841
remote▁	-10.841
plates▁	-10.841
ellen▁	-10.841
pedro▁	-10.8411
locally▁	-10.8412
tiger▁	-10.8413
artwork▁	-10.8415
debt▁	-10.8415
eth	-10.8419
cycling▁	-10.8428
aj	-10.8435
excellence▁	-10.8436
suggest▁	-10.8436
fortress▁	-10.8436
ious▁	-10.8437
aro▁	-10.8438
weak▁	-10.8441
04	-10.8442
jin	-10.845
hell	-10.8457
involves▁	-10.8462
milwaukee▁	-10.8462
af▁	-10.8462
quantum▁	-10.8463
wallace▁	-10.8463
gift▁	-10.8464
shadow▁	-10.8465
copper▁	-10.8469
sak	-10.8472
tap	-10.8474
world	-10.8477
fat	-10.8477
reconstruction▁	-10.8477
cart	-10.8479
sleep▁	-10.8481
joan▁	-10.8484
lab	-10.8485
tai▁	-10.8488
corresponding▁	-10.8488
novelist▁	-10.8489
mosque▁	-10.8489
arc▁	-10.8491
clarke▁	-10.8493
helps▁	-10.8494
aero	-10.8494
heim▁	-10.8499
boss▁	-10.8502
sel▁	-10.8505
ovich▁	-10.8507
camps▁	-10.8507
emma▁	-10.851
files▁	-10.8511
ovsky▁	-10.8513
circumstances▁	-10.8514
resignation▁	-10.8514
paul	-10.8514
nominee▁	-10.8515
experiment▁	-10.8516
targets▁	-10.8516
airports▁	-10.8516
random▁	-10.8518
abad▁	-10.852
lighting▁	-10.8521
69	-10.8525
migration▁	-10.8527
waves▁	-10.8528
main	-10.8531
mc▁	-10.8533
broad	-10.8537
cuisine▁	-10.8541
supplies▁	-10.8541
morocco▁	-10.8541
fl▁	-10.8543
scho	-10.8544
northeastern▁	-10.8544
killer▁	-10.8546
recreation▁	-10.8547
school	-10.8547
flights▁	-10.855
silver	-10.8551
hat▁	-10.8551
cao▁	-10.8552
yuan▁	-10.8559
usual▁	-10.8561
will	-10.8562
libraries▁	-10.8567
christianity▁	-10.8567
slowly▁	-10.8568
pitched▁	-10.8568
landed▁	-10.8569
mansion▁	-10.8569
playstation▁	-10.8572
chambers▁	-10.8576
bet	-10.8585
presents▁	-10.8585
hart	-10.8587
4000▁	-10.8593
pianist▁	-10.8593
wealthy▁	-10.8593
andrews▁	-10.8593
nigerian▁	-10.8594
cloud▁	-10.8594
worn▁	-10.8595
ful	-10.8606
outs▁	-10.8611
fled▁	-10.8612
tions▁	-10.8614
ix	-10.8619
franc	-10.862
cyprus▁	-10.862
prague▁	-10.862
eux▁	-10.8621
ona▁	-10.8622
awa▁	-10.8623
cri	-10.8623
sony▁	-10.8624
bath▁	-10.8624
depot▁	-10.8624
sailed▁	-10.8625
kom	-10.8629
cotton▁	-10.863
basel▁	-10.8631
aga	-10.8634
game	-10.8635
rum	-10.8639
jay	-10.8645
hey	-10.8645
demonstrated▁	-10.8646
enemies▁	-10.8646
requested▁	-10.8646
literacy▁	-10.8646
ate	-10.8647
inducted▁	-10.8648
colonies▁	-10.8648
clu	-10.865
grows▁	-10.865
anth	-10.8658
ultra	-10.8661
rowing▁	-10.8662
52	-10.8671
chancellor▁	-10.8673
answer▁	-10.8673
suddenly▁	-10.8673
coffee▁	-10.8674
kri	-10.8674
enrolled▁	-10.8674
third	-10.8675
patent▁	-10.8675
editors▁	-10.8681
mau	-10.8684
125▁	-10.8685
holland▁	-10.8687
ile▁	-10.8689
see	-10.8693
org	-10.8695
900▁	-10.8698
ologi	-10.8698
exactly▁	-10.87
extinct▁	-10.87
taxonomy▁	-10.87
massacre▁	-10.87
healthcare▁	-10.87
ethics▁	-10.87
mercury▁	-10.87
clock▁	-10.8702
afc▁	-10.8703
kos	-10.8704
rhode▁	-10.8706
sign	-10.8707
rep	-10.871
clearly▁	-10.8713
01	-10.8714
switch▁	-10.8714
vo▁	-10.8717
kai▁	-10.8718
06	-10.8718
lut	-10.8722
nh	-10.8723
sheffield▁	-10.8726
collective▁	-10.8726
novelists▁	-10.8727
albanian▁	-10.8727
hardware▁	-10.8727
age	-10.8728
copa▁	-10.8733
sp▁	-10.8736
beau	-10.8746
danger▁	-10.8747
companion▁	-10.8753
examination▁	-10.8753
inspector▁	-10.8753
visits▁	-10.8755
decide▁	-10.8758
mba▁	-10.8761
ranging▁	-10.8764
allan▁	-10.8765
ces▁	-10.8767
mand	-10.8767
dependent▁	-10.877
sou	-10.8771
conventional▁	-10.8774
mt▁	-10.8775
strange▁	-10.8775
reed▁	-10.8776
certificate▁	-10.878
protocol▁	-10.878
metric▁	-10.8781
rings▁	-10.8781
dissolved▁	-10.8781
manual▁	-10.8781
committees▁	-10.8781
dawn▁	-10.8782
bog	-10.8784
1852▁	-10.8785
exit▁	-10.8785
bed	-10.8786
alpha▁	-10.8786
graphics▁	-10.8791
50000▁	-10.8793
ess▁	-10.8797
sight▁	-10.8799
hag	-10.8799
rys▁	-10.88
had	-10.8801
hul	-10.8806
carl	-10.8807
elevated▁	-10.8807
exhibited▁	-10.8807
kenneth▁	-10.8807
town	-10.8808
sox▁	-10.8811
stro	-10.8815
elli	-10.8817
iana▁	-10.8822
holder▁	-10.8823
og▁	-10.8827
fle	-10.8831
debuts▁	-10.8834
originated▁	-10.8834
commanding▁	-10.8836
bench▁	-10.884
yne▁	-10.8841
log▁	-10.8846
spe	-10.8848
solutions▁	-10.885
snow	-10.8857
chan▁	-10.8857
een▁	-10.8859
locomotive▁	-10.8861
decorated▁	-10.8861
vocalist▁	-10.8861
listings▁	-10.8861
cameron▁	-10.8862
cau	-10.8864
impossible▁	-10.8871
vary▁	-10.8872
ino	-10.8873
tube▁	-10.8877
51	-10.8879
teach▁	-10.8879
ace▁	-10.888
sir	-10.8883
eng▁	-10.8883
alo	-10.8886
lancashire▁	-10.8888
recurring▁	-10.8888
succession▁	-10.8888
removal▁	-10.8888
variations▁	-10.8889
relating▁	-10.8889
destroy▁	-10.8889
lock	-10.8894
spect	-10.8895
ea	-10.89
francois▁	-10.8903
bel▁	-10.8904
ach▁	-10.8907
pick	-10.8908
terr	-10.8912
alis▁	-10.8914
blood	-10.8915
collaborated▁	-10.8916
belongs▁	-10.8916
travels▁	-10.8916
100000▁	-10.8916
vertical▁	-10.8916
monster▁	-10.8918
skating▁	-10.8918
traded▁	-10.8918
repair▁	-10.8919
ska	-10.8919
cuban▁	-10.8919
rie▁	-10.8919
nie	-10.892
1854▁	-10.892
vast▁	-10.8921
cr▁	-10.8923
american	-10.8924
wel	-10.8927
expensive▁	-10.8936
eligible▁	-10.8936
correct▁	-10.8936
ths▁	-10.8942
stakes▁	-10.8942
procedure▁	-10.8943
supposed▁	-10.8943
citizenship▁	-10.8943
specialized▁	-10.8943
defender▁	-10.8944
victim▁	-10.8944
panama▁	-10.8945
makeup▁	-10.8946
casting▁	-10.8951
quest▁	-10.8952
ities▁	-10.8956
nadu▁	-10.896
72	-10.896
pic	-10.896
nest▁	-10.8966
exclusive▁	-10.897
aftermath▁	-10.897
ronald▁	-10.897
citations▁	-10.8971
oriented▁	-10.8973
liberty▁	-10.8973
dou	-10.8978
alia▁	-10.8978
ess	-10.8988
hem	-10.8991
uri▁	-10.8993
nov	-10.8995
rna▁	-10.8996
bac	-10.8997
acquisition▁	-10.8998
innovation▁	-10.8998
installation▁	-10.8998
somerset▁	-10.8998
workshop▁	-10.8998
gregory▁	-10.8999
pal▁	-10.9003
kick▁	-10.9004
permission▁	-10.9006
luke▁	-10.9015
int	-10.9016
chal	-10.902
shut▁	-10.9022
dispute▁	-10.9025
repeated▁	-10.9025
wasnt▁	-10.9026
wor	-10.9028
administrator▁	-10.9028
hl▁	-10.9029
quin	-10.9029
guitars▁	-10.9032
cultures▁	-10.9033
stand	-10.9034
abilities▁	-10.9037
lings▁	-10.9041
matt	-10.9045
wei▁	-10.9045
vent	-10.9045
aur	-10.9049
oni	-10.905
cha▁	-10.9051
fusion▁	-10.9051
atmosphere▁	-10.9053
gospel▁	-10.9053
travelled▁	-10.9053
warfare▁	-10.9053
tenth▁	-10.9054
hit	-10.9054
drinking▁	-10.9054
durham▁	-10.9055
porter▁	-10.9056
scan	-10.9056
diving▁	-10.9059
maj▁	-10.9061
vr	-10.9068
exact▁	-10.9071
mic	-10.9072
chor	-10.9073
earthquake▁	-10.9081
identification▁	-10.9081
relegation▁	-10.9081
isaac▁	-10.9081
fauna▁	-10.9083
ible▁	-10.9087
reforms▁	-10.9089
lung▁	-10.9094
sat▁	-10.9099
cork▁	-10.9099
cho▁	-10.91
sufficient▁	-10.9101
enters▁	-10.9108
emphasis▁	-10.9108
platinum▁	-10.9108
pupils▁	-10.9108
apo	-10.911
sham	-10.9111
nickname▁	-10.9112
louise▁	-10.9115
parade▁	-10.9118
yer▁	-10.9119
metre▁	-10.9121
eps▁	-10.9127
flat	-10.9127
error▁	-10.9129
hawks▁	-10.913
bud	-10.913
disorder▁	-10.913
sem	-10.9133
layout▁	-10.9136
attempting▁	-10.9136
exhibit▁	-10.9136
opponent▁	-10.9136
romanized▁	-10.9137
insects▁	-10.9137
ks	-10.9138
cardinal▁	-10.9138
defend▁	-10.9139
experiments▁	-10.9141
mm	-10.9142
regard▁	-10.9143
julia▁	-10.9144
apparent▁	-10.9144
ruler▁	-10.9146
sburg▁	-10.9148
tip▁	-10.9149
ala▁	-10.915
monte▁	-10.9151
forth▁	-10.9152
98	-10.9154
mud	-10.9158
park	-10.9159
wore▁	-10.9163
kov	-10.9164
brussels▁	-10.9164
advisor▁	-10.9164
garrison▁	-10.9164
nursing▁	-10.9165
relevant▁	-10.9165
cutting▁	-10.9165
options▁	-10.9166
runners▁	-10.9166
flood▁	-10.9167
dot▁	-10.9169
right	-10.9174
bow▁	-10.9179
batman▁	-10.918
cp	-10.9183
cass	-10.9188
manufacturer▁	-10.9192
quartet▁	-10.9192
beneath▁	-10.9192
knockout▁	-10.9196
guild▁	-10.9196
shes▁	-10.9199
firms▁	-10.9199
lam▁	-10.9202
indies▁	-10.9207
hindi▁	-10.9208
raising▁	-10.9214
md▁	-10.9215
discontinued▁	-10.9217
logo▁	-10.9218
bosnia▁	-10.922
thermal▁	-10.9221
samples▁	-10.9221
namely▁	-10.9222
paint▁	-10.9229
kiss▁	-10.9231
justin▁	-10.9232
sie	-10.9233
mart	-10.9234
fill▁	-10.9235
vice	-10.9236
bab	-10.9238
court	-10.9242
nancy▁	-10.9245
aboard▁	-10.9246
protestant▁	-10.9248
nashville▁	-10.9249
mainstream▁	-10.9249
antarctic▁	-10.9249
johann▁	-10.925
notice▁	-10.925
front	-10.9252
nis	-10.9252
1858▁	-10.9253
ow	-10.9253
bones▁	-10.9254
cav	-10.9257
byelection▁	-10.9257
gle	-10.9258
colored▁	-10.9259
lag	-10.926
kk	-10.9265
lar▁	-10.9266
tes	-10.9267
ries▁	-10.9268
bros▁	-10.9269
oval▁	-10.9269
gg	-10.9272
deputies▁	-10.9277
episcopal▁	-10.9277
measured▁	-10.9277
nearest▁	-10.9277
stroke▁	-10.9277
arriving▁	-10.9277
bombing▁	-10.9279
fortune▁	-10.9281
longterm▁	-10.9282
mainland▁	-10.9283
taxes▁	-10.9284
socalled▁	-10.9293
kirk	-10.9295
cen	-10.9296
latest▁	-10.9299
ung	-10.93
appeals▁	-10.9305
improvement▁	-10.9305
intermediate▁	-10.9305
sussex▁	-10.9305
payment▁	-10.9306
frontier▁	-10.9306
developments▁	-10.9307
ross	-10.9308
preserve▁	-10.9309
flash▁	-10.9309
balls▁	-10.9312
rus	-10.9317
ich	-10.9327
arrangements▁	-10.9333
package▁	-10.9334
exile▁	-10.9335
fer▁	-10.9336
slaves▁	-10.9338
spell▁	-10.9346
schi	-10.9352
div	-10.9352
ders▁	-10.9353
nagar▁	-10.9355
opens▁	-10.9358
grande▁	-10.9359
cher▁	-10.9359
aries▁	-10.936
subsidiary▁	-10.9362
reducing▁	-10.9362
seoul▁	-10.9362
thirteen▁	-10.9363
hamburg▁	-10.9364
shock▁	-10.9366
essays▁	-10.9367
priests▁	-10.9372
ads▁	-10.9373
pearl▁	-10.9381
glen	-10.9382
beer▁	-10.9386
diversity▁	-10.939
approaches▁	-10.939
lecturer▁	-10.939
settlers▁	-10.939
cylinder▁	-10.939
congregation▁	-10.939
sailors▁	-10.9391
commanders▁	-10.9392
mark	-10.9392
theology▁	-10.9393
illo▁	-10.9393
carries▁	-10.9393
mus▁	-10.9396
catch▁	-10.9398
aunt▁	-10.9398
07▁	-10.9402
loved▁	-10.9403
gru	-10.9405
nate▁	-10.9406
val▁	-10.9408
sman▁	-10.9412
extra	-10.9416
orlando▁	-10.9419
favour▁	-10.942
contracts▁	-10.942
voyage▁	-10.942
105▁	-10.9421
dialect▁	-10.9421
understood▁	-10.9422
112▁	-10.9424
grandson▁	-10.9426
carol▁	-10.9429
cuts▁	-10.9439
wards▁	-10.944
kumar▁	-10.9442
referring▁	-10.9442
medi	-10.9443
preferred▁	-10.9444
kid▁	-10.9446
altitude▁	-10.9448
sergeant▁	-10.9448
widow▁	-10.9448
alcohol▁	-10.9449
communes▁	-10.9449
reformed▁	-10.9449
bearing▁	-10.945
shots▁	-10.9451
sac	-10.9453
nobel▁	-10.9454
els	-10.9454
nathan▁	-10.9455
erie▁	-10.9455
wider▁	-10.9458
saw	-10.9458
jail▁	-10.9458
devoted▁	-10.946
tou	-10.9462
thy	-10.9465
hms▁	-10.9469
kt	-10.9472
rene▁	-10.9473
concepts▁	-10.9477
documented▁	-10.9478
departed▁	-10.9478
rankings▁	-10.9479
franz▁	-10.9479
universitys▁	-10.9483
makers▁	-10.9486
agu	-10.9487
comedian▁	-10.9487
customs▁	-10.9487
tal▁	-10.9489
handle▁	-10.9489
gue▁	-10.9489
performer▁	-10.949
ole▁	-10.9491
pala	-10.9495
warm▁	-10.9501
kw	-10.9502
scha	-10.9502
instruction▁	-10.9506
purple▁	-10.9506
theories▁	-10.9506
designation▁	-10.9506
montgomery▁	-10.9507
hispanic▁	-10.9507
95	-10.9508
show	-10.9508
georges▁	-10.9508
sculptor▁	-10.9509
watching▁	-10.9509
reverse▁	-10.952
let	-10.952
than	-10.9522
130▁	-10.9526
08▁	-10.9531
cow	-10.9534
buenos▁	-10.9535
binding▁	-10.9536
73	-10.9537
grammy▁	-10.9538
boxer▁	-10.9538
oy	-10.9539
drink▁	-10.954
lov	-10.954
lit▁	-10.9541
signals▁	-10.9542
eight	-10.9544
dum	-10.9544
carlo▁	-10.9545
bull	-10.9546
interaction▁	-10.9547
ita	-10.9549
rao▁	-10.9549
tat	-10.9551
hurst▁	-10.9559
kim	-10.9561
die	-10.9562
chapters▁	-10.9564
celebration▁	-10.9564
aff	-10.9564
leslie▁	-10.9564
mann	-10.9566
interviews▁	-10.9567
inus▁	-10.9569
khan	-10.957
backs▁	-10.9571
space	-10.9572
java▁	-10.9572
manage▁	-10.9576
fate▁	-10.9578
tics▁	-10.9586
nationalist▁	-10.959
ves	-10.959
sustainable▁	-10.9593
theatrical▁	-10.9593
manuscripts▁	-10.9593
criteria▁	-10.9593
giovanni▁	-10.9593
ud▁	-10.9593
specialist▁	-10.9593
henderson▁	-10.9593
tour	-10.9594
scotia▁	-10.9594
sha▁	-10.9596
sur▁	-10.9596
flew▁	-10.9598
ust	-10.9603
longtime▁	-10.9605
kate▁	-10.9605
tive▁	-10.9606
mei	-10.9608
itis▁	-10.9614
gram▁	-10.9619
argument▁	-10.9622
engagement▁	-10.9622
lebanese▁	-10.9622
muscle▁	-10.9622
indicating▁	-10.9622
nationwide▁	-10.9622
rebels▁	-10.9622
ups▁	-10.9623
burial▁	-10.9623
newport▁	-10.9625
prove▁	-10.9627
arnold▁	-10.9627
nord	-10.9631
interface▁	-10.9631
97	-10.9631
gue	-10.9637
pent	-10.964
peters▁	-10.9643
dia▁	-10.9648
numbered▁	-10.9649
dialogue▁	-10.9651
difficulties▁	-10.9651
foundations▁	-10.9652
ticket▁	-10.9652
jal	-10.9653
wilhelm▁	-10.9653
extend▁	-10.9654
sv	-10.9656
pushed▁	-10.9656
todd▁	-10.9659
state	-10.9663
computers▁	-10.9665
temperatures▁	-10.9681
magnetic▁	-10.9681
rev	-10.9682
radiation▁	-10.9682
waste▁	-10.9682
dec	-10.9684
sud	-10.9684
enko▁	-10.9685
dish▁	-10.9686
dying▁	-10.9686
ively▁	-10.9688
flor	-10.9692
dominican▁	-10.9696
nc▁	-10.9697
tape▁	-10.97
eva	-10.9702
sort▁	-10.9706
150	-10.9706
tion▁	-10.9709
corruption▁	-10.9709
observations▁	-10.971
murders▁	-10.9711
matrix▁	-10.9712
mu▁	-10.9712
96	-10.9713
06▁	-10.9717
sheet▁	-10.9718
dro	-10.972
lap	-10.9722
seven	-10.9724
1800▁	-10.973
bod	-10.9733
pack▁	-10.9736
zer	-10.9739
09▁	-10.9739
dynamic▁	-10.974
commenced▁	-10.974
discrimination▁	-10.974
dorothy▁	-10.974
receives▁	-10.974
restrictions▁	-10.974
princeton▁	-10.974
wellington▁	-10.9743
temples▁	-10.9743
roman	-10.9743
seg	-10.9744
hop▁	-10.9747
barb	-10.975
mod	-10.9753
pont	-10.9759
mt	-10.9765
canton▁	-10.9767
kins▁	-10.9768
passion▁	-10.9769
refugees▁	-10.977
syndrome▁	-10.977
conferences▁	-10.977
veteran▁	-10.977
programmes▁	-10.977
coached▁	-10.9771
mirror▁	-10.9772
tina▁	-10.9774
farming▁	-10.9774
1853▁	-10.9776
kay	-10.9777
farms▁	-10.9778
bau	-10.9779
backed▁	-10.9785
banking▁	-10.9787
1987	-10.9792
relay▁	-10.9798
sheriffs▁	-10.9799
afternoon▁	-10.9799
stockholm▁	-10.9799
characteristic▁	-10.98
compounds▁	-10.98
braves▁	-10.98
highways▁	-10.9802
annie▁	-10.9802
fires▁	-10.9805
quick▁	-10.9805
ces	-10.9811
nau	-10.9813
rak	-10.9823
depicted▁	-10.9829
revenge▁	-10.9829
suburbs▁	-10.9829
shoot▁	-10.983
friedrich▁	-10.9831
thu	-10.9838
app▁	-10.9838
cz	-10.9842
eli▁	-10.9845
vii▁	-10.9849
rick	-10.9852
ans	-10.9856
computing▁	-10.9859
conflicts▁	-10.9859
survivors▁	-10.9859
santiago▁	-10.9859
maz	-10.986
gameplay▁	-10.9862
tomb▁	-10.9873
suite▁	-10.9874
merc	-10.9875
dome▁	-10.9877
laura▁	-10.9886
aware▁	-10.9886
dee▁	-10.9887
tos▁	-10.9888
indianapolis▁	-10.9889
threw▁	-10.9889
observation▁	-10.9889
servant▁	-10.989
abraham▁	-10.989
public	-10.9892
cafe▁	-10.9897
heath▁	-10.99
pc	-10.9904
how	-10.9905
emerging▁	-10.9908
self▁	-10.991
enburg▁	-10.9918
seal▁	-10.9919
bachelors▁	-10.9919
delegates▁	-10.9919
ref	-10.9922
conquest▁	-10.9923
surnames▁	-10.9924
hc▁	-10.9926
egg▁	-10.9928
nam▁	-10.9929
6000▁	-10.9932
horn	-10.9935
emmy▁	-10.9939
batting▁	-10.9942
spi	-10.9947
proceedings▁	-10.9949
sculptures▁	-10.9949
solomon▁	-10.995
missionary▁	-10.995
statements▁	-10.995
lawsuit▁	-10.995
realized▁	-10.995
stamps▁	-10.9952
server▁	-10.9953
professionals▁	-10.9954
1847▁	-10.9955
vy	-10.9956
hp▁	-10.9966
plan	-10.9966
diet▁	-10.9972
mad▁	-10.9975
emily▁	-10.9976
budapest▁	-10.998
imprisoned▁	-10.998
survival▁	-10.998
editorial▁	-10.998
jamaica▁	-10.998
lopez▁	-10.998
pitcher▁	-10.9981
freight▁	-10.9984
burned▁	-10.9986
councils▁	-10.9989
interactive▁	-10.9991
plains▁	-10.9994
meyer▁	-10.9995
asc	-10.9998
1840▁	-10.9999
cool▁	-11
rug	-11.0001
theres▁	-11.0001
colin▁	-11.0003
ent▁	-11.0004
rol	-11.0005
river	-11.0007
nia▁	-11.0007
heart	-11.001
gathered▁	-11.001
predecessor▁	-11.001
tributary▁	-11.001
collapse▁	-11.001
dame▁	-11.0013
paulo▁	-11.0017
vid	-11.0027
petro	-11.003
placing▁	-11.0031
phe	-11.0033
ie	-11.0034
governing▁	-11.0041
focusing▁	-11.0041
jennifer▁	-11.0041
cartoon▁	-11.0041
olo▁	-11.0041
hotels▁	-11.0041
failing▁	-11.0042
clar	-11.0042
cks▁	-11.0043
knows▁	-11.0049
pand	-11.0054
zel	-11.0056
pir	-11.0058
you	-11.0059
ib▁	-11.0061
stan▁	-11.0062
activated▁	-11.0065
fold▁	-11.0067
administered▁	-11.0071
saxophone▁	-11.0071
exploration▁	-11.0071
bombardment▁	-11.0071
variants▁	-11.0071
victories▁	-11.0072
theological▁	-11.0072
geographic▁	-11.0072
kingston▁	-11.0072
cliff▁	-11.0073
aggregate▁	-11.0074
landmark▁	-11.0078
moo	-11.0079
ecology▁	-11.0079
dub	-11.0084
span▁	-11.0088
aboriginal▁	-11.009
caps▁	-11.0092
sullivan▁	-11.0096
owns▁	-11.0096
stops▁	-11.0096
monday▁	-11.0097
tw	-11.0098
best	-11.0102
escaped▁	-11.0102
punishment▁	-11.0102
compound▁	-11.0103
numberone▁	-11.0105
1851▁	-11.0107
newton▁	-11.0108
180▁	-11.0108
postwar▁	-11.011
owen▁	-11.0112
rebel▁	-11.012
rog	-11.0123
pale▁	-11.0126
expatriates▁	-11.0133
unanimous▁	-11.0133
audiences▁	-11.0133
master	-11.0133
lucas▁	-11.0134
stolen▁	-11.0135
llan	-11.0135
bes▁	-11.0137
fords▁	-11.0138
1856▁	-11.014
postal▁	-11.0154
hara▁	-11.0155
sig	-11.0156
nano	-11.0157
mlb▁	-11.016
kel▁	-11.0161
uv	-11.0162
assignment▁	-11.0164
distinction▁	-11.0164
wrestlers▁	-11.0164
anthology▁	-11.0164
undergraduate▁	-11.0167
joins▁	-11.0168
chang	-11.0169
plant	-11.017
shah	-11.0173
ography▁	-11.0176
rapper▁	-11.0177
carr	-11.0178
ure	-11.018
tyr	-11.0181
20000▁	-11.0186
chel	-11.0186
tag	-11.0187
oli▁	-11.0188
rosa▁	-11.0188
uc▁	-11.019
eh	-11.0192
ruth▁	-11.0193
aro	-11.0193
performers▁	-11.0194
suspension▁	-11.0195
vector▁	-11.0195
stevens▁	-11.0195
mythology▁	-11.0195
obama▁	-11.0196
sr	-11.0197
hamlet▁	-11.0198
soap▁	-11.0198
mario▁	-11.0201
scal	-11.0205
hus	-11.0205
eria▁	-11.0207
strings▁	-11.0209
deli	-11.0212
ern	-11.0213
rays▁	-11.0217
dio	-11.0218
brooks▁	-11.0221
counts▁	-11.0223
bang▁	-11.0224
aerial▁	-11.0226
portraits▁	-11.0226
download▁	-11.0226
latino▁	-11.0226
fernando▁	-11.0227
prototype▁	-11.0228
apollo▁	-11.0228
bea	-11.0241
sf▁	-11.0247
iz▁	-11.0247
burials▁	-11.0257
fundamental▁	-11.0257
aspect▁	-11.0257
edmonton▁	-11.0257
putting▁	-11.0258
phrase▁	-11.0259
lesser▁	-11.0261
comments▁	-11.0264
une▁	-11.0264
twins▁	-11.0264
operas▁	-11.0264
rose	-11.0265
kla	-11.0268
amy▁	-11.0269
zones▁	-11.0269
mas▁	-11.027
bei	-11.0272
ened▁	-11.0275
tail	-11.0275
sara	-11.0276
ufc▁	-11.0277
stat	-11.0277
mond	-11.0278
111▁	-11.0278
http	-11.0279
apa	-11.0283
dic	-11.0285
mig	-11.0286
sting▁	-11.0286
bells▁	-11.0287
casualties▁	-11.0288
chronicle▁	-11.0288
feminist▁	-11.0288
literally▁	-11.0288
surprise▁	-11.0288
traveling▁	-11.0288
diplomat▁	-11.0288
civilians▁	-11.0288
lodge▁	-11.0288
shelter▁	-11.0289
ace	-11.0289
handball▁	-11.0291
teen▁	-11.0292
josh▁	-11.0293
uf	-11.0294
blu	-11.0294
stu	-11.0301
endo	-11.0304
arg	-11.0317
hir	-11.0318
dynamics▁	-11.0319
neighboring▁	-11.0319
remembered▁	-11.0319
westminster▁	-11.0319
objective▁	-11.032
disbanded▁	-11.032
auto▁	-11.032
marshal▁	-11.0321
stone	-11.0323
ning	-11.0324
neg	-11.0326
lyn▁	-11.0326
expand▁	-11.0332
julian▁	-11.0336
rivals▁	-11.0343
blog▁	-11.0345
kap	-11.0347
edges▁	-11.0348
81	-11.0348
mouse▁	-11.035
approached▁	-11.0351
consequently▁	-11.0351
essentially▁	-11.0351
miguel▁	-11.0351
procedures▁	-11.0351
recruited▁	-11.0351
cyclists▁	-11.0351
variation▁	-11.0351
screenplay▁	-11.0351
designers▁	-11.0352
sixteen▁	-11.0352
sko	-11.0353
angel	-11.0356
prints▁	-11.036
rb	-11.0362
ras▁	-11.0363
pace▁	-11.0368
fed▁	-11.0368
input▁	-11.0369
ous	-11.037
estates▁	-11.037
dom▁	-11.0371
hav	-11.0374
sd▁	-11.0378
certification▁	-11.0382
destination▁	-11.0382
extensively▁	-11.0382
explosion▁	-11.0382
mixture▁	-11.0382
chilean▁	-11.0382
drove▁	-11.0383
columns▁	-11.0385
feels▁	-11.0386
flute▁	-11.0386
smart▁	-11.0393
tax	-11.0399
math▁	-11.0403
spa	-11.0407
efficient▁	-11.0408
sym	-11.0411
perth▁	-11.0412
trop	-11.0414
affiliate▁	-11.0414
considering▁	-11.0414
myanmar▁	-11.0414
shoulder▁	-11.0415
ingen▁	-11.0415
tia▁	-11.0415
youre▁	-11.0415
oakland▁	-11.0417
intense▁	-11.0418
custom▁	-11.0418
divine▁	-11.0419
lang▁	-11.0423
1845▁	-11.0428
displays▁	-11.0432
reader▁	-11.0434
ih	-11.0434
pap	-11.0436
bh	-11.0437
nap	-11.0437
mond▁	-11.0438
tenor▁	-11.0438
mou	-11.0438
nad	-11.0439
stick▁	-11.0442
near	-11.0444
affect▁	-11.0446
harmony▁	-11.0446
improvements▁	-11.0446
penguins▁	-11.0446
separation▁	-11.0446
temporarily▁	-11.0446
theoretical▁	-11.0446
biblical▁	-11.0446
ting	-11.0449
83	-11.0449
hai▁	-11.0449
watched▁	-11.0451
pub▁	-11.0452
creator▁	-11.0453
tre▁	-11.0456
lou▁	-11.0461
ili	-11.0465
kle	-11.0473
promised▁	-11.0476
slovenia▁	-11.0478
geographical▁	-11.0478
methodist▁	-11.0478
arrives▁	-11.0478
variable▁	-11.0479
clerk▁	-11.0479
explains▁	-11.0479
colleagues▁	-11.0479
sai	-11.0481
ax▁	-11.0483
classics▁	-11.0486
pipe▁	-11.0489
lift▁	-11.0492
interstate▁	-11.0495
hypo	-11.0495
nose▁	-11.0499
sis	-11.0502
bot	-11.0503
airfield▁	-11.0509
curriculum▁	-11.0509
distinctive▁	-11.0509
predominantly▁	-11.0509
simultaneously▁	-11.0509
broadcasts▁	-11.051
screenwriter▁	-11.051
limestone▁	-11.051
monroe▁	-11.051
felix▁	-11.051
signature▁	-11.051
cooperative▁	-11.0511
diesel▁	-11.0512
zhang▁	-11.0515
1844▁	-11.0516
bush	-11.0517
toll▁	-11.0517
shing▁	-11.052
liv	-11.0522
ement▁	-11.0531
spy▁	-11.0539
acc	-11.0541
consultant▁	-11.0542
perceived▁	-11.0542
philosopher▁	-11.0542
prestigious▁	-11.0542
terrorist▁	-11.0542
messages▁	-11.0542
esh▁	-11.0545
asking▁	-11.0545
controls▁	-11.0545
timeline▁	-11.055
ij	-11.0551
graves▁	-11.0557
breaks▁	-11.0558
alism▁	-11.0559
human	-11.0563
ably▁	-11.057
chs▁	-11.057
elimination▁	-11.0574
convoy▁	-11.0574
twoyear▁	-11.0574
estonian▁	-11.0574
generations▁	-11.0574
wet▁	-11.0574
adi▁	-11.0575
ying▁	-11.0575
yugoslav▁	-11.0575
tho	-11.0577
ati	-11.0578
atomic▁	-11.058
ense▁	-11.0582
owski▁	-11.0583
interim▁	-11.0584
anna	-11.0584
pt▁	-11.0586
motor	-11.0592
andrea▁	-11.06
raw	-11.0602
ification▁	-11.0603
mers▁	-11.0604
gers▁	-11.0605
blackandwhite▁	-11.0606
brunswick▁	-11.0607
chelsea▁	-11.0608
hay▁	-11.061
smooth▁	-11.061
hind	-11.061
rookie▁	-11.0613
hometown▁	-11.0614
width▁	-11.0614
sed▁	-11.0617
lover▁	-11.062
ares▁	-11.0625
tik	-11.0627
dinner▁	-11.0628
pit▁	-11.0632
challenged▁	-11.0638
investigations▁	-11.0638
referendum▁	-11.0638
catalogue▁	-11.0638
baronet▁	-11.0639
copyright▁	-11.0639
richardson▁	-11.0639
real	-11.064
anchor▁	-11.0643
lud	-11.0644
tate▁	-11.0644
mind	-11.0645
discovers▁	-11.0645
michel▁	-11.0645
sphere▁	-11.0647
berger▁	-11.0648
cord	-11.0651
inger▁	-11.0651
xbox▁	-11.0656
tens	-11.067
140▁	-11.067
battalions▁	-11.0671
divorce▁	-11.0671
furniture▁	-11.0671
malcolm▁	-11.0671
twitter▁	-11.0671
voluntary▁	-11.0671
demands▁	-11.0671
surrender▁	-11.0671
testament▁	-11.0672
geneva▁	-11.0672
360▁	-11.0673
taka	-11.0681
boy	-11.0683
sandy▁	-11.0683
edgar▁	-11.0683
eco	-11.0685
wheels▁	-11.0689
mtv▁	-11.0691
350▁	-11.0695
hos	-11.0695
mere▁	-11.0699
canterbury▁	-11.0703
helicopter▁	-11.0703
neighbouring▁	-11.0703
retiring▁	-11.0703
nurse▁	-11.0704
ele	-11.0705
fifty▁	-11.0706
lucky▁	-11.0709
colours▁	-11.0711
rica▁	-11.0715
rider▁	-11.072
holes▁	-11.0722
grid▁	-11.0724
anton▁	-11.0727
blake▁	-11.0728
spend▁	-11.0728
sion▁	-11.0733
rita▁	-11.0735
palestinian▁	-11.0736
presenter▁	-11.0737
ien▁	-11.0738
creates▁	-11.074
provision▁	-11.0742
reviewed▁	-11.0742
praise▁	-11.0743
sick▁	-11.0748
recalled▁	-11.0753
hearts▁	-11.0753
borg▁	-11.0755
rt	-11.0758
palm	-11.0762
eck	-11.0763
aud	-11.0764
dp▁	-11.0765
thor	-11.0766
gathering▁	-11.0769
inherited▁	-11.0769
mutual▁	-11.0769
deemed▁	-11.0769
deeply▁	-11.0771
abdul▁	-11.0773
firing▁	-11.0778
throw▁	-11.0781
sche	-11.0783
eries▁	-11.0784
ening▁	-11.0787
brook	-11.0789
viii▁	-11.0789
metro	-11.0789
mund	-11.0793
gad	-11.0793
consistent▁	-11.0795
now	-11.0801
announcement▁	-11.0802
interesting▁	-11.0802
wrestler▁	-11.0802
threats▁	-11.0802
sustained▁	-11.0803
rough▁	-11.0803
kills▁	-11.0803
snake▁	-11.0804
engage▁	-11.0808
pride▁	-11.0812
cello▁	-11.0817
avi	-11.0823
tie	-11.0825
late	-11.0827
sprint▁	-11.0828
aus	-11.0829
inscription▁	-11.0835
portsmouth▁	-11.0835
regiments▁	-11.0835
repeatedly▁	-11.0835
situations▁	-11.0835
surgeon▁	-11.0835
epic▁	-11.0837
jamie▁	-11.0839
ary	-11.0841
med▁	-11.0847
prey▁	-11.085
brown	-11.085
mit▁	-11.085
retreat▁	-11.0851
kh▁	-11.0853
loves▁	-11.0857
jon	-11.0857
mitr	-11.0858
noting▁	-11.0858
essay▁	-11.0859
thirty	-11.0859
rail	-11.086
deep	-11.0861
amb	-11.0865
reconnaissance▁	-11.0868
iraqi▁	-11.0868
localities▁	-11.0868
dubbed▁	-11.0868
belle▁	-11.0869
lithuania▁	-11.0869
retrieved▁	-11.0869
frank	-11.0875
burton▁	-11.0876
ture▁	-11.0877
sus	-11.0877
propaganda▁	-11.0894
bio▁	-11.0896
collegiate▁	-11.09
headquartered▁	-11.0901
istanbul▁	-11.0901
maharashtra▁	-11.0901
prevention▁	-11.0901
delayed▁	-11.0901
ludwig▁	-11.0901
gamb	-11.0902
synonym▁	-11.0902
oxygen▁	-11.0903
neutral▁	-11.0903
fairly▁	-11.0904
clients▁	-11.0905
earth	-11.0907
meri	-11.0908
skill▁	-11.0914
export▁	-11.0916
spir	-11.0916
cofounder▁	-11.0919
rie	-11.0921
plu	-11.0924
width	-11.0928
accurate▁	-11.0928
ously▁	-11.0933
presbyterian▁	-11.0934
travelling▁	-11.0934
discuss▁	-11.0935
conversation▁	-11.0935
moderate▁	-11.0935
bee	-11.0937
geology▁	-11.0938
his	-11.0939
amo	-11.0942
ind	-11.0943
ides▁	-11.0944
genes▁	-11.0945
tea	-11.0947
amounts▁	-11.0947
non▁	-11.0948
check▁	-11.0951
array▁	-11.0952
eating▁	-11.0956
enable▁	-11.0959
abi	-11.096
beg	-11.0962
ire▁	-11.0966
stability▁	-11.0966
behaviour▁	-11.0968
regardless▁	-11.0968
seminary▁	-11.0968
wyoming▁	-11.0968
baroque▁	-11.0968
supplied▁	-11.0968
witness▁	-11.0968
him	-11.0969
provisions▁	-11.0969
mayors▁	-11.0969
compact▁	-11.0974
planted▁	-11.0976
remember▁	-11.0979
ble▁	-11.0982
heading▁	-11.0984
deb	-11.0989
evaluation▁	-11.099
gt	-11.0995
nev	-11.0998
assassination▁	-11.1001
destroyer▁	-11.1001
intervention▁	-11.1001
superintendent▁	-11.1001
actively▁	-11.1002
ver▁	-11.1002
trainer▁	-11.1004
song	-11.1004
topped▁	-11.1008
adrian▁	-11.1009
connects▁	-11.1011
dong▁	-11.1012
glen▁	-11.1013
rat▁	-11.1021
pet▁	-11.1023
alignleft	-11.1026
wee	-11.1027
salt	-11.1029
french	-11.1029
lateral▁	-11.1033
attacking▁	-11.1035
extending▁	-11.1035
quint	-11.1035
ria▁	-11.1036
legends▁	-11.1037
reactions▁	-11.1038
explain▁	-11.1038
bailey▁	-11.1038
altered▁	-11.1039
with	-11.1039
renowned▁	-11.1039
moments▁	-11.104
102▁	-11.1041
tiny▁	-11.1041
henri▁	-11.1044
suburban▁	-11.1044
sm▁	-11.1045
bra▁	-11.1046
fort	-11.1047
phi	-11.1048
mal▁	-11.105
sized▁	-11.105
att▁	-11.1051
gill	-11.1058
jun▁	-11.1058
ket	-11.1058
rama	-11.1059
pier	-11.1064
yama	-11.1067
boulevard▁	-11.1069
conducting▁	-11.1069
suspected▁	-11.1069
devils▁	-11.1069
generate▁	-11.107
locked▁	-11.1071
confused▁	-11.1071
consequences▁	-11.1071
wat	-11.1072
elia▁	-11.1073
retain▁	-11.1073
handling▁	-11.1074
strom▁	-11.1076
aims▁	-11.1077
dav	-11.1082
rc▁	-11.1085
discover▁	-11.1088
ade▁	-11.1089
cran	-11.109
ingham▁	-11.1096
dc	-11.1098
lus	-11.1098
lect	-11.1099
rape▁	-11.1101
gaining▁	-11.1102
accidents▁	-11.1103
experts▁	-11.1103
permitted▁	-11.1103
revolt▁	-11.1103
skull▁	-11.1103
plantation▁	-11.1103
surrey▁	-11.1104
ferdinand▁	-11.1104
switched▁	-11.1104
arrive▁	-11.1104
dressed▁	-11.1105
rum▁	-11.1105
104▁	-11.1105
201314▁	-11.1105
boarding▁	-11.1106
aux▁	-11.111
par▁	-11.1112
hammer▁	-11.1112
elo	-11.1113
round	-11.1124
liner▁	-11.1124
nin	-11.1135
independently▁	-11.1137
endangered▁	-11.1137
prepare▁	-11.1137
wickets▁	-11.1137
tribal▁	-11.1138
salvador▁	-11.1139
invented▁	-11.114
iers▁	-11.1141
heir▁	-11.1141
contribute▁	-11.1142
christ	-11.115
vic▁	-11.1151
staged▁	-11.1152
ute▁	-11.1155
heli	-11.1158
orum▁	-11.1159
ame	-11.116
crest▁	-11.1161
resumed▁	-11.1165
crops▁	-11.1165
bryan▁	-11.1166
82	-11.1171
servants▁	-11.1171
strikes▁	-11.1171
scandal▁	-11.1171
improving▁	-11.1172
imposed▁	-11.1172
ds	-11.1173
ele▁	-11.1173
cannon▁	-11.1173
mature▁	-11.1174
stru	-11.1175
stern▁	-11.1178
vc▁	-11.1178
manages▁	-11.1179
shorter▁	-11.1181
bonds▁	-11.1182
cf	-11.1184
folk	-11.1184
brings▁	-11.1184
ranch▁	-11.1187
1880	-11.1188
della▁	-11.1191
ander▁	-11.1201
jets▁	-11.1203
quar	-11.1204
herzegovina▁	-11.1205
paralympic▁	-11.1205
obrien▁	-11.1205
monitor▁	-11.1205
extraordinary▁	-11.1205
seriously▁	-11.1206
specimens▁	-11.1206
consumption▁	-11.1206
albania▁	-11.1206
pursuit▁	-11.1206
rang	-11.1206
dec▁	-11.1206
yl▁	-11.1208
fiba▁	-11.121
fairy▁	-11.1212
marsh▁	-11.1213
gos	-11.1214
lynn▁	-11.1218
icus▁	-11.1222
cum	-11.1223
nee	-11.1228
ph▁	-11.1236
khu	-11.1237
commitment▁	-11.1239
gdansk▁	-11.1239
physicians▁	-11.1239
reflected▁	-11.1239
vietnamese▁	-11.1239
spectrum▁	-11.124
utility▁	-11.124
canyon▁	-11.124
volcanic▁	-11.124
rachel▁	-11.1241
bowling▁	-11.1242
knowing▁	-11.1242
springfield▁	-11.1243
1841▁	-11.1246
halls▁	-11.1247
palmer▁	-11.1248
forever▁	-11.1248
oslo▁	-11.1249
oro▁	-11.1249
tasks▁	-11.1255
boom▁	-11.1256
emi▁	-11.1265
orbit▁	-11.1271
algorithm▁	-11.1274
permanently▁	-11.1274
reflect▁	-11.1274
rifles▁	-11.1274
coron	-11.1275
rainfall▁	-11.1276
taste▁	-11.1276
sum	-11.1278
eye	-11.1281
def	-11.1282
1900	-11.1286
chang▁	-11.1291
watts▁	-11.1292
106▁	-11.1293
spirits▁	-11.1296
gene	-11.1304
itt▁	-11.1307
difficulty▁	-11.1309
legendary▁	-11.1309
prisoner▁	-11.1309
receiver▁	-11.1309
demanded▁	-11.1309
properly▁	-11.1309
martinez▁	-11.1309
fourteen▁	-11.1309
ify▁	-11.131
isle▁	-11.131
onwards▁	-11.131
cker▁	-11.1311
primera▁	-11.1311
milton▁	-11.1311
striking▁	-11.1311
cornell▁	-11.1311
upcoming▁	-11.1313
sports	-11.1318
col▁	-11.1318
treat▁	-11.1319
field	-11.1319
ret	-11.132
faster▁	-11.1322
ifying▁	-11.1322
rey▁	-11.1328
gay	-11.1334
cage▁	-11.1334
gaz	-11.1335
nacional▁	-11.1342
navigation▁	-11.1343
developer▁	-11.1343
entrepreneur▁	-11.1343
kazakhstan▁	-11.1343
uruguay▁	-11.1343
observer▁	-11.1344
counsel▁	-11.1344
quarterback▁	-11.1345
websites▁	-11.1345
telegraph▁	-11.1346
cos▁	-11.1348
belgrade▁	-11.1348
footage▁	-11.1349
paying▁	-11.1357
ente▁	-11.1359
gw	-11.1364
link	-11.1365
deals▁	-11.1368
tetra	-11.1368
mam	-11.1372
disappeared▁	-11.1372
rut	-11.1372
was	-11.1372
inhabited▁	-11.1373
wait▁	-11.1373
hub▁	-11.1373
rah	-11.1378
facade▁	-11.1378
lectures▁	-11.1378
tactics▁	-11.1378
ified▁	-11.1379
uro▁	-11.138
geological▁	-11.138
201516▁	-11.1382
wad	-11.1382
ault▁	-11.1384
pun	-11.1384
topic▁	-11.1385
sail▁	-11.1387
sts▁	-11.1388
silk▁	-11.139
iere▁	-11.1391
thur	-11.1397
feat▁	-11.1398
lib	-11.1404
reads▁	-11.1405
ssi▁	-11.1407
efficiency▁	-11.1413
butterfly▁	-11.1413
terror▁	-11.1413
glory▁	-11.1414
capabilities▁	-11.1414
bass	-11.1414
armenia▁	-11.1414
clothes▁	-11.1415
hybrid▁	-11.1415
pretty▁	-11.1415
flo	-11.1415
streaming▁	-11.1415
construct▁	-11.1417
argues▁	-11.1418
liquid▁	-11.1418
css▁	-11.1418
dd▁	-11.1423
princes▁	-11.1424
bat▁	-11.1425
hawk▁	-11.1425
spar	-11.1429
knee▁	-11.1432
feld▁	-11.1436
scout▁	-11.1439
wai	-11.144
kee	-11.1443
compensation▁	-11.1448
educator▁	-11.1448
inclusion▁	-11.1448
investigate▁	-11.1448
prevented▁	-11.1448
sebastian▁	-11.1448
personalities▁	-11.1448
lancaster▁	-11.1448
workshops▁	-11.1449
gross▁	-11.1449
7000▁	-11.145
merely▁	-11.1452
profit▁	-11.1453
sol▁	-11.1453
hawk	-11.1454
deceased▁	-11.1456
barnes▁	-11.1456
ising▁	-11.1457
nz▁	-11.1458
honey▁	-11.1466
ng	-11.1467
ideal▁	-11.1468
nasa▁	-11.1469
hung▁	-11.147
cus▁	-11.1472
lithuanian▁	-11.1474
wie	-11.148
dad▁	-11.1481
monitoring▁	-11.1483
fewer▁	-11.1483
teeth▁	-11.1484
genesis▁	-11.1484
rama▁	-11.1484
atta	-11.1486
honored▁	-11.1487
rim	-11.1487
hans	-11.1487
smoke▁	-11.1489
naming▁	-11.149
1846▁	-11.149
disorders▁	-11.1491
nu▁	-11.1492
bacteria▁	-11.1493
sag	-11.1496
fall	-11.1501
cox▁	-11.1501
midnight▁	-11.1501
thereby▁	-11.1501
carp	-11.1505
bron	-11.1506
euro▁	-11.1511
2005	-11.1518
93	-11.1518
copenhagen▁	-11.1519
warrior▁	-11.1519
dodgers▁	-11.1519
mammals▁	-11.1519
whatever▁	-11.1519
playwright▁	-11.1519
learns▁	-11.152
ee	-11.1521
nur	-11.1522
8000▁	-11.1523
hau	-11.1524
eri	-11.1524
cht▁	-11.1526
martins▁	-11.1526
patron▁	-11.1527
bala	-11.1527
drake▁	-11.1529
trans▁	-11.1531
av▁	-11.1532
https	-11.1533
oi▁	-11.1534
poles▁	-11.1535
max	-11.1539
nationals▁	-11.1541
rector▁	-11.1552
ecuador▁	-11.1554
environments▁	-11.1554
tobacco▁	-11.1554
philosophical▁	-11.1554
occasional▁	-11.1554
sheriff▁	-11.1554
alien▁	-11.1554
parishes▁	-11.1555
discipline▁	-11.1555
armies▁	-11.1557
maintains▁	-11.1558
abstract▁	-11.1558
rac	-11.1559
cooking▁	-11.1561
richards▁	-11.1561
dragons▁	-11.1561
lot	-11.1562
fever▁	-11.1562
floors▁	-11.1562
editing▁	-11.1563
walk	-11.1563
www	-11.1572
rob	-11.1582
cour	-11.1589
chef▁	-11.1589
reelection▁	-11.159
allegedly▁	-11.159
ethiopia▁	-11.159
jeremy▁	-11.159
theorem▁	-11.159
kilometers▁	-11.159
vinyl▁	-11.159
leningrad▁	-11.1591
addressed▁	-11.1592
claude▁	-11.1592
negro▁	-11.1593
201112▁	-11.1593
penn▁	-11.1593
herald▁	-11.1594
davies▁	-11.1594
farmer▁	-11.1597
ric▁	-11.1597
pu▁	-11.1603
partys▁	-11.1605
nys▁	-11.1607
nj	-11.1609
raja▁	-11.161
counter▁	-11.1611
hopes▁	-11.1611
karen▁	-11.1614
preston▁	-11.1618
moh	-11.1619
sted▁	-11.162
electron▁	-11.162
add	-11.162
assi	-11.1621
magn	-11.1625
qualifier▁	-11.1625
paradise▁	-11.1626
johnston▁	-11.1626
consist▁	-11.1626
zurich▁	-11.1627
welcome▁	-11.1627
tampa▁	-11.1628
belfast▁	-11.1628
happen▁	-11.1628
holders▁	-11.1633
doug▁	-11.1633
planets▁	-11.1634
laps▁	-11.1637
cyber	-11.1638
confederation▁	-11.1638
pl▁	-11.1641
krist	-11.1643
cock	-11.1644
witch▁	-11.165
battle	-11.165
zu▁	-11.1652
62	-11.1655
ue	-11.1658
ruins▁	-11.166
promise▁	-11.166
hugo▁	-11.166
constantinople▁	-11.1661
nintendo▁	-11.1661
trustees▁	-11.1661
siblings▁	-11.1662
easier▁	-11.1662
personally▁	-11.1662
drawings▁	-11.1663
krishna▁	-11.1665
finale▁	-11.1665
buff	-11.1666
catholics▁	-11.1669
center	-11.1672
sca	-11.1675
esh	-11.1677
iceland▁	-11.1678
aids▁	-11.1679
ges	-11.168
pis	-11.1686
kid	-11.1691
buk	-11.1692
currency▁	-11.1694
escu▁	-11.1695
portions▁	-11.1697
abortion▁	-11.1697
consensus▁	-11.1697
employee▁	-11.1697
graduates▁	-11.1697
renewed▁	-11.1697
comprises▁	-11.1698
severely▁	-11.1698
francesco▁	-11.1698
fossil▁	-11.1698
surfaces▁	-11.1699
beaten▁	-11.1705
bang	-11.1707
113▁	-11.1711
general	-11.1711
hou	-11.1712
rand	-11.1716
grain▁	-11.1717
curtis▁	-11.1722
chil	-11.1725
airline▁	-11.1727
sco	-11.1728
marion▁	-11.1728
city	-11.1729
bruno▁	-11.173
hanging▁	-11.1731
badminton▁	-11.1733
convinced▁	-11.1733
thursday▁	-11.1733
tactical▁	-11.1733
automatically▁	-11.1734
dancers▁	-11.1734
raiders▁	-11.1734
customer▁	-11.1736
runway▁	-11.1739
ine	-11.1739
1842▁	-11.1741
tc▁	-11.1741
kau	-11.1741
para▁	-11.1744
citation▁	-11.1746
nk	-11.1749
nine	-11.1754
1835▁	-11.1755
2003	-11.1756
chest▁	-11.1757
eo	-11.1759
bout▁	-11.176
rounded▁	-11.1763
ott	-11.1765
ische▁	-11.1765
beat	-11.1767
cabin▁	-11.1768
dri	-11.1768
loaded▁	-11.1768
sant	-11.1769
contestants▁	-11.177
expanding▁	-11.177
physicist▁	-11.177
attitude▁	-11.177
enabled▁	-11.177
varieties▁	-11.177
landmarks▁	-11.1771
torpedo▁	-11.1771
uprising▁	-11.1772
arcade▁	-11.1772
releasing▁	-11.1772
streak▁	-11.1773
slavery▁	-11.1773
tune▁	-11.1773
dong	-11.1777
lasting▁	-11.1777
centered▁	-11.178
detail▁	-11.1782
lins▁	-11.1788
alb	-11.1791
scom▁	-11.1793
marco▁	-11.1796
define▁	-11.1798
jam▁	-11.1798
rc	-11.1801
aberdeen▁	-11.1806
archaeology▁	-11.1806
guatemala▁	-11.1806
pomeranian▁	-11.1806
sensitive▁	-11.1806
twentieth▁	-11.1806
goalkeeper▁	-11.1806
elliott▁	-11.1806
catalina▁	-11.1806
celebrate▁	-11.1806
synthesis▁	-11.1806
spotted▁	-11.1807
bradford▁	-11.1807
yam	-11.1808
guided▁	-11.1808
201213▁	-11.1808
harper▁	-11.1809
tight▁	-11.181
dimensions▁	-11.181
dict	-11.1812
ees▁	-11.1814
lucy▁	-11.1816
thorn	-11.1819
airing▁	-11.1823
anger▁	-11.1827
tica▁	-11.1828
aging▁	-11.1833
estr	-11.1835
tori	-11.1836
premiership▁	-11.1842
holdings▁	-11.1843
plateau▁	-11.1843
maintaining▁	-11.1843
tourists▁	-11.1843
clinic▁	-11.1843
plo	-11.1844
mineral▁	-11.1844
calgary▁	-11.1845
att	-11.1846
encounter▁	-11.1846
103▁	-11.1847
ava	-11.1851
ama▁	-11.1852
wb	-11.1854
dust▁	-11.1854
errors▁	-11.1854
shak	-11.1856
bill	-11.1857
gai	-11.1858
biographical▁	-11.186
hab	-11.1864
more	-11.1865
dra▁	-11.1866
cla	-11.1874
gua	-11.1877
doctrine▁	-11.1879
halifax▁	-11.1879
pomerania▁	-11.1879
sound	-11.1879
memphis▁	-11.1879
doctorate▁	-11.1879
equation▁	-11.1879
edmund▁	-11.1879
loo	-11.188
comprising▁	-11.188
assembled▁	-11.188
shifted▁	-11.188
luxembourg▁	-11.188
000▁	-11.1881
stationed▁	-11.1881
encourage▁	-11.1882
rochester▁	-11.1883
ward	-11.1885
1836▁	-11.1886
hoped▁	-11.1889
trac	-11.1889
ave▁	-11.189
130	-11.1896
kyle▁	-11.1898
villa	-11.1898
bag▁	-11.19
30000▁	-11.1901
try	-11.1901
blade▁	-11.1904
slav	-11.1905
2004	-11.1909
forcing▁	-11.1912
uncertain▁	-11.1913
favourite▁	-11.1916
gaelic▁	-11.1916
pregnant▁	-11.1916
nay	-11.1916
investors▁	-11.1916
devon▁	-11.1918
theatres▁	-11.1919
nina▁	-11.1921
onne▁	-11.1922
chuck▁	-11.1925
sad▁	-11.1926
tissue▁	-11.1927
item▁	-11.1932
nato▁	-11.1933
dem	-11.1944
jud	-11.1945
anus▁	-11.1951
absolute▁	-11.1953
mathematician▁	-11.1953
runnersup▁	-11.1953
circulation▁	-11.1953
segments▁	-11.1953
patriots▁	-11.1953
layers▁	-11.1954
executives▁	-11.1954
autobiography▁	-11.1955
ija▁	-11.1956
nicknamed▁	-11.1956
jel	-11.1957
1837▁	-11.1958
quiet▁	-11.196
hun	-11.196
osis▁	-11.1961
indo	-11.1967
draws▁	-11.1967
allmusic▁	-11.1973
trace▁	-11.1982
inches▁	-11.1985
facts▁	-11.1987
tac	-11.199
requiring▁	-11.199
geometry▁	-11.199
cardiff▁	-11.199
caroline▁	-11.199
accessed▁	-11.1991
casino▁	-11.1991
sabha▁	-11.1991
lunar▁	-11.1992
qi▁	-11.1993
gal▁	-11.1993
crowned▁	-11.1993
finalist▁	-11.1993
duration▁	-11.1995
oy▁	-11.1999
ert	-11.2001
class	-11.2002
symbols▁	-11.2004
luk	-11.2015
sec▁	-11.2018
maxim	-11.202
sonic▁	-11.2021
bread▁	-11.2022
shirt▁	-11.2024
sberg▁	-11.2025
agree▁	-11.2026
breed▁	-11.2026
beliefs▁	-11.2027
strategies▁	-11.2027
haz	-11.2028
genres▁	-11.2029
hurling▁	-11.2029
bradley▁	-11.2029
triangle▁	-11.2029
108▁	-11.203
lessons▁	-11.203
roth	-11.2032
malta▁	-11.2034
1843▁	-11.2034
gel▁	-11.2035
picks▁	-11.2037
bce▁	-11.2043
roller▁	-11.2045
nicolas▁	-11.2045
smiths▁	-11.2046
loc	-11.2047
trend▁	-11.2049
powell▁	-11.2056
mates▁	-11.2057
methyl	-11.206
national	-11.2063
acknowledged▁	-11.2064
allegations▁	-11.2064
commissioners▁	-11.2064
favorable▁	-11.2064
maternal▁	-11.2064
occurring▁	-11.2064
sacramento▁	-11.2064
disabled▁	-11.2064
corridor▁	-11.2064
infection▁	-11.2064
curve▁	-11.2066
ort	-11.2068
name	-11.2071
94	-11.2073
submission▁	-11.2076
gaming▁	-11.2079
nick	-11.208
fro	-11.2083
cult▁	-11.2086
oids▁	-11.2087
phones▁	-11.209
aber	-11.2091
wen▁	-11.2092
kit▁	-11.2093
mon▁	-11.2097
hes	-11.2098
pers▁	-11.2099
terrain▁	-11.2099
point	-11.2099
tit	-11.2101
galaxy▁	-11.2102
leicester▁	-11.2102
targeted▁	-11.2102
gerald▁	-11.2102
virtually▁	-11.2102
crashed▁	-11.2102
bore▁	-11.2103
institutes▁	-11.2103
acre▁	-11.2104
shel	-11.2109
borne▁	-11.211
stored▁	-11.2113
reid▁	-11.2115
owing▁	-11.2122
cari	-11.2126
kaz	-11.2133
sing	-11.2135
motors▁	-11.2135
entity▁	-11.2139
developers▁	-11.2139
divorced▁	-11.2139
girlfriend▁	-11.2139
memories▁	-11.2139
optical▁	-11.2139
trumpet▁	-11.214
inland▁	-11.214
wireless▁	-11.214
cruise▁	-11.214
bourne▁	-11.214
spelling▁	-11.214
201718▁	-11.2142
perez▁	-11.2143
2013	-11.2144
willing▁	-11.2146
horse	-11.2147
bank	-11.215
cata	-11.2153
atory▁	-11.2158
nut	-11.2159
underwent▁	-11.2159
qing▁	-11.216
dys	-11.2161
inning▁	-11.2167
temp	-11.2168
arian▁	-11.2174
manitoba▁	-11.2177
newfoundland▁	-11.2177
receptor▁	-11.2177
refuge▁	-11.2177
squadrons▁	-11.2177
fights▁	-11.2177
tasmania▁	-11.2177
profession▁	-11.2177
accounting▁	-11.2178
nationally▁	-11.2178
ahmed▁	-11.2178
absorbed▁	-11.2179
afghan▁	-11.2179
ambassadors▁	-11.2179
endings▁	-11.2181
truly▁	-11.2182
mos▁	-11.2183
jag	-11.2186
shu▁	-11.2187
rell▁	-11.2188
gp▁	-11.2192
aj▁	-11.2192
poli	-11.2192
interchange▁	-11.2192
sara▁	-11.2192
duck▁	-11.2194
sever	-11.2194
trap▁	-11.2201
fees▁	-11.2205
varies▁	-11.2207
wartime▁	-11.2208
diana▁	-11.221
morrison▁	-11.2211
una▁	-11.2213
governance▁	-11.2215
merchants▁	-11.2215
lutheran▁	-11.2215
hopkins▁	-11.2215
nobility▁	-11.2215
motorcycle▁	-11.2215
tackles▁	-11.2215
treasurer▁	-11.2215
cognitive▁	-11.2216
rodriguez▁	-11.2216
capitol▁	-11.2216
townships▁	-11.2217
healthy▁	-11.2217
bombers▁	-11.2217
collecting▁	-11.2217
flooding▁	-11.2218
keyboard▁	-11.2219
sheep▁	-11.2219
oo	-11.2219
ises▁	-11.2221
ced	-11.2222
jen	-11.2225
lad	-11.2225
pot▁	-11.2225
contents▁	-11.2226
hair	-11.2228
dry	-11.2229
wolf	-11.223
ct▁	-11.2232
jac	-11.2232
breast▁	-11.2235
ahs▁	-11.2237
nk▁	-11.224
hm▁	-11.2241
dil	-11.2242
castles▁	-11.2243
particle▁	-11.2244
zy▁	-11.2245
are	-11.2248
ity	-11.225
measuring▁	-11.2253
vulnerable▁	-11.2253
automobile▁	-11.2254
fluid▁	-11.2254
html▁	-11.2254
verlag▁	-11.2258
deliver▁	-11.2258
1839▁	-11.2267
kirk▁	-11.2273
delay▁	-11.2276
ams▁	-11.2276
walt▁	-11.2277
ussr▁	-11.2277
dow	-11.2279
ania▁	-11.2285
scales▁	-11.2287
subspecies▁	-11.2288
aggressive▁	-11.2291
auxiliary▁	-11.2291
councillors▁	-11.2291
feminine▁	-11.2291
potentially▁	-11.2291
regulatory▁	-11.2291
mandatory▁	-11.2291
findings▁	-11.2291
wolves▁	-11.2292
cluster▁	-11.2292
feeding▁	-11.2292
loud▁	-11.2293
stretch▁	-11.2293
speedway▁	-11.2293
nineteenth▁	-11.2294
leather▁	-11.2295
julius▁	-11.2296
urban	-11.2298
cara	-11.2301
aut	-11.2301
fail▁	-11.2304
ures▁	-11.2304
lom	-11.2311
1830▁	-11.2316
riz	-11.2317
summ	-11.2317
sings▁	-11.2318
ein	-11.2319
cup	-11.232
hang▁	-11.2324
rides▁	-11.2327
accidentally▁	-11.2329
antarctica▁	-11.2329
gonzalez▁	-11.2329
recognize▁	-11.2329
roosevelt▁	-11.2329
translations▁	-11.2329
encountered▁	-11.2329
mang	-11.233
petition▁	-11.2332
attraction▁	-11.2333
rik	-11.2335
arr	-11.2335
ernst▁	-11.2338
rubber▁	-11.2338
saving▁	-11.2339
ming	-11.2341
lyon▁	-11.2343
cp▁	-11.2346
marking▁	-11.2348
belong▁	-11.2349
kum	-11.2352
estonia▁	-11.2355
mr	-11.2355
ars	-11.236
wong▁	-11.2361
oi	-11.2363
wwe▁	-11.2366
107▁	-11.2367
accommodate▁	-11.2368
eventual▁	-11.2368
pleasure▁	-11.2368
requirement▁	-11.2368
winnipeg▁	-11.2368
napoleon▁	-11.2368
malaysian▁	-11.2368
1812▁	-11.2369
zon	-11.2369
mess	-11.237
naples▁	-11.237
pond▁	-11.2371
120	-11.2374
throwing▁	-11.2374
wonder▁	-11.2374
rosen	-11.2375
alltime▁	-11.2375
hang	-11.2378
louis	-11.2381
2001	-11.2382
cir	-11.2382
panels▁	-11.2385
bike▁	-11.2385
nig	-11.2385
trails▁	-11.2387
oak	-11.2387
lima▁	-11.2393
marines▁	-11.2393
dream	-11.2398
hari▁	-11.2398
ancestry▁	-11.2407
apartments▁	-11.2407
consciousness▁	-11.2407
educators▁	-11.2407
enhanced▁	-11.2407
estimates▁	-11.2407
relatives▁	-11.2407
bounded▁	-11.2407
ceiling▁	-11.2407
reveal▁	-11.2407
janeiro▁	-11.2407
valid▁	-11.2407
frankfurt▁	-11.2408
footnotes▁	-11.241
subdivision▁	-11.241
ums▁	-11.2414
tong▁	-11.2414
asi▁	-11.2414
foods▁	-11.2415
reopened▁	-11.2417
thunder▁	-11.2419
canon▁	-11.242
pier▁	-11.2421
bet▁	-11.2424
fic	-11.2426
yang	-11.2431
wis	-11.2436
hon▁	-11.2437
hosting▁	-11.2438
hen▁	-11.2439
milli	-11.2443
configuration▁	-11.2445
exterior▁	-11.2445
ordained▁	-11.2445
supporter▁	-11.2445
equity▁	-11.2446
walsh▁	-11.2447
kis	-11.2447
cairo▁	-11.2448
stronger▁	-11.2448
201415▁	-11.2448
mini▁	-11.2449
cheese▁	-11.245
derek▁	-11.2451
ahmad▁	-11.2451
1838▁	-11.2453
enjoy▁	-11.2453
aldo▁	-11.2454
2006	-11.2459
reds▁	-11.2461
atlas▁	-11.2462
mili	-11.2466
ear▁	-11.2466
ences▁	-11.2476
stad▁	-11.2476
idol▁	-11.2482
hide▁	-11.2484
velocity▁	-11.2484
simpson▁	-11.2484
churchill▁	-11.2485
withdrawn▁	-11.2485
privately▁	-11.2485
decree▁	-11.2486
armstrong▁	-11.2486
mant	-11.2487
rulers▁	-11.2488
izz	-11.2493
sib	-11.2495
quarters▁	-11.2497
moor	-11.2498
brad	-11.2501
dag	-11.2504
ettes▁	-11.2508
reunion▁	-11.2509
ria	-11.251
consent▁	-11.2513
person	-11.2514
renovated▁	-11.2523
slovakia▁	-11.2523
elderly▁	-11.2523
mechanisms▁	-11.2523
observatory▁	-11.2523
bankruptcy▁	-11.2523
mechanics▁	-11.2523
pronounced▁	-11.2524
cub	-11.2525
client▁	-11.2525
rent▁	-11.2525
chat	-11.2526
sending▁	-11.2527
sia▁	-11.2527
thames▁	-11.2528
box	-11.2529
brass▁	-11.2531
preseason▁	-11.2532
kurt▁	-11.2535
chit	-11.2544
corp▁	-11.2544
iss▁	-11.255
sudan▁	-11.255
dark	-11.255
uch	-11.2554
hs	-11.2557
cod	-11.2559
led	-11.2559
overs▁	-11.2561
circular▁	-11.2562
mohammad▁	-11.2562
goddess▁	-11.2563
robot▁	-11.2563
galleries▁	-11.2563
carpenter▁	-11.2563
trinidad▁	-11.2564
acquire▁	-11.2564
chicken▁	-11.2564
cornwall▁	-11.2564
sed	-11.2564
interpreted▁	-11.2565
sleeping▁	-11.2565
ola	-11.2567
intent▁	-11.2567
luci	-11.2568
martha▁	-11.2568
kenny▁	-11.2569
mana	-11.2571
cus	-11.2572
kova▁	-11.2577
planes▁	-11.2581
hitting▁	-11.2584
hd▁	-11.2584
lett▁	-11.2588
tern	-11.2588
fat▁	-11.2589
equality▁	-11.259
jr	-11.2592
cit	-11.2595
tain	-11.2597
nr	-11.2597
roy	-11.26
1815▁	-11.26
reynolds▁	-11.2602
translator▁	-11.2602
samesex▁	-11.2602
guitarists▁	-11.2602
pursued▁	-11.2602
withdraw▁	-11.2603
basement▁	-11.2603
kosovo▁	-11.2604
cheshire▁	-11.2605
varied▁	-11.2607
julie▁	-11.2609
cu▁	-11.2609
tubes▁	-11.2609
circus▁	-11.2609
zin	-11.261
moreover▁	-11.2611
andro	-11.2612
pitt	-11.2616
oo▁	-11.2618
tub	-11.262
devil▁	-11.262
aq▁	-11.2621
vital▁	-11.2623
hua	-11.2623
fran	-11.2627
joel▁	-11.2628
cast	-11.2631
mk▁	-11.2632
spring	-11.2634
deer▁	-11.2639
oka▁	-11.2639
pg▁	-11.2641
verses▁	-11.2641
charitable▁	-11.2641
decrease▁	-11.2641
privacy▁	-11.2641
renovation▁	-11.2641
filmmaker▁	-11.2642
suffolk▁	-11.2642
sec	-11.2642
formats▁	-11.2642
silence▁	-11.2642
researcher▁	-11.2643
rca▁	-11.2643
solely▁	-11.2644
bomber▁	-11.2645
freshman▁	-11.2645
boxers▁	-11.2645
collect▁	-11.2645
scop	-11.2649
160▁	-11.265
tram▁	-11.2656
plasma▁	-11.2658
jack	-11.2658
gt▁	-11.2663
hm	-11.2666
tong	-11.2667
garage▁	-11.267
jacob	-11.2671
proof▁	-11.2674
lease▁	-11.2675
burn	-11.2677
ini	-11.268
ammunition▁	-11.2681
diagnosis▁	-11.2681
monarchs▁	-11.2681
revived▁	-11.2681
ada	-11.2682
cb▁	-11.2683
refuses▁	-11.2683
forbes▁	-11.2683
highlights▁	-11.2683
dens▁	-11.2683
glenn▁	-11.2685
coo	-11.2686
nac	-11.2691
portal▁	-11.2694
rip	-11.2698
indie▁	-11.2699
1870	-11.2702
allocated▁	-11.2708
itz▁	-11.2708
fest▁	-11.2709
ological▁	-11.2711
alma	-11.2716
71	-11.2717
confidence▁	-11.2721
enterprises▁	-11.2721
followers▁	-11.2721
implement▁	-11.2721
succeed▁	-11.2721
loading▁	-11.2721
celebrity▁	-11.2721
hausen▁	-11.2724
ral	-11.2724
201819▁	-11.2725
adoption▁	-11.2725
hey▁	-11.2727
jesse▁	-11.2728
ding	-11.273
transformed▁	-11.2731
brahm	-11.2732
push▁	-11.2733
prussia▁	-11.2736
swing▁	-11.2738
rib	-11.2742
brandon▁	-11.2745
vest	-11.2745
kala	-11.2746
pastor▁	-11.2747
arrow▁	-11.2749
constant	-11.2749
lars▁	-11.275
1890	-11.2751
disk▁	-11.2753
chinas▁	-11.2757
tig	-11.2757
109▁	-11.2757
delegation▁	-11.2761
depicting▁	-11.2761
estimate▁	-11.2761
upgraded▁	-11.2761
baldwin▁	-11.2762
granite▁	-11.2762
carved▁	-11.2762
treasure▁	-11.2763
dubai▁	-11.2763
sofia▁	-11.2763
201617▁	-11.2764
verb▁	-11.2766
banner▁	-11.2767
roma▁	-11.2767
loch▁	-11.2769
collector▁	-11.277
muller▁	-11.2771
aba	-11.2773
bats▁	-11.2776
tends▁	-11.2781
vet	-11.2782
rt▁	-11.2782
body	-11.2784
ela▁	-11.2784
pdf▁	-11.2785
mask▁	-11.2788
shim	-11.2791
yoshi	-11.2795
oides▁	-11.2795
familiar▁	-11.2795
lander▁	-11.2797
cep	-11.2798
disputed▁	-11.2801
impressive▁	-11.2801
necessarily▁	-11.2801
providence▁	-11.2801
rescued▁	-11.2801
scattered▁	-11.2801
vegetation▁	-11.2801
distant▁	-11.2801
explorer▁	-11.2801
slopes▁	-11.2801
humanity▁	-11.2802
economist▁	-11.2803
extends▁	-11.2803
cala	-11.2803
associates▁	-11.2803
loyal▁	-11.2803
robertson▁	-11.2803
dozen▁	-11.2803
dine▁	-11.2813
thunder	-11.2818
terrorism▁	-11.282
laser▁	-11.282
miss	-11.2821
cn	-11.2822
ull	-11.2823
spo	-11.2827
rest	-11.2827
monk▁	-11.2827
edwin▁	-11.2828
aea▁	-11.283
mcc	-11.2833
sic▁	-11.2836
dollar▁	-11.2842
face	-11.2843
cecil▁	-11.2844
storyline▁	-11.2844
yak	-11.2848
natur	-11.2848
augustus▁	-11.2851
script	-11.2855
tay	-11.2858
sri	-11.2863
lys	-11.2866
kinds▁	-11.287
less	-11.2871
weather	-11.2873
sty	-11.2873
izes▁	-11.2875
hook▁	-11.2876
vat	-11.288
bengali▁	-11.2882
probability▁	-11.2882
induced▁	-11.2882
technological▁	-11.2882
melody▁	-11.2882
chemist▁	-11.2883
comm	-11.2883
naga	-11.2884
modeling▁	-11.2884
ballot▁	-11.2887
interactions▁	-11.2888
betty▁	-11.2888
cost	-11.2895
rn▁	-11.29
forty▁	-11.29
1829▁	-11.2904
alle	-11.2905
boris▁	-11.2907
ive	-11.291
castle	-11.2911
117▁	-11.2911
britt	-11.2912
particles▁	-11.2914
kru	-11.2914
2011	-11.2915
walks▁	-11.2916
authorized▁	-11.2917
advocacy▁	-11.2923
geoffrey▁	-11.2923
proceeded▁	-11.2923
payments▁	-11.2923
swift▁	-11.2924
vampire▁	-11.2924
transported▁	-11.2924
scorer▁	-11.2925
lub	-11.2926
thrown▁	-11.2927
shane▁	-11.2928
boxes▁	-11.2928
burke▁	-11.2928
albany▁	-11.2929
1833▁	-11.2929
resolved▁	-11.2931
201011▁	-11.2933
lil	-11.2934
1832▁	-11.2935
diary▁	-11.2935
lick▁	-11.2935
adam	-11.294
arti	-11.2944
rows▁	-11.2945
sham▁	-11.2945
patricia▁	-11.2947
ii	-11.295
fly	-11.295
strat	-11.295
nsw▁	-11.2953
cephal	-11.2954
slam▁	-11.2958
doo	-11.2962
tonight▁	-11.2962
proposals▁	-11.2963
recreational▁	-11.2963
explore▁	-11.2964
varying▁	-11.2964
quarterly▁	-11.2964
num	-11.2964
dz	-11.2965
constantly▁	-11.2966
stamp▁	-11.2968
willie▁	-11.2971
scouts▁	-11.2971
crimin	-11.2972
pad▁	-11.2979
chains▁	-11.2979
ava▁	-11.2981
nath▁	-11.2981
logically▁	-11.2984
thy▁	-11.2984
ghe	-11.2987
hed	-11.2993
ashi▁	-11.2994
lee	-11.2995
governed▁	-11.3004
nottingham▁	-11.3004
plymouth▁	-11.3004
promotional▁	-11.3004
remarkable▁	-11.3004
sanctuary▁	-11.3004
carriage▁	-11.3004
conspiracy▁	-11.3004
missionaries▁	-11.3004
broadcaster▁	-11.3004
heinrich▁	-11.3005
darkness▁	-11.3005
cyclist▁	-11.3005
quer	-11.3005
bend▁	-11.3008
knocked▁	-11.3009
carroll▁	-11.3009
mani▁	-11.3012
beth▁	-11.3015
troy▁	-11.3015
stre	-11.3016
rath	-11.3016
familys▁	-11.3016
proclaimed▁	-11.3019
deca	-11.3019
ques▁	-11.302
erson▁	-11.3023
1200▁	-11.3023
fbi▁	-11.3028
tem	-11.303
khal	-11.303
ore	-11.3034
kay▁	-11.3035
rah▁	-11.3035
spin▁	-11.3037
dau	-11.3038
stur	-11.3039
afl▁	-11.3041
sequences▁	-11.3043
aki	-11.3044
enlisted▁	-11.3044
gio▁	-11.3045
earths▁	-11.3045
innovative▁	-11.3045
involve▁	-11.3045
manufacture▁	-11.3045
emirates▁	-11.3046
publish▁	-11.3046
tallest▁	-11.3046
lecture▁	-11.3046
orientation▁	-11.3046
lightweight▁	-11.3046
cherry▁	-11.3047
gill▁	-11.3047
directing▁	-11.3049
eff	-11.305
ws▁	-11.305
child	-11.305
ortho	-11.3052
peer▁	-11.3054
beast▁	-11.3057
opus▁	-11.3058
miniseries▁	-11.3058
bes	-11.306
streams▁	-11.306
seized▁	-11.3061
daw	-11.3062
pav	-11.3063
thal	-11.3064
tty▁	-11.3073
swan▁	-11.3078
griffin▁	-11.3081
rap▁	-11.3087
availability▁	-11.3087
instructions▁	-11.3087
specifications▁	-11.3087
suggesting▁	-11.3087
rainbow▁	-11.3087
fraud▁	-11.3088
eurovision▁	-11.3088
duchy▁	-11.3088
closest▁	-11.3091
iw	-11.3093
hn▁	-11.3096
clear	-11.3098
last	-11.3099
yong	-11.3105
sent	-11.3107
bl▁	-11.3107
moses▁	-11.3107
riots▁	-11.3109
backup▁	-11.3113
zoo▁	-11.3115
paris	-11.3116
ws	-11.3117
macro	-11.3118
oda▁	-11.3121
beck	-11.3123
tir	-11.3126
pres	-11.3128
buddhism▁	-11.3128
certainly▁	-11.3128
governorate▁	-11.3128
practitioners▁	-11.3128
treasury▁	-11.3128
withdrawal▁	-11.3128
suffrage▁	-11.3128
lightning▁	-11.3129
pleasant▁	-11.313
impressed▁	-11.313
keeper▁	-11.3131
dealing▁	-11.3131
ema▁	-11.3132
clyde▁	-11.3132
oriental▁	-11.3135
muk	-11.3135
metal	-11.3137
santos▁	-11.3139
iano▁	-11.3139
anga▁	-11.314
millions▁	-11.3141
149	-11.3146
alexandra▁	-11.3147
lanes▁	-11.3148
db▁	-11.3153
ure▁	-11.3156
finn	-11.316
amanda▁	-11.3161
threeyear▁	-11.3162
agreements▁	-11.3167
edo▁	-11.3168
complicated▁	-11.317
glacier▁	-11.317
macedonia▁	-11.317
provisional▁	-11.317
witnesses▁	-11.317
touchdowns▁	-11.317
investments▁	-11.317
bavaria▁	-11.3171
desired▁	-11.3172
screening▁	-11.3172
doubt▁	-11.3173
mentions▁	-11.3173
ota▁	-11.3173
sn▁	-11.3174
squ	-11.3174
static▁	-11.3175
acclaim▁	-11.3175
ico▁	-11.3176
viola▁	-11.3177
conjunction▁	-11.318
vel▁	-11.3181
mary	-11.3181
450▁	-11.3185
cloth▁	-11.3192
oliv	-11.3195
viewing▁	-11.3196
lens▁	-11.3197
yon	-11.32
greene▁	-11.3202
locks▁	-11.3204
roses▁	-11.3205
kro	-11.3206
browns▁	-11.3206
uttar▁	-11.3207
ade	-11.321
councillor▁	-11.3212
fiscal▁	-11.3212
ue▁	-11.3214
photograph▁	-11.3214
theodore▁	-11.3215
loose▁	-11.3218
atp▁	-11.322
liber	-11.3221
ys	-11.3222
reserved▁	-11.3227
odd▁	-11.3228
trips▁	-11.3228
denis▁	-11.3229
cyclone▁	-11.3229
odi	-11.323
myr	-11.3233
astro	-11.3233
prote	-11.3237
wool	-11.3238
caves▁	-11.3238
fuji	-11.3239
hayes▁	-11.3242
iri▁	-11.3244
sb▁	-11.3244
1821▁	-11.3246
stri	-11.3247
2002	-11.3248
rican▁	-11.325
flies▁	-11.3251
ats▁	-11.3252
myc	-11.3253
rhe	-11.3253
decreased▁	-11.3254
imported▁	-11.3254
imprisonment▁	-11.3254
leipzig▁	-11.3254
noticed▁	-11.3254
petroleum▁	-11.3254
sectors▁	-11.3254
larvae▁	-11.3254
tibetan▁	-11.3254
pottery▁	-11.3254
listening▁	-11.3254
rio	-11.3254
hams▁	-11.3254
flagship▁	-11.3255
pour▁	-11.3255
practiced▁	-11.3255
silva▁	-11.3256
guidance▁	-11.3256
lifestyle▁	-11.3257
rebounds▁	-11.3258
ole	-11.3258
200910▁	-11.3258
vicepresident▁	-11.3259
ville	-11.3259
rae▁	-11.3261
1834▁	-11.3262
tailed▁	-11.3265
central	-11.3266
crews▁	-11.3267
intra	-11.3267
crop▁	-11.3268
there	-11.3268
paths▁	-11.3272
oro	-11.3272
mull	-11.3273
sf	-11.3273
read	-11.3273
get	-11.3277
azi	-11.3277
penn	-11.3286
stown▁	-11.3287
lamp	-11.3293
aga▁	-11.3293
1831▁	-11.3293
lance▁	-11.3294
pounds▁	-11.3295
advancing▁	-11.3296
explanation▁	-11.3296
kingdoms▁	-11.3296
universiade▁	-11.3296
preparing▁	-11.3296
batteries▁	-11.3296
diploma▁	-11.3297
rational▁	-11.3298
infant▁	-11.3299
australias▁	-11.33
sai▁	-11.3301
shal	-11.3301
ern▁	-11.3303
nest	-11.3304
todays▁	-11.3305
barn▁	-11.3307
jor	-11.3307
1820▁	-11.331
jays▁	-11.331
webb▁	-11.3312
insul	-11.3315
pip	-11.3316
sue▁	-11.3324
od▁	-11.3326
alignright	-11.3329
finger▁	-11.3329
ima	-11.3335
bgcolorccffcc▁	-11.3338
examined▁	-11.3338
holocaust▁	-11.3338
separately▁	-11.3338
telugu▁	-11.3338
viscount▁	-11.334
fitz	-11.3342
shaft▁	-11.3342
transformation▁	-11.3343
amazon▁	-11.3343
stephens▁	-11.3344
bulk▁	-11.3352
lovers▁	-11.3355
hansen▁	-11.3357
restore▁	-11.3358
unclear▁	-11.3366
stylebackgroundc	-11.3367
pr▁	-11.3368
lum	-11.3373
domin	-11.3377
tle	-11.3377
fox	-11.3379
nz	-11.3381
worcester▁	-11.3381
clergy▁	-11.3381
justices▁	-11.3381
alexandria▁	-11.3382
macdonald▁	-11.3384
bry	-11.3385
latin	-11.3386
fiji▁	-11.3387
unified▁	-11.3388
viv	-11.339
etic▁	-11.3391
oneyear▁	-11.3392
andre	-11.3393
too	-11.3393
cm	-11.3393
enc	-11.3394
ske	-11.34
2008	-11.34
umb	-11.3406
dining▁	-11.3407
ith	-11.3412
allo	-11.3419
cote▁	-11.3422
fis	-11.3422
advised▁	-11.3424
attractive▁	-11.3424
collapsed▁	-11.3424
matthews▁	-11.3424
pollution▁	-11.3424
shakespeare▁	-11.3424
belarus▁	-11.3424
sponsor▁	-11.3424
disciplinary▁	-11.3424
chennai▁	-11.3424
machinery▁	-11.3424
agrees▁	-11.3424
breakfast▁	-11.3424
rehabilitation▁	-11.3425
tribune▁	-11.3426
bott	-11.3426
arte▁	-11.3426
permit▁	-11.3426
cottage▁	-11.3427
catalog▁	-11.3428
gov	-11.3428
marble▁	-11.3429
norton▁	-11.3429
tract▁	-11.3432
mercy▁	-11.3434
ef▁	-11.3437
potter▁	-11.3437
115▁	-11.3439
laur	-11.3439
ved	-11.344
esses▁	-11.3442
kovic▁	-11.3444
wald▁	-11.3445
prussian▁	-11.3449
mia▁	-11.3454
kad	-11.3455
bob	-11.3456
cure▁	-11.3457
cb	-11.3458
kane▁	-11.3464
demo▁	-11.3465
anthem▁	-11.3465
accomplished▁	-11.3467
emeritus▁	-11.3467
initiatives▁	-11.3467
judgment▁	-11.3467
neighborhoods▁	-11.3467
neighbourhood▁	-11.3467
surveillance▁	-11.3467
systematic▁	-11.3467
inquiry▁	-11.3467
teammate▁	-11.3467
papua▁	-11.3467
fraser▁	-11.3467
ovi	-11.3467
colombian▁	-11.3467
angry▁	-11.3468
capita▁	-11.3468
michelle▁	-11.3469
dh▁	-11.347
nell	-11.3471
kei	-11.3473
kan▁	-11.3481
jug	-11.3483
demon▁	-11.3485
sion	-11.349
ink▁	-11.3494
middle	-11.3495
cali	-11.3498
tyler▁	-11.3502
1997	-11.3503
evangel	-11.3507
diagnosed▁	-11.351
responses▁	-11.351
linux▁	-11.351
astronomy▁	-11.351
encounters▁	-11.351
fitness▁	-11.351
tension▁	-11.351
pocket▁	-11.3511
acs▁	-11.3512
beds▁	-11.3512
teenage▁	-11.3512
equally▁	-11.3512
minim	-11.3514
notre▁	-11.3515
2015	-11.3515
pf	-11.3515
naka	-11.3518
georg▁	-11.3519
homeland▁	-11.3519
erik▁	-11.3519
iae▁	-11.352
mina	-11.3524
hir▁	-11.3527
flags▁	-11.3529
elena▁	-11.353
als	-11.353
haw	-11.3531
vista▁	-11.3531
newman▁	-11.3532
bal▁	-11.3533
aly	-11.3533
card	-11.3534
gia▁	-11.3535
counted▁	-11.3544
ide▁	-11.3545
young	-11.3548
lun	-11.355
easter▁	-11.355
continent▁	-11.3552
concentrated▁	-11.3553
instructor▁	-11.3553
intensity▁	-11.3553
prairie▁	-11.3553
thoughts▁	-11.3553
depicts▁	-11.3553
detection▁	-11.3553
playwrights▁	-11.3553
inaugurated▁	-11.3553
artifacts▁	-11.3553
lifted▁	-11.3555
beats▁	-11.3558
confusion▁	-11.3558
shrine▁	-11.3558
marin	-11.3561
123▁	-11.3562
absent▁	-11.3566
woodland▁	-11.3568
house	-11.3569
base	-11.3574
witt	-11.3576
61	-11.358
matic▁	-11.3582
urged▁	-11.3585
itch▁	-11.3587
cake▁	-11.3588
tko▁	-11.3594
accuracy▁	-11.3596
ancestors▁	-11.3596
mysterious▁	-11.3596
slovak▁	-11.3597
opposing▁	-11.3597
legally▁	-11.3597
jorge▁	-11.3597
circles▁	-11.3598
phillies▁	-11.3598
submarines▁	-11.3598
rotation▁	-11.3599
sketch▁	-11.36
aus▁	-11.36
vacant▁	-11.36
cohen▁	-11.3602
trim▁	-11.3602
quinn▁	-11.3603
barrel▁	-11.3604
consequence▁	-11.3605
roh	-11.3608
ulus▁	-11.3611
upset▁	-11.3612
vers	-11.3612
vig	-11.3614
ances▁	-11.3617
rox	-11.362
morph	-11.3624
moul	-11.3629
brighton▁	-11.3633
randy▁	-11.3635
watch	-11.3639
recover▁	-11.3639
invitation▁	-11.364
promising▁	-11.364
timothy▁	-11.364
humanities▁	-11.364
crazy▁	-11.364
theaters▁	-11.3641
photographic▁	-11.3641
consul▁	-11.3643
integral▁	-11.3643
baltic▁	-11.3643
pauls▁	-11.3644
cott	-11.3645
rushing▁	-11.3646
kind	-11.3648
transfers▁	-11.3651
indias▁	-11.3652
allamerican▁	-11.3653
cycl	-11.3655
bombs▁	-11.3659
eat▁	-11.3661
chu▁	-11.3662
lined▁	-11.3662
empress▁	-11.3663
ata	-11.3665
nets▁	-11.3668
aven	-11.3671
shoes▁	-11.3671
media	-11.3675
sizes▁	-11.3676
hak	-11.368
plum	-11.368
135▁	-11.3684
humanitarian▁	-11.3684
innocent▁	-11.3684
introducing▁	-11.3684
luxury▁	-11.3684
gibson▁	-11.3684
brigadier▁	-11.3684
jenkins▁	-11.3684
priority▁	-11.3684
horizontal▁	-11.3685
qatar▁	-11.3685
crawford▁	-11.3685
builder▁	-11.3685
arsenal▁	-11.3686
curator▁	-11.3686
shortlived▁	-11.3686
coleman▁	-11.3691
spite▁	-11.3693
tc	-11.3696
wives▁	-11.3697
beside▁	-11.3699
uci▁	-11.37
tender▁	-11.3702
admission▁	-11.3705
ease▁	-11.3706
nish	-11.3709
ong	-11.3713
oria▁	-11.3717
gens▁	-11.3719
aka	-11.3719
ices▁	-11.372
hov	-11.3724
sv▁	-11.3725
alps▁	-11.3726
ay▁	-11.3726
residing▁	-11.3728
coordinator▁	-11.3728
etymology▁	-11.3728
stepped▁	-11.3728
forestry▁	-11.3728
simulation▁	-11.3728
critically▁	-11.3729
small	-11.373
interviewed▁	-11.3731
boeing▁	-11.3731
test	-11.3733
chau	-11.3736
sep	-11.3738
grandmother▁	-11.3739
skiing▁	-11.3741
2012	-11.3742
crafts▁	-11.3743
block	-11.3746
201920▁	-11.3748
archi	-11.3748
haus▁	-11.3751
persi	-11.3751
reprinted▁	-11.3752
mato	-11.3754
mach	-11.3755
gian	-11.3758
zor	-11.3759
oc▁	-11.376
styl	-11.3766
rm	-11.3767
dai▁	-11.3768
inn	-11.3769
iah▁	-11.3771
rus▁	-11.3771
embarked▁	-11.3772
jeffrey▁	-11.3772
suspect▁	-11.3772
kilometres▁	-11.3773
textile▁	-11.3773
prizes▁	-11.3773
sudden▁	-11.3774
jungle▁	-11.3775
directory▁	-11.3776
trip	-11.3776
proven▁	-11.3777
barn	-11.3779
marching▁	-11.3781
outcome▁	-11.3782
hunters▁	-11.3782
paramount▁	-11.3786
romans▁	-11.3786
fingers▁	-11.3788
contra	-11.3788
cups▁	-11.379
carn	-11.379
parttime▁	-11.3791
hero	-11.3793
cole	-11.3794
ged▁	-11.3797
ass▁	-11.3797
anton	-11.3798
wheat▁	-11.38
scots▁	-11.3802
bulls▁	-11.3816
conceived▁	-11.3817
demonstration▁	-11.3817
measurement▁	-11.3817
referee▁	-11.3817
sponsorship▁	-11.3817
illustrations▁	-11.3817
cl▁	-11.3818
theo	-11.3819
bid	-11.3819
uma▁	-11.3819
maple▁	-11.382
fabric▁	-11.382
type	-11.3822
stadt▁	-11.3823
italian	-11.3824
lots▁	-11.3824
trucks▁	-11.3825
sunk▁	-11.3832
allireland▁	-11.3832
umi▁	-11.3832
tau	-11.3842
lug	-11.3845
hub	-11.3846
tali	-11.3847
1860	-11.3848
puts▁	-11.3851
osaka▁	-11.3851
rent	-11.3854
antoni	-11.3857
judaism▁	-11.3861
orchid▁	-11.3861
phenomenon▁	-11.3861
vowel▁	-11.3861
montenegro▁	-11.3862
spacecraft▁	-11.3862
gus▁	-11.3862
jackie▁	-11.3864
naturally▁	-11.3864
odz▁	-11.3864
salary▁	-11.3865
capability▁	-11.3865
mud▁	-11.3865
minimal▁	-11.3866
strait▁	-11.3866
badly▁	-11.3867
past	-11.3867
traces▁	-11.3868
tus	-11.3869
mastering▁	-11.387
colli	-11.3871
inventor▁	-11.3873
rai▁	-11.3873
alberto▁	-11.3875
bassist▁	-11.3875
logical▁	-11.3876
acion▁	-11.3878
nom	-11.3879
dishes▁	-11.3885
tch▁	-11.3885
vad	-11.3894
sport	-11.3894
kes	-11.3895
cry▁	-11.3896
cab	-11.3897
ail	-11.3904
accordance▁	-11.3906
emperors▁	-11.3906
exhibits▁	-11.3906
venezuelan▁	-11.3906
controller▁	-11.3906
hypothesis▁	-11.3907
ecological▁	-11.3907
louisville▁	-11.3907
jumping▁	-11.3908
plaque▁	-11.3908
ashes▁	-11.3909
claire▁	-11.391
august	-11.391
toy▁	-11.391
leone▁	-11.3911
joy	-11.3915
cent	-11.3916
gains▁	-11.3917
ucla▁	-11.3918
midlands▁	-11.3919
mack▁	-11.3919
itz	-11.3924
ichi▁	-11.3925
wi▁	-11.3927
handbook▁	-11.3927
sally▁	-11.3934
gong▁	-11.3937
major	-11.3937
rex▁	-11.3939
bing▁	-11.3939
das	-11.394
eira▁	-11.394
solid	-11.3944
clean	-11.3946
unofficial▁	-11.3946
lanc	-11.3949
slo	-11.3949
consolidated▁	-11.3951
elaborate▁	-11.3951
membrane▁	-11.3951
molecules▁	-11.3951
occupy▁	-11.3951
vicinity▁	-11.3951
stylefontsize	-11.3951
acceptance▁	-11.3951
directions▁	-11.3952
acute▁	-11.3953
barrier▁	-11.3953
200	-11.3954
eman▁	-11.3955
wr▁	-11.3956
sex	-11.3957
flown▁	-11.3959
tracy▁	-11.3962
buch	-11.3963
riv	-11.3963
karl	-11.3964
casey▁	-11.3964
alter▁	-11.3966
mast	-11.3966
tens▁	-11.3967
oma▁	-11.3968
sive▁	-11.3968
vernon▁	-11.3972
ina	-11.3973
removing▁	-11.3974
sworth▁	-11.3976
luck▁	-11.3976
2014	-11.3977
repairs▁	-11.3977
agnes▁	-11.3979
likes▁	-11.3985
edit▁	-11.3987
soft	-11.3989
cum▁	-11.399
rau	-11.3992
algebra▁	-11.3997
ceremonies▁	-11.3997
questioned▁	-11.3997
yield▁	-11.3997
zimbabwe▁	-11.3997
windsor▁	-11.3997
physically▁	-11.3997
omaha▁	-11.3997
politically▁	-11.3997
rafael▁	-11.3998
ect	-11.4
thi▁	-11.4003
physi	-11.4004
sof	-11.4005
depends▁	-11.4007
proportion▁	-11.4008
lighthouse▁	-11.4009
chip▁	-11.4009
aya	-11.4011
pes▁	-11.4011
tide▁	-11.4013
steam	-11.4015
disability▁	-11.4016
tum	-11.4017
esc	-11.4017
film	-11.4017
cock▁	-11.4018
zoo	-11.4021
hate▁	-11.4022
freeman▁	-11.4023
entries▁	-11.4028
rei	-11.403
presenting▁	-11.4032
moor▁	-11.4034
gem	-11.4036
rendered▁	-11.4041
consideration▁	-11.4042
costume▁	-11.4042
discussions▁	-11.4042
enormous▁	-11.4042
incorporating▁	-11.4042
recommendations▁	-11.4042
creatures▁	-11.4042
organizing▁	-11.4042
300	-11.4043
hitler▁	-11.4044
maiden▁	-11.4045
podcast▁	-11.4045
concerto▁	-11.4045
rises▁	-11.405
canadas▁	-11.4051
def▁	-11.4052
bach	-11.4054
ovo▁	-11.4056
gott	-11.4056
maya▁	-11.4056
moss▁	-11.4057
nett	-11.406
lund▁	-11.4065
lia	-11.407
fred	-11.4074
artist	-11.4077
sb	-11.4078
dir	-11.4082
noel▁	-11.4088
accompanying▁	-11.4088
alignment▁	-11.4088
attorneys▁	-11.4088
bucharest▁	-11.4088
madagascar▁	-11.4088
pablo▁	-11.4088
bundesliga▁	-11.4088
jessica▁	-11.4088
vul	-11.4088
courage▁	-11.4089
kuwait▁	-11.4089
rope▁	-11.409
philippe▁	-11.4092
bolivia▁	-11.4094
walked▁	-11.4096
monica▁	-11.4097
tas	-11.4097
itv▁	-11.4099
ney	-11.4101
nun	-11.4102
rem	-11.4105
num▁	-11.4108
doc▁	-11.4113
heating▁	-11.4114
tl	-11.4115
summers▁	-11.4116
1828▁	-11.4116
1826▁	-11.4117
cili	-11.4118
yat	-11.412
keen▁	-11.412
ego▁	-11.4123
shir	-11.4127
phr	-11.4129
jar▁	-11.4129
guil	-11.4131
got	-11.4132
cream▁	-11.4133
chronicles▁	-11.4134
condemned▁	-11.4134
couldnt▁	-11.4134
crucial▁	-11.4134
deployment▁	-11.4134
introduce▁	-11.4134
momentum▁	-11.4134
prospect▁	-11.4134
southampton▁	-11.4134
perception▁	-11.4134
httpswww	-11.4134
secular▁	-11.4134
joshua▁	-11.4134
swimmer▁	-11.4134
quoted▁	-11.4134
wagner▁	-11.4134
oil	-11.4135
underlying▁	-11.4136
coloured▁	-11.4136
bergen▁	-11.4137
odi▁	-11.4138
liked▁	-11.4139
espn▁	-11.4141
lone▁	-11.4142
nga	-11.4143
tones▁	-11.4147
ches	-11.4149
jake▁	-11.4149
herman▁	-11.415
drives▁	-11.4151
liver▁	-11.4152
logan▁	-11.4153
handled▁	-11.4155
strain▁	-11.4156
aud▁	-11.4165
algeria▁	-11.4165
idio	-11.4169
afro	-11.417
finite▁	-11.4171
ory▁	-11.4173
masa	-11.4175
subway▁	-11.4178
cellular▁	-11.418
ots▁	-11.418
believing▁	-11.418
considers▁	-11.418
consulting▁	-11.418
synagogue▁	-11.418
yankees▁	-11.418
czechoslovakia▁	-11.418
unfortunately▁	-11.418
tackle▁	-11.4181
salmon▁	-11.4181
cowboys▁	-11.4181
europa▁	-11.4181
tongue▁	-11.4181
aesthetic▁	-11.4181
wesley▁	-11.4183
video	-11.4183
commissions▁	-11.4184
gow	-11.4185
heath	-11.4187
adel	-11.4189
acclaimed▁	-11.4189
hollow▁	-11.419
cet	-11.419
fet	-11.4191
york	-11.4193
naked▁	-11.4194
pull▁	-11.4196
dive▁	-11.4197
storms▁	-11.4197
fon	-11.42
modes▁	-11.4202
02	-11.4203
contr	-11.4204
dense▁	-11.4207
ena	-11.4209
moy	-11.4212
ono	-11.4213
strict▁	-11.4216
oaks▁	-11.4221
scot	-11.4221
harm▁	-11.4224
ht	-11.4225
demonstrate▁	-11.4226
fountain▁	-11.4226
prompted▁	-11.4226
protecting▁	-11.4226
sacrifice▁	-11.4226
gujarat▁	-11.4226
typhoon▁	-11.4226
dirty▁	-11.4227
torture▁	-11.4227
math	-11.4228
roberto▁	-11.423
thomson▁	-11.423
elling▁	-11.4232
monks▁	-11.4232
dissolution▁	-11.4232
comment▁	-11.4233
charted▁	-11.4233
1823▁	-11.4234
wing	-11.4234
realm▁	-11.4234
mood▁	-11.4237
shen	-11.4237
dimensional▁	-11.4241
oto	-11.4246
mack	-11.4246
bits▁	-11.4251
russ	-11.4252
shiv	-11.4253
isi	-11.4254
fork▁	-11.4255
pill	-11.4256
yel	-11.4257
lil▁	-11.4263
wang	-11.4264
mori	-11.4265
john	-11.4266
baj	-11.4266
kawa▁	-11.4268
yr	-11.4269
stake▁	-11.4271
bangkok▁	-11.4272
carnegie▁	-11.4272
complications▁	-11.4272
exercises▁	-11.4272
floyd▁	-11.4272
pioneers▁	-11.4272
sheikh▁	-11.4272
take	-11.4273
ora▁	-11.4273
criticised▁	-11.4273
spelled▁	-11.4273
redesignated▁	-11.4273
licence▁	-11.4273
dylan▁	-11.4274
hydrogen▁	-11.4274
nascar▁	-11.4276
deposits▁	-11.4277
latvia▁	-11.4278
mine	-11.4279
minerals▁	-11.4279
secret	-11.4279
tracking▁	-11.428
lengths▁	-11.4281
patri	-11.4284
rot▁	-11.4287
raced▁	-11.429
huang▁	-11.4291
eni▁	-11.4292
blair▁	-11.4292
roland▁	-11.4293
ibm▁	-11.4298
sey	-11.4298
lec	-11.43
even	-11.4309
ander	-11.4314
kara▁	-11.4315
loans▁	-11.4318
competitor▁	-11.4319
helsinki▁	-11.4319
missiles▁	-11.4319
obvious▁	-11.4319
protagonist▁	-11.4319
escort▁	-11.4319
settle▁	-11.4319
tuesday▁	-11.4319
tunisia▁	-11.4319
amazing▁	-11.4319
110	-11.4319
panthers▁	-11.4319
altar▁	-11.4319
nixon▁	-11.432
webster▁	-11.432
fill	-11.4321
trunk▁	-11.4321
totally▁	-11.4321
dha	-11.4322
lesbian▁	-11.4322
croft▁	-11.4323
wheeler▁	-11.4324
consumers▁	-11.4324
beta▁	-11.4326
emigrated▁	-11.4326
dialects▁	-11.4327
esia▁	-11.4327
lal▁	-11.4329
marina▁	-11.433
ela	-11.4332
jin▁	-11.4332
eden▁	-11.4333
dana▁	-11.4334
downs▁	-11.4335
mara	-11.4337
gren	-11.4338
sal▁	-11.4338
thermo	-11.4338
mandate▁	-11.4341
gio	-11.4344
buck▁	-11.4345
sim▁	-11.4349
elles▁	-11.4349
hardy▁	-11.4349
taxi▁	-11.4351
sit▁	-11.4354
metr	-11.4355
400	-11.4356
cubs▁	-11.4357
fy	-11.436
dm	-11.436
tran	-11.4363
rite▁	-11.4366
collaborative▁	-11.4366
cultivation▁	-11.4366
karnataka▁	-11.4366
solving▁	-11.4366
largescale▁	-11.4366
hampton▁	-11.4367
ox▁	-11.4367
hetero	-11.4368
aw▁	-11.437
cadet▁	-11.4373
clause▁	-11.4374
bitter▁	-11.4374
zam	-11.4374
1822▁	-11.4375
hack	-11.4379
oka	-11.4381
blocked▁	-11.4383
xs▁	-11.4383
tham▁	-11.4383
119▁	-11.4384
pter	-11.4386
sided▁	-11.4386
bride▁	-11.4388
llc▁	-11.4389
kha▁	-11.4389
boh	-11.4398
cam▁	-11.4399
kow	-11.4401
aviv▁	-11.4402
343	-11.4405
maybe▁	-11.4406
1998	-11.4408
morton▁	-11.441
ref▁	-11.441
atletico▁	-11.4413
ecclesiastical▁	-11.4413
expelled▁	-11.4413
fletcher▁	-11.4413
philosophers▁	-11.4413
taipei▁	-11.4413
linguistic▁	-11.4414
guidelines▁	-11.4414
softball▁	-11.4414
ground	-11.4415
munster▁	-11.4415
retro	-11.4415
eighteen▁	-11.4415
linking▁	-11.4416
social	-11.4416
lik	-11.4416
author	-11.4417
clon	-11.4417
determination▁	-11.4417
dental▁	-11.4418
interrupted▁	-11.4418
cedar▁	-11.4418
performs▁	-11.4427
ven▁	-11.4428
trek▁	-11.4429
raion▁	-11.443
hua▁	-11.4435
gs	-11.4436
sutton▁	-11.4437
ado	-11.4438
tam▁	-11.444
miners▁	-11.4447
ular▁	-11.4448
specified▁	-11.4453
tis	-11.4453
andr	-11.4458
xx▁	-11.4459
comparative▁	-11.4461
pavilion▁	-11.4461
rivalry▁	-11.4461
invaded▁	-11.4461
statues▁	-11.4461
kill	-11.4461
decoration▁	-11.4461
conventions▁	-11.4461
fragments▁	-11.4461
contracted▁	-11.4461
invention▁	-11.4461
activation▁	-11.4461
awardwinning▁	-11.4461
explored▁	-11.4462
phases▁	-11.4462
batt	-11.4467
ador	-11.4469
boot	-11.447
womans▁	-11.4473
tow	-11.4473
greenland▁	-11.4474
bees▁	-11.4475
gy▁	-11.4477
ui▁	-11.4477
janet▁	-11.4483
asa	-11.4485
hale▁	-11.4487
sherman▁	-11.449
gross	-11.4492
mick▁	-11.4493
1910	-11.4495
geni	-11.4496
tian	-11.4505
gil▁	-11.4506
achieving▁	-11.4508
happens▁	-11.4508
pregnancy▁	-11.4508
responsibilities	-11.4508
premises▁	-11.4508
taiwanese▁	-11.4508
bombay▁	-11.4508
auction▁	-11.4508
corporations▁	-11.4508
trapped▁	-11.4509
typ	-11.4509
thorpe▁	-11.4509
delegate▁	-11.4509
agon	-11.4511
oe	-11.4512
warrant▁	-11.4514
faction▁	-11.4516
lawn▁	-11.4516
sweet	-11.4518
monkey▁	-11.452
agh▁	-11.4528
alk	-11.4531
mir▁	-11.4531
pol▁	-11.4545
census	-11.4549
honda▁	-11.4549
cine	-11.455
yam▁	-11.4551
cer▁	-11.4553
pau	-11.4555
correspondence▁	-11.4556
unveiled▁	-11.4556
likewise▁	-11.4556
objectives▁	-11.4556
botanical▁	-11.4557
gg▁	-11.4557
folded▁	-11.4557
orbital▁	-11.4557
johannes▁	-11.4558
wound▁	-11.4558
prohibited▁	-11.4558
supervision▁	-11.456
hik	-11.456
aq	-11.4562
hawaiian▁	-11.4562
hap	-11.4563
oxide▁	-11.4564
lob	-11.4566
update▁	-11.4567
march	-11.4568
ears▁	-11.4569
text	-11.4571
egg	-11.4571
1825▁	-11.4573
wn	-11.4573
daniels▁	-11.4575
ases▁	-11.4576
nay▁	-11.4577
irs▁	-11.4578
wc	-11.458
board	-11.458
ours▁	-11.4581
woo	-11.4581
moon	-11.4582
prat	-11.4582
lt	-11.4584
dad	-11.4584
serv	-11.459
nl▁	-11.4594
1814▁	-11.4594
challenging▁	-11.4604
investigated▁	-11.4604
pterostichus▁	-11.4604
surgical▁	-11.4604
wednesday▁	-11.4604
analyst▁	-11.4604
knife▁	-11.4604
midland▁	-11.4604
mapping▁	-11.4605
rapids▁	-11.4605
generating▁	-11.4605
minneapolis▁	-11.4605
rhodes▁	-11.4607
religions▁	-11.4608
worthy▁	-11.4608
intact▁	-11.4608
salem▁	-11.4608
vert▁	-11.4611
jerome▁	-11.4611
preference▁	-11.4614
df	-11.4615
nak	-11.4615
128▁	-11.4616
adh	-11.4617
eros▁	-11.4619
aug	-11.4619
cob	-11.4619
lily▁	-11.4623
perr	-11.4626
amar	-11.4627
pig	-11.4628
mg	-11.4628
stefan▁	-11.4628
160	-11.4629
atr	-11.4633
unt	-11.4633
davi	-11.4634
chap	-11.4635
ane	-11.4642
venus▁	-11.4644
gee▁	-11.4646
vine▁	-11.4648
eus▁	-11.4651
imper	-11.4651
iy	-11.4651
conquered▁	-11.4653
contestant▁	-11.4653
demolition▁	-11.4653
institutional▁	-11.4653
regulated▁	-11.4653
tanzania▁	-11.4653
wanderers▁	-11.4653
narrator▁	-11.4653
schemes▁	-11.4653
gravity▁	-11.4653
nese▁	-11.4653
sovereign▁	-11.4654
ott▁	-11.4654
magical▁	-11.4655
yearend▁	-11.4655
anu	-11.4656
torres▁	-11.4656
mhz▁	-11.4656
gerard▁	-11.4658
brand	-11.4659
elo▁	-11.466
bullet▁	-11.466
cleared▁	-11.4661
angles▁	-11.4662
vene	-11.4664
season	-11.4665
jing	-11.4666
postseason▁	-11.4666
yas	-11.4667
1819▁	-11.4667
moni	-11.467
mesa▁	-11.4671
franco▁	-11.4673
grim	-11.4673
hiding▁	-11.4677
spor	-11.4679
ido▁	-11.4681
ero	-11.4685
gag	-11.469
dice▁	-11.4696
ritual▁	-11.4701
contributor▁	-11.4701
custody▁	-11.4701
opinions▁	-11.4701
peruvian▁	-11.4701
postponed▁	-11.4701
proceeds▁	-11.4701
settings▁	-11.4701
anthropology▁	-11.4701
protesters▁	-11.4701
200809▁	-11.4702
masculine▁	-11.4702
oceania▁	-11.4702
sdale▁	-11.4703
specimen▁	-11.4703
badge▁	-11.4703
ballad▁	-11.4703
transactions▁	-11.4705
jos	-11.4705
lott	-11.4705
buddy▁	-11.4705
chapman▁	-11.4707
brad▁	-11.4707
helena▁	-11.471
bah	-11.4711
40000▁	-11.4711
michaels▁	-11.4715
squares▁	-11.4715
pirate▁	-11.4715
chand	-11.472
buy	-11.472
nr▁	-11.4721
slight▁	-11.4722
guer	-11.4723
ence	-11.4724
nash▁	-11.4725
1600▁	-11.4726
booth▁	-11.473
chem	-11.4732
blacks▁	-11.4733
mort	-11.4737
subfamily▁	-11.4737
uch▁	-11.4739
kut	-11.4746
dams▁	-11.4749
challenger▁	-11.475
coordinates▁	-11.475
detected▁	-11.475
reptiles▁	-11.475
wizard▁	-11.475
forgotten▁	-11.475
jointly▁	-11.4751
winchester▁	-11.4751
bot▁	-11.4752
ulster▁	-11.4753
ao	-11.4756
isnt▁	-11.4758
shark▁	-11.4758
sas	-11.4759
shallow▁	-11.476
mph▁	-11.476
vac	-11.476
lieutenant	-11.4762
hurt▁	-11.4763
fake▁	-11.4764
92	-11.4765
diaz▁	-11.4766
undertaken▁	-11.4766
iff	-11.4772
prop	-11.4773
omar▁	-11.4775
reviewer▁	-11.4779
formula	-11.4783
kno	-11.4783
alma▁	-11.4784
raf	-11.4785
bred▁	-11.4786
goal	-11.4787
fouryear▁	-11.479
map	-11.4794
hatt	-11.4795
decorative▁	-11.4799
eclipse▁	-11.4799
ingredients▁	-11.4799
presumably▁	-11.4799
supplement▁	-11.4799
bulletin▁	-11.4799
curved▁	-11.4799
pierce▁	-11.48
myself▁	-11.48
sharks▁	-11.48
pyramid▁	-11.48
114▁	-11.48
dimension▁	-11.4801
screened▁	-11.4802
reverend▁	-11.4802
longdistance▁	-11.4803
percy▁	-11.4803
td▁	-11.4803
bess	-11.4803
listen▁	-11.4804
nut▁	-11.4807
nil	-11.4811
bene	-11.4813
rue▁	-11.4819
liam▁	-11.482
lds▁	-11.4821
tears▁	-11.4823
slot▁	-11.4836
pd	-11.4838
dem▁	-11.484
suc	-11.4842
gb▁	-11.4843
sze	-11.4844
iko▁	-11.4845
elvis▁	-11.4847
advocated▁	-11.4848
derbyshire▁	-11.4848
paraguay▁	-11.4848
partnered▁	-11.4848
whenever▁	-11.4848
complexity▁	-11.4848
frozen▁	-11.4848
factories▁	-11.4848
averaged▁	-11.4849
android▁	-11.4849
christine▁	-11.4849
boyfriend▁	-11.4849
eyed▁	-11.485
differ▁	-11.4851
bey▁	-11.4852
donna▁	-11.4852
jenny▁	-11.4853
nas▁	-11.4854
141▁	-11.4855
gou	-11.4858
steep▁	-11.4858
raja	-11.486
unsuccessfully▁	-11.4869
bre▁	-11.4869
cove▁	-11.4873
carey▁	-11.4875
pall	-11.4877
live	-11.4877
cofounded▁	-11.4878
lal	-11.488
pose▁	-11.4882
dances▁	-11.4882
paw	-11.4883
isa	-11.4888
lai	-11.4888
isa▁	-11.4889
entities▁	-11.4896
millennium▁	-11.4898
penalties▁	-11.4898
trilogy▁	-11.4898
illustrator▁	-11.4898
fossils▁	-11.4898
proximity▁	-11.4898
wisdom▁	-11.4898
organize▁	-11.4898
controlling▁	-11.4898
collectors▁	-11.4898
apostolic▁	-11.4898
documentation▁	-11.4898
nervous▁	-11.4898
200708▁	-11.4898
archdiocese▁	-11.4899
chestnut▁	-11.49
marketed▁	-11.4901
quadr	-11.4902
tucker▁	-11.4902
flames▁	-11.4903
baum▁	-11.4903
inter▁	-11.4903
patt	-11.4904
albion▁	-11.4905
sometime▁	-11.4906
isles▁	-11.4909
brain	-11.4911
ista▁	-11.4911
pus	-11.4911
phon	-11.4914
whats▁	-11.4914
chaos▁	-11.4915
skilled▁	-11.492
xa	-11.4921
steal▁	-11.4922
roth▁	-11.4923
tails▁	-11.4923
angela▁	-11.4924
gma▁	-11.4927
neur	-11.4929
bays▁	-11.4934
dent	-11.4934
eck▁	-11.4936
peaks▁	-11.4937
220▁	-11.4937
glo	-11.4938
wo▁	-11.494
shima▁	-11.4942
140	-11.4942
1995	-11.4945
controversies▁	-11.4947
disputes▁	-11.4947
distinguish▁	-11.4947
everyday▁	-11.4947
requests▁	-11.4947
decorations▁	-11.4947
correspondent▁	-11.4947
drag	-11.4948
shoots▁	-11.4948
tribunal▁	-11.4948
photographers▁	-11.4948
steering▁	-11.4949
warned▁	-11.4949
trailer▁	-11.495
convert▁	-11.495
chaired▁	-11.4951
vert	-11.4951
devi	-11.4952
object	-11.4952
riverside▁	-11.4952
2009	-11.4953
buying▁	-11.4954
savage▁	-11.4956
homo	-11.4959
uw	-11.4961
aided▁	-11.4961
arabian▁	-11.4966
poi	-11.4969
informal▁	-11.4972
340	-11.4975
khar	-11.4981
pom	-11.4984
clara▁	-11.4986
heats▁	-11.4987
andreas▁	-11.4987
ske▁	-11.4987
nm▁	-11.4988
action	-11.4989
combe▁	-11.4989
cologne▁	-11.4997
consistently▁	-11.4997
forbidden▁	-11.4997
gloucester▁	-11.4997
inception▁	-11.4997
excess▁	-11.4997
exeter▁	-11.4997
wikipedia▁	-11.4997
armored▁	-11.4997
commentator▁	-11.4997
countess▁	-11.4997
defeats▁	-11.4997
communists▁	-11.4998
medalist▁	-11.4998
127▁	-11.4998
sidney▁	-11.4999
poorly▁	-11.4999
worse▁	-11.4999
offici	-11.5
madonna▁	-11.5001
wished▁	-11.5001
deutsche▁	-11.5002
consort▁	-11.5003
gut	-11.5003
patch▁	-11.5004
bicycle▁	-11.5005
sheets▁	-11.5005
maxwell▁	-11.5005
wir	-11.5007
pes	-11.5007
cheng▁	-11.501
brooke▁	-11.5011
1824▁	-11.5012
tooth▁	-11.5013
125	-11.5015
lic▁	-11.5019
uddin▁	-11.5023
verbs▁	-11.5024
visa▁	-11.5025
345	-11.5026
stern	-11.5029
sle	-11.5031
fus	-11.5032
phy	-11.5036
marg	-11.5036
adds▁	-11.5037
1996	-11.5041
any	-11.5046
nal	-11.5047
inscriptions▁	-11.5048
tek	-11.5048
threatening▁	-11.5048
uruguayan▁	-11.5048
wilderness▁	-11.5048
gastropod▁	-11.5048
organisms▁	-11.5048
limitations▁	-11.5048
philharmonic▁	-11.5048
slope▁	-11.5048
doctoral▁	-11.5048
nurses▁	-11.5048
gifts▁	-11.5048
professionally▁	-11.5048
commercially▁	-11.5048
airborne▁	-11.5049
davidson▁	-11.505
convent▁	-11.5052
dead	-11.5053
imaging▁	-11.5053
1793▁	-11.5054
sandstone▁	-11.5054
tibet▁	-11.5056
amino▁	-11.5057
clare▁	-11.5058
viral▁	-11.5059
gent	-11.5062
echo	-11.5063
nave▁	-11.5064
pec	-11.5064
idi	-11.5065
500	-11.5066
eda▁	-11.5068
santo▁	-11.5071
122▁	-11.5075
anita▁	-11.5079
rana▁	-11.5081
trem	-11.5081
underwater▁	-11.5083
uta▁	-11.5085
butt	-11.5086
dl▁	-11.5087
anders▁	-11.5088
mic▁	-11.5088
throat▁	-11.5092
mom	-11.5096
constituent▁	-11.5098
facilitate▁	-11.5098
insisted▁	-11.5098
tunnels▁	-11.5098
cruiser▁	-11.5098
newark▁	-11.5099
ethical▁	-11.5099
bestselling▁	-11.5099
optional▁	-11.5099
immigrant▁	-11.5099
valencia▁	-11.5099
230▁	-11.5099
impression▁	-11.5101
echo▁	-11.5101
openly▁	-11.5103
storey▁	-11.5103
bypass▁	-11.5103
angola▁	-11.5104
jos▁	-11.5104
somewhere▁	-11.5105
bolton▁	-11.5106
1798▁	-11.5117
hermann▁	-11.512
our	-11.5121
winters▁	-11.5123
sli	-11.5124
ene	-11.5126
team	-11.5126
scrap	-11.5126
poo	-11.5128
etts▁	-11.513
fish	-11.513
ete▁	-11.5131
viol	-11.5132
tended▁	-11.5134
break	-11.5139
116▁	-11.514
25000▁	-11.5141
sends▁	-11.5146
ise	-11.5147
eas	-11.5147
bird	-11.5149
asylum▁	-11.5149
belarusian▁	-11.5149
loyalty▁	-11.5149
mighty▁	-11.5149
posthumously▁	-11.5149
providers▁	-11.5149
sponsors▁	-11.5149
struggled▁	-11.5149
suspects▁	-11.5149
respected▁	-11.5149
folklore▁	-11.5149
governmental▁	-11.5149
mobility▁	-11.5149
andhra▁	-11.515
derives▁	-11.5151
attract▁	-11.5151
projected▁	-11.5152
basket▁	-11.5153
stopping▁	-11.5155
lineage▁	-11.5157
thom	-11.5157
pati	-11.5159
tb	-11.5159
profits▁	-11.516
nol	-11.5166
ently▁	-11.5168
male	-11.5169
polar▁	-11.5171
eric	-11.5171
feld	-11.5171
lum▁	-11.5172
wide	-11.5177
luther▁	-11.518
beni	-11.5182
maur	-11.5182
1850	-11.5185
holt▁	-11.5187
pts▁	-11.5188
dhar	-11.5189
1816▁	-11.5191
rolls▁	-11.5196
soo	-11.5196
argue▁	-11.5197
adviser▁	-11.52
ethiopian▁	-11.52
katherine▁	-11.52
seymour▁	-11.52
circuits▁	-11.52
creature▁	-11.52
continuously▁	-11.52
evangelical▁	-11.52
genetics▁	-11.52
offense▁	-11.5201
husbands▁	-11.5201
graphs▁	-11.5202
fulllength▁	-11.5202
bedford▁	-11.5202
tough▁	-11.5202
tonnes▁	-11.5203
dela	-11.5203
flint▁	-11.5204
revision▁	-11.5205
snail▁	-11.5206
themed▁	-11.5206
petty▁	-11.5206
eld	-11.5212
dun▁	-11.5212
wet	-11.5213
xx	-11.5214
enclosed▁	-11.5214
capitals▁	-11.5214
rabbit▁	-11.5217
doc	-11.5217
russians▁	-11.5218
guides▁	-11.5218
pru	-11.522
fern	-11.5222
lur	-11.5225
chlor	-11.523
ret▁	-11.5231
210▁	-11.5233
scripts▁	-11.5235
lok▁	-11.5238
resign▁	-11.5239
constituted▁	-11.524
aster	-11.5245
stint▁	-11.5245
igan▁	-11.5246
armoured▁	-11.5251
sanskrit▁	-11.5251
soprano▁	-11.5251
explosive▁	-11.5251
memoirs▁	-11.5251
adopt▁	-11.5251
householder▁	-11.5251
jacksonville▁	-11.5251
cameo▁	-11.5252
cumberland▁	-11.5252
violation▁	-11.5252
substance▁	-11.5253
expressway▁	-11.5253
105	-11.5253
monsters▁	-11.5253
wears▁	-11.5253
wishes▁	-11.5254
121▁	-11.5257
240▁	-11.5257
1999	-11.5258
trevor▁	-11.526
gues▁	-11.526
careers▁	-11.5261
gard▁	-11.5261
transmitter▁	-11.5262
crow	-11.5262
spreading▁	-11.5263
ark	-11.5265
raids▁	-11.5265
arose▁	-11.5268
anda▁	-11.5268
ite	-11.5271
mons▁	-11.5275
olive▁	-11.5275
quit▁	-11.5279
ved▁	-11.528
peterson▁	-11.528
poll	-11.5288
vari	-11.5289
rash	-11.5292
rahman▁	-11.5295
tok	-11.5296
clube▁	-11.5297
saga▁	-11.5298
bust	-11.53
ventures▁	-11.5301
howe▁	-11.5301
advances▁	-11.5303
compatible▁	-11.5303
inspection▁	-11.5303
measurements▁	-11.5303
mongolia▁	-11.5303
scholarly▁	-11.5303
slovenian▁	-11.5303
adolf▁	-11.5303
honduras▁	-11.5303
provider▁	-11.5303
clemson▁	-11.5303
pearson▁	-11.5303
habitats▁	-11.5303
mikhail▁	-11.5303
aligned▁	-11.5303
phantom▁	-11.5303
striker▁	-11.5303
classroom▁	-11.5304
schmidt▁	-11.5305
forts▁	-11.5305
spr	-11.5305
coordination▁	-11.5305
structured▁	-11.5305
dl	-11.5305
perkins▁	-11.5306
chateau▁	-11.5306
tomorrow▁	-11.5306
gos▁	-11.5308
sali	-11.5308
chronic▁	-11.5308
toys▁	-11.5308
guru▁	-11.5309
data	-11.531
frog▁	-11.5312
ranger▁	-11.5314
pbs▁	-11.5314
iris▁	-11.5314
frost▁	-11.5317
yun	-11.5317
selective▁	-11.5317
stats▁	-11.532
rpm▁	-11.532
commands▁	-11.5322
aaa▁	-11.5325
myth▁	-11.5326
mano	-11.5328
emissions▁	-11.5328
assam▁	-11.5328
reich▁	-11.5329
cook	-11.533
kal▁	-11.5331
saf	-11.5333
mentor▁	-11.5335
safe	-11.5336
mf	-11.5336
kub	-11.5336
109	-11.5336
whos▁	-11.5337
rn	-11.5338
agh	-11.5338
fruits▁	-11.5339
medic	-11.5339
placement▁	-11.5341
osaurus▁	-11.5345
373	-11.5349
ferguson▁	-11.5355
organizational▁	-11.5355
descended▁	-11.5355
dozens▁	-11.5355
revealing▁	-11.5355
krakow▁	-11.5355
peaceful▁	-11.5355
limerick▁	-11.5355
memoir▁	-11.5355
ells▁	-11.5355
mohammed▁	-11.5356
savings▁	-11.5356
hartford▁	-11.5357
bie	-11.5358
schul	-11.5361
module▁	-11.5364
edge	-11.5366
castro▁	-11.5369
pens	-11.5369
mayo▁	-11.5369
cameras▁	-11.537
abo	-11.5371
harmoni	-11.5371
ashley▁	-11.5372
mend	-11.5372
wald	-11.5374
shells▁	-11.5374
riot▁	-11.5375
126▁	-11.5375
lip▁	-11.5376
stereo	-11.538
bys▁	-11.5385
circa▁	-11.5387
zs▁	-11.539
reef▁	-11.5393
1992	-11.5395
gali	-11.5396
virgin	-11.5397
phor	-11.5399
1993	-11.54
equal	-11.5402
haj	-11.5406
arguments▁	-11.5407
calculated▁	-11.5407
climbing▁	-11.5407
combining▁	-11.5407
enrollment▁	-11.5407
excessive▁	-11.5407
intelligent▁	-11.5407
namibia▁	-11.5407
phosphate▁	-11.5407
struggles▁	-11.5407
arguing▁	-11.5407
wingspan▁	-11.5407
highlighted▁	-11.5407
pageant▁	-11.5407
engaging▁	-11.5407
stuttgart▁	-11.5407
owl▁	-11.5408
mcca	-11.5408
frames▁	-11.5408
sketches▁	-11.5409
filter▁	-11.5409
unesco▁	-11.5409
shirley▁	-11.5409
clarinet▁	-11.541
beaches▁	-11.541
seeks▁	-11.541
defines▁	-11.541
pension▁	-11.5411
disabilities▁	-11.5411
blades▁	-11.5412
arius▁	-11.5413
suffer▁	-11.5413
jet	-11.5414
captains▁	-11.5415
jung	-11.5416
sailor▁	-11.5417
wade▁	-11.5418
ricky▁	-11.5419
diane▁	-11.5423
crane▁	-11.5425
cyclo	-11.5427
sonata▁	-11.5427
syl	-11.5429
ww	-11.5429
regent▁	-11.543
cow▁	-11.543
speeds▁	-11.543
hatch	-11.543
tant	-11.5431
hed▁	-11.5433
gom	-11.5433
neal▁	-11.5435
angelo▁	-11.5436
arist	-11.5436
opter	-11.544
104	-11.5441
word	-11.5445
133▁	-11.5451
till	-11.5452
icon▁	-11.5452
cay	-11.5453
ym	-11.5453
hedr	-11.5454
bek	-11.5456
hop	-11.5458
cherokee▁	-11.5459
constitute▁	-11.5459
protective▁	-11.5459
twelfth▁	-11.5459
judith▁	-11.5459
successive▁	-11.5459
hostile▁	-11.5459
tickets▁	-11.5459
shortened▁	-11.5459
zambia▁	-11.546
strictly▁	-11.546
differential▁	-11.546
ura	-11.5461
harvest▁	-11.5461
cooling▁	-11.5465
invested▁	-11.5466
centr	-11.5466
dj	-11.5467
funk▁	-11.5467
carbon	-11.547
irregular▁	-11.5471
radius▁	-11.5473
zio▁	-11.5474
chet▁	-11.5475
unemployment▁	-11.5477
deva	-11.5479
ora	-11.5482
hog	-11.5484
js▁	-11.5485
airways▁	-11.5487
modern	-11.5489
tip	-11.5491
curr	-11.5493
dos	-11.5494
leased▁	-11.5495
jacobs▁	-11.5496
norm▁	-11.5496
laying▁	-11.5498
grey	-11.5504
prehistoric▁	-11.5505
blow▁	-11.5505
cbc▁	-11.551
opole▁	-11.5511
225	-11.5511
adaptations▁	-11.5512
calcutta▁	-11.5512
detachment▁	-11.5512
syracuse▁	-11.5512
assume▁	-11.5512
certifications▁	-11.5512
antenna▁	-11.5512
variables▁	-11.5512
penguin▁	-11.5512
toledo▁	-11.5512
bulldogs▁	-11.5512
livestock▁	-11.5512
predicted▁	-11.5512
lankan▁	-11.5512
surrendered▁	-11.5513
anti▁	-11.5513
villain▁	-11.5513
lindsay▁	-11.5513
fab	-11.5514
rushed▁	-11.5515
hobart▁	-11.5516
superman▁	-11.5516
summer	-11.5517
carriers▁	-11.5517
modeled▁	-11.5517
arlington▁	-11.5517
rams▁	-11.5518
rp	-11.5518
modul	-11.5518
colts▁	-11.5519
320▁	-11.552
nationality▁	-11.5521
nier▁	-11.5521
seating▁	-11.5521
fatal▁	-11.5522
burgh▁	-11.5524
352	-11.5528
abel▁	-11.553
nach	-11.5534
iva▁	-11.5534
great	-11.5534
rim▁	-11.5534
swar	-11.5536
bc	-11.5537
tiv	-11.5538
locals▁	-11.5538
1827▁	-11.5544
graf	-11.5547
addresses▁	-11.5547
dru	-11.555
spare▁	-11.5551
colon	-11.5552
sophie▁	-11.5552
race	-11.5552
searching▁	-11.5555
1994	-11.5558
bath	-11.5558
och▁	-11.5559
nab	-11.5561
comprised▁	-11.5565
financing▁	-11.5565
georgetown▁	-11.5565
obtaining▁	-11.5565
seemingly▁	-11.5565
bermuda▁	-11.5565
rebecca▁	-11.5565
monetary▁	-11.5565
communicate▁	-11.5565
middlesex▁	-11.5565
charleston▁	-11.5565
positioned▁	-11.5566
moroccan▁	-11.5566
who	-11.5566
nuts▁	-11.5567
dealt▁	-11.5568
climb▁	-11.5568
proud▁	-11.5569
iu▁	-11.5569
kwa	-11.557
relates▁	-11.5571
tric	-11.5571
highlands▁	-11.5571
resided▁	-11.5572
clement▁	-11.5572
ain	-11.5572
anywhere▁	-11.5573
cons	-11.5573
ua	-11.5574
hui▁	-11.558
dans▁	-11.5582
1991	-11.5582
koz	-11.5584
144▁	-11.5585
yll	-11.5586
highland▁	-11.5588
drag▁	-11.5589
405	-11.559
iro▁	-11.559
gala	-11.5593
dei▁	-11.5598
ted	-11.5598
abb	-11.56
pie▁	-11.5602
mare▁	-11.561
affecting▁	-11.5618
destroyers▁	-11.5618
detention▁	-11.5618
happiness▁	-11.5618
hectares▁	-11.5618
hyderabad▁	-11.5618
macedonian▁	-11.5618
monarchy▁	-11.5618
scrapped▁	-11.5618
surprised▁	-11.5618
comparable▁	-11.5618
conservatory▁	-11.5618
alphabet▁	-11.5618
realizes▁	-11.5618
activism▁	-11.5618
staying▁	-11.5619
valued▁	-11.5619
racism▁	-11.562
songwriting▁	-11.562
secretly▁	-11.562
composite▁	-11.562
monarch▁	-11.562
dot	-11.5621
remake▁	-11.5621
algerian▁	-11.5625
407	-11.5625
grad	-11.5627
tec	-11.5629
stol	-11.563
aul	-11.5631
organs▁	-11.5633
nus▁	-11.5634
busy▁	-11.5634
tum▁	-11.5634
rotten▁	-11.5634
tob	-11.5636
fond	-11.5638
antiaircraft▁	-11.564
champ	-11.5643
kv	-11.5644
vern	-11.5647
daytime▁	-11.5649
wheat	-11.5649
lead	-11.565
ades▁	-11.565
verde▁	-11.565
arabs▁	-11.565
ripp	-11.5652
nic▁	-11.5653
blast▁	-11.5653
holm▁	-11.5653
grun	-11.5654
dixon▁	-11.5655
ratt	-11.5655
hello▁	-11.5655
cort	-11.5655
118▁	-11.5657
hiro	-11.5658
pasha▁	-11.5659
ont	-11.5659
english	-11.566
filip	-11.5661
polar	-11.5663
000	-11.5666
gp	-11.5667
chy	-11.5669
tensions▁	-11.567
letter	-11.5671
endorsed▁	-11.5671
installations▁	-11.5671
pianists▁	-11.5671
sociology▁	-11.5672
sunshine▁	-11.5672
realistic▁	-11.5672
sued▁	-11.5673
watershed▁	-11.5673
reinforced▁	-11.5673
oxy	-11.5673
15000▁	-11.5673
funny▁	-11.5673
displacement▁	-11.5674
antoine▁	-11.5674
lessly▁	-11.5674
authored▁	-11.5675
accredited▁	-11.5676
starter▁	-11.5679
deci	-11.568
sos▁	-11.5681
vie▁	-11.5681
lasts▁	-11.5681
glu	-11.5681
1801▁	-11.5683
feng▁	-11.5685
shadows▁	-11.5685
jol	-11.5687
miya	-11.5688
spit	-11.5688
pheno	-11.5688
skaya▁	-11.569
hyde▁	-11.5691
boot▁	-11.5691
smoke	-11.5692
skis▁	-11.5694
cca▁	-11.5696
tara▁	-11.5697
ops▁	-11.5697
natural	-11.5697
weed▁	-11.5697
hiatus▁	-11.57
iques▁	-11.5701
mans	-11.5702
eaux▁	-11.5702
152▁	-11.5707
mg▁	-11.5708
ents▁	-11.5708
rower▁	-11.5715
franco	-11.5716
flee▁	-11.5719
fcc▁	-11.572
onic▁	-11.5721
136▁	-11.5724
fog	-11.5725
campeonato▁	-11.5725
commodore▁	-11.5725
employers▁	-11.5725
exceptional▁	-11.5725
mathematicians▁	-11.5725
nonetheless▁	-11.5725
preceding▁	-11.5725
preventing▁	-11.5725
uzbekistan▁	-11.5725
witnessed▁	-11.5725
kannada▁	-11.5725
bundestag▁	-11.5725
pupil▁	-11.5726
canvas▁	-11.5726
symbolic▁	-11.5726
lynch▁	-11.5726
binary▁	-11.5726
libya▁	-11.5727
outlets▁	-11.5728
oconnor▁	-11.573
notion▁	-11.5731
carmen▁	-11.5731
publicity▁	-11.5732
era	-11.5735
terrace▁	-11.5736
vai	-11.5737
kali	-11.5738
riley▁	-11.5738
donation▁	-11.5743
lacking▁	-11.5747
tut	-11.575
centre	-11.5753
gloria▁	-11.5755
ide	-11.5755
shorts▁	-11.5755
ecole▁	-11.5755
myers▁	-11.5756
br▁	-11.5757
fried▁	-11.5758
candy▁	-11.5759
pea	-11.5759
fried	-11.576
solve▁	-11.5766
int▁	-11.5767
wes▁	-11.5768
439	-11.5771
roc	-11.5771
arab	-11.5774
respond▁	-11.5778
matsu	-11.5778
accommodation▁	-11.5779
complaints▁	-11.5779
possessed▁	-11.5779
reasonable▁	-11.5779
rectangular▁	-11.5779
enhance▁	-11.5779
shooter▁	-11.5779
hector▁	-11.5779
toxic▁	-11.5779
publishes▁	-11.5779
celebrations▁	-11.5779
capturing▁	-11.5779
royals▁	-11.578
sicily▁	-11.5781
rouge▁	-11.5781
beatles▁	-11.5782
homepage▁	-11.5782
dorsal▁	-11.5782
forty	-11.5782
mw▁	-11.5783
kerry▁	-11.5784
cw▁	-11.5784
sie▁	-11.5784
matching▁	-11.5785
ave	-11.5786
spider▁	-11.5786
troop▁	-11.5789
holm	-11.5789
pump▁	-11.579
hers▁	-11.5793
neville▁	-11.5793
kou	-11.5794
iso▁	-11.5795
eurs▁	-11.5796
145▁	-11.5797
seri	-11.5799
wheel	-11.5799
speaks▁	-11.58
kie▁	-11.5801
traced▁	-11.5802
eys▁	-11.5804
herm	-11.5804
syr	-11.5805
essen▁	-11.5808
ark▁	-11.5809
reward▁	-11.5815
audi	-11.5815
sits▁	-11.5815
roz	-11.5816
ase	-11.5816
benson▁	-11.5817
dub▁	-11.5819
door	-11.5819
baba▁	-11.582
gis	-11.5822
asp	-11.5824
aman	-11.5825
vers▁	-11.5826
jung▁	-11.5826
gim	-11.5827
coch	-11.5831
xu	-11.5832
2020	-11.5833
companions▁	-11.5833
elephant▁	-11.5833
preparatory▁	-11.5833
strengthen▁	-11.5833
canceled▁	-11.5833
miracle▁	-11.5833
irving▁	-11.5833
carefully▁	-11.5833
saur	-11.5833
decisive▁	-11.5833
landscapes▁	-11.5833
anonymous▁	-11.5834
wonderful▁	-11.5834
ribbon▁	-11.5834
dropping▁	-11.5834
continuation▁	-11.5834
barrett▁	-11.5835
bigger▁	-11.5835
200000▁	-11.5835
winston▁	-11.5836
eve	-11.5837
werner▁	-11.5837
406	-11.5837
generic▁	-11.5838
outcomes▁	-11.584
haiti▁	-11.584
crosscountry▁	-11.5845
dramas▁	-11.5846
gm▁	-11.5849
techni	-11.5849
polit	-11.5851
bug	-11.5853
darwin▁	-11.5853
chy▁	-11.5855
corners▁	-11.5856
lb▁	-11.5861
synth	-11.5863
harp▁	-11.5865
aps▁	-11.5866
trin	-11.5867
corre	-11.5868
225▁	-11.587
oct▁	-11.587
pod▁	-11.5873
nel	-11.5873
gh▁	-11.5875
undertook▁	-11.5878
labor	-11.5878
ngo▁	-11.5878
mash	-11.5885
hemi	-11.5887
brilliant▁	-11.5888
destinations▁	-11.5888
detect▁	-11.5888
explaining▁	-11.5888
combine▁	-11.5888
voltage▁	-11.5888
sup	-11.5888
linguistics▁	-11.5888
salisbury▁	-11.5888
collision▁	-11.5888
chassis▁	-11.5888
wildcats▁	-11.5889
assumption▁	-11.5889
floating▁	-11.5889
flowing▁	-11.589
freshwater▁	-11.589
gardner▁	-11.589
parameters▁	-11.5891
comeback▁	-11.5891
drop	-11.5892
sandra▁	-11.5893
touched▁	-11.5893
font▁	-11.5897
kok	-11.5897
deeper▁	-11.5897
issa▁	-11.5899
enacted▁	-11.5901
comfort▁	-11.5901
dick	-11.5903
tech	-11.5904
cultur	-11.591
sah	-11.5911
kab	-11.5911
borg	-11.5913
git	-11.5913
wyn▁	-11.5915
osi	-11.5915
quick	-11.5916
abu	-11.5917
aust	-11.5918
evo	-11.5921
smile▁	-11.5924
vag	-11.5926
elton▁	-11.5926
crossover▁	-11.5927
dell	-11.5929
endra▁	-11.5935
peers▁	-11.5935
reunited▁	-11.5936
kb	-11.5942
evsky▁	-11.5943
asserted▁	-11.5943
conductors▁	-11.5943
expectations▁	-11.5943
instances▁	-11.5943
pharmaceutical▁	-11.5943
macmillan▁	-11.5943
seventeen▁	-11.5943
ifolia▁	-11.5944
eurasian▁	-11.5944
mura	-11.5944
analog▁	-11.5944
accepting▁	-11.5944
whitney▁	-11.5945
stairs▁	-11.5945
offshore▁	-11.5945
genome▁	-11.5945
seed	-11.5945
wanting▁	-11.5946
determining▁	-11.5946
passport▁	-11.5948
retire▁	-11.595
fasci	-11.595
coral▁	-11.5951
michel	-11.5952
rockets▁	-11.5953
homer▁	-11.5953
212▁	-11.5953
fau	-11.5953
loving▁	-11.5954
supernatural▁	-11.5956
zia▁	-11.5956
levy▁	-11.596
agi	-11.596
rel	-11.5961
chers▁	-11.5962
gran▁	-11.5963
utt	-11.5963
lent▁	-11.5963
1810▁	-11.5964
bt▁	-11.5968
cameroon▁	-11.597
sei▁	-11.597
feb▁	-11.5972
2016	-11.5972
2017	-11.5976
helm	-11.5976
md	-11.5978
torn▁	-11.5984
fli	-11.5986
enza▁	-11.5986
death	-11.5987
hardt▁	-11.5989
chandra▁	-11.5989
jong▁	-11.599
lah	-11.5993
craw	-11.5994
111	-11.5998
atmospheric▁	-11.5998
bangalore▁	-11.5998
consecrated▁	-11.5998
develops▁	-11.5998
evident▁	-11.5998
guaranteed▁	-11.5998
investigating▁	-11.5998
netflix▁	-11.5998
contacts▁	-11.5998
varsity▁	-11.5998
zagreb▁	-11.5998
utter▁	-11.5998
inventory▁	-11.5998
cypriot▁	-11.5998
underneath▁	-11.5998
iki▁	-11.5998
ideology▁	-11.5999
clusters▁	-11.5999
terminated▁	-11.5999
coventry▁	-11.5999
ronnie▁	-11.5999
criminals▁	-11.5999
170▁	-11.6
infected▁	-11.6
oster	-11.6001
1808▁	-11.6005
laz	-11.6005
1400▁	-11.6005
modest▁	-11.6009
eo▁	-11.6009
nn	-11.6013
incomplete▁	-11.6016
tops▁	-11.6019
colo	-11.602
ord	-11.6021
acids▁	-11.6023
vik▁	-11.6025
street	-11.6025
maid▁	-11.6027
cere	-11.6029
vu▁	-11.6033
exam▁	-11.6037
sund	-11.6037
1817▁	-11.6039
flav	-11.6041
tian▁	-11.6044
most	-11.6045
dim	-11.6045
1818▁	-11.6046
upper	-11.6048
lamb▁	-11.6048
jn	-11.6049
advocates▁	-11.6054
dramatists▁	-11.6054
laureate▁	-11.6054
magnitude▁	-11.6054
prominence▁	-11.6054
tragedy▁	-11.6054
blessed▁	-11.6054
enlarged▁	-11.6054
jockey▁	-11.6054
extant▁	-11.6054
barracks▁	-11.6054
fernandez▁	-11.6054
124▁	-11.6054
dudley▁	-11.6055
swansea▁	-11.6055
taro▁	-11.6055
valleys▁	-11.6057
cope▁	-11.6057
nielsen▁	-11.6058
stoke▁	-11.6058
theft▁	-11.6059
medley▁	-11.6061
curling▁	-11.6062
harsh▁	-11.6063
sno	-11.6067
sens▁	-11.607
gore▁	-11.607
risks▁	-11.6072
aver	-11.6074
staff	-11.6074
pli	-11.6075
paleo	-11.608
ullah▁	-11.608
erton▁	-11.6081
christian	-11.6082
mina▁	-11.6082
odd	-11.6085
rf	-11.6085
ghi	-11.6087
kawa	-11.609
mild▁	-11.6092
jia▁	-11.6092
crack	-11.6094
uae▁	-11.6096
mati	-11.6104
dov	-11.6104
kowski▁	-11.6107
commit▁	-11.6109
affiliation▁	-11.611
astronomical▁	-11.611
beirut▁	-11.611
discussing▁	-11.611
helicopters▁	-11.611
icelandic▁	-11.611
precipitation▁	-11.611
enabling▁	-11.611
lacrosse▁	-11.611
terminology▁	-11.611
contrary▁	-11.6111
dw	-11.6111
abandon▁	-11.6111
firearms▁	-11.6113
slavic▁	-11.6113
mutation▁	-11.6113
paperback▁	-11.6113
quet▁	-11.6114
powder▁	-11.6114
hong	-11.6114
lick	-11.6114
vault▁	-11.6115
nerve▁	-11.6115
breakthrough▁	-11.6116
meal▁	-11.6119
uck	-11.6121
lamp▁	-11.6121
lax	-11.6122
islam	-11.6123
armor▁	-11.6124
miz	-11.6126
stic	-11.6128
crypto	-11.6129
sbury▁	-11.613
347	-11.6131
pk	-11.6131
heather▁	-11.6132
106	-11.6133
nicole▁	-11.6134
750▁	-11.6138
uli	-11.6138
tron▁	-11.6141
moll	-11.6142
bari▁	-11.6144
crypt	-11.6145
sank▁	-11.6145
malay▁	-11.6147
dug	-11.615
airs▁	-11.6151
histori	-11.6151
fault▁	-11.6151
unlikely▁	-11.6152
mob	-11.6153
mell	-11.6154
terrestrial▁	-11.6155
1813▁	-11.6156
still	-11.6157
teamed▁	-11.6157
bara	-11.6161
gymnasium▁	-11.6166
primitive▁	-11.6166
struggling▁	-11.6166
testimony▁	-11.6166
tomatoes▁	-11.6166
phillip▁	-11.6166
strongest▁	-11.6166
clarence▁	-11.6166
motivated▁	-11.6166
reagan▁	-11.6166
gazette▁	-11.6167
applying▁	-11.6167
vatican▁	-11.6167
mother	-11.6168
privy▁	-11.6168
songwriters▁	-11.6168
travis▁	-11.617
yellow	-11.617
postgraduate▁	-11.617
wicket▁	-11.617
dawson▁	-11.6172
spon	-11.6173
pee	-11.6173
lately▁	-11.6173
divide▁	-11.6173
mcdonald▁	-11.6174
cot	-11.6176
some	-11.6177
courthouse▁	-11.6177
rode▁	-11.6178
mah▁	-11.6178
dial▁	-11.6182
[...]
