<unk>	0
<s>	0
</s>	0
<pad>	0
<0x00>	0
<0x01>	0
<0x02>	0
<0x03>	0
<0x04>	0
<0x05>	0
<0x06>	0
<0x07>	0
<0x08>	0
<0x09>	0
<0x0A>	0
<0x0B>	0
<0x0C>	0
<0x0D>	0
<0x0E>	0
<0x0F>	0
<0x10>	0
<0x11>	0
<0x12>	0
<0x13>	0
<0x14>	0
<0x15>	0
<0x16>	0
<0x17>	0
<0x18>	0
<0x19>	0
<0x1A>	0
<0x1B>	0
<0x1C>	0
<0x1D>	0
<0x1E>	0
<0x1F>	0
<0x20>	0
<0x21>	0
<0x22>	0
<0x23>	0
<0x24>	0
<0x25>	0
<0x26>	0
<0x27>	0
<0x28>	0
<0x29>	0
<0x2A>	0
<0x2B>	0
<0x2C>	0
<0x2D>	0
<0x2E>	0
<0x2F>	0
<0x30>	0
<0x31>	0
<0x32>	0
<0x33>	0
<0x34>	0
<0x35>	0
<0x36>	0
<0x37>	0
<0x38>	0
<0x39>	0
<0x3A>	0
<0x3B>	0
<0x3C>	0
<0x3D>	0
<0x3E>	0
<0x3F>	0
<0x40>	0
<0x41>	0
<0x42>	0
<0x43>	0
<0x44>	0
<0x45>	0
<0x46>	0
<0x47>	0
<0x48>	0
<0x49>	0
<0x4A>	0
<0x4B>	0
<0x4C>	0
<0x4D>	0
<0x4E>	0
<0x4F>	0
<0x50>	0
<0x51>	0
<0x52>	0
<0x53>	0
<0x54>	0
<0x55>	0
<0x56>	0
<0x57>	0
<0x58>	0
<0x59>	0
<0x5A>	0
<0x5B>	0
<0x5C>	0
<0x5D>	0
<0x5E>	0
<0x5F>	0
<0x60>	0
<0x61>	0
<0x62>	0
<0x63>	0
<0x64>	0
<0x65>	0
<0x66>	0
<0x67>	0
<0x68>	0
<0x69>	0
<0x6A>	0
<0x6B>	0
<0x6C>	0
<0x6D>	0
<0x6E>	0
<0x6F>	0
<0x70>	0
<0x71>	0
<0x72>	0
<0x73>	0
<0x74>	0
<0x75>	0
<0x76>	0
<0x77>	0
<0x78>	0
<0x79>	0
<0x7A>	0
<0x7B>	0
<0x7C>	0
<0x7D>	0
<0x7E>	0
<0x7F>	0
<0x80>	0
<0x81>	0
<0x82>	0
<0x83>	0
<0x84>	0
<0x85>	0
<0x86>	0
<0x87>	0
<0x88>	0
<0x89>	0
<0x8A>	0
<0x8B>	0
<0x8C>	0
<0x8D>	0
<0x8E>	0
<0x8F>	0
<0x90>	0
<0x91>	0
<0x92>	0
<0x93>	0
<0x94>	0
<0x95>	0
<0x96>	0
<0x97>	0
<0x98>	0
<0x99>	0
<0x9A>	0
<0x9B>	0
<0x9C>	0
<0x9D>	0
<0x9E>	0
<0x9F>	0
<0xA0>	0
<0xA1>	0
<0xA2>	0
<0xA3>	0
<0xA4>	0
<0xA5>	0
<0xA6>	0
<0xA7>	0
<0xA8>	0
<0xA9>	0
<0xAA>	0
<0xAB>	0
<0xAC>	0
<0xAD>	0
<0xAE>	0
<0xAF>	0
<0xB0>	0
<0xB1>	0
<0xB2>	0
<0xB3>	0
<0xB4>	0
<0xB5>	0
<0xB6>	0
<0xB7>	0
<0xB8>	0
<0xB9>	0
<0xBA>	0
<0xBB>	0
<0xBC>	0
<0xBD>	0
<0xBE>	0
<0xBF>	0
<0xC0>	0
<0xC1>	0
<0xC2>	0
<0xC3>	0
<0xC4>	0
<0xC5>	0
<0xC6>	0
<0xC7>	0
<0xC8>	0
<0xC9>	0
<0xCA>	0
<0xCB>	0
<0xCC>	0
<0xCD>	0
<0xCE>	0
<0xCF>	0
<0xD0>	0
<0xD1>	0
<0xD2>	0
<0xD3>	0
<0xD4>	0
<0xD5>	0
<0xD6>	0
<0xD7>	0
<0xD8>	0
<0xD9>	0
<0xDA>	0
<0xDB>	0
<0xDC>	0
<0xDD>	0
<0xDE>	0
<0xDF>	0
<0xE0>	0
<0xE1>	0
<0xE2>	0
<0xE3>	0
<0xE4>	0
<0xE5>	0
<0xE6>	0
<0xE7>	0
<0xE8>	0
<0xE9>	0
<0xEA>	0
<0xEB>	0
<0xEC>	0
<0xED>	0
<0xEE>	0
<0xEF>	0
<0xF0>	0
<0xF1>	0
<0xF2>	0
<0xF3>	0
<0xF4>	0
<0xF5>	0
<0xF6>	0
<0xF7>	0
<0xF8>	0
<0xF9>	0
<0xFA>	0
<0xFB>	0
<0xFC>	0
<0xFD>	0
<0xFE>	0
<0xFF>	0
,▁	-3.17727
the▁	-3.27653
.▁	-3.28149
of▁	-3.84544
and▁	-3.95871
in▁	-4.0977
a▁	-4.15651
to▁	-4.23466
-▁	-4.78278
was▁	-4.81615
s▁	-4.84801
(▁	-4.88226
)▁	-4.88713
'	-4.97674
"▁	-5.10262
is▁	-5.17068
on▁	-5.1766
`▁	-5.18871
as▁	-5.20477
The▁	-5.20796
i▁	-5.2111
for▁	-5.25908
with▁	-5.37624
that▁	-5.42047
he▁	-5.44676
by▁	-5.473
at▁	-5.54516
his▁	-5.55374
from▁	-5.65101
it▁	-5.66765
an▁	-5.82274
her▁	-5.84771
''▁	-5.88511
:▁	-5.99907
she▁	-6.06578
n	-6.07945
had▁	-6.11482
you▁	-6.16335
were▁	-6.18204
In▁	-6.23802
be▁	-6.24814
t▁	-6.26436
are▁	-6.30487
▁	-6.30581
or▁	-6.31217
but▁	-6.3318
which▁	-6.46433
'▁	-6.46732
not▁	-6.46984
||▁	-6.47989
also▁	-6.50307
–▁	-6.51482
S	-6.5168
one▁	-6.52074
have▁	-6.56533
?▁	-6.5705
s	-6.59006
my▁	-6.60704
.	-6.61036
this▁	-6.6215
He▁	-6.66176
him▁	-6.67381
first▁	-6.70615
me▁	-6.70788
they▁	-6.71176
has▁	-6.71906
their▁	-6.73909
;▁	-6.73959
who▁	-6.75252
up▁	-6.79134
ed▁	-6.81609
out▁	-6.82105
re	-6.82718
its▁	-6.83199
been▁	-6.83887
all▁	-6.84308
A	-6.88211
References▁	-6.90591
into▁	-6.908
would▁	-6.9227
|▁	-6.94013
th▁	-6.94274
do▁	-6.94618
It▁	-6.95258
two▁	-6.95778
d	-6.96111
C	-6.97174
time▁	-6.97288
ing▁	-6.98298
when▁	-7.01384
e▁	-7.03605
no▁	-7.04211
American▁	-7.05181
d▁	-7.0695
over▁	-7.07254
after▁	-7.08444
about▁	-7.08605
in	-7.09474
E	-7.10356
B	-7.11313
more▁	-7.13089
so▁	-7.13322
there▁	-7.13603
said▁	-7.13861
A▁	-7.14156
then▁	-7.14382
did▁	-7.14586
other▁	-7.15089
what▁	-7.16418
D	-7.16516
P	-7.17519
people▁	-7.20307
M	-7.2048
1▁	-7.2209
New▁	-7.22169
we▁	-7.23649
could▁	-7.24481
m▁	-7.26136
e	-7.26156
can▁	-7.27158
back▁	-7.27625
F	-7.29373
them▁	-7.29435
like▁	-7.29868
only▁	-7.30994
if▁	-7.31727
2▁	-7.31977
y▁	-7.33731
un	-7.3444
G	-7.35037
de▁	-7.35364
T	-7.35367
c	-7.36731
a	-7.37635
where▁	-7.38262
United▁	-7.39502
t	-7.41044
L	-7.42191
b	-7.44294
made▁	-7.44315
us▁	-7.44561
University▁	-7.44959
man▁	-7.45171
well▁	-7.45529
W	-7.46825
p	-7.47227
H	-7.47454
U	-7.48165
 ▁	-7.4886
before▁	-7.48888
than▁	-7.48992
years▁	-7.49854
some▁	-7.5003
just▁	-7.50914
g	-7.51175
through▁	-7.51624
K	-7.52558
R	-7.52677
er▁	-7.52994
new▁	-7.53284
es▁	-7.53509
re▁	-7.54509
links▁	-7.54516
%▁	-7.55023
born▁	-7.55849
between▁	-7.56205
N	-7.56456
External▁	-7.56859
f	-7.57716
players▁	-7.58946
On▁	-7.59022
/▁	-7.5911
al▁	-7.59339
3▁	-7.59416
during▁	-7.60149
year▁	-7.60255
three▁	-7.60338
now▁	-7.60475
used▁	-7.63203
down▁	-7.6332
most▁	-7.6371
I▁	-7.63882
This▁	-7.64047
o▁	-7.64481
!▁	-7.65096
de	-7.66586
being▁	-7.67417
later▁	-7.67658
century▁	-7.68003
part▁	-7.68671
right▁	-7.68762
States▁	-7.69268
against▁	-7.69906
such▁	-7.69975
O	-7.70225
o	-7.7124
will▁	-7.7152
under▁	-7.71807
season▁	-7.72277
m	-7.7253
known▁	-7.73267
off▁	-7.73746
way▁	-7.73961
around▁	-7.74501
I	-7.74532
while▁	-7.74583
4▁	-7.75442
J	-7.76748
film▁	-7.77731
National▁	-7.79107
World▁	-7.79851
—▁	-7.81275
until▁	-7.81589
work▁	-7.82109
l	-7.82151
team▁	-7.82424
both▁	-7.83331
second▁	-7.83473
became▁	-7.83534
life▁	-7.84357
ers▁	-7.85906
head▁	-7.85917
know▁	-7.86503
i	-7.86862
5▁	-7.87366
She▁	-7.87508
6▁	-7.87847
County▁	-7.87987
many▁	-7.88491
including▁	-7.8954
son▁	-7.89778
name▁	-7.91125
series▁	-7.91222
get▁	-7.91262
&▁	-7.91935
any▁	-7.91993
en▁	-7.92379
even▁	-7.92509
family▁	-7.92908
how▁	-7.93
go▁	-7.93074
k	-7.9407
en	-7.94524
your▁	-7.94677
2	-7.95671
age▁	-7.96329
al	-7.96634
John▁	-7.96795
still▁	-7.97128
South▁	-7.97808
nt▁	-7.97999
same▁	-7.98178
Re	-7.98341
=▁	-7.98677
long▁	-7.99133
British▁	-7.99196
took▁	-7.99271
School▁	-7.993
called▁	-8.00402
1	-8.00725
y	-8.00728
...▁	-8.00749
day▁	-8.01177
again▁	-8.01262
place▁	-8.01526
V	-8.01564
because▁	-8.01665
id	-8.02013
York▁	-8.0292
see▁	-8.03067
found▁	-8.0348
May▁	-8.03738
September▁	-8.04048
may▁	-8.04595
led▁	-8.04884
school▁	-8.05132
use▁	-8.05408
After▁	-8.05553
left▁	-8.05955
men▁	-8.06029
10▁	-8.06369
since▁	-8.06373
March▁	-8.06413
October▁	-8.06746
four▁	-8.06915
side▁	-8.07087
w	-8.07223
state▁	-8.0732
eyes▁	-8.07643
end▁	-8.07665
er	-8.07687
number▁	-8.07788
released▁	-8.07898
con	-8.07939
played▁	-8.0794
city▁	-8.07995
3	-8.08056
January▁	-8.08261
June▁	-8.09321
7▁	-8.0933
each▁	-8.10493
area▁	-8.10555
st▁	-8.10654
July▁	-8.10712
album▁	-8.10916
births▁	-8.10981
9▁	-8.11193
|	-8.11377
-	-8.11417
based▁	-8.11433
these▁	-8.11699
h	-8.11919
August▁	-8.12496
held▁	-8.12556
War▁	-8.12649
League▁	-8.12782
game▁	-8.12797
English▁	-8.12919
away▁	-8.13174
ly▁	-8.13212
April▁	-8.13258
much▁	-8.13472
St	-8.13817
19	-8.1466
November▁	-8.15177
line▁	-8.1559
December▁	-8.15715
See▁	-8.15901
began▁	-8.1608
going▁	-8.16352
very▁	-8.1687
make▁	-8.17068
17	-8.17368
several▁	-8.17481
9	-8.1772
le▁	-8.18026
State▁	-8.18258
set▁	-8.18408
16	-8.18654
2010▁	-8.18849
won▁	-8.18914
home▁	-8.18954
City▁	-8.19263
8▁	-8.19299
take▁	-8.19331
early▁	-8.19891
last▁	-8.2009
able▁	-8.20266
="	-8.2115
own▁	-8.21274
As▁	-8.21928
football▁	-8.22116
ve▁	-8.22522
another▁	-8.22915
here▁	-8.23156
20	-8.23254
women▁	-8.23618
former▁	-8.23879
films▁	-8.24127
high▁	-8.24413
ll▁	-8.24424
dis	-8.24928
2011▁	-8.25073
never▁	-8.25115
el▁	-8.25126
hand▁	-8.25268
land▁	-8.25394
align▁	-8.25437
February▁	-8.25589
North▁	-8.25622
following▁	-8.25847
ation▁	-8.25942
house▁	-8.26311
De	-8.26443
group▁	-8.26473
2008▁	-8.26876
co	-8.27079
too▁	-8.27109
music▁	-8.27698
world▁	-8.28617
town▁	-8.28799
k▁	-8.28804
2012▁	-8.29142
those▁	-8.29173
old▁	-8.29361
named▁	-8.29523
st	-8.29912
career▁	-8.29999
2009▁	-8.30016
History▁	-8.3115
12▁	-8.31333
good▁	-8.316
2007▁	-8.31896
v	-8.32324
came▁	-8.32836
They▁	-8.32918
2014▁	-8.32993
u▁	-8.33028
along▁	-8.33316
face▁	-8.33489
20▁	-8.33538
2013▁	-8.33671
small▁	-8.33677
am▁	-8.33762
member▁	-8.34277
2006▁	-8.34493
want▁	-8.34691
our▁	-8.34953
French▁	-8.35089
2015▁	-8.35192
His▁	-8.35872
r	-8.35986
|-▁	-8.36176
le	-8.36451
went▁	-8.3686
/	-8.37071
6	-8.37119
died▁	-8.37514
2016▁	-8.37525
ar	-8.37718
People▁	-8.37748
18	-8.38081
located▁	-8.38873
water▁	-8.3898
established▁	-8.39422
di	-8.39585
j	-8.39663
think▁	-8.39718
let▁	-8.39891
father▁	-8.40625
College▁	-8.40635
government▁	-8.40639
five▁	-8.40678
18▁	-8.40924
z	-8.41262
$▁	-8.41301
15▁	-8.41315
ch	-8.41377
thought▁	-8.41472
ad	-8.42048
room▁	-8.4215
German▁	-8.42355
members▁	-8.426
it	-8.42601
30▁	-8.42833
few▁	-8.42916
At▁	-8.43203
field▁	-8.4327
asked▁	-8.43443
11▁	-8.43455
2017▁	-8.43575
looked▁	-8.43668
se	-8.43709
something▁	-8.44004
ic▁	-8.44178
co▁	-8.44332
station▁	-8.44505
built▁	-8.44512
There▁	-8.44544
song▁	-8.44626
2018▁	-8.44999
4	-8.45107
little▁	-8.45226
company▁	-8.45362
less▁	-8.45409
London▁	-8.45574
single▁	-8.45684
large▁	-8.45812
served▁	-8.45928
body▁	-8.46194
games▁	-8.46333
next▁	-8.46409
2019▁	-8.46567
im	-8.46852
published▁	-8.47065
building▁	-8.4724
late▁	-8.47755
death▁	-8.48579
started▁	-8.4893
2005▁	-8.48931
system▁	-8.49228
should▁	-8.49244
show▁	-8.49289
District▁	-8.49321
come▁	-8.49351
ley▁	-8.49546
received▁	-8.4973
population▁	-8.49803
II▁	-8.49825
15	-8.49832
television▁	-8.50079
within▁	-8.5015
sh	-8.50198
moved▁	-8.50282
without▁	-8.50738
In	-8.51099
due▁	-8.51153
West▁	-8.51215
International▁	-8.51357
got▁	-8.51476
Co	-8.51564
Living▁	-8.5189
does▁	-8.51957
However▁	-8.52606
For▁	-8.52905
best▁	-8.53013
final▁	-8.53053
per▁	-8.53155
public▁	-8.53412
species▁	-8.53442
book▁	-8.53516
history▁	-8.53863
n▁	-8.53885
local▁	-8.5389
top▁	-8.53905
16▁	-8.54138
or	-8.54185
play▁	-8.54387
Con	-8.54797
2004▁	-8.55166
25▁	-8.55637
band▁	-8.55774
th	-8.55996
5	-8.56176
Y	-8.56477
14▁	-8.56603
2020▁	-8.56645
ex	-8.56779
look▁	-8.56795
every▁	-8.56915
Al	-8.57454
player▁	-8.57492
children▁	-8.57566
2000▁	-8.57803
el	-8.57955
near▁	-8.58439
ian▁	-8.58913
u	-8.59123
different▁	-8.59185
et▁	-8.59192
form▁	-8.5928
club▁	-8.59475
main▁	-8.59535
third▁	-8.59723
is	-8.59728
though▁	-8.59894
Cup▁	-8.60021
13▁	-8.60322
House▁	-8.60386
village▁	-8.6082
an	-8.61214
ton▁	-8.6183
ie▁	-8.62729
include▁	-8.62971
All▁	-8.62978
Z	-8.63163
why▁	-8.63372
Australia▁	-8.63834
During▁	-8.63911
once▁	-8.63922
’	-8.64118
war▁	-8.64124
turned▁	-8.64152
described▁	-8.64361
24▁	-8.64465
door▁	-8.64881
ever▁	-8.64934
national▁	-8.65016
say▁	-8.65288
need▁	-8.65352
wanted▁	-8.65682
air▁	-8.65741
included▁	-8.66084
England▁	-8.66128
himself▁	-8.6632
ca▁	-8.66562
2003▁	-8.66614
bi	-8.66683
Association▁	-8.66689
having▁	-8.66801
os▁	-8.66806
be	-8.66873
ia▁	-8.66899
ac	-8.67202
night▁	-8.67398
order▁	-8.67476
knew▁	-8.67709
List▁	-8.6784
male▁	-8.67867
power▁	-8.68028
together▁	-8.68123
service▁	-8.68289
district▁	-8.68308
law▁	-8.68322
saw▁	-8.68585
Mo	-8.68662
felt▁	-8.6879
opened▁	-8.69098
River▁	-8.69135
17▁	-8.69235
behind▁	-8.69422
often▁	-8.6965
given▁	-8.69829
ro	-8.69935
California▁	-8.70193
front▁	-8.70358
record▁	-8.70453
2002▁	-8.705
open▁	-8.70736
point▁	-8.70831
Ma	-8.70986
million▁	-8.71212
days▁	-8.71558
across▁	-8.7159
William▁	-8.71695
2001▁	-8.7188
help▁	-8.71971
One▁	-8.72047
making▁	-8.72108
deaths▁	-8.72554
at	-8.72667
mother▁	-8.72668
km▁	-8.72674
language▁	-8.72798
original▁	-8.72858
major▁	-8.73032
light▁	-8.73146
six▁	-8.73186
half▁	-8.73218
country▁	-8.7331
um▁	-8.73526
king▁	-8.73717
living▁	-8.73868
Australian▁	-8.7396
put▁	-8.74007
21▁	-8.74074
run▁	-8.74155
written▁	-8.74156
g▁	-8.74257
election▁	-8.74568
General▁	-8.74572
to	-8.74858
19▁	-8.75283
Mar	-8.75614
using▁	-8.75795
north▁	-8.75985
East▁	-8.76203
told▁	-8.76445
22▁	-8.76592
Ar	-8.76688
voice▁	-8.76706
short▁	-8.76745
times▁	-8.7686
No▁	-8.77029
pre	-8.77192
worked▁	-8.77321
2021▁	-8.77449
India▁	-8.77535
gave▁	-8.77747
am	-8.77807
produced▁	-8.77984
ting▁	-8.78148
married▁	-8.78257
High▁	-8.78568
full▁	-8.78682
bgcolor	-8.78749
Army▁	-8.78772
Party▁	-8.78995
France▁	-8.79041
Award▁	-8.79198
James▁	-8.79471
car▁	-8.79595
23▁	-8.79738
sure▁	-8.79747
es	-8.79793
Indian▁	-8.7986
lost▁	-8.79936
Park▁	-8.80071
ate▁	-8.80212
When▁	-8.80243
Bo	-8.80279
south▁	-8.80493
George▁	-8.80528
black▁	-8.80533
seen▁	-8.80544
red▁	-8.80622
pro	-8.80683
title▁	-8.81156
works▁	-8.81217
Canada▁	-8.81352
site▁	-8.81378
B▁	-8.81471
become▁	-8.81551
hands▁	-8.81592
find▁	-8.8168
Royal▁	-8.81883
European▁	-8.81972
woman▁	-8.82033
ling▁	-8.82121
mo	-8.82122
role▁	-8.82134
love▁	-8.82207
white▁	-8.82457
Canadian▁	-8.82461
really▁	-8.82492
created▁	-8.82494
over	-8.82988
Church▁	-8.83184
lo	-8.83187
Le	-8.83189
ar▁	-8.83282
must▁	-8.83575
li	-8.8358
non▁	-8.83582
round▁	-8.8383
enough▁	-8.83852
la▁	-8.83861
art▁	-8.83896
announced▁	-8.84109
]▁	-8.84122
tell▁	-8.84126
story▁	-8.84132
general▁	-8.84289
ten▁	-8.84376
14	-8.84434
continued▁	-8.84812
low▁	-8.84822
ma	-8.85002
returned▁	-8.85099
1999▁	-8.85316
position▁	-8.85528
support▁	-8.85537
version▁	-8.85753
among▁	-8.85937
live▁	-8.85967
les▁	-8.85989
7	-8.8606
ah▁	-8.86077
ated▁	-8.86444
joined▁	-8.86516
present▁	-8.86679
27▁	-8.86709
TV▁	-8.86762
period▁	-8.86857
might▁	-8.86874
King▁	-8.87097
US▁	-8.87147
der▁	-8.87157
[▁	-8.87374
Ha	-8.87453
la	-8.8761
26▁	-8.87625
x	-8.87711
community▁	-8.8773
San▁	-8.88289
political▁	-8.8883
production▁	-8.88974
America▁	-8.89413
z▁	-8.89541
Music▁	-8.89567
close▁	-8.89606
ab	-8.89855
others▁	-8.89955
hard▁	-8.90117
David▁	-8.90245
almost▁	-8.90251
28▁	-8.90328
military▁	-8.90398
Council▁	-8.90402
ir	-8.90463
Be	-8.90902
however▁	-8.90906
win▁	-8.91103
per	-8.91135
case▁	-8.91168
international▁	-8.9133
President▁	-8.91418
First▁	-8.91518
video▁	-8.91632
Division▁	-8.91832
wife▁	-8.91854
ship▁	-8.9189
Pa	-8.91935
various▁	-8.92238
et	-8.9225
on	-8.92328
level▁	-8.92431
ine▁	-8.92598
great▁	-8.92651
Lo	-8.92677
Sa	-8.92687
1998▁	-8.9269
development▁	-8.92889
church▁	-8.93386
always▁	-8.93531
ne	-8.93539
working▁	-8.93663
Germany▁	-8.93783
ta	-8.93808
La	-8.93868
total▁	-8.93923
ty▁	-8.94129
Street▁	-8.94278
party▁	-8.94473
class▁	-8.94477
100▁	-8.95073
From▁	-8.95259
ist▁	-8.95308
wrote▁	-8.95487
better▁	-8.95522
control▁	-8.95649
b▁	-8.95736
X	-8.96019
west▁	-8.96077
1996▁	-8.96078
Club▁	-8.96244
13	-8.96725
students▁	-8.97095
50▁	-8.97113
Best▁	-8.97122
things▁	-8.97217
8	-8.97244
least▁	-8.97266
An	-8.97333
fire▁	-8.97402
office▁	-8.97528
ler▁	-8.97549
give▁	-8.97685
29▁	-8.97735
ran▁	-8.97943
Se	-8.98088
business▁	-8.98134
taken▁	-8.98286
thing▁	-8.98366
These▁	-8.98442
als▁	-8.98468
reached▁	-8.98511
Year▁	-8.98548
far▁	-8.98586
Championship▁	-8.98679
em	-8.98684
appeared▁	-8.98696
1997▁	-8.98737
sub	-8.98751
nothing▁	-8.98935
sp	-8.99017
events▁	-8.99057
east▁	-8.99119
young▁	-8.99219
free▁	-8.99429
already▁	-8.99637
center▁	-8.99685
10	-8.99941
Japanese▁	-8.99942
African▁	-9.00005
Union▁	-9.0004
list▁	-9.00268
brother▁	-9.00423
Japan▁	-9.00452
ci	-9.00696
lead▁	-9.00884
il	-9.00961
match▁	-9.01153
c▁	-9.01477
anything▁	-9.01841
ul	-9.01892
inside▁	-9.02074
no	-9.0214
either▁	-9.02147
elected▁	-9.02158
Air▁	-9.0216
important▁	-9.02211
track▁	-9.02257
songs▁	-9.02281
ner▁	-9.02306
1995▁	-9.02515
|-	-9.02562
Group▁	-9.02607
12	-9.02674
course▁	-9.02707
Robert▁	-9.02739
By▁	-9.02792
style	-9.02797
founded▁	-9.02877
Women▁	-9.02885
formed▁	-9.03348
professional▁	-9.03387
l▁	-9.0354
road▁	-9.03625
ph	-9.0375
services▁	-9.03888
me	-9.03936
China▁	-9.03936
further▁	-9.04091
Italian▁	-9.0418
Po	-9.04223
Russian▁	-9.04268
playing▁	-9.04519
ted▁	-9.04583
signed▁	-9.04619
region▁	-9.04718
*▁	-9.04832
considered▁	-9.04941
1994▁	-9.05073
21	-9.05342
Car	-9.05419
Paul▁	-9.05449
human▁	-9.0546
feel▁	-9.05491
Thomas▁	-9.05559
den▁	-9.0556
ground▁	-9.05584
qu	-9.05782
ed	-9.05812
race▁	-9.05844
=#	-9.05871
although▁	-9.0598
points▁	-9.06082
taking▁	-9.06122
directed▁	-9.06131
table▁	-9.06229
director▁	-9.06417
Washington▁	-9.06539
recorded▁	-9.06584
si	-9.06589
1992▁	-9.06627
vi	-9.06764
Society▁	-9.06783
sc	-9.06838
event▁	-9.07146
research▁	-9.0718
keep▁	-9.07187
followed▁	-9.07247
Charles▁	-9.07316
te▁	-9.07671
Records▁	-9.07822
rest▁	-9.07853
D▁	-9.07861
0▁	-9.079
arms▁	-9.07969
ant▁	-9.07976
”▁	-9.07989
footballers▁	-9.08152
ion▁	-9.08226
Ca	-9.08383
albums▁	-9.08438
groups▁	-9.08466
“▁	-9.08531
teams▁	-9.08601
Company▁	-9.08602
done▁	-9.08636
ke▁	-9.08644
killed▁	-9.08723
education▁	-9.08727
release▁	-9.08827
With▁	-9.08871
looking▁	-9.09041
Football▁	-9.09076
ce	-9.09631
UK▁	-9.09929
appointed▁	-9.10605
ice▁	-9.10623
league▁	-9.10625
op	-9.10632
developed▁	-9.10656
1993▁	-9.10672
completed▁	-9.10769
An▁	-9.10785
words▁	-9.10872
soon▁	-9.10931
daughter▁	-9.10957
ina▁	-9.10997
31▁	-9.10998
he	-9.11023
out	-9.11076
ap	-9.11181
According▁	-9.11204
closed▁	-9.11368
da▁	-9.114
Pro	-9.11558
ne▁	-9.11718
mouth▁	-9.11763
Other▁	-9.11811
ge	-9.11819
Games▁	-9.1188
Me	-9.11896
finished▁	-9.11956
com	-9.11966
Road▁	-9.12067
inter	-9.12131
Ba	-9.12193
Central▁	-9.12208
mind▁	-9.12265
car	-9.12535
areas▁	-9.12727
na▁	-9.12741
real▁	-9.12844
program▁	-9.12898
months▁	-9.12944
as	-9.13028
mar	-9.1304
ations▁	-9.13096
information▁	-9.13204
Europe▁	-9.13206
ob	-9.13259
yes▁	-9.1352
past▁	-9.13534
ry▁	-9.13576
Court▁	-9.13612
term▁	-9.13629
stop▁	-9.13657
wood▁	-9.13728
40▁	-9.13791
ating▁	-9.13797
bo	-9.13853
Kingdom▁	-9.14088
rock▁	-9.14101
Dr	-9.14122
Western▁	-9.14149
il▁	-9.14347
ti	-9.14349
debut▁	-9.1446
Awards▁	-9.14541
official▁	-9.14574
To	-9.14703
Summer▁	-9.14884
outside▁	-9.14885
website▁	-9.14983
Center▁	-9.15085
hair▁	-9.15146
Department▁	-9.15275
r▁	-9.15471
Art▁	-9.15481
ity▁	-9.15498
1990▁	-9.15596
ous▁	-9.1564
ak▁	-9.15644
met▁	-9.15813
start▁	-9.15858
h▁	-9.15928
des▁	-9.15975
ur	-9.1598
ions▁	-9.16058
person▁	-9.16072
Ro	-9.16075
sent▁	-9.16084
text▁	-9.16104
heart▁	-9.16129
Ka	-9.16158
under	-9.16239
common▁	-9.16334
Michael▁	-9.16525
instead▁	-9.16535
design▁	-9.16589
ch▁	-9.16604
1991▁	-9.16614
change▁	-9.16682
nd▁	-9.16798
Ko	-9.16939
Hall▁	-9.16969
ter	-9.17052
result▁	-9.17058
ies▁	-9.1707
Olympics▁	-9.17078
stage▁	-9.17124
El	-9.17194
similar▁	-9.17199
#▁	-9.17364
Institute▁	-9.17441
return▁	-9.17529
Africa▁	-9.17533
ri	-9.17665
shot▁	-9.17838
alumni▁	-9.17966
Do	-9.18026
type▁	-9.18072
heard▁	-9.18136
Island▁	-9.1814
data▁	-9.18154
Ne	-9.18157
ca	-9.18201
style▁	-9.18368
Spanish▁	-9.18403
Early▁	-9.18481
Museum▁	-9.18689
Academy▁	-9.18791
above▁	-9.18824
moment▁	-9.18926
su	-9.1908
ism▁	-9.19115
someone▁	-9.19482
leave▁	-9.19582
ga	-9.19683
social▁	-9.19685
Chinese▁	-9.19716
places▁	-9.19789
Press▁	-9.19832
added▁	-9.19967
Di	-9.20053
books▁	-9.20169
ver	-9.20194
character▁	-9.20272
coming▁	-9.20274
ary▁	-9.20688
Republic▁	-9.20757
yet▁	-9.20809
move▁	-9.2104
president▁	-9.21065
project▁	-9.21076
space▁	-9.21152
ness▁	-9.21179
popular▁	-9.21246
buildings▁	-9.21328
p▁	-9.21418
(	-9.21504
current▁	-9.21507
schools▁	-9.21521
female▁	-9.21569
No	-9.21573
word▁	-9.2167
toward▁	-9.21703
bed▁	-9.2181
trying▁	-9.21843
Mc	-9.21948
ha	-9.22027
up	-9.22067
Great▁	-9.2212
1989▁	-9.22146
call▁	-9.22238
stone▁	-9.22266
1988▁	-9.22328
é	-9.2247
tried▁	-9.22505
te	-9.22525
x▁	-9.22574
oh▁	-9.2274
board▁	-9.22799
While▁	-9.22906
Har	-9.2306
dark▁	-9.23202
eight▁	-9.23223
brought▁	-9.2332
addition▁	-9.23351
ol	-9.23397
upon▁	-9.23559
example▁	-9.23856
available▁	-9.23866
Zealand▁	-9.23888
sound▁	-9.24055
Bar	-9.24154
decided▁	-9.24416
police▁	-9.24476
usually▁	-9.24502
seven▁	-9.24514
feet▁	-9.24547
ag	-9.2461
man	-9.24649
average▁	-9.24915
finally▁	-9.24983
):▁	-9.25101
episode▁	-9.25187
ve	-9.25215
Du	-9.25318
Roman▁	-9.25722
maybe▁	-9.2573
coach▁	-9.25742
girl▁	-9.25877
ts▁	-9.25887
Te	-9.25942
pe	-9.26
Ireland▁	-9.26019
ir▁	-9.26048
Texas▁	-9.26066
har	-9.26067
hit▁	-9.26182
companies▁	-9.26261
end	-9.26403
radio▁	-9.26433
running▁	-9.26538
Minister▁	-9.2656
ra	-9.26589
needed▁	-9.266
leading▁	-9.26625
sold▁	-9.26761
La▁	-9.26886
week▁	-9.26978
floor▁	-9.27095
pa	-9.27199
stations▁	-9.27287
ov▁	-9.27287
od	-9.27355
doing▁	-9.27402
remained▁	-9.2758
turn▁	-9.27637
ru	-9.27653
Henry▁	-9.27796
der	-9.27897
construction▁	-9.27932
Some▁	-9.28097
features▁	-9.28106
ge▁	-9.28144
So	-9.28187
Act▁	-9.2845
training▁	-9.28455
force▁	-9.2849
1987▁	-9.28508
Vi	-9.28606
bar	-9.28751
special▁	-9.28899
Mor	-9.28901
ings▁	-9.28964
birth▁	-9.29027
ana▁	-9.29249
placed▁	-9.29349
ter▁	-9.29366
Film▁	-9.29398
par	-9.2941
kind▁	-9.29575
everything▁	-9.2961
V▁	-9.29662
study▁	-9.29729
rather▁	-9.29747
care▁	-9.29765
Black▁	-9.29777
Ch	-9.2989
Peter▁	-9.30047
io▁	-9.30068
En	-9.30126
ni	-9.3018
ak	-9.30193
blood▁	-9.30297
performed▁	-9.30479
court▁	-9.30643
Catholic▁	-9.30698
designed▁	-9.30758
White▁	-9.30802
Saint▁	-9.31026
lot▁	-9.31094
Un	-9.31109
ally▁	-9.31126
friend▁	-9.31167
mer	-9.31284
ing	-9.31415
probably▁	-9.31496
Per	-9.31528
lu	-9.31572
seat▁	-9.31636
process▁	-9.31658
Paris▁	-9.31992
action▁	-9.3214
originally▁	-9.32312
possible▁	-9.32337
post▁	-9.32429
related▁	-9.32431
You▁	-9.32444
idea▁	-9.32463
To▁	-9.3247
Or	-9.32484
ja	-9.3251
attack▁	-9.32513
modern▁	-9.32614
dy▁	-9.32637
era▁	-9.32643
fact▁	-9.32693
child▁	-9.32749
br	-9.32779
says▁	-9.32837
FC▁	-9.32934
eventually▁	-9.3304
1986▁	-9.33097
sa	-9.33137
C▁	-9.33206
artists▁	-9.33215
1980▁	-9.33305
stood▁	-9.33432
11	-9.33463
performance▁	-9.33584
money▁	-9.33627
ba	-9.33712
rd▁	-9.33732
do	-9.33813
minutes▁	-9.33833
Am	-9.33933
changed▁	-9.33973
1984▁	-9.34056
includes▁	-9.3425
ended▁	-9.34412
X▁	-9.34422
Lake▁	-9.34441
shows▁	-9.34502
Education▁	-9.34525
ists▁	-9.34529
Grand▁	-9.3453
via▁	-9.34536
se▁	-9.34545
writer▁	-9.3462
ra▁	-9.34627
reported▁	-9.3476
du	-9.34797
gu	-9.34814
1985▁	-9.34956
largest▁	-9.351
river▁	-9.35151
Richard▁	-9.35175
Notes▁	-9.35177
cor	-9.35229
Ta	-9.3525
media▁	-9.35387
range▁	-9.35476
Smith▁	-9.35485
listed▁	-9.3555
involved▁	-9.35559
politician▁	-9.35559
Life▁	-9.35899
singer▁	-9.35906
Los▁	-9.3591
ring▁	-9.3591
tri	-9.35963
hu	-9.35969
sky▁	-9.35982
po	-9.36018
big▁	-9.36086
wide▁	-9.36103
currently▁	-9.36202
tor	-9.36467
establishments▁	-9.36649
arm▁	-9.36703
Christian▁	-9.36912
missing▁	-9.37127
Virginia▁	-9.37193
Man	-9.37211
ut	-9.37229
hold▁	-9.37263
Ho	-9.37319
Government▁	-9.37327
strong▁	-9.37344
Her▁	-9.37447
throughout▁	-9.37512
gr	-9.37525
ates▁	-9.37529
ke	-9.37537
ford▁	-9.37561
tu	-9.37567
seemed▁	-9.37648
try▁	-9.37655
Ja	-9.37669
Red▁	-9.37678
us	-9.37731
ment▁	-9.37816
1983▁	-9.3782
ey▁	-9.3785
pulled▁	-9.37854
||	-9.37865
Chicago▁	-9.37896
college▁	-9.37907
aircraft▁	-9.38132
Order▁	-9.38149
Olympic▁	-9.38244
sometimes▁	-9.38306
Soviet▁	-9.38342
ish▁	-9.38445
Su	-9.38466
forces▁	-9.38468
introduced▁	-9.38503
rights▁	-9.38511
ho	-9.38593
lines▁	-9.38671
herself▁	-9.38671
deep▁	-9.38824
private▁	-9.38838
replaced▁	-9.38959
Two▁	-9.39118
size▁	-9.39263
da	-9.39265
St▁	-9.39459
date▁	-9.39565
towards▁	-9.39647
f▁	-9.39781
che	-9.39781
lower▁	-9.39786
awarded▁	-9.40034
forward▁	-9.4005
winning▁	-9.40322
min	-9.40353
wall▁	-9.40386
hours▁	-9.40459
Italy▁	-9.40521
quickly▁	-9.40607
Arts▁	-9.40609
60▁	-9.40714
ships▁	-9.40882
Championships▁	-9.40948
ic	-9.40984
mean▁	-9.41069
featured▁	-9.41345
Irish▁	-9.41476
ly	-9.41506
lived▁	-9.41593
com▁	-9.41617
ion	-9.41624
na	-9.41669
friends▁	-9.4168
especially▁	-9.41724
dead▁	-9.41728
1982▁	-9.4174
food▁	-9.41782
Ad	-9.41877
idae▁	-9.41938
so	-9.41995
talk▁	-9.42018
uses▁	-9.42084
artist▁	-9.42156
ier▁	-9.42162
phone▁	-9.42245
Q	-9.42247
Force▁	-9.42261
scored▁	-9.4228
gold▁	-9.42292
degree▁	-9.4231
Mary▁	-9.42385
active▁	-9.42428
ta▁	-9.4244
Ver	-9.42529
un▁	-9.42538
Na	-9.42625
stated▁	-9.42732
rate▁	-9.42805
Navy▁	-9.43011
sister▁	-9.43016
self▁	-9.4306
Historic▁	-9.43065
di▁	-9.43237
central▁	-9.43454
refer▁	-9.43486
getting▁	-9.43523
Railway▁	-9.43562
families▁	-9.43651
Sal	-9.43757
longer▁	-9.43959
Fa	-9.43988
Mexico▁	-9.43993
ad▁	-9.44046
else▁	-9.44077
é▁	-9.44196
1979▁	-9.44267
novel▁	-9.44292
Da	-9.44378
states▁	-9.44412
Films▁	-9.44455
ors▁	-9.44458
reading▁	-9.4446
key▁	-9.44541
owned▁	-9.44548
previous▁	-9.44573
alone▁	-9.44704
provided▁	-9.44851
ill	-9.44865
writers▁	-9.44891
Sh	-9.4503
below▁	-9.45123
ry	-9.45187
today▁	-9.4521
Since▁	-9.45385
ins▁	-9.45437
Par	-9.45458
pi	-9.45558
basketball▁	-9.45651
means▁	-9.45837
countries▁	-9.45865
allowed▁	-9.45962
1976▁	-9.45997
Although▁	-9.46084
Career▁	-9.46095
ur▁	-9.46106
results▁	-9.4612
Science▁	-9.46161
Bi	-9.46166
ber	-9.46166
hi	-9.46232
passed▁	-9.4628
1978▁	-9.46292
ass	-9.46295
whose▁	-9.4631
leader▁	-9.46348
model▁	-9.46367
spent▁	-9.4638
author▁	-9.46443
competition▁	-9.46458
guitar▁	-9.46632
kept▁	-9.4674
Go	-9.46815
ong▁	-9.46917
fourth▁	-9.46948
fight▁	-9.47001
parts▁	-9.47007
ka▁	-9.47023
tr	-9.47026
1972▁	-9.47036
whole▁	-9.47165
1981▁	-9.47184
Mi	-9.47239
ol▁	-9.47253
gone▁	-9.47314
ker▁	-9.47359
ent	-9.47377
mi	-9.47436
fall▁	-9.47488
cover▁	-9.47548
plan▁	-9.47624
fi	-9.47721
ka	-9.47829
Second▁	-9.47958
writing▁	-9.48115
He	-9.48155
ery▁	-9.48166
ud	-9.48193
bit▁	-9.48213
Its▁	-9.48219
ya▁	-9.48234
Lu	-9.48402
cast▁	-9.48406
1968▁	-9.48758
ius▁	-9.48948
gar	-9.49008
om	-9.49143
ons▁	-9.49159
Col	-9.49163
Northern▁	-9.49301
Service▁	-9.49304
itself▁	-9.49476
for	-9.49516
Wales▁	-9.4957
mon	-9.49612
Florida▁	-9.49677
fa	-9.49687
Cor	-9.49715
section▁	-9.49757
Committee▁	-9.49759
wing▁	-9.49799
myself▁	-9.49958
culture▁	-9.49973
leaving▁	-9.5008
ard▁	-9.50114
Angeles▁	-9.50171
1970▁	-9.502
parents▁	-9.50318
and	-9.50321
id▁	-9.50459
raised▁	-9.50524
actually▁	-9.50585
1974▁	-9.50596
cut▁	-9.50599
Ab	-9.50633
mine▁	-9.50649
Mon	-9.50724
1977▁	-9.50737
units▁	-9.50753
app	-9.50833
movement▁	-9.50923
ek▁	-9.50933
older▁	-9.51064
beginning▁	-9.51205
entire▁	-9.51243
Love▁	-9.51282
market▁	-9.51548
go	-9.51691
island▁	-9.51732
ney▁	-9.51793
Province▁	-9.51843
interest▁	-9.51868
Series▁	-9.51912
Greek▁	-9.52074
lips▁	-9.52121
á	-9.5218
1975▁	-9.52218
mat	-9.5227
science▁	-9.52385
Bay▁	-9.52417
future▁	-9.52458
smile▁	-9.52464
vocals▁	-9.52523
Gra	-9.52545
Day▁	-9.52621
bridge▁	-9.52664
takes▁	-9.5272
Russia▁	-9.52831
ator▁	-9.52861
ets▁	-9.52886
1971▁	-9.52914
Festival▁	-9.53074
1945▁	-9.53104
previously▁	-9.53146
ability▁	-9.53204
contract▁	-9.53222
Man▁	-9.5327
morning▁	-9.5328
Tri	-9.53296
Public▁	-9.53421
Most▁	-9.53446
saying▁	-9.53446
mis	-9.53447
hear▁	-9.53565
Ni	-9.53606
1973▁	-9.53606
defeated▁	-9.53609
Pe	-9.53684
base▁	-9.53736
ence▁	-9.5385
boy▁	-9.53852
walked▁	-9.53927
actor▁	-9.53951
ite▁	-9.54044
Ra	-9.54078
entered▁	-9.54128
sea▁	-9.5416
Sir▁	-9.54219
act▁	-9.54227
railway▁	-9.54268
Sch	-9.5431
bad▁	-9.5451
summer▁	-9.54674
stay▁	-9.54696
provide▁	-9.54701
seasons▁	-9.54733
Pennsylvania▁	-9.54745
cu	-9.54809
Carolina▁	-9.54892
characters▁	-9.54987
ella▁	-9.55182
Ga	-9.55252
goal▁	-9.55275
we	-9.5537
earlier▁	-9.55421
opening▁	-9.55424
Er	-9.55441
E▁	-9.55478
believe▁	-9.55642
covered▁	-9.55716
1969▁	-9.55744
deal▁	-9.55751
systems▁	-9.5576
gi	-9.5577
health▁	-9.55775
ans▁	-9.55864
location▁	-9.55973
est▁	-9.56092
Law▁	-9.56127
length▁	-9.56256
blue▁	-9.56287
runs▁	-9.56325
Mu	-9.56329
ks▁	-9.56386
campaign▁	-9.56637
center	-9.56809
middle▁	-9.56863
skin▁	-9.56997
ized▁	-9.5701
moving▁	-9.57098
producer▁	-9.57191
forced▁	-9.57205
dr	-9.5722
Mount▁	-9.5727
ung▁	-9.57311
drama▁	-9.5738
70▁	-9.57431
attended▁	-9.57451
die▁	-9.57487
G▁	-9.57496
ding▁	-9.57497
Sha	-9.575
weeks▁	-9.57508
view▁	-9.57577
makes▁	-9.57588
park▁	-9.57772
va	-9.57787
Research▁	-9.57886
fully▁	-9.57909
Hill▁	-9.57952
plays▁	-9.57983
ma▁	-9.58067
Com	-9.58127
certain▁	-9.58138
mid	-9.58149
tournament▁	-9.58171
ell	-9.58204
loss▁	-9.58204
80▁	-9.58216
Star▁	-9.58274
ive▁	-9.58469
Official▁	-9.58521
ians▁	-9.58583
ste	-9.58643
bar▁	-9.58724
husband▁	-9.58734
okay▁	-9.58812
Si	-9.58873
success▁	-9.58917
1964▁	-9.5897
ium▁	-9.58995
edition▁	-9.5904
1967▁	-9.59132
ill▁	-9.59191
Joseph▁	-9.59223
Empire▁	-9.59299
studio▁	-9.59377
Spain▁	-9.59384
est	-9.59385
Ti	-9.5939
organization▁	-9.59391
the	-9.59408
fell▁	-9.59518
stopped▁	-9.59566
Scottish▁	-9.59591
whom▁	-9.59635
ach	-9.59638
sat▁	-9.59652
ev	-9.59686
Pi	-9.5972
M▁	-9.59727
collection▁	-9.59746
sports▁	-9.59812
ex▁	-9.59847
Min	-9.59972
45▁	-9.60052
Br	-9.60107
cases▁	-9.60161
65▁	-9.6026
read▁	-9.60274
Li	-9.60289
Louis▁	-9.60414
ang	-9.60492
av	-9.60526
Jewish▁	-9.60535
happened▁	-9.60595
launched▁	-9.60658
names▁	-9.60676
nine▁	-9.60759
Dutch▁	-9.60773
N▁	-9.60788
Al▁	-9.60806
structure▁	-9.60833
matter▁	-9.60854
attention▁	-9.60907
Jo	-9.61055
ham▁	-9.61076
onto▁	-9.61085
month▁	-9.61128
army▁	-9.61196
Asian▁	-9.61205
K▁	-9.61301
standing▁	-9.6134
cl	-9.61348
nearly▁	-9.61417
master▁	-9.61481
ise▁	-9.61484
primary▁	-9.61519
sch	-9.61571
ones▁	-9.61589
footballer▁	-9.61641
Radio▁	-9.61646
meeting▁	-9.61704
studied▁	-9.61819
chi	-9.61917
division▁	-9.62002
Team▁	-9.62147
successful▁	-9.62238
kill▁	-9.62265
ping▁	-9.62331
ai▁	-9.62332
As	-9.6237
Southern▁	-9.62398
oc	-9.62495
ig	-9.62562
represented▁	-9.62674
plant▁	-9.62894
1966▁	-9.62937
Cha	-9.62956
jo	-9.63049
battle▁	-9.63104
southern▁	-9.63191
Gar	-9.6321
Gu	-9.63251
Ru	-9.63271
significant▁	-9.63271
um	-9.63301
Democratic▁	-9.63319
true▁	-9.63344
industry▁	-9.63351
ago▁	-9.63375
complete▁	-9.6346
Martin▁	-9.63475
Parliament▁	-9.63494
noted▁	-9.63542
Assembly▁	-9.63642
natural▁	-9.63654
singles▁	-9.63705
ville▁	-9.63737
sk	-9.63782
1965▁	-9.63812
vo	-9.63854
Hu	-9.63856
gg	-9.63879
Major▁	-9.63915
tra	-9.63946
regular▁	-9.63947
ette▁	-9.63991
news▁	-9.64045
cur	-9.64066
energy▁	-9.6412
str	-9.64133
sta	-9.64212
Mac	-9.64231
van▁	-9.64346
35▁	-9.64349
zi	-9.64367
officer▁	-9.64507
Board▁	-9.64507
magazine▁	-9.64523
higher▁	-9.64531
1960▁	-9.64543
Register▁	-9.64686
Ge	-9.64744
thus▁	-9.64763
Members▁	-9.64765
ha▁	-9.64766
northern▁	-9.64911
fer	-9.65095
caused▁	-9.65166
ko	-9.65168
job▁	-9.65184
decision▁	-9.65203
reason▁	-9.65259
fine▁	-9.65267
personal▁	-9.65294
Lee▁	-9.65308
Battle▁	-9.65322
Kar	-9.65328
align	-9.65364
heavy▁	-9.65399
studies▁	-9.65482
+▁	-9.65623
Green▁	-9.65738
bl	-9.65751
iz	-9.65792
gun▁	-9.65794
If▁	-9.65814
fl	-9.65822
Chief▁	-9.65923
Later▁	-9.65984
green▁	-9.66046
route▁	-9.66062
chief▁	-9.66123
Following▁	-9.66184
census▁	-9.66217
star▁	-9.66546
can	-9.6664
nodded▁	-9.66678
Town▁	-9.66757
according▁	-9.6676
Queen▁	-9.66968
ro▁	-9.66994
ance▁	-9.67013
issue▁	-9.67017
war	-9.6702
forms▁	-9.67043
required▁	-9.67058
ck	-9.67111
&	-9.6714
lies▁	-9.67205
meet▁	-9.6721
Dis	-9.67272
approximately▁	-9.67307
county▁	-9.6732
highest▁	-9.67358
network▁	-9.67389
men	-9.67403
western▁	-9.67436
Th	-9.67488
staff▁	-9.67496
street▁	-9.67537
medical▁	-9.67549
Pacific▁	-9.67556
capital▁	-9.67637
Ohio▁	-9.67657
manager▁	-9.67675
issues▁	-9.67696
elections▁	-9.6784
W▁	-9.67841
ess	-9.67868
musical▁	-9.67882
90▁	-9.67974
Valley▁	-9.6811
III▁	-9.68126
giving▁	-9.68174
Ex	-9.68193
appearance▁	-9.68248
mostly▁	-9.6856
anti▁	-9.68656
air	-9.68693
god▁	-9.68757
Military▁	-9.68763
trans	-9.68784
tour▁	-9.68876
Michigan▁	-9.6888
Times▁	-9.68986
her	-9.68989
Old▁	-9.69003
Big▁	-9.69048
themselves▁	-9.69117
offered▁	-9.69154
Brown▁	-9.69155
sort▁	-9.69172
ask▁	-9.69184
holding▁	-9.69223
serving▁	-9.69292
independent▁	-9.69353
del▁	-9.69366
Scotland▁	-9.69409
trade▁	-9.69416
all	-9.69426
practice▁	-9.69441
Edward▁	-9.69442
pp▁	-9.69469
tur	-9.69555
generally▁	-9.69627
property▁	-9.69659
Mal	-9.69881
Places▁	-9.69881
operations▁	-9.69882
ard	-9.69973
left	-9.69994
chest▁	-9.69995
anyone▁	-9.70036
relationship▁	-9.70051
ways▁	-9.70141
houses▁	-9.70168
becoming▁	-9.70353
student▁	-9.70462
Her	-9.70506
tracks▁	-9.70532
sl	-9.7055
wa	-9.70554
mann▁	-9.70756
breath▁	-9.70775
engine▁	-9.70848
ster▁	-9.70859
ven	-9.7087
genus▁	-9.70943
Mark▁	-9.70949
union▁	-9.7095
1962▁	-9.71062
My▁	-9.71077
traditional▁	-9.71098
wo▁	-9.71137
ology▁	-9.71192
au▁	-9.71233
actors▁	-9.71288
sense▁	-9.71342
terms▁	-9.71348
limited▁	-9.71357
Television▁	-9.71376
ko▁	-9.71463
starting▁	-9.71467
report▁	-9.71525
associated▁	-9.7153
goals▁	-9.71539
fe	-9.71564
additional▁	-9.71617
helped▁	-9.71634
au	-9.7166
1963▁	-9.71683
everyone▁	-9.71721
clear▁	-9.71742
response▁	-9.71743
reach▁	-9.71755
Prince▁	-9.71911
cross▁	-9.72058
access▁	-9.7207
Britain▁	-9.72156
tic▁	-9.7219
mer▁	-9.72207
Columbia▁	-9.72227
0	-9.72284
Bal	-9.72363
managed▁	-9.72443
Fe	-9.72494
fingers▁	-9.72549
ending▁	-9.72628
individual▁	-9.72647
ana	-9.72655
unit▁	-9.72676
Civil▁	-9.72715
matches▁	-9.72742
Lord▁	-9.72804
hal	-9.72888
CD▁	-9.72894
couple▁	-9.72961
Congress▁	-9.72978
Asia▁	-9.73002
Polish▁	-9.73092
Sp	-9.73107
ball▁	-9.73152
question▁	-9.73173
1944▁	-9.73284
ata▁	-9.73295
ane▁	-9.73341
mor	-9.73356
That▁	-9.73373
class	-9.73402
32▁	-9.73517
Ke	-9.73565
Inter	-9.73703
immediately▁	-9.73737
sen▁	-9.73872
score▁	-9.73927
department▁	-9.73932
Ber	-9.73982
Pre	-9.74033
Ben	-9.74039
3:	-9.74134
changes▁	-9.74159
du▁	-9.74218
Men▁	-9.74329
surface▁	-9.7436
meant▁	-9.74395
ze	-9.74435
F▁	-9.74443
test▁	-9.74498
contains▁	-9.74573
hell▁	-9.74631
smiled▁	-9.7468
ready▁	-9.74685
edge▁	-9.74741
Illinois▁	-9.74769
feeling▁	-9.74789
H▁	-9.74834
background▁	-9.74898
economic▁	-9.75128
distance▁	-9.75132
management▁	-9.75146
Ph	-9.75182
Ac	-9.75231
fish▁	-9.75241
pl	-9.75261
col	-9.75298
uff	-9.753
arrived▁	-9.75308
Poland▁	-9.75321
whether▁	-9.75326
ee▁	-9.75341
operated▁	-9.75364
speed▁	-9.75406
Library▁	-9.75417
believed▁	-9.7556
1961▁	-9.75631
glass▁	-9.7568
Chi	-9.75769
stand▁	-9.75769
Massachusetts▁	-9.75831
carried▁	-9.75832
completely▁	-9.75867
ki▁	-9.75878
pass▁	-9.75938
multiple▁	-9.76157
direction▁	-9.76158
selected▁	-9.76339
particular▁	-9.76411
1956▁	-9.76413
figure▁	-9.76427
dance▁	-9.76499
award▁	-9.76541
evidence▁	-9.76557
increased▁	-9.76575
Gi	-9.76671
eye▁	-9.76847
comes▁	-9.7685
1942▁	-9.76853
Conference▁	-9.76867
particularly▁	-9.76922
create▁	-9.76935
despite▁	-9.76985
centre▁	-9.76986
mission▁	-9.77012
Further▁	-9.7705
caught▁	-9.7705
ö	-9.7706
Young▁	-9.77068
Director▁	-9.771
hour▁	-9.77129
twenty▁	-9.77141
lands▁	-9.7718
tree▁	-9.77236
Fi	-9.77301
senior▁	-9.77343
ger	-9.77374
activities▁	-9.77453
Bur	-9.77588
Boston▁	-9.776
hall▁	-9.77631
ini▁	-9.77745
Jersey▁	-9.77822
allow▁	-9.77831
quite▁	-9.77846
Che	-9.7785
Eastern▁	-9.77859
structures▁	-9.78028
em▁	-9.78041
break▁	-9.78044
’▁	-9.7808
Bu	-9.7823
eg	-9.7832
paper▁	-9.78323
Many▁	-9.78337
appears▁	-9.78343
sex▁	-9.78451
famous▁	-9.78469
claimed▁	-9.78532
Sports▁	-9.78648
ani▁	-9.78727
1943▁	-9.78825
standard▁	-9.78843
pan	-9.78857
minute▁	-9.7892
except▁	-9.78953
experience▁	-9.78972
Jones▁	-9.78983
pur	-9.79018
subject▁	-9.79121
page▁	-9.79133
Vo	-9.7914
Line▁	-9.79152
1958▁	-9.79158
ep	-9.79182
Georgia▁	-9.79227
R▁	-9.79318
technology▁	-9.79366
thinking▁	-9.79393
Time▁	-9.79468
U▁	-9.79508
Tu	-9.79537
cha	-9.79548
neck▁	-9.79572
lives▁	-9.7959
numerous▁	-9.79591
bu	-9.79601
anti	-9.79601
victory▁	-9.79646
problem▁	-9.79834
ines▁	-9.79883
commercial▁	-9.79897
legal▁	-9.79997
ang▁	-9.80073
Tour▁	-9.80078
fiction▁	-9.8014
1948▁	-9.80141
1959▁	-9.80174
bring▁	-9.80187
ization▁	-9.80361
theory▁	-9.80463
yl	-9.80569
ari	-9.80645
Tr	-9.80676
agreed▁	-9.80799
rose▁	-9.80823
security▁	-9.80875
Commission▁	-9.80901
ful▁	-9.81005
Bra	-9.81045
piece▁	-9.81046
politicians▁	-9.81046
ot	-9.81076
Johnson▁	-9.81108
university▁	-9.81124
retired▁	-9.81127
tan	-9.81152
silver▁	-9.81174
feature▁	-9.81219
likely▁	-9.81288
eastern▁	-9.81366
effect▁	-9.81409
ek	-9.81443
mm▁	-9.81463
1957▁	-9.81467
directly▁	-9.81471
Theatre▁	-9.81505
train▁	-9.81511
wi	-9.81566
port▁	-9.81595
material▁	-9.81602
S▁	-9.81621
pen	-9.81628
shook▁	-9.81662
remains▁	-9.81715
shown▁	-9.81723
1980	-9.81757
grew▁	-9.81819
religious▁	-9.8185
box▁	-9.82039
failed▁	-9.82061
ages▁	-9.82139
programs▁	-9.82179
Cl	-9.82281
initially▁	-9.82292
clubs▁	-9.8235
source▁	-9.82402
color▁	-9.82566
larger▁	-9.82624
stories▁	-9.82682
weight▁	-9.8286
í	-9.82896
recording▁	-9.82912
1950▁	-9.82928
Blue▁	-9.8294
dropped▁	-9.82989
Me▁	-9.83021
aw	-9.83021
metal▁	-9.83045
San	-9.8307
understand▁	-9.83099
shoulder▁	-9.83106
yeah▁	-9.83132
berg▁	-9.83138
sons▁	-9.83146
status▁	-9.83247
ash	-9.8328
bank▁	-9.83345
step▁	-9.83355
slowly▁	-9.83359
cost▁	-9.83368
annual▁	-9.83398
ens▁	-9.83418
professor▁	-9.83476
pp	-9.83589
chapter▁	-9.8379
municipality▁	-9.83809
cause▁	-9.83893
Swedish▁	-9.83907
double▁	-9.83967
1940▁	-9.83968
ments▁	-9.83973
movie▁	-9.84105
Final▁	-9.84105
1941▁	-9.84106
je	-9.84109
64▁	-9.84143
Bill▁	-9.84168
1939▁	-9.84185
Office▁	-9.84264
Governor▁	-9.8428
majority▁	-9.84281
lay▁	-9.84442
ment	-9.84471
ically▁	-9.84541
income▁	-9.846
plans▁	-9.84604
presented▁	-9.84645
1952▁	-9.84735
discovered▁	-9.84749
command▁	-9.84762
shed▁	-9.84779
foot▁	-9.84787
complex▁	-9.84873
ul▁	-9.84879
pay▁	-9.84918
meaning▁	-9.84919
mu	-9.84923
officers▁	-9.84971
Health▁	-9.84971
girls▁	-9.85011
chair▁	-9.85179
window▁	-9.8521
cold▁	-9.85243
ica▁	-9.8525
1953▁	-9.85271
oil▁	-9.85313
talking▁	-9.85345
Biography▁	-9.85431
Jack▁	-9.85522
Oxford▁	-9.85529
O▁	-9.85591
)	-9.85608
walk▁	-9.85647
:#	-9.85767
Little▁	-9.85781
square▁	-9.85793
Book▁	-9.85952
den	-9.8596
yard▁	-9.85977
Frank▁	-9.86026
Tra	-9.86136
Cross▁	-9.86154
comedy▁	-9.86187
Development▁	-9.86287
cities▁	-9.86306
wrong▁	-9.86312
BC▁	-9.86315
championship▁	-9.86428
specific▁	-9.86428
1955▁	-9.86473
marriage▁	-9.86529
attempt▁	-9.86549
33▁	-9.86564
competed▁	-9.86589
cultural▁	-9.86594
waiting▁	-9.86654
super	-9.86676
Centre▁	-9.86689
Senate▁	-9.86701
ys▁	-9.86712
cell▁	-9.86822
ki	-9.86853
Ram	-9.86928
von▁	-9.86982
direct▁	-9.86982
earned▁	-9.87013
Foundation▁	-9.87074
Jean▁	-9.87091
1947▁	-9.87139
lie▁	-9.87186
row▁	-9.87193
Williams▁	-9.87215
soldiers▁	-9.87215
We▁	-9.87225
hospital▁	-9.87303
Ku	-9.87313
Francisco▁	-9.87317
historical▁	-9.87357
1946▁	-9.8736
Creek▁	-9.87425
supported▁	-9.87439
bus▁	-9.87449
Ri	-9.87528
00▁	-9.87535
200▁	-9.87542
ant	-9.87611
sal	-9.87634
Bank▁	-9.87648
cul	-9.87731
pain▁	-9.87777
nature▁	-9.87792
Latin▁	-9.87837
os	-9.87854
Israel▁	-9.87886
ash▁	-9.87987
ering▁	-9.88042
society▁	-9.8805
sorry▁	-9.88077
Alexander▁	-9.88091
Cu	-9.88138
civil▁	-9.88153
acting▁	-9.88154
q	-9.88179
operation▁	-9.88194
T▁	-9.88284
ou▁	-9.88314
ec	-9.88363
Their▁	-9.88398
hot▁	-9.88409
az	-9.88449
worth▁	-9.88485
1949▁	-9.88544
vote▁	-9.88545
ist	-9.88646
els▁	-9.8869
ze▁	-9.88743
El▁	-9.88752
bra	-9.888
communities▁	-9.88891
scene▁	-9.889
Family▁	-9.88995
ered▁	-9.89015
lack▁	-9.89036
issued▁	-9.8908
1954▁	-9.89141
**	-9.8916
Islands▁	-9.89164
News▁	-9.89199
simply▁	-9.89212
editor▁	-9.89255
ov	-9.8932
Bre	-9.89394
remaining▁	-9.8947
referred▁	-9.89517
van	-9.89524
36▁	-9.89588
Secretary▁	-9.89615
pol	-9.89661
Inc	-9.89679
native▁	-9.89704
computer▁	-9.89874
ren	-9.89983
nearby▁	-9.8999
note▁	-9.90021
cr	-9.90026
online▁	-9.90042
hockey▁	-9.90052
federal▁	-9.90073
tes▁	-9.90097
44▁	-9.90144
descent▁	-9.90177
problems▁	-9.90198
Super▁	-9.90283
ü	-9.90288
Track▁	-9.90466
ky▁	-9.9054
letter▁	-9.90689
chance▁	-9.90696
God▁	-9.90696
watched▁	-9.90718
personnel▁	-9.90742
1990	-9.90784
border▁	-9.90816
Victoria▁	-9.90881
bass▁	-9.90916
records▁	-9.90952
serve▁	-9.91011
net▁	-9.91068
sign▁	-9.91088
Tar	-9.91115
ancient▁	-9.91142
Joe▁	-9.91155
ordered▁	-9.91169
expected▁	-9.91204
composed▁	-9.9125
Yu	-9.91266
tion▁	-9.91346
medal▁	-9.9135
ger▁	-9.91402
policy▁	-9.91438
Scott▁	-9.91486
L▁	-9.91496
ll	-9.91558
subsequently▁	-9.91649
suddenly▁	-9.91649
extended▁	-9.91652
Tom▁	-9.91659
responsible▁	-9.9167
BBC▁	-9.91688
Republican▁	-9.91713
bri	-9.91733
ny▁	-9.91774
miles▁	-9.91784
Ag	-9.91841
council▁	-9.91851
1970	-9.91864
75▁	-9.91905
continue▁	-9.91977
Station▁	-9.92043
cars▁	-9.9207
focus▁	-9.92139
ning▁	-9.92146
arch	-9.922
nes▁	-9.9221
ae▁	-9.92233
review▁	-9.92321
physical▁	-9.92351
1951▁	-9.92352
Rock▁	-9.92378
gen	-9.92402
drive▁	-9.92409
stars▁	-9.92441
land	-9.92519
Ya	-9.92525
ber▁	-9.92548
34▁	-9.9262
press▁	-9.92664
Three▁	-9.92675
Special▁	-9.92702
actress▁	-9.92736
article▁	-9.92759
Sydney▁	-9.92799
Bel	-9.92806
og	-9.92808
Open▁	-9.92812
Jr	-9.92813
tions▁	-9.9301
val	-9.9303
appearances▁	-9.93036
legs▁	-9.93058
overall▁	-9.93098
gate▁	-9.93118
financial▁	-9.93294
ale▁	-9.93322
://	-9.93444
Home▁	-9.93529
iv	-9.93586
fo	-9.93593
Personal▁	-9.93646
Gallery▁	-9.93663
increase▁	-9.93747
Berlin▁	-9.93753
troops▁	-9.9377
Ju	-9.93824
latter▁	-9.93862
Hong▁	-9.93912
But▁	-9.93931
38▁	-9.93962
Hol	-9.9399
dad▁	-9.94038
1936▁	-9.94059
Sub	-9.94074
straight▁	-9.94114
answer▁	-9.94203
Kong▁	-9.94218
7–	-9.94258
regional▁	-9.94278
fifth▁	-9.94289
eu	-9.94297
acquired▁	-9.94333
Corps▁	-9.94345
fast▁	-9.94419
guy▁	-9.94514
ative▁	-9.94518
featuring▁	-9.94529
ser	-9.94553
baseball▁	-9.94682
prior▁	-9.94719
fore	-9.94735
perhaps▁	-9.94769
newspaper▁	-9.94771
winner▁	-9.94776
constructed▁	-9.94828
30	-9.94849
umb	-9.94879
join▁	-9.949
Sta	-9.94917
tar	-9.94958
corner▁	-9.95002
ical▁	-9.95081
appear▁	-9.95121
aged▁	-9.9516
sing▁	-9.95186
episodes▁	-9.95207
organizations▁	-9.95229
J▁	-9.95239
races▁	-9.95253
foreign▁	-9.95297
Middle▁	-9.95323
v▁	-9.95348
separate▁	-9.95361
variety▁	-9.95383
planned▁	-9.95406
awards▁	-9.95468
filled▁	-9.95488
Top▁	-9.95506
mark▁	-9.95596
Korean▁	-9.95604
37▁	-9.95673
remember▁	-9.95685
broadcast▁	-9.95693
Sea▁	-9.95759
nation▁	-9.95848
para	-9.95866
ju	-9.95867
sur	-9.95965
proposed▁	-9.96048
minor▁	-9.9627
ran	-9.96286
watch▁	-9.96396
ce▁	-9.964
recent▁	-9.96411
headed▁	-9.96454
poor▁	-9.96472
removed▁	-9.96486
hurt▁	-9.96495
enti	-9.96868
mainly▁	-9.96986
ik▁	-9.96999
Cambridge▁	-9.97007
1938▁	-9.97009
Mat	-9.9705
build▁	-9.9709
Medal▁	-9.97121
Im	-9.97134
Coast▁	-9.97158
provides▁	-9.9718
Le▁	-9.97246
promoted▁	-9.97247
Social▁	-9.97249
Of▁	-9.97283
parties▁	-9.97292
captain▁	-9.97359
ants▁	-9.97416
boat▁	-9.9744
province▁	-9.97471
ji▁	-9.97641
our	-9.97709
channel▁	-9.97773
Hospital▁	-9.9779
War	-9.97794
conditions▁	-9.97809
fighting▁	-9.97831
48▁	-9.97832
looks▁	-9.97851
und▁	-9.97909
Hi	-9.97995
port	-9.97999
sides▁	-9.98031
Dan	-9.98044
hope▁	-9.98048
mixed▁	-9.98065
value▁	-9.98075
Justice▁	-9.98127
De▁	-9.98147
cal	-9.98148
crew▁	-9.98195
rules▁	-9.9824
store▁	-9.98244
Ham	-9.98363
ah	-9.9839
faculty▁	-9.98396
Despite▁	-9.9847
Brazil▁	-9.98532
bur	-9.98542
trees▁	-9.98547
hill▁	-9.98582
code▁	-9.98583
host▁	-9.98606
ez▁	-9.98621
Dar	-9.98626
Books▁	-9.98657
assistant▁	-9.98714
ms▁	-9.98833
founder▁	-9.98859
Mr	-9.98916
Professor▁	-9.98953
formerly▁	-9.98965
paid▁	-9.98972
Songs▁	-9.99025
workers▁	-9.99074
Police▁	-9.99135
mal	-9.9925
ck▁	-9.99263
Korea▁	-9.99266
und	-9.99306
sites▁	-9.99326
upper▁	-9.99352
Toronto▁	-9.99428
youth▁	-9.99457
numbers▁	-9.99513
1960	-9.9959
Ki	-9.99633
que▁	-9.99687
positive▁	-9.99813
55▁	-9.99842
tt	-9.99872
Another▁	-9.99964
US	-9.99994
normal▁	-10.0004
function▁	-10.0004
ward▁	-10.0005
Can	-10.0009
ok▁	-10.0011
designated▁	-10.0023
revealed▁	-10.0023
za	-10.0025
Super	-10.0029
sto	-10.003
titled▁	-10.0034
baby▁	-10.0037
Pan	-10.0038
wait▁	-10.0046
Kan	-10.0047
Live▁	-10.0049
types▁	-10.005
rule▁	-10.0052
imp	-10.0052
broke▁	-10.0058
goes▁	-10.0059
Far	-10.006
ye▁	-10.0064
graduated▁	-10.0069
individuals▁	-10.0069
Char	-10.0072
Arthur▁	-10.0074
ised▁	-10.0074
difficult▁	-10.0087
Ontario▁	-10.009
Route▁	-10.0093
influence▁	-10.0094
Post▁	-10.0096
ib	-10.0097
leaves▁	-10.0098
spread▁	-10.0099
consists▁	-10.0101
sitting▁	-10.0102
levels▁	-10.0104
USA▁	-10.0109
Earth▁	-10.0114
Ban	-10.0117
rugby▁	-10.0119
Journal▁	-10.0121
follow▁	-10.0123
kh	-10.013
Fort▁	-10.0135
rich▁	-10.0137
beautiful▁	-10.0141
ends▁	-10.0148
slightly▁	-10.0154
af	-10.0154
Za	-10.0157
charge▁	-10.0158
1918▁	-10.0158
We	-10.0162
Game▁	-10.0164
4:	-10.017
background	-10.0176
bo▁	-10.0181
elements▁	-10.0182
showed▁	-10.0182
Baseball▁	-10.0202
1937▁	-10.0205
Both▁	-10.0208
Mike▁	-10.021
42▁	-10.0216
arts▁	-10.0218
Mer	-10.0224
Ol	-10.0224
Sk	-10.0225
expatriate▁	-10.0233
Song▁	-10.0235
ade▁	-10.0237
uk	-10.0239
ä	-10.024
organized▁	-10.0249
}▁	-10.025
please▁	-10.0253
Mus	-10.0253
lin	-10.0261
closer▁	-10.0264
int	-10.0264
wind▁	-10.0266
500▁	-10.0269
intended▁	-10.027
Pakistan▁	-10.0275
officially▁	-10.0278
label▁	-10.0282
situation▁	-10.0287
47▁	-10.0293
gh	-10.0304
share▁	-10.0305
pop▁	-10.0315
leaders▁	-10.0315
Airport▁	-10.0316
dar	-10.0316
ents▁	-10.0316
ches▁	-10.0318
gas▁	-10.0325
presence▁	-10.0334
pretty▁	-10.0334
mid▁	-10.0344
racing▁	-10.0347
mentioned▁	-10.0349
serves▁	-10.0352
offer▁	-10.0354
architecture▁	-10.0363
Field▁	-10.0365
flight▁	-10.037
camp▁	-10.0375
kar	-10.0377
ast	-10.0381
quality▁	-10.0383
qui	-10.0384
ham	-10.0384
Federal▁	-10.0386
smaller▁	-10.0389
For	-10.0391
Supreme▁	-10.0401
Pol	-10.0401
broken▁	-10.0402
ear	-10.0406
yo	-10.0408
cer	-10.0409
image▁	-10.0414
elle▁	-10.0416
executive▁	-10.0418
Prize▁	-10.0419
happy▁	-10.0424
coast▁	-10.0425
alongside▁	-10.0428
sk▁	-10.0431
Netherlands▁	-10.0433
Wisconsin▁	-10.0435
39▁	-10.0437
candidate▁	-10.0437
growing▁	-10.0438
pre▁	-10.0438
Duke▁	-10.044
ses▁	-10.044
ja▁	-10.0442
Men	-10.0449
pressure▁	-10.0452
Prime▁	-10.0454
effects▁	-10.0454
trial▁	-10.0459
accepted▁	-10.0459
Minnesota▁	-10.0461
Wa	-10.0463
activity▁	-10.0469
beyond▁	-10.0473
easy▁	-10.0474
risk▁	-10.0485
winners▁	-10.0498
bb	-10.0504
mountain▁	-10.0509
ese▁	-10.051
plants▁	-10.0512
Wilson▁	-10.0513
ked▁	-10.0517
stared▁	-10.0518
dor	-10.0519
head	-10.0521
products▁	-10.0522
ski▁	-10.0523
residents▁	-10.0527
musicians▁	-10.0529
Mad	-10.0529
ties▁	-10.0541
lock▁	-10.0544
administrative▁	-10.0546
beat▁	-10.0554
exactly▁	-10.0561
Ci	-10.0565
amount▁	-10.0565
positions▁	-10.0567
rise▁	-10.0567
card▁	-10.0571
Santa▁	-10.0573
Long▁	-10.0578
ino▁	-10.0583
teacher▁	-10.0585
ik	-10.0586
renamed▁	-10.0587
transferred▁	-10.059
Regiment▁	-10.0598
1920▁	-10.0602
lake▁	-10.0605
Os	-10.062
Works▁	-10.0623
Ministry▁	-10.0624
Cre	-10.0629
agreement▁	-10.0632
purpose▁	-10.0634
treatment▁	-10.0644
produce▁	-10.0649
firm▁	-10.065
destroyed▁	-10.0654
safe▁	-10.0666
touch▁	-10.0666
piano▁	-10.0668
seeing▁	-10.0671
spoke▁	-10.0672
Notable▁	-10.0672
soft▁	-10.0677
divided▁	-10.0677
pur▁	-10.0686
ok	-10.0686
sol	-10.0691
fellow▁	-10.0691
walls▁	-10.0696
6–	-10.0701
recognized▁	-10.0703
Nations▁	-10.0708
Je	-10.0709
ano▁	-10.0711
1935▁	-10.0722
Chris▁	-10.0728
mass▁	-10.0728
aff	-10.0729
languages▁	-10.073
Iran▁	-10.0739
twice▁	-10.0741
ser▁	-10.0753
41▁	-10.0756
brown▁	-10.0762
Sar	-10.0771
Ger	-10.0776
eng	-10.0777
draw▁	-10.0792
owner▁	-10.0796
sha	-10.0799
Fin	-10.0802
highly▁	-10.0803
Avenue▁	-10.0806
prison▁	-10.0807
Premier▁	-10.0808
han	-10.0811
Bob▁	-10.0814
realized▁	-10.0818
stepped▁	-10.0822
expression▁	-10.0823
Lady▁	-10.0834
Stadium▁	-10.0835
leg▁	-10.0837
becomes▁	-10.0842
sources▁	-10.0846
projects▁	-10.0849
ann	-10.0849
£▁	-10.085
mr▁	-10.0859
Philadelphia▁	-10.086
memory▁	-10.086
buried▁	-10.0863
Bishop▁	-10.0871
sleep▁	-10.0875
Ash	-10.0875
Ser	-10.0878
Andrew▁	-10.0881
articles▁	-10.0883
Sur	-10.0887
Community▁	-10.0895
academic▁	-10.09
losing▁	-10.0904
ev▁	-10.0911
Ed	-10.0915
Val	-10.0918
off	-10.092
nice▁	-10.0922
Also▁	-10.0924
Video▁	-10.0925
dedicated▁	-10.0934
captured▁	-10.0936
Qu	-10.0942
eb	-10.0943
speak▁	-10.0943
mile▁	-10.0943
ó	-10.0946
FM▁	-10.0947
Au	-10.0957
cre	-10.0961
Night▁	-10.0961
rural▁	-10.0967
nu	-10.0968
49▁	-10.0974
travel▁	-10.0976
Mag	-10.098
scale▁	-10.0981
whatever▁	-10.0984
vis	-10.0986
don	-10.0997
1919▁	-10.0997
1934▁	-10.1
mom▁	-10.1001
Ye	-10.1002
software▁	-10.1004
Elizabeth▁	-10.1008
ath	-10.1009
settled▁	-10.1009
Media▁	-10.101
1930▁	-10.1013
horse▁	-10.1014
primarily▁	-10.1017
potential▁	-10.1022
growth▁	-10.103
cat	-10.103
Technology▁	-10.1032
ahead▁	-10.1034
54▁	-10.1042
chart▁	-10.1052
56▁	-10.1052
yards▁	-10.1052
Ste	-10.1053
capacity▁	-10.1055
equipment▁	-10.1058
basis▁	-10.1058
46▁	-10.106
yn	-10.106
Sam	-10.1061
ou	-10.1068
Under▁	-10.1071
titles▁	-10.1073
assigned▁	-10.1074
Luc	-10.1078
im▁	-10.1082
settlement▁	-10.1086
1928▁	-10.109
literature▁	-10.1091
watching▁	-10.1093
sexual▁	-10.1097
iss	-10.1099
pushed▁	-10.1102
ston▁	-10.1106
Peak▁	-10.1109
Pu	-10.1114
finish▁	-10.1115
ize▁	-10.1118
listing▁	-10.1118
ory▁	-10.1119
1933▁	-10.112
simple▁	-10.1122
serious▁	-10.1123
Captain▁	-10.1127
pair▁	-10.1127
res	-10.1127
fear▁	-10.1132
taught▁	-10.1132
visit▁	-10.1134
Ze	-10.1135
spec	-10.1138
Is	-10.1141
ely▁	-10.1142
Steve▁	-10.1149
Mexican▁	-10.1161
gives▁	-10.1167
Norwegian▁	-10.1168
Corporation▁	-10.1171
unknown▁	-10.1176
tro	-10.1179
shirt▁	-10.1179
screen▁	-10.1184
knowledge▁	-10.1187
ong	-10.1189
prominent▁	-10.1194
43▁	-10.1196
bor	-10.1197
sport▁	-10.1198
seconds▁	-10.1199
aid▁	-10.1199
Gr	-10.12
hor	-10.1203
om▁	-10.1206
Show▁	-10.1215
hol	-10.1215
1929▁	-10.1216
micro	-10.1218
Ak	-10.122
approach▁	-10.1223
Gor	-10.1226
gets▁	-10.1226
administration▁	-10.1228
museum▁	-10.1238
follows▁	-10.1244
Nor	-10.1249
hundred▁	-10.125
crime▁	-10.1254
Kansas▁	-10.1254
Township▁	-10.1265
notes▁	-10.1269
amp	-10.1276
murder▁	-10.1278
remain▁	-10.1279
defeat▁	-10.1284
00	-10.1285
turning▁	-10.1286
ign	-10.1288
participated▁	-10.1291
Political▁	-10.1296
Bor	-10.1302
boys▁	-10.1307
Medical▁	-10.1308
Shi	-10.1313
poet▁	-10.1318
Gold▁	-10.1329
ey	-10.133
_	-10.1343
fr	-10.1344
Mil	-10.1345
connected▁	-10.1349
ators▁	-10.1352
occurred▁	-10.1356
effort▁	-10.1359
Tor	-10.1364
conducted▁	-10.1364
compared▁	-10.1367
Studies▁	-10.1367
lying▁	-10.1371
guard▁	-10.1371
Sweden▁	-10.1378
Jim▁	-10.1384
40	-10.1385
Daniel▁	-10.1386
classical▁	-10.1386
1917▁	-10.1393
notable▁	-10.1394
Jackson▁	-10.1394
Business▁	-10.1395
relations▁	-10.1396
ble▁	-10.1396
leg	-10.1405
conference▁	-10.1409
Cap	-10.1411
The	-10.1412
Taylor▁	-10.1417
choice▁	-10.1418
sti	-10.1421
account▁	-10.1421
loved▁	-10.1423
champion▁	-10.1423
association▁	-10.1425
ned▁	-10.143
Mur	-10.1433
emb	-10.1434
Golden▁	-10.1438
confirmed▁	-10.1439
ari▁	-10.1442
needs▁	-10.1446
Mountain▁	-10.1448
pu	-10.1454
throat▁	-10.1455
hy	-10.1456
del	-10.1462
parish▁	-10.1464
ics▁	-10.1465
ities▁	-10.1466
ves▁	-10.1467
Nu	-10.1467
ena▁	-10.147
ster	-10.1471
composer▁	-10.1478
yn▁	-10.1479
tz▁	-10.1484
1931▁	-10.1487
Atlantic▁	-10.1492
votes▁	-10.1493
estate▁	-10.1495
purchased▁	-10.15
models▁	-10.15
content▁	-10.15
ington▁	-10.15
Bibliography▁	-10.1503
hi▁	-10.1505
Sciences▁	-10.1505
initial▁	-10.1511
52▁	-10.1515
picked▁	-10.1515
don▁	-10.152
seems▁	-10.1521
entry▁	-10.1523
forest▁	-10.1525
spot▁	-10.1525
66▁	-10.1532
art	-10.154
kiss▁	-10.155
1932▁	-10.155
declared▁	-10.1551
bodies▁	-10.1552
gaze▁	-10.1555
efforts▁	-10.1559
Missouri▁	-10.1562
operating▁	-10.1565
1914▁	-10.1565
50	-10.1566
medalists▁	-10.1567
53▁	-10.1568
bottom▁	-10.157
districts▁	-10.1572
seats▁	-10.1573
branch▁	-10.1574
sn	-10.1581
Wal	-10.1585
focused▁	-10.1591
library▁	-10.1597
brothers▁	-10.1597
digital▁	-10.1597
2.	-10.1612
suggested▁	-10.1613
Francis▁	-10.1613
tie▁	-10.1616
Rome▁	-10.1616
tower▁	-10.1619
ump	-10.1628
Colorado▁	-10.1629
ear▁	-10.1633
Junior▁	-10.1635
hosted▁	-10.1636
son	-10.1638
Pen	-10.1644
analysis▁	-10.1645
therefore▁	-10.1645
slow▁	-10.1648
younger▁	-10.1648
towns▁	-10.1651
females▁	-10.1657
Indiana▁	-10.1659
minister▁	-10.166
Master▁	-10.1665
1924▁	-10.1667
top	-10.1668
9–	-10.1671
ac▁	-10.1673
commonly▁	-10.1673
platform▁	-10.1673
1927▁	-10.1675
Hal	-10.1679
truth▁	-10.1682
laughed▁	-10.1686
ub	-10.1686
tic	-10.1687
hand	-10.1689
damage▁	-10.1691
Region▁	-10.1691
Maria▁	-10.1695
Project▁	-10.1703
Davis▁	-10.1706
ug	-10.1718
heat▁	-10.172
bul	-10.1728
acts▁	-10.173
contact▁	-10.1733
Gen	-10.1735
solo▁	-10.1741
percent▁	-10.1741
trust▁	-10.1742
West	-10.1744
perfect▁	-10.1745
Ly	-10.1745
historic▁	-10.1753
51▁	-10.1757
split▁	-10.1761
claim▁	-10.1764
distribution▁	-10.1769
Dor	-10.1775
semi▁	-10.1775
ranked▁	-10.1778
mel	-10.178
Sun▁	-10.178
ish	-10.1781
Member▁	-10.1788
lin▁	-10.1788
novels▁	-10.179
han▁	-10.1792
warm▁	-10.1796
25	-10.1796
57▁	-10.18
powerful▁	-10.1804
safety▁	-10.1804
reaching▁	-10.1808
facilities▁	-10.1812
recently▁	-10.1813
urban▁	-10.1813
interview▁	-10.1817
ten	-10.1823
unable▁	-10.1827
ij	-10.1828
orders▁	-10.1829
laid▁	-10.1831
fields▁	-10.1838
ton	-10.184
households▁	-10.184
electric▁	-10.184
hr	-10.184
Es	-10.1842
agent▁	-10.1843
comp	-10.1843
Kal	-10.1844
Va	-10.1845
campus▁	-10.1846
eh▁	-10.1856
Geography▁	-10.1863
She	-10.1865
8–	-10.1866
duc	-10.1867
walking▁	-10.1868
begin▁	-10.1871
formation▁	-10.1881
ken▁	-10.1881
sets▁	-10.1892
ura▁	-10.1896
protect▁	-10.1898
Highway▁	-10.19
format▁	-10.1903
www	-10.1907
Power▁	-10.1911
ya	-10.1913
critical▁	-10.1921
territory▁	-10.1923
59▁	-10.1925
Norway▁	-10.1931
tells▁	-10.1932
ri▁	-10.1932
programming▁	-10.1935
Mont	-10.1936
sy▁	-10.1937
reviews▁	-10.1937
Tennessee▁	-10.1937
roles▁	-10.1938
gained▁	-10.1946
vel	-10.1948
marked▁	-10.1948
committee▁	-10.1949
sight▁	-10.1949
surrounding▁	-10.1965
Season▁	-10.1968
95▁	-10.197
institutions▁	-10.1974
path▁	-10.1983
Representatives▁	-10.1988
ku	-10.1994
if	-10.1998
Van▁	-10.2003
Born▁	-10.2007
pieces▁	-10.2008
sun▁	-10.2018
,	-10.2018
adopted▁	-10.2025
85▁	-10.2033
fought▁	-10.2034
Place▁	-10.2035
actions▁	-10.2038
ix▁	-10.2039
holds▁	-10.2041
block▁	-10.2047
zo	-10.205
setting▁	-10.2051
Before▁	-10.2053
politics▁	-10.2056
bio	-10.2057
1.	-10.206
Bridge▁	-10.2062
shut▁	-10.2062
painting▁	-10.2064
ā	-10.2066
Country▁	-10.2073
Class▁	-10.2074
product▁	-10.2075
combined▁	-10.2098
1926▁	-10.2103
Turkey▁	-10.2105
ind	-10.2107
mi▁	-10.2108
suffered▁	-10.2109
respectively▁	-10.2112
Do▁	-10.2115
sey▁	-10.2118
Death▁	-10.2126
refused▁	-10.2134
offers▁	-10.2137
1922▁	-10.2139
disease▁	-10.2139
ez	-10.2141
finals▁	-10.2147
Mari	-10.2149
begins▁	-10.2149
allowing▁	-10.2151
estimated▁	-10.2152
Wil	-10.2163
ia	-10.2173
Cam	-10.2173
Sho	-10.218
2:	-10.2187
lat	-10.2194
documentary▁	-10.2198
killing▁	-10.2198
laws▁	-10.2203
passing▁	-10.2204
cancer▁	-10.2207
method▁	-10.2209
calling▁	-10.2215
birds▁	-10.2221
pt	-10.2222
stock▁	-10.2226
spring▁	-10.2234
strength▁	-10.2238
driver▁	-10.224
concept▁	-10.2241
ali	-10.2248
possibly▁	-10.2255
shared▁	-10.2258
Cat	-10.2258
Oregon▁	-10.2258
replied▁	-10.2258
typically▁	-10.2259
My	-10.2259
Cho	-10.2264
ue▁	-10.2266
lets▁	-10.2267
System▁	-10.2272
housing▁	-10.2274
ban	-10.2277
machine▁	-10.2278
iti	-10.2293
wearing▁	-10.2293
rooms▁	-10.2303
save▁	-10.2304
animals▁	-10.2305
ew▁	-10.2309
speaking▁	-10.2311
Win	-10.2312
traffic▁	-10.2313
Ros	-10.2314
peace▁	-10.2317
versions▁	-10.2317
ita▁	-10.232
continues▁	-10.2323
drums▁	-10.2325
dd	-10.2326
Stephen▁	-10.2331
generation▁	-10.2334
Results▁	-10.2337
vers	-10.2342
1925▁	-10.2346
easily▁	-10.2354
transport▁	-10.2355
tax▁	-10.2356
armed▁	-10.2358
wave▁	-10.236
Network▁	-10.2361
Sri▁	-10.2365
ene▁	-10.2365
AC▁	-10.2365
ingly▁	-10.2366
faced▁	-10.2367
secondary▁	-10.2369
ters▁	-10.2369
secret▁	-10.2371
Four▁	-10.2371
educated▁	-10.2372
ming▁	-10.2373
ett	-10.238
search▁	-10.2381
bought▁	-10.2385
Trans	-10.2385
Over▁	-10.2389
engineer▁	-10.2392
escape▁	-10.2395
whispered▁	-10.2395
mo▁	-10.2397
Bon	-10.2405
And▁	-10.2408
bol	-10.2408
sor	-10.2408
gen▁	-10.241
ti▁	-10.241
supposed▁	-10.2413
necessary▁	-10.2418
Fo	-10.2419
mental▁	-10.2424
beside▁	-10.2425
lig	-10.2425
Lewis▁	-10.2426
ola▁	-10.2429
contemporary▁	-10.2432
Tur	-10.2436
villages▁	-10.2439
comm	-10.245
Port▁	-10.2453
inch▁	-10.2453
io	-10.2453
Populated▁	-10.246
bal	-10.2464
seem▁	-10.2465
kitchen▁	-10.2468
Winter▁	-10.2469
ng▁	-10.2476
largely▁	-10.2477
ray▁	-10.248
thank▁	-10.2482
pointed▁	-10.2483
granted▁	-10.2495
Eu	-10.2497
bronze▁	-10.2507
identified▁	-10.2509
Arizona▁	-10.251
yellow▁	-10.2514
EP▁	-10.2521
engineering▁	-10.2525
Queensland▁	-10.2525
telling▁	-10.2525
median▁	-10.2533
ram	-10.2533
rail▁	-10.2534
67▁	-10.2534
castle▁	-10.2537
inspired▁	-10.2539
journalist▁	-10.2545
glanced▁	-10.2545
pal	-10.2547
Engineering▁	-10.2551
core▁	-10.2552
DC▁	-10.2557
Turkish▁	-10.2569
drew▁	-10.257
Maryland▁	-10.2576
hotel▁	-10.2577
Av	-10.2578
ett▁	-10.2578
Castle▁	-10.258
Sol	-10.2584
ji	-10.2585
P▁	-10.2586
dog▁	-10.2586
Moscow▁	-10.2587
starring▁	-10.2591
ying▁	-10.2598
Philippines▁	-10.2599
Like▁	-10.2599
Area▁	-10.2602
chosen▁	-10.2602
ft▁	-10.2603
eau▁	-10.2603
Gal	-10.2606
1921▁	-10.2609
May	-10.2611
lan	-10.2612
1950	-10.2612
greater▁	-10.2617
cra	-10.2626
Cas	-10.2631
newly▁	-10.2633
calls▁	-10.2638
widely▁	-10.2641
za▁	-10.2641
1923▁	-10.2641
Han	-10.2642
Tre	-10.2643
painter▁	-10.265
dry▁	-10.2654
Vol	-10.2658
nominated▁	-10.2662
scoring▁	-10.2662
What▁	-10.2665
Sources▁	-10.2674
ig▁	-10.2682
sil	-10.2684
Tony▁	-10.2684
fefef	-10.2686
tone▁	-10.2686
cap	-10.2693
cells▁	-10.2693
judge▁	-10.2699
rank▁	-10.2704
ass▁	-10.2715
lord▁	-10.2715
Memorial▁	-10.2719
ts	-10.2722
guess▁	-10.2726
rot	-10.273
bill▁	-10.273
Cal	-10.273
temple▁	-10.2733
pick▁	-10.274
Foreign▁	-10.274
Lar	-10.2741
trains▁	-10.2745
fin	-10.2755
1912▁	-10.2758
Hor	-10.2765
62▁	-10.2767
Dun	-10.277
attacks▁	-10.2771
returning▁	-10.2771
Each▁	-10.2773
claims▁	-10.2774
plane▁	-10.2775
anna▁	-10.2775
Brazilian▁	-10.2777
ens	-10.2779
earth▁	-10.2779
occupied▁	-10.278
4–	-10.2783
pin	-10.2783
determined▁	-10.279
creation▁	-10.2793
commander▁	-10.2801
58▁	-10.2802
males▁	-10.2806
Kentucky▁	-10.2807
Sand	-10.2809
char	-10.2815
w▁	-10.2819
expanded▁	-10.2819
weapons▁	-10.2819
ensis▁	-10.2826
j▁	-10.2831
leaned▁	-10.2831
defined▁	-10.2832
lights▁	-10.2834
classes▁	-10.2835
back	-10.2837
jack▁	-10.2837
she	-10.2839
dress▁	-10.284
picture▁	-10.2841
Wood	-10.2848
musician▁	-10.285
ara▁	-10.2852
sea	-10.2853
è	-10.2857
right	-10.2857
vision▁	-10.2861
allows▁	-10.2864
quarter▁	-10.2867
questions▁	-10.2872
mes▁	-10.2874
aj	-10.2878
istic▁	-10.2878
leadership▁	-10.2887
Iowa▁	-10.2887
ero▁	-10.2889
Melbourne▁	-10.289
teaching▁	-10.289
partner▁	-10.2894
Harry▁	-10.2896
doors▁	-10.2899
qua	-10.29
reports▁	-10.2901
Albert▁	-10.2903
gro	-10.2906
receive▁	-10.2908
ici	-10.2909
enemy▁	-10.2919
mil	-10.292
theatre▁	-10.2921
heads▁	-10.2923
lic	-10.2927
SA▁	-10.293
61▁	-10.2931
99▁	-10.2935
guest▁	-10.2949
chairman▁	-10.2951
tom	-10.2953
‘▁	-10.2953
anger▁	-10.2954
Federation▁	-10.2955
entrance▁	-10.2958
officials▁	-10.2964
Forest▁	-10.2966
rag	-10.2968
Human▁	-10.2973
1915▁	-10.2974
Mel	-10.2976
alist▁	-10.2976
keeping▁	-10.2982
ble	-10.299
ian	-10.2994
ny	-10.2995
Cur	-10.2996
Beach▁	-10.2998
1916▁	-10.3002
huge▁	-10.3005
ern	-10.3008
Jan	-10.3008
Rugby▁	-10.3011
Swiss▁	-10.3011
illa▁	-10.3015
figures▁	-10.3015
org	-10.3016
Vietnam▁	-10.3017
disambiguation▁	-10.3017
Round▁	-10.3018
88▁	-10.302
thr	-10.3022
IV▁	-10.3023
trip▁	-10.3025
ride▁	-10.3026
teeth▁	-10.3026
Mas	-10.3027
not	-10.3029
5–	-10.3029
winter▁	-10.3031
†	-10.3036
impact▁	-10.3039
surname▁	-10.3044
Management▁	-10.3045
Background▁	-10.3045
Walter▁	-10.3047
gun	-10.3062
carry▁	-10.3064
steps▁	-10.3066
kin▁	-10.3075
°▁	-10.3076
Head▁	-10.308
effective▁	-10.3082
post	-10.3089
reduced▁	-10.3092
evening▁	-10.3092
non	-10.3093
ada▁	-10.3106
guns▁	-10.3108
sales▁	-10.3109
Jews▁	-10.3111
humans▁	-10.3114
Sc	-10.3117
squad▁	-10.3117
1913▁	-10.312
profile▁	-10.3121
steel▁	-10.3121
aria▁	-10.3125
protection▁	-10.3127
izing▁	-10.3127
Austria▁	-10.3133
Americans▁	-10.3136
silent▁	-10.3136
Ir	-10.3138
69▁	-10.3143
:	-10.3147
mayor▁	-10.315
Pra	-10.3153
grabbed▁	-10.3155
ach▁	-10.3155
Y▁	-10.3155
san	-10.316
-19▁	-10.3163
Free▁	-10.3166
Pur	-10.317
ids▁	-10.3172
enter▁	-10.3173
lo▁	-10.3178
write▁	-10.3181
turns▁	-10.3183
exchange▁	-10.3186
unique▁	-10.3187
attacked▁	-10.3189
rolled▁	-10.319
inc	-10.3193
cho	-10.3199
letters▁	-10.3204
wants▁	-10.3207
resulted▁	-10.3208
covers▁	-10.321
vice▁	-10.3212
ique▁	-10.3213
Wi	-10.322
Is▁	-10.3222
Cro	-10.3227
č	-10.3229
ick	-10.3234
Czech▁	-10.3234
Modern▁	-10.3234
drug▁	-10.3236
MP▁	-10.3248
New	-10.3259
lists▁	-10.3259
lar	-10.3262
existing▁	-10.3266
Miss▁	-10.3266
resulting▁	-10.3272
applied▁	-10.3272
gra	-10.3276
Fu	-10.3277
facility▁	-10.3279
oldest▁	-10.3279
regions▁	-10.328
flat▁	-10.3282
NFL▁	-10.3291
Don	-10.3294
pressed▁	-10.3295
och	-10.3297
Production▁	-10.3301
ification▁	-10.3301
visited▁	-10.3311
shape▁	-10.3315
vehicle▁	-10.3317
Emperor▁	-10.3323
injury▁	-10.3327
powers▁	-10.3327
Sportspeople▁	-10.3328
rick▁	-10.333
uk▁	-10.3336
Bla	-10.3346
Professional▁	-10.3346
providing▁	-10.3346
vehicles▁	-10.3349
Former▁	-10.335
Up▁	-10.335
scientific▁	-10.3352
Anderson▁	-10.3352
ious▁	-10.3355
map▁	-10.3358
nor	-10.336
Cape▁	-10.3361
cept	-10.3365
Fox▁	-10.3367
http	-10.337
fur	-10.3371
flow▁	-10.3372
arrested▁	-10.3372
shoulders▁	-10.3381
Point▁	-10.3381
71▁	-10.339
learning▁	-10.3391
Kin	-10.3393
ow	-10.34
ars▁	-10.3402
festival▁	-10.3407
Ve	-10.341
billion▁	-10.3411
density▁	-10.3417
performances▁	-10.342
empty▁	-10.3424
72▁	-10.3426
dra	-10.3427
pull▁	-10.3427
pat	-10.3429
thanks▁	-10.344
develop▁	-10.3446
Tele	-10.345
1900▁	-10.3452
FA▁	-10.3454
environment▁	-10.3456
Az	-10.3457
Space▁	-10.3461
authorities▁	-10.3472
2022▁	-10.3475
noticed▁	-10.3475
none▁	-10.3476
Greece▁	-10.3479
basic▁	-10.348
1910▁	-10.3481
stayed▁	-10.3486
animal▁	-10.3487
ile▁	-10.3489
miss▁	-10.3491
lifted▁	-10.3498
hl	-10.3504
connection▁	-10.3505
Star	-10.3506
Israeli▁	-10.3508
Christmas▁	-10.3511
ps▁	-10.3514
fu	-10.3514
etc▁	-10.3516
creating▁	-10.3523
til	-10.3524
ax	-10.353
ric	-10.3531
reasons▁	-10.3534
nie▁	-10.3542
gl	-10.3543
reality▁	-10.3545
tall▁	-10.3551
storm▁	-10.3552
Danish▁	-10.3555
SC▁	-10.356
hole▁	-10.3561
uck	-10.3562
dia	-10.3566
Portuguese▁	-10.3567
sounds▁	-10.3569
pilot▁	-10.3569
Brian▁	-10.3572
volume▁	-10.3577
86▁	-10.3579
supply▁	-10.358
ologist▁	-10.358
motion▁	-10.3582
drawn▁	-10.3584
happen▁	-10.3584
ality▁	-10.3584
form	-10.3585
metres▁	-10.3586
avoid▁	-10.3589
burn▁	-10.3589
Anthony▁	-10.359
attempted▁	-10.3597
Infantry▁	-10.3597
materials▁	-10.3602
300▁	-10.3606
Design▁	-10.3607
Cast▁	-10.3611
MA▁	-10.3611
governor▁	-10.3613
Entertainment▁	-10.362
rap	-10.3621
Basketball▁	-10.3623
Regional▁	-10.3625
sixth▁	-10.3627
oo▁	-10.3628
Ur	-10.3631
sign	-10.3633
planning▁	-10.3633
Commonwealth▁	-10.3636
que	-10.3639
Out▁	-10.364
pr	-10.3641
Third▁	-10.3642
ine	-10.3644
brain▁	-10.3648
sed▁	-10.3652
rates▁	-10.3652
wa▁	-10.3654
joint▁	-10.366
Black	-10.3663
Spacewatch▁	-10.3663
defense▁	-10.3671
tal	-10.3672
Kitt▁	-10.3673
Services▁	-10.3676
learned▁	-10.3677
band	-10.3681
Para	-10.3684
ros	-10.3684
royal▁	-10.3687
Water▁	-10.3688
73▁	-10.3689
reference▁	-10.3691
finger▁	-10.3693
iron▁	-10.3694
crowd▁	-10.3696
damn▁	-10.3714
suit▁	-10.3716
sum	-10.3716
Hungarian▁	-10.3716
coffee▁	-10.3717
Pri	-10.3721
quiet▁	-10.3732
ix	-10.3732
advanced▁	-10.3733
alive▁	-10.374
bird▁	-10.3741
succeeded▁	-10.3743
zh	-10.3748
ga▁	-10.3748
concert▁	-10.375
cas	-10.3751
lers▁	-10.3751
Manchester▁	-10.3753
multi	-10.3754
ridge▁	-10.3759
containing▁	-10.3763
tears▁	-10.3764
approved▁	-10.3764
tradition▁	-10.3766
Between▁	-10.377
Squadron▁	-10.377
doctor▁	-10.377
ba▁	-10.3784
relatively▁	-10.3787
explained▁	-10.379
headquarters▁	-10.379
audience▁	-10.379
Bro	-10.3792
aired▁	-10.3806
Senior▁	-10.3807
Tokyo▁	-10.3807
by	-10.3814
More▁	-10.3816
iana▁	-10.3816
theme▁	-10.3821
honor▁	-10.3827
ins	-10.3832
Because▁	-10.3843
Miller▁	-10.3844
Revolution▁	-10.3851
AS▁	-10.3851
Mah	-10.3853
76▁	-10.3854
eck	-10.3854
prevent▁	-10.3856
portion▁	-10.3858
Earl▁	-10.3858
Lieutenant▁	-10.3861
Historical▁	-10.3861
shit▁	-10.3861
Affairs▁	-10.3864
opposed▁	-10.3865
1911▁	-10.3868
Today▁	-10.3872
Z▁	-10.3874
Ten	-10.3875
nose▁	-10.3877
Connecticut▁	-10.3878
77▁	-10.388
Marine▁	-10.3883
Land	-10.3884
violence▁	-10.3885
nor▁	-10.3886
obtained▁	-10.3891
daily▁	-10.3896
handed▁	-10.3898
entirely▁	-10.3898
Sun	-10.39
silence▁	-10.3902
1908▁	-10.3907
Review▁	-10.3913
display▁	-10.3915
authority▁	-10.3915
drink▁	-10.3918
mir	-10.3924
Among▁	-10.3924
thick▁	-10.3924
Switzerland▁	-10.3925
selling▁	-10.3929
Pr	-10.393
Simon▁	-10.3934
beneath▁	-10.3936
All	-10.3937
pon	-10.3937
NCAA▁	-10.3946
critics▁	-10.3946
statistics▁	-10.3949
gli	-10.3957
bound▁	-10.3958
commissioned▁	-10.3958
grade▁	-10.3959
employed▁	-10.396
ears▁	-10.3963
knowing▁	-10.3969
Channel▁	-10.3973
ris	-10.3975
perform▁	-10.3975
starts▁	-10.3976
ust	-10.3979
trained▁	-10.3982
63▁	-10.3984
thi	-10.3985
flying▁	-10.3987
Labour▁	-10.3991
lap▁	-10.3994
publication▁	-10.3995
bert▁	-10.3997
tin	-10.4001
400▁	-10.4003
avi	-10.4004
ón▁	-10.4006
burg▁	-10.4009
rear▁	-10.401
pe▁	-10.4012
Islamic▁	-10.4012
Mountains▁	-10.4012
mit	-10.4012
tele	-10.4018
Tan	-10.4023
Buildings▁	-10.4025
scheduled▁	-10.4025
cip	-10.4025
Oklahoma▁	-10.4028
architect▁	-10.4028
cro	-10.403
driving▁	-10.4032
ites▁	-10.4033
ski	-10.4037
ab▁	-10.4041
Lev	-10.4041
tonight▁	-10.4044
Billboard▁	-10.4046
resources▁	-10.4047
onia▁	-10.4053
Hamilton▁	-10.4059
ible▁	-10.4063
coaches▁	-10.4064
Harvard▁	-10.4066
clothes▁	-10.4066
ea	-10.4067
lose▁	-10.4068
Sunday▁	-10.407
farm▁	-10.4077
78▁	-10.408
ner	-10.4082
heavily▁	-10.4084
Liberal▁	-10.4085
condition▁	-10.4087
thirty▁	-10.4098
sell▁	-10.4104
lan▁	-10.4104
Tournament▁	-10.4108
dates▁	-10.411
gor	-10.411
rating▁	-10.4113
68▁	-10.4122
lect	-10.4124
96▁	-10.4127
Anne▁	-10.4128
my	-10.4137
vs	-10.414
AD▁	-10.414
qualified▁	-10.4143
Lemmon▁	-10.4143
details▁	-10.4144
poly	-10.4145
24	-10.4148
ial▁	-10.4149
height▁	-10.4149
passenger▁	-10.4153
Naval▁	-10.4156
frequently▁	-10.4157
Dev	-10.4161
causing▁	-10.4161
7.	-10.4163
ō	-10.4171
wine▁	-10.4174
sson▁	-10.4175
Sel	-10.4179
74▁	-10.418
Main▁	-10.4184
ani	-10.4185
ple	-10.4188
Ob	-10.4188
historian▁	-10.4192
97▁	-10.4196
opera▁	-10.4199
transfer▁	-10.4199
industrial▁	-10.4203
highway▁	-10.4204
cher▁	-10.4208
tight▁	-10.4214
twelve▁	-10.4216
citizens▁	-10.422
opposition▁	-10.4225
conflict▁	-10.4227
Singles▁	-10.4227
wins▁	-10.4228
brand▁	-10.4229
Egypt▁	-10.423
lyrics▁	-10.423
Sin	-10.4233
Austrian▁	-10.4238
performing▁	-10.4238
Fire▁	-10.4239
mate▁	-10.4242
Hot▁	-10.4244
speech▁	-10.4244
Native▁	-10.4254
roll▁	-10.4255
Argentina▁	-10.4255
alism▁	-10.4259
statement▁	-10.4266
opportunity▁	-10.4269
Yo	-10.4269
singers▁	-10.4271
Sim	-10.4274
si▁	-10.4276
opposite▁	-10.4276
ess▁	-10.4283
80	-10.4283
Frederick▁	-10.4284
climate▁	-10.4287
Light▁	-10.4287
Howard▁	-10.4288
Don▁	-10.4294
Holy▁	-10.4295
roads▁	-10.4295
price▁	-10.4296
Ford▁	-10.43
-1▁	-10.4308
shortly▁	-10.431
centuries▁	-10.4311
Louisiana▁	-10.4315
tion	-10.4318
hen	-10.432
wal	-10.4321
About▁	-10.4321
zone▁	-10.4324
interested▁	-10.4326
thoughts▁	-10.4329
"|	-10.433
tied▁	-10.4345
01▁	-10.4352
Op	-10.4354
tennis▁	-10.4358
ø	-10.4359
Building▁	-10.4361
Singapore▁	-10.4361
launch▁	-10.4361
Albums▁	-10.4361
loan▁	-10.4362
92▁	-10.4365
stomach▁	-10.4365
At	-10.4368
Ben▁	-10.4368
permanent▁	-10.4372
Ran	-10.4376
tim	-10.4377
dec	-10.438
Internet▁	-10.438
wish▁	-10.4382
down	-10.4382
š	-10.4385
Vice▁	-10.4389
principal▁	-10.439
(;▁	-10.4391
phase▁	-10.44
Tom	-10.4401
shop▁	-10.4404
ala▁	-10.4415
methods▁	-10.4415
relief▁	-10.4415
inner▁	-10.4417
Nar	-10.4418
knows▁	-10.4421
uc	-10.4424
yer▁	-10.4425
и	-10.4426
Lin	-10.4428
attempts▁	-10.4433
SS▁	-10.4435
Len	-10.4439
sion▁	-10.4439
PA▁	-10.4439
Bol	-10.4445
Fri	-10.4447
uch	-10.4447
Khan▁	-10.4453
ō▁	-10.4457
Information▁	-10.446
hers▁	-10.4461
26	-10.4461
achieved▁	-10.4461
situated▁	-10.4461
message▁	-10.4461
Em	-10.4463
Youth▁	-10.4465
aries▁	-10.4465
Champions▁	-10.4465
Security▁	-10.4469
invited▁	-10.4469
Pal	-10.4469
low	-10.4471
Patrick▁	-10.4473
ological▁	-10.4474
ika▁	-10.4476
Your▁	-10.4478
abandoned▁	-10.4483
Ven	-10.4489
uni	-10.449
bright▁	-10.4491
ges▁	-10.4492
ben	-10.4495
founding▁	-10.4496
locations▁	-10.4498
Fame▁	-10.4499
rated▁	-10.4503
83▁	-10.451
windows▁	-10.4512
Ap	-10.4515
Children▁	-10.4515
existence▁	-10.4515
gon	-10.452
Port	-10.4529
Description▁	-10.4534
len	-10.4535
Magazine▁	-10.4537
images▁	-10.4538
bag▁	-10.4541
kers▁	-10.4543
promotion▁	-10.455
win	-10.455
lawyer▁	-10.4552
sa▁	-10.4553
water	-10.4554
Plot▁	-10.4554
controlled▁	-10.4555
drop▁	-10.4556
82▁	-10.4559
sit▁	-10.4561
lau	-10.4561
6.	-10.4564
Allen▁	-10.4567
lip▁	-10.4568
ron	-10.457
Executive▁	-10.457
Quebec▁	-10.457
frame▁	-10.4572
quick▁	-10.4572
wear▁	-10.4576
79▁	-10.4579
li▁	-10.4585
exist▁	-10.4586
fly▁	-10.4594
dan	-10.4595
fit▁	-10.4598
Ukraine▁	-10.4599
87▁	-10.4601
stands▁	-10.4603
fans▁	-10.4606
sts▁	-10.4609
ax▁	-10.4611
Player▁	-10.4613
Ukrainian▁	-10.4614
Gordon▁	-10.4614
Fl	-10.4615
anyway▁	-10.4616
Philip▁	-10.4617
competitions▁	-10.4617
Ter	-10.4618
dale▁	-10.4619
81▁	-10.4628
Tro	-10.463
tics▁	-10.4641
domestic▁	-10.4643
representing▁	-10.4646
briefly▁	-10.4647
Alabama▁	-10.465
kes▁	-10.4655
airport▁	-10.4657
AA▁	-10.4662
guys▁	-10.4663
án▁	-10.4663
origin▁	-10.4663
clean▁	-10.4665
combat▁	-10.4666
consisted▁	-10.4669
conversation▁	-10.4669
liked▁	-10.4671
counter▁	-10.4674
Prix▁	-10.4677
Census▁	-10.4687
ow▁	-10.4689
tries▁	-10.4689
uri	-10.4691
Several▁	-10.4696
gan	-10.4698
Alan▁	-10.47
carrying▁	-10.4702
Doctor▁	-10.4702
cin	-10.4711
enc	-10.4717
ao▁	-10.4719
difference▁	-10.472
res▁	-10.472
send▁	-10.4725
Bat	-10.4725
household▁	-10.4728
rising▁	-10.4729
properties▁	-10.4731
Ren	-10.4735
Bas	-10.4736
des	-10.4738
bringing▁	-10.474
Pat	-10.4742
Houston▁	-10.4742
shall▁	-10.4743
passes▁	-10.4743
receiving▁	-10.4746
crossed▁	-10.4746
surprise▁	-10.475
educational▁	-10.475
Village▁	-10.475
Reception▁	-10.4753
copies▁	-10.4755
reaction▁	-10.4756
Douglas▁	-10.4757
Arab▁	-10.4758
1905▁	-10.476
Heritage▁	-10.4764
23	-10.4765
refers▁	-10.4766
Officer▁	-10.4768
waited▁	-10.4769
threw▁	-10.4772
extra▁	-10.4774
bury▁	-10.4776
managers▁	-10.4776
roof▁	-10.4777
84▁	-10.4787
injured▁	-10.479
hum	-10.4793
Diego▁	-10.4799
med▁	-10.4803
learn▁	-10.4803
Muslim▁	-10.4805
Sam▁	-10.4809
graduate▁	-10.4815
charts▁	-10.4825
pet	-10.4828
ér	-10.4829
Hen	-10.483
ert	-10.483
Socorro▁	-10.4831
tre	-10.4833
rare▁	-10.4834
Des	-10.4836
ore▁	-10.4836
60	-10.4841
surprised▁	-10.4843
Brigade▁	-10.4847
sought▁	-10.4847
struck▁	-10.4847
apparently▁	-10.485
alternative▁	-10.485
COVID	-10.4854
Who▁	-10.4862
Story▁	-10.4865
Survey▁	-10.4865
fleet▁	-10.4866
asks▁	-10.487
05▁	-10.4872
LINEAR▁	-10.4873
cycle▁	-10.4873
Independent▁	-10.4874
wings▁	-10.4874
uncle▁	-10.4875
Portugal▁	-10.4876
remembered▁	-10.4876
07▁	-10.4878
ker	-10.4879
colspan	-10.4885
Pan▁	-10.4885
entitled▁	-10.4886
link▁	-10.4886
mobile▁	-10.4887
missed▁	-10.4888
Mississippi▁	-10.4891
ent▁	-10.4894
Forces▁	-10.4899
shaped▁	-10.4901
cup▁	-10.4901
tures▁	-10.4902
churches▁	-10.4903
Red	-10.4906
dic	-10.491
afraid▁	-10.4922
check▁	-10.4922
ively▁	-10.4926
verse▁	-10.4931
proved▁	-10.4931
showing▁	-10.4935
Ali▁	-10.4936
ich	-10.4938
>▁	-10.4943
Hockey▁	-10.4944
expansion▁	-10.4944
recognition▁	-10.4944
Local▁	-10.4945
Denmark▁	-10.4952
contained▁	-10.4955
global▁	-10.4957
yr	-10.4957
lady▁	-10.496
soul▁	-10.4961
clearly▁	-10.4962
Legislative▁	-10.4963
Dam	-10.4964
Rural▁	-10.4965
1907▁	-10.4966
maximum▁	-10.4967
finding▁	-10.4975
edited▁	-10.4979
bon	-10.4979
tongue▁	-10.4982
ona▁	-10.4983
cy▁	-10.4983
Detroit▁	-10.4986
application▁	-10.499
economy▁	-10.499
actual▁	-10.499
Sab	-10.4991
Walker▁	-10.4991
op▁	-10.4994
answered▁	-10.4997
collected▁	-10.5
trouble▁	-10.5001
finds▁	-10.5001
ank	-10.5002
kin	-10.5002
tiny▁	-10.501
session▁	-10.5012
Il	-10.5017
mes	-10.5019
candidates▁	-10.502
Puerto▁	-10.502
identity▁	-10.5021
barely▁	-10.5022
Week▁	-10.5022
wild▁	-10.5023
apartment▁	-10.5024
sm	-10.5026
target▁	-10.5026
prepared▁	-10.5028
gray▁	-10.503
chi▁	-10.5036
views▁	-10.5037
wooden▁	-10.5038
incident▁	-10.5043
1909▁	-10.5045
shore▁	-10.5046
jazz▁	-10.5047
inger▁	-10.505
Belgium▁	-10.505
Pope▁	-10.5055
dict	-10.5059
Ji	-10.506
Due▁	-10.5061
weather▁	-10.5061
km	-10.5067
admitted▁	-10.5069
adult▁	-10.507
multi▁	-10.5072
1906▁	-10.5072
closely▁	-10.5073
paintings▁	-10.5073
technical▁	-10.5073
Schools▁	-10.5086
locked▁	-10.5088
ceremony▁	-10.5089
retirement▁	-10.5089
negative▁	-10.5089
eo▁	-10.5094
ultimately▁	-10.5096
94▁	-10.5099
sel	-10.5099
Green	-10.51
Only▁	-10.5103
Uni	-10.5106
ox	-10.5107
Q▁	-10.5107
exhibition▁	-10.5108
cy	-10.5111
ille▁	-10.5111
89▁	-10.5113
ip	-10.5114
lor	-10.5115
pages▁	-10.5115
rac	-10.5115
Str	-10.5118
marine▁	-10.5119
Welsh▁	-10.5119
Antonio▁	-10.512
missions▁	-10.5126
93▁	-10.513
funding▁	-10.5135
streets▁	-10.5141
staring▁	-10.5141
Pin	-10.5143
pool▁	-10.5144
actresses▁	-10.5146
Tamil▁	-10.5147
offices▁	-10.515
sw	-10.5155
ture▁	-10.5165
sen	-10.5167
flu	-10.5168
Cemetery▁	-10.5169
bro	-10.5171
Commander▁	-10.5171
extensive▁	-10.5173
painted▁	-10.5173
address▁	-10.5176
soccer▁	-10.5177
Temple▁	-10.5177
rain▁	-10.5179
breaking▁	-10.5182
capable▁	-10.5183
spo	-10.5183
ai	-10.5184
Pla	-10.5187
ec▁	-10.5187
98▁	-10.5189
gain▁	-10.5191
black	-10.5194
otherwise▁	-10.5197
Age▁	-10.5201
joining▁	-10.5206
+	-10.5209
represent▁	-10.521
sweet▁	-10.5211
ath▁	-10.5212
Barr	-10.5217
cricket▁	-10.522
subsequent▁	-10.522
temperature▁	-10.522
Samuel▁	-10.5224
objects▁	-10.5225
Mos	-10.5227
accident▁	-10.5227
luc	-10.5228
tail▁	-10.5228
falls▁	-10.5229
Culture▁	-10.5235
Indonesia▁	-10.5243
MS▁	-10.5244
ching▁	-10.5244
eli	-10.5246
junior▁	-10.5247
mono	-10.5251
category▁	-10.5251
Hotel▁	-10.5252
stream▁	-10.5256
user▁	-10.526
ell▁	-10.5265
Max▁	-10.5265
directors▁	-10.5271
Part▁	-10.5273
ae	-10.5275
Battalion▁	-10.5278
literary▁	-10.5278
regarding▁	-10.5282
osa▁	-10.5283
nuclear▁	-10.5283
Ray▁	-10.5284
Stone▁	-10.5285
aka▁	-10.5286
Clark▁	-10.5299
ft	-10.5299
Last▁	-10.5301
consecutive▁	-10.5302
increasing▁	-10.5302
Pro▁	-10.5303
izz	-10.5307
Carl▁	-10.5308
Kim▁	-10.5309
Expatriate▁	-10.5309
patients▁	-10.5309
Musical▁	-10.5316
Good▁	-10.5317
ideas▁	-10.5318
charged▁	-10.5319
Bell	-10.5319
Hay	-10.5319
Vol▁	-10.5322
occurs▁	-10.5325
neither▁	-10.5328
meters▁	-10.5329
functions▁	-10.5329
presidential▁	-10.5329
iya▁	-10.5331
Transport▁	-10.5334
observed▁	-10.5337
--▁	-10.5338
independence▁	-10.5338
29	-10.5341
duty▁	-10.5341
eat▁	-10.5342
scar	-10.5343
Marie▁	-10.5345
tz	-10.5346
1930	-10.5347
vent	-10.5348
tons▁	-10.5355
respect▁	-10.5357
Out	-10.5358
chain▁	-10.5361
Not▁	-10.5362
strike▁	-10.5365
kids▁	-10.5365
fil	-10.5365
investigation▁	-10.5368
count▁	-10.5369
CO	-10.5371
wr	-10.5373
engaged▁	-10.5373
finishing▁	-10.5376
value	-10.5381
har▁	-10.5384
registered▁	-10.5384
strange▁	-10.5385
fixed▁	-10.5391
27	-10.5394
Var	-10.5394
influenced▁	-10.5396
brief▁	-10.5396
Eric▁	-10.5397
apart▁	-10.54
DVD▁	-10.54
@▁	-10.5402
converted▁	-10.5404
Administration▁	-10.5412
maintained▁	-10.5412
Imperial▁	-10.5416
Est	-10.5418
Colonel▁	-10.542
fired▁	-10.5426
truck▁	-10.5427
ret	-10.5427
Arkansas▁	-10.5432
failure▁	-10.5432
Zo	-10.5432
hired▁	-10.5433
Lan	-10.5434
long	-10.5436
champions▁	-10.5436
1903▁	-10.5438
3–	-10.5442
Gre	-10.5445
gre	-10.5445
representative▁	-10.5447
translated▁	-10.5447
falling▁	-10.545
elli▁	-10.5451
hey▁	-10.5451
ot▁	-10.546
scenes▁	-10.5461
Ay	-10.5466
Hy	-10.5469
-1	-10.5471
gar▁	-10.5473
chose▁	-10.5482
Lincoln▁	-10.5483
ç	-10.5486
merged▁	-10.5491
draft▁	-10.5493
affected▁	-10.5495
derived▁	-10.5495
Malaysia▁	-10.5499
establishment▁	-10.5501
ders▁	-10.5505
emp	-10.5511
epi	-10.5514
Lawrence▁	-10.5515
runner▁	-10.5515
grown▁	-10.552
equ	-10.5522
rec	-10.5522
sportspeople▁	-10.5525
sale▁	-10.5528
forming▁	-10.5528
yan	-10.5529
script▁	-10.553
mar▁	-10.5531
rav	-10.5531
ho▁	-10.5534
cri	-10.5535
Cultural▁	-10.5539
ify▁	-10.554
catch▁	-10.5543
acted▁	-10.5544
Miami▁	-10.5552
kar▁	-10.5553
cards▁	-10.5558
az▁	-10.5558
Zi	-10.5559
thin▁	-10.5559
spoken▁	-10.556
Juan▁	-10.5561
asking▁	-10.5562
resigned▁	-10.5564
medi	-10.5564
Bureau▁	-10.5564
McC	-10.5564
vampire▁	-10.5567
hearing▁	-10.557
stein▁	-10.5574
Program▁	-10.5576
Dance▁	-10.5583
programme▁	-10.5583
mm	-10.5587
о	-10.5588
rit	-10.5591
Edinburgh▁	-10.5591
ably▁	-10.5592
dated▁	-10.5595
producing▁	-10.5595
assumed▁	-10.5599
Ocean▁	-10.56
singing▁	-10.56
Atlanta▁	-10.5601
IS▁	-10.5601
fuel▁	-10.5607
ie	-10.561
homes▁	-10.5611
advantage▁	-10.5612
91▁	-10.5614
rat	-10.5614
AM▁	-10.5614
08▁	-10.5614
operate▁	-10.5616
religion▁	-10.5616
ute▁	-10.5616
Tam	-10.5622
Rose▁	-10.5632
developing▁	-10.5632
magic▁	-10.5634
ien▁	-10.5638
composition▁	-10.5638
narrow▁	-10.5638
argued▁	-10.564
supporting▁	-10.5644
borough▁	-10.5651
Square▁	-10.5652
plus▁	-10.5653
Chairman▁	-10.5656
{▁	-10.5658
ay▁	-10.5665
dam	-10.5667
decades▁	-10.5669
oo	-10.567
semi	-10.5673
reserve▁	-10.5675
valley▁	-10.568
skills▁	-10.568
selection▁	-10.5681
nar	-10.5683
leads▁	-10.5685
fair▁	-10.5686
omb	-10.5686
garden▁	-10.5688
understanding▁	-10.5689
ruled▁	-10.5696
yourself▁	-10.5697
Play	-10.5697
ić▁	-10.5698
Anna▁	-10.5701
sector▁	-10.5702
wheel▁	-10.5704
Por	-10.571
fun▁	-10.571
Kam	-10.571
Kevin▁	-10.5714
Upon▁	-10.5717
Lim	-10.5718
Hel	-10.5726
contributed▁	-10.5733
Fre	-10.5735
protected▁	-10.5738
cker▁	-10.5742
poetry▁	-10.5746
Kat	-10.5746
rin	-10.5748
8.	-10.5755
Dave▁	-10.5755
etta▁	-10.5757
Digital▁	-10.5762
mot	-10.5764
covering▁	-10.5769
experienced▁	-10.5778
shooting▁	-10.5778
1904▁	-10.5781
thousand▁	-10.5783
mad	-10.5785
flowers▁	-10.5787
device▁	-10.579
fort▁	-10.5792
Moore▁	-10.5792
Kon	-10.5797
1–	-10.58
hung▁	-10.5806
dinner▁	-10.5807
Ryan▁	-10.5808
1901▁	-10.581
hard	-10.5812
sam▁	-10.5813
dream▁	-10.5816
sir▁	-10.5818
spir	-10.5821
grounds▁	-10.5823
of	-10.5828
ert▁	-10.5829
pel	-10.5829
aya▁	-10.583
28	-10.5835
Arm	-10.5836
So▁	-10.5836
object▁	-10.5836
On	-10.5838
Ken	-10.584
print▁	-10.584
09▁	-10.5841
backing▁	-10.5841
ides▁	-10.5843
bat	-10.5845
Operation▁	-10.5845
beach▁	-10.5846
successfully▁	-10.585
gn	-10.585
ym	-10.5852
gal	-10.5856
ni▁	-10.5859
secretary▁	-10.5861
Utah▁	-10.5861
explain▁	-10.5862
arm	-10.5865
Iraq▁	-10.5869
folk▁	-10.587
azz	-10.5871
Hollywood▁	-10.5873
translation▁	-10.5873
Villages▁	-10.5873
zer▁	-10.5879
Hungary▁	-10.5886
bands▁	-10.5901
touched▁	-10.5904
communication▁	-10.5907
funds▁	-10.5911
Gil	-10.5915
ty	-10.5918
ili	-10.5918
arian▁	-10.5925
voted▁	-10.5926
environmental▁	-10.5927
Garden▁	-10.5935
northeast▁	-10.5936
hel	-10.5937
criminal▁	-10.594
Bio	-10.5947
oid▁	-10.5949
Bay	-10.5952
Dublin▁	-10.5953
priest▁	-10.5953
Water	-10.5955
CA▁	-10.5957
typical▁	-10.5957
divisions▁	-10.5957
internal▁	-10.5957
Cla	-10.5965
rig	-10.5966
ud▁	-10.5969
vit	-10.5969
Orchestra▁	-10.5973
–	-10.5982
gon▁	-10.5982
installed▁	-10.5986
Girls▁	-10.5986
yl▁	-10.5989
residence▁	-10.599
ano	-10.5991
incorporated▁	-10.5991
04▁	-10.5992
Del	-10.5993
Montreal▁	-10.5996
Global▁	-10.5998
gy	-10.6
radi	-10.6002
PC▁	-10.6003
Bri	-10.6007
laugh▁	-10.6008
Rock	-10.6009
Adam▁	-10.601
ele	-10.601
Ce	-10.6013
Bell▁	-10.6013
Alumni▁	-10.6015
specifically▁	-10.6015
vin▁	-10.6019
survived▁	-10.6019
va▁	-10.6021
fashion▁	-10.6024
occur▁	-10.6024
regarded▁	-10.6024
Deputy▁	-10.6028
03▁	-10.6028
duct	-10.603
mag	-10.6034
worse▁	-10.6037
involving▁	-10.604
solid▁	-10.6043
standards▁	-10.6045
vin	-10.6045
rep	-10.6047
Sport▁	-10.6052
Now▁	-10.6055
ef	-10.6056
Mayor▁	-10.6066
demand▁	-10.6067
por	-10.6069
web▁	-10.6072
testing▁	-10.6076
Natural▁	-10.6078
resistance▁	-10.6078
Cleveland▁	-10.6078
Then▁	-10.608
comic▁	-10.6081
Comp	-10.6082
Five▁	-10.6082
drawing▁	-10.6084
grow▁	-10.6084
AR	-10.6085
ched▁	-10.6085
red	-10.6086
intelligence▁	-10.6087
Finland▁	-10.6089
org▁	-10.6091
arranged▁	-10.6096
engines▁	-10.6096
peak▁	-10.6098
Morgan▁	-10.6098
charges▁	-10.61
Belgian▁	-10.6104
hip▁	-10.6104
Players▁	-10.6107
Trust▁	-10.611
mut	-10.6111
items▁	-10.6112
chemical▁	-10.6125
Kir	-10.6126
Gro	-10.6127
sword▁	-10.6133
Boys▁	-10.6133
bishop▁	-10.6135
cricketers▁	-10.6138
songwriter▁	-10.6138
worldwide▁	-10.6142
formal▁	-10.6145
islands▁	-10.6147
equal▁	-10.6152
Kra	-10.6152
blo	-10.6158
q▁	-10.6166
Mol	-10.617
introduction▁	-10.6172
Den	-10.6173
"	-10.6175
dating▁	-10.6182
Land▁	-10.6187
doubt▁	-10.6189
pulling▁	-10.6195
Prior▁	-10.6195
tropical▁	-10.6201
cool▁	-10.6202
22	-10.6205
ances▁	-10.6207
Dal	-10.6209
establish▁	-10.621
9.	-10.6218
ugg	-10.622
1902▁	-10.6222
bru	-10.6222
concerned▁	-10.6223
Grant▁	-10.6227
Command▁	-10.6229
1:	-10.623
Christ▁	-10.6231
Baltimore▁	-10.6232
factory▁	-10.6232
surrounded▁	-10.6232
animated▁	-10.6232
Margaret▁	-10.6233
lay	-10.6236
importance▁	-10.624
06▁	-10.6247
Bab	-10.6248
ink	-10.625
Kor	-10.625
causes▁	-10.6254
restaurant▁	-10.6258
Jesus▁	-10.6259
tter	-10.6259
sville▁	-10.6261
Pittsburgh▁	-10.6262
northwest▁	-10.6262
2–	-10.6266
theater▁	-10.6267
helping▁	-10.6271
Girl▁	-10.6271
atory▁	-10.6271
neighborhood▁	-10.6275
desire▁	-10.6275
Bruce▁	-10.6284
José▁	-10.6284
Liga▁	-10.6285
signal▁	-10.6286
tor▁	-10.6288
nick▁	-10.6289
lam	-10.629
tank▁	-10.6292
net	-10.6294
faces▁	-10.6294
oul	-10.6296
Real▁	-10.6296
Rev	-10.6296
rum	-10.6298
ography▁	-10.6299
Romanian▁	-10.6302
ú	-10.6304
advance▁	-10.6305
attached▁	-10.6305
ben▁	-10.6308
journal▁	-10.6314
expressed▁	-10.6316
vir	-10.6318
row	-10.6319
kal	-10.632
lev	-10.6324
mill▁	-10.6329
len▁	-10.6329
employees▁	-10.6331
papers▁	-10.6332
Studios▁	-10.6335
agency▁	-10.6336
challenge▁	-10.634
Blo	-10.6342
bear▁	-10.6342
Dur	-10.6347
2000	-10.6347
greatest▁	-10.6348
combination▁	-10.6353
stadium▁	-10.6353
oli	-10.6359
vert	-10.6362
boats▁	-10.637
Ferr	-10.6371
request▁	-10.6371
angry▁	-10.6373
describes▁	-10.6375
worry▁	-10.6375
OS▁	-10.6379
tra▁	-10.6379
spend▁	-10.638
cam	-10.6384
ei	-10.639
wh	-10.6396
Communist▁	-10.6396
Jan▁	-10.6397
Silver▁	-10.6404
threat▁	-10.6406
ct	-10.6406
bla	-10.641
Med	-10.641
Pet	-10.6412
inhabitants▁	-10.6414
compete▁	-10.6414
fresh▁	-10.6414
dangerous▁	-10.6418
camera▁	-10.6419
Energy▁	-10.6423
Publishing▁	-10.6423
committed▁	-10.6423
interior▁	-10.6423
Fal	-10.6427
Railroad▁	-10.6427
Go▁	-10.643
Lor	-10.6434
02▁	-10.6437
Sy	-10.644
municipal▁	-10.6444
capture▁	-10.6445
book	-10.6445
Jane▁	-10.6445
freedom▁	-10.6449
loo	-10.6455
changing▁	-10.6456
concluded▁	-10.6458
70	-10.6458
tests▁	-10.6458
Comics▁	-10.646
dar▁	-10.6462
signs▁	-10.6471
familiar▁	-10.6473
5,000▁	-10.648
justice▁	-10.648
aut	-10.6483
desk▁	-10.6487
Transportation▁	-10.6488
consisting▁	-10.6488
stating▁	-10.649
sin	-10.6491
Ross▁	-10.6491
promise▁	-10.6492
Ang	-10.6494
Pierre▁	-10.6495
praised▁	-10.6503
landing▁	-10.6507
passengers▁	-10.6511
star	-10.6512
venues▁	-10.6513
Serbian▁	-10.6515
sting▁	-10.6519
protein▁	-10.6522
LP▁	-10.6525
wounded▁	-10.6533
accused▁	-10.6533
Harris▁	-10.6533
vol	-10.6535
bre	-10.6541
gently▁	-10.6545
ida▁	-10.6545
concern▁	-10.6546
circle▁	-10.6551
facing▁	-10.6555
Once▁	-10.6555
ara	-10.6555
Cy	-10.6556
queen▁	-10.6561
coat▁	-10.6563
gul	-10.6565
Has	-10.6565
coal▁	-10.6569
extension▁	-10.6569
Jordan▁	-10.6573
Mark	-10.6577
acc	-10.6577
nic	-10.6581
painters▁	-10.6581
3.	-10.6586
handle▁	-10.659
ST	-10.6592
Long	-10.6593
Volume▁	-10.6595
rivers▁	-10.6595
SR▁	-10.6597
dressed▁	-10.6598
Donald▁	-10.6602
atus▁	-10.6603
Rio▁	-10.6604
kissed▁	-10.6608
Ty	-10.6609
Guard▁	-10.6613
grave▁	-10.6618
CE▁	-10.6621
bil	-10.6621
Under	-10.6622
ye	-10.6623
raise▁	-10.6628
Kent▁	-10.663
eng▁	-10.6638
courses▁	-10.6644
damaged▁	-10.6644
reg	-10.6647
Thailand▁	-10.6648
grant▁	-10.6651
IN	-10.6653
extremely▁	-10.6653
ock▁	-10.6654
Our▁	-10.6655
usual▁	-10.6655
tier▁	-10.6656
ades▁	-10.6665
Finnish▁	-10.6666
recordings▁	-10.6671
uss	-10.6671
weapon▁	-10.6675
ron▁	-10.6675
plot▁	-10.6683
sequence▁	-10.6686
sim	-10.6687
ards▁	-10.6687
owners▁	-10.6688
rick	-10.6691
values▁	-10.6693
Christopher▁	-10.6693
unless▁	-10.6697
scholars▁	-10.6698
visual▁	-10.6702
credited▁	-10.6705
Reserve▁	-10.6709
hur	-10.6711
sighed▁	-10.6711
lar▁	-10.6712
Roger▁	-10.6713
Seattle▁	-10.6716
horror▁	-10.6716
Vienna▁	-10.6721
Sea	-10.6721
documents▁	-10.6725
athletes▁	-10.6729
electronic▁	-10.6729
medicine▁	-10.673
grass▁	-10.6732
1896▁	-10.6732
wet▁	-10.6735
crossing▁	-10.6738
horses▁	-10.6739
Heart▁	-10.6739
ram▁	-10.6741
cia▁	-10.6742
oni▁	-10.6742
victims▁	-10.6743
Ottoman▁	-10.6747
guards▁	-10.6748
promote▁	-10.6752
Cru	-10.6752
banks▁	-10.6752
ified▁	-10.6753
Camp	-10.6759
pul	-10.676
mounted▁	-10.676
Athletics▁	-10.6761
contain▁	-10.6761
stages▁	-10.6765
patient▁	-10.6766
buy▁	-10.6768
Ball	-10.677
ure▁	-10.6771
PS▁	-10.6772
ew	-10.6774
foundation▁	-10.678
improve▁	-10.6781
Exp	-10.6783
dies▁	-10.6784
Mun	-10.6785
uv	-10.6786
eur▁	-10.6789
1899▁	-10.6791
Knight▁	-10.6792
Hampshire▁	-10.6793
wrapped▁	-10.6793
sley▁	-10.6793
Sarah▁	-10.6796
Rad	-10.6799
Defense▁	-10.6802
chan	-10.6806
understood▁	-10.6806
constituency▁	-10.6806
but	-10.6806
Alex▁	-10.6808
profit▁	-10.6808
Dean▁	-10.6819
ase▁	-10.6821
Billy▁	-10.6822
somewhere▁	-10.6823
nia▁	-10.6824
eries▁	-10.6825
home	-10.6828
dal	-10.6833
Raj	-10.6835
dev	-10.6839
peri	-10.684
dynasty▁	-10.6843
web	-10.6843
End▁	-10.6844
regularly▁	-10.6847
prize▁	-10.6848
users▁	-10.685
tive▁	-10.6851
gan▁	-10.6851
applications▁	-10.6852
cel	-10.6855
behavior▁	-10.6856
rid	-10.6859
consider▁	-10.6861
credit▁	-10.6869
Bowl▁	-10.6871
wards▁	-10.6871
sha▁	-10.6875
bel	-10.688
Dol	-10.6887
ay	-10.6894
ate	-10.6894
publications▁	-10.6898
Kur	-10.6898
bra▁	-10.6901
shrugged▁	-10.6903
enberg▁	-10.6903
Publications▁	-10.6907
thousands▁	-10.6907
run	-10.691
ith	-10.6911
Metropolitan▁	-10.6913
ABC▁	-10.6914
1897▁	-10.6914
Though▁	-10.6917
1898▁	-10.6919
offering▁	-10.6922
Mid	-10.6927
je▁	-10.6928
AP▁	-10.693
producers▁	-10.693
seventh▁	-10.693
ht	-10.6934
Saturday▁	-10.6934
burned▁	-10.694
Tal	-10.6942
darkness▁	-10.6949
serv	-10.695
Alfred▁	-10.695
Wood▁	-10.695
slid▁	-10.6952
teachers▁	-10.6953
Gold	-10.6956
stairs▁	-10.6956
fri	-10.6958
tiv	-10.6961
esh▁	-10.6963
visible▁	-10.6964
ologists▁	-10.6965
biggest▁	-10.6971
Honours▁	-10.6971
philosophy▁	-10.6976
ures▁	-10.6981
ska▁	-10.6982
Kelly▁	-10.6982
35	-10.6985
scientists▁	-10.6985
à▁	-10.6987
improved▁	-10.6988
alized▁	-10.6988
Kh	-10.6989
LA▁	-10.6992
mp▁	-10.6993
ico▁	-10.6993
ation	-10.6997
Conservative▁	-10.7004
Romania▁	-10.7005
kan	-10.7007
jo▁	-10.7008
shock▁	-10.7011
wore▁	-10.7013
anymore▁	-10.7014
Wy	-10.7016
reception▁	-10.7018
eds▁	-10.7021
uz	-10.7026
hoped▁	-10.7026
Shu	-10.7028
wan▁	-10.7028
sub▁	-10.703
evil▁	-10.7034
sar	-10.7035
massive▁	-10.7037
ali▁	-10.7041
brick▁	-10.7041
ef▁	-10.7041
accept▁	-10.7046
techniques▁	-10.7046
nes	-10.7048
Maine▁	-10.705
distributed▁	-10.7055
drove▁	-10.7057
ee	-10.7058
xi	-10.7059
rad	-10.7062
craft▁	-10.7062
Nov	-10.7064
string▁	-10.7064
certainly▁	-10.7064
rain	-10.7068
phon	-10.7068
Champion▁	-10.7069
Alt	-10.707
era	-10.7073
delivered▁	-10.7074
friendly▁	-10.7078
Princess▁	-10.7088
composers▁	-10.7092
Jimmy▁	-10.7097
purposes▁	-10.7097
pri	-10.7098
Way▁	-10.71
ech	-10.7103
notice▁	-10.7103
Sound▁	-10.7104
cad	-10.7108
ring	-10.7109
mont▁	-10.7109
38	-10.7111
ys	-10.7111
far	-10.7112
color	-10.7113
adjacent▁	-10.712
che▁	-10.7121
sharp▁	-10.7123
noise▁	-10.7123
pale▁	-10.7123
su▁	-10.7123
Boy▁	-10.7124
maintain▁	-10.7125
sman▁	-10.7127
hide▁	-10.7132
front	-10.7137
sch▁	-10.7138
afternoon▁	-10.7139
goods▁	-10.7143
sections▁	-10.7144
compilation▁	-10.7144
dig	-10.7144
MPs▁	-10.7145
genera▁	-10.7147
ational▁	-10.7148
37	-10.7149
Medicine▁	-10.7149
lip	-10.7151
Good	-10.7151
Palace▁	-10.7154
É	-10.7158
wedding▁	-10.7158
gender▁	-10.7159
plate▁	-10.7162
interests▁	-10.7163
aire▁	-10.7165
budget▁	-10.7165
ap▁	-10.7167
feelings▁	-10.7168
á▁	-10.7168
Wright▁	-10.7172
prisoners▁	-10.7172
wondered▁	-10.7172
aware▁	-10.7173
bell	-10.7174
sounded▁	-10.7175
Campbell▁	-10.7177
ional▁	-10.7181
Cr	-10.7182
adapted▁	-10.7185
Years▁	-10.7185
def	-10.7187
acid▁	-10.7187
cher	-10.719
rounds▁	-10.719
participate▁	-10.7191
Whit	-10.7194
ball	-10.7194
ver▁	-10.7195
factors▁	-10.7197
ren▁	-10.72
pack▁	-10.7203
ward	-10.7205
eth	-10.7205
Upper▁	-10.7207
factor▁	-10.7208
NA	-10.7213
sick▁	-10.7214
description▁	-10.7215
hits▁	-10.7215
les	-10.7215
bun	-10.7216
measures▁	-10.722
Stage▁	-10.7221
Fair	-10.7221
Will▁	-10.7221
Ass	-10.7224
tus▁	-10.7224
Training▁	-10.7227
Lower▁	-10.7228
proper▁	-10.7237
Rivers▁	-10.7238
putting▁	-10.724
sid	-10.7241
Tim▁	-10.7243
oma▁	-10.7245
NBA▁	-10.7245
purchase▁	-10.7248
equivalent▁	-10.7258
Taiwan▁	-10.7258
starred▁	-10.7259
mur	-10.7267
cousin▁	-10.7267
routes▁	-10.7267
listen▁	-10.7269
task▁	-10.7272
Section▁	-10.7273
ric▁	-10.7274
costs▁	-10.7274
Vis	-10.7275
mountains▁	-10.7279
designs▁	-10.7286
Matt▁	-10.7288
arr	-10.729
Brothers▁	-10.7295
ı	-10.7296
shoot▁	-10.7296
Adams▁	-10.7297
1893▁	-10.7299
Municipality▁	-10.73
accompanied▁	-10.73
reduce▁	-10.73
SA	-10.7302
bone▁	-10.7307
persons▁	-10.731
Economic▁	-10.731
Fr	-10.7313
syn	-10.7313
Crown▁	-10.7314
Trade▁	-10.7317
Post	-10.732
BA▁	-10.7325
CC▁	-10.7327
sees▁	-10.7329
loud▁	-10.7329
rowspan	-10.733
linked▁	-10.733
Camp▁	-10.7332
publishing▁	-10.7334
Rights▁	-10.7339
ula▁	-10.734
wick▁	-10.7341
invasion▁	-10.7344
premiered▁	-10.7344
Johnny▁	-10.7344
Disney▁	-10.7346
driven▁	-10.7348
ily▁	-10.7349
Wor	-10.735
Ker	-10.7352
distinct▁	-10.7353
age	-10.7357
1895▁	-10.7362
require▁	-10.7363
Studio▁	-10.7363
Up	-10.7368
somehow▁	-10.7369
lac	-10.737
Co▁	-10.7371
36	-10.7374
soldier▁	-10.7377
references▁	-10.7377
ald	-10.738
onic▁	-10.7381
Orthodox▁	-10.7382
sho	-10.7389
locality▁	-10.7392
Stewart▁	-10.7396
Vin	-10.7401
Century▁	-10.7406
pleasure▁	-10.7406
fan▁	-10.7407
tired▁	-10.7408
1890▁	-10.7409
Murray▁	-10.7412
Thompson▁	-10.7421
Wrestling▁	-10.7421
agricultural▁	-10.7421
colonial▁	-10.7421
1,000▁	-10.7421
push▁	-10.7421
southeast▁	-10.7421
southwest▁	-10.7421
broad▁	-10.7424
How▁	-10.7427
stuff▁	-10.7428
eating▁	-10.7429
Ice▁	-10.743
lift▁	-10.7431
Chart▁	-10.7433
Tim	-10.7437
Bl	-10.7437
closing▁	-10.7439
rolling▁	-10.7445
Singh▁	-10.7445
Jeff▁	-10.7446
cheek▁	-10.7448
backs▁	-10.7448
pro▁	-10.7449
communications▁	-10.745
waters▁	-10.7451
nal▁	-10.7452
1889▁	-10.7453
Kil	-10.7454
sburg▁	-10.7455
path	-10.746
ives▁	-10.7464
-2▁	-10.7464
Russell▁	-10.7464
clock▁	-10.7465
arrival▁	-10.7466
ace▁	-10.7471
Spring▁	-10.7473
organisation▁	-10.7474
Short▁	-10.7476
adding▁	-10.7476
Alliance▁	-10.7484
pocket▁	-10.7484
ises▁	-10.7484
Staff▁	-10.7484
replace▁	-10.7485
bit	-10.7488
knees▁	-10.7489
collaboration▁	-10.7493
Ann▁	-10.75
contrast▁	-10.7501
Les▁	-10.7504
Cra	-10.7507
cut	-10.7512
threatened▁	-10.7513
nations▁	-10.7514
oral▁	-10.7518
Wall	-10.7518
attend▁	-10.7519
Defence▁	-10.7519
ensure▁	-10.7523
ick▁	-10.7526
Die▁	-10.7529
treated▁	-10.7531
contributions▁	-10.7533
Ul	-10.7536
grey▁	-10.7538
stones▁	-10.7542
earliest▁	-10.7542
Peace▁	-10.7543
Baker▁	-10.7544
ii▁	-10.7546
degrees▁	-10.7547
devices▁	-10.7547
а	-10.7551
throw▁	-10.7552
defensive▁	-10.7552
Austin▁	-10.7552
roughly▁	-10.7553
Mrs	-10.7555
auto	-10.7557
Shar	-10.7559
counter	-10.7561
Senator▁	-10.7563
yan▁	-10.7565
Air	-10.7567
Male▁	-10.7567
bedroom▁	-10.7568
Ed▁	-10.7569
ously▁	-10.7569
medium▁	-10.7569
Anti	-10.7575
hang▁	-10.7575
drivers▁	-10.7578
Reg	-10.758
Robinson▁	-10.7582
150▁	-10.7583
CEO▁	-10.7587
Baron▁	-10.7587
responsibility▁	-10.7591
Carlos▁	-10.7593
Agency▁	-10.7602
IS	-10.7602
anniversary▁	-10.7606
ff	-10.7609
hat	-10.761
tal▁	-10.7613
giant▁	-10.7614
ova▁	-10.7615
Personnel▁	-10.7616
branches▁	-10.7621
pen▁	-10.7625
Liverpool▁	-10.7626
Brooklyn▁	-10.7631
forth▁	-10.7632
oz	-10.7632
mining▁	-10.7633
Qua	-10.7633
hanging▁	-10.7634
worried▁	-10.7636
fra	-10.7639
ut▁	-10.7641
classified▁	-10.7641
powered▁	-10.7641
responded▁	-10.7646
somewhat▁	-10.7649
Wars▁	-10.7658
Lang	-10.766
Norman▁	-10.766
studying▁	-10.7666
oss	-10.7666
hu▁	-10.7667
amb	-10.7669
ency▁	-10.7669
meta	-10.767
approval▁	-10.7675
separated▁	-10.7675
Victor▁	-10.768
Note▁	-10.7681
classification▁	-10.7681
lit▁	-10.7682
solution▁	-10.7683
depth▁	-10.769
33	-10.7692
quietly▁	-10.7695
scent▁	-10.7699
Roy▁	-10.7699
Dallas▁	-10.77
ante▁	-10.7702
deputy▁	-10.7705
pandemic▁	-10.771
partnership▁	-10.771
hoping▁	-10.7711
Franklin▁	-10.7715
normally▁	-10.7716
Mand	-10.7719
impossible▁	-10.7719
Writers▁	-10.772
ello▁	-10.7725
printed▁	-10.7725
nik▁	-10.7725
signing▁	-10.7726
Website▁	-10.7726
script	-10.7727
sia▁	-10.7731
flag▁	-10.7732
Ry	-10.7733
App	-10.7733
stores▁	-10.7734
1894▁	-10.7734
crazy▁	-10.7735
ide▁	-10.7739
Bru	-10.7741
measure▁	-10.7745
aside▁	-10.7746
geo	-10.7746
Marshall▁	-10.7747
one	-10.7748
moth▁	-10.7749
tam	-10.775
cited▁	-10.7752
Here▁	-10.7753
wake▁	-10.7753
Flora▁	-10.7755
Matthew▁	-10.7755
softly▁	-10.7756
commission▁	-10.7758
weak▁	-10.7759
rich	-10.7759
rejected▁	-10.776
edly▁	-10.7763
Art	-10.7765
5:	-10.7765
jun	-10.7767
Back▁	-10.7769
Iranian▁	-10.777
favor▁	-10.777
formally▁	-10.7771
Judge▁	-10.7772
correct▁	-10.7775
ethnic▁	-10.7775
wer	-10.7776
lane▁	-10.7778
nate▁	-10.7779
repeated▁	-10.778
notably▁	-10.7781
filed▁	-10.7781
ban▁	-10.7781
ther	-10.7783
tch	-10.7785
FIFA▁	-10.7785
ami▁	-10.7788
shell▁	-10.7789
Ward▁	-10.7795
Portland▁	-10.7799
Collection▁	-10.7801
option▁	-10.7801
ement▁	-10.7809
ž	-10.781
judges▁	-10.781
grand▁	-10.7814
Hil	-10.7814
ei▁	-10.7816
Nick▁	-10.7817
assistance▁	-10.782
talked▁	-10.7822
Micro	-10.7822
approached▁	-10.7825
journey▁	-10.7829
movements▁	-10.783
tu▁	-10.7834
Dakota▁	-10.7835
grandfather▁	-10.7837
AT	-10.7838
definitely▁	-10.7846
Bun	-10.7851
cru	-10.7853
choose▁	-10.7856
Broadway▁	-10.7858
MC▁	-10.7858
examples▁	-10.7861
Dra	-10.7861
Cer	-10.7862
feed▁	-10.7863
Graham▁	-10.7863
Test▁	-10.7866
Lanka▁	-10.7867
returns▁	-10.7868
inae▁	-10.7873
etti▁	-10.7873
NBC▁	-10.7874
Thus▁	-10.7878
soil▁	-10.7878
manner▁	-10.788
90	-10.788
shifted▁	-10.7881
pattern▁	-10.7881
Argentine▁	-10.7881
Moon▁	-10.7886
hat▁	-10.7886
file▁	-10.7887
ung	-10.7887
clan▁	-10.7894
fill▁	-10.7894
sul	-10.7896
Constitution▁	-10.7896
Sor	-10.7896
ction▁	-10.7897
designer▁	-10.7901
seriously▁	-10.7902
universities▁	-10.7906
cat▁	-10.7907
Alberta▁	-10.791
aud	-10.7913
Carter▁	-10.7915
decade▁	-10.7916
short	-10.7916
sters▁	-10.7917
aro▁	-10.792
beauty▁	-10.7921
collections▁	-10.7922
classic▁	-10.7923
een▁	-10.7926
Gulf▁	-10.7927
prime▁	-10.7937
alo	-10.7937
Free	-10.7939
Bos	-10.7942
;"|▁	-10.7948
ST▁	-10.7949
ened▁	-10.7949
Nigeria▁	-10.7952
rub	-10.7954
erman▁	-10.7955
ose▁	-10.7955
ranking▁	-10.7956
mac	-10.7957
Nelson▁	-10.7957
ich▁	-10.7959
virus▁	-10.7961
Organization▁	-10.7963
itch▁	-10.7963
cell	-10.7965
promised▁	-10.7967
ela▁	-10.7975
moves▁	-10.798
hidden▁	-10.7983
Yorkshire▁	-10.7983
Dia	-10.7987
tomorrow▁	-10.7993
determine▁	-10.7995
rush▁	-10.7995
spirit▁	-10.8
ati	-10.8005
pot	-10.8005
horn▁	-10.8006
Athletic▁	-10.8008
UEFA▁	-10.8008
realize▁	-10.8013
crisis▁	-10.8014
Base▁	-10.8014
instruments▁	-10.8014
aki▁	-10.8016
work	-10.8017
spending▁	-10.8018
Nazi▁	-10.8019
racial▁	-10.8019
foot	-10.802
Woman▁	-10.8024
ome	-10.8025
Over	-10.8026
Gun	-10.8026
att	-10.8028
Neu	-10.8029
newspapers▁	-10.8029
moments▁	-10.8033
Karl▁	-10.8034
represents▁	-10.8035
duties▁	-10.8036
Daily▁	-10.8036
Dec	-10.8037
iff	-10.8037
offensive▁	-10.8039
Trump▁	-10.804
wonder▁	-10.8044
Stanley▁	-10.8046
cle	-10.8049
TA▁	-10.8049
Nova▁	-10.805
township▁	-10.805
Ok	-10.8051
organ▁	-10.8053
opinion▁	-10.8055
ers	-10.8057
Fer	-10.8059
weekly▁	-10.806
debuted▁	-10.806
add▁	-10.806
odd▁	-10.8061
aur	-10.8062
plain▁	-10.8065
gene▁	-10.8067
wolf▁	-10.8067
Jason▁	-10.8073
1892▁	-10.8079
oni	-10.8079
Racing▁	-10.808
pole▁	-10.8082
existed▁	-10.8086
residential▁	-10.8088
storage▁	-10.8089
fifteen▁	-10.8091
legislation▁	-10.8091
mus	-10.8092
bay▁	-10.8092
hate▁	-10.8096
Opera▁	-10.8097
Iron▁	-10.8103
nat	-10.8104
naval▁	-10.8105
Moths▁	-10.8106
Stars▁	-10.8107
poem▁	-10.8109
Auto	-10.811
contest▁	-10.8111
NY▁	-10.8111
commune▁	-10.8112
Egyptian▁	-10.8117
concerns▁	-10.8117
executed▁	-10.8117
franchise▁	-10.8117
severe▁	-10.8117
worst▁	-10.8118
sh▁	-10.8118
genre▁	-10.8119
chin▁	-10.812
=	-10.8126
Euro	-10.8128
zo▁	-10.8129
gotten▁	-10.8137
Six▁	-10.8137
subjects▁	-10.8137
í▁	-10.8139
CS▁	-10.8139
EC▁	-10.814
1891▁	-10.814
ern▁	-10.8144
Primary▁	-10.8149
cess	-10.8149
1888▁	-10.8152
fallen▁	-10.8154
49	-10.8155
Hills▁	-10.8155
Warner▁	-10.8156
Dan▁	-10.8157
stan	-10.8157
Mir	-10.8159
dro	-10.816
parks▁	-10.8162
disappeared▁	-10.8164
boo	-10.8165
uff▁	-10.8166
angle▁	-10.8167
alis▁	-10.8168
Chile▁	-10.8173
Express▁	-10.8174
une▁	-10.8175
Charlie▁	-10.818
mention▁	-10.8184
Artists▁	-10.8185
businesses▁	-10.819
significantly▁	-10.8195
God	-10.82
physics▁	-10.82
Mill	-10.8202
progress▁	-10.8205
pho	-10.8209
og▁	-10.8209
kr	-10.8214
Glasgow▁	-10.8216
provincial▁	-10.8216
ved▁	-10.8216
Gary▁	-10.822
Birmingham▁	-10.8221
daughters▁	-10.8221
constant▁	-10.8221
Authority▁	-10.8226
copy▁	-10.8229
dam▁	-10.823
1885▁	-10.823
RC▁	-10.8231
lit	-10.8231
Andy▁	-10.8231
bell▁	-10.8235
saved▁	-10.8237
faith▁	-10.8237
Construction▁	-10.8242
camp	-10.8242
restored▁	-10.8243
Race▁	-10.8244
sive▁	-10.8248
dent	-10.8251
Madrid▁	-10.8253
lee▁	-10.8253
technique▁	-10.8258
temporary▁	-10.8258
Rub	-10.8259
ice	-10.8265
planet▁	-10.827
mix▁	-10.8278
flew▁	-10.828
Dark▁	-10.8281
kid▁	-10.8281
ū	-10.8281
rob	-10.8282
ries▁	-10.8283
Politics▁	-10.8289
dal▁	-10.8293
hundreds▁	-10.8295
riding▁	-10.8299
fishing▁	-10.83
emergency▁	-10.83
Theater▁	-10.83
ł	-10.8301
stable▁	-10.8304
carefully▁	-10.8305
courts▁	-10.8306
ler	-10.8307
CBS▁	-10.8308
Be▁	-10.8312
DNA▁	-10.8316
guitarist▁	-10.8316
Att	-10.8317
chen▁	-10.8321
dol	-10.8321
Bangladesh▁	-10.8321
secure▁	-10.8322
operates▁	-10.8327
videos▁	-10.8327
stor	-10.8328
Blues▁	-10.8328
dy	-10.8329
lasted▁	-10.833
ores▁	-10.8331
balance▁	-10.8333
AP	-10.8334
kel	-10.8334
stick▁	-10.8336
Down▁	-10.8339
Shin	-10.8339
Cricket▁	-10.8342
Prefecture▁	-10.8342
policies▁	-10.8342
Through▁	-10.8343
lyn▁	-10.8347
investment▁	-10.8347
lim	-10.8347
Kennedy▁	-10.8348
knife▁	-10.8348
labor▁	-10.8351
Bible▁	-10.8352
begun▁	-10.8353
Guide▁	-10.8357
Ana	-10.8361
Ant	-10.8365
journalists▁	-10.8373
wo	-10.8373
ost	-10.8375
Mis	-10.8376
Just▁	-10.8378
Movement▁	-10.8379
concrete▁	-10.8379
vic	-10.8383
Gri	-10.8385
Ny	-10.8388
Convention▁	-10.839
critic▁	-10.8391
af▁	-10.8391
Soccer▁	-10.8395
protest▁	-10.8395
aunt▁	-10.8397
romantic▁	-10.8401
magn	-10.8402
ening▁	-10.8403
enjoyed▁	-10.8406
Album▁	-10.8407
thy▁	-10.8408
Serbia▁	-10.8411
decide▁	-10.8412
fighter▁	-10.8417
medieval▁	-10.8417
Selected▁	-10.8417
Literature▁	-10.8417
ail	-10.8422
Oblast▁	-10.8423
appointment▁	-10.8425
childhood▁	-10.8427
landed▁	-10.8427
mas	-10.8432
log	-10.8433
Chu	-10.8437
Windows▁	-10.8438
Band	-10.8439
eleven▁	-10.8443
stupid▁	-10.8444
parking▁	-10.8449
act	-10.8449
soci	-10.8452
Met	-10.8453
vessels▁	-10.8454
kick▁	-10.8457
Jazz▁	-10.8459
ences▁	-10.8463
emerged▁	-10.8463
Mediterranean▁	-10.8465
phil	-10.8469
chamber▁	-10.8471
Plat	-10.8475
Bow	-10.848
demanded▁	-10.8481
jump▁	-10.8482
deck▁	-10.8482
var	-10.8482
Bern	-10.8485
taste▁	-10.8486
vocal▁	-10.8486
Trophy▁	-10.8492
Ky	-10.8492
Stra	-10.8494
centr	-10.8501
confused▁	-10.8501
relative▁	-10.8503
faster▁	-10.8503
rough▁	-10.8509
appearing▁	-10.8511
stru	-10.8514
nomination▁	-10.8514
maker▁	-10.8522
"|▁	-10.8523
plo	-10.8525
golden▁	-10.8526
layer▁	-10.8526
scheme▁	-10.853
hood▁	-10.854
po▁	-10.8542
rest	-10.8543
marks▁	-10.8545
Victorian▁	-10.8545
forget▁	-10.8549
Ten▁	-10.8553
hoo	-10.8554
Van	-10.8556
Species▁	-10.8557
utter▁	-10.8559
Current▁	-10.8562
Wayne▁	-10.8565
Online▁	-10.8566
fruit▁	-10.8566
aspects▁	-10.8567
differences▁	-10.8567
Lost▁	-10.8572
Pradesh▁	-10.8573
entering▁	-10.8573
agree▁	-10.8574
1.5▁	-10.8575
sy	-10.8577
tel▁	-10.8578
Lane▁	-10.8578
smell▁	-10.8579
fel	-10.8579
belt▁	-10.858
aw▁	-10.858
hosts▁	-10.8581
kl	-10.8589
pos	-10.8603
magazines▁	-10.8611
Urban▁	-10.8611
mon▁	-10.8614
isation▁	-10.8618
1865▁	-10.8619
Arch	-10.8621
rescue▁	-10.8622
breathing▁	-10.8622
1920	-10.8625
flows▁	-10.8625
weekend▁	-10.8627
ister▁	-10.8629
augh	-10.8633
swimming▁	-10.8633
vil	-10.8635
appropriate▁	-10.8638
yo▁	-10.8642
Cul	-10.8646
coastal▁	-10.8649
Tower▁	-10.865
favorite▁	-10.8655
mul	-10.8655
burning▁	-10.8656
rage▁	-10.8656
snow▁	-10.8659
iel▁	-10.8662
itz▁	-10.8664
electoral▁	-10.8666
occasionally▁	-10.8666
Richmond▁	-10.8666
Nevada▁	-10.8671
1/	-10.8672
Cathedral▁	-10.8682
habitat▁	-10.8682
agents▁	-10.8684
1880▁	-10.8686
47	-10.8687
Will	-10.8693
suggests▁	-10.8693
parallel▁	-10.8693
suicide▁	-10.8693
lut	-10.8694
law	-10.8696
mod	-10.8699
200	-10.8701
Pas	-10.8701
aceae▁	-10.8703
Mission▁	-10.8705
blocks▁	-10.8707
Challenge▁	-10.8709
artistic▁	-10.8716
Work▁	-10.8716
Clo	-10.8719
warning▁	-10.8722
Front▁	-10.8723
Charlotte▁	-10.8726
activist▁	-10.8726
reputation▁	-10.8726
retained▁	-10.8726
sar▁	-10.8726
quir	-10.8731
sum▁	-10.8731
defeating▁	-10.8732
vessel▁	-10.8732
Son	-10.8736
Gui	-10.8736
Phil	-10.8737
shift▁	-10.8737
danger▁	-10.8746
ier	-10.8748
Metro▁	-10.8749
ander▁	-10.8756
oj	-10.8758
ownership▁	-10.8759
affairs▁	-10.8759
gay▁	-10.8764
Even▁	-10.8766
ect	-10.8766
Medalists▁	-10.877
criticized▁	-10.877
coverage▁	-10.877
indicated▁	-10.8771
met	-10.8772
eta▁	-10.8775
survive▁	-10.8776
Demographics▁	-10.8776
context▁	-10.8776
RI	-10.8777
ras	-10.8778
viewers▁	-10.8788
heritage▁	-10.8792
1864▁	-10.8793
colour▁	-10.8794
Grade▁	-10.8801
Hur	-10.8804
practices▁	-10.8809
schedule▁	-10.8815
Discography▁	-10.8815
requirements▁	-10.882
conduct▁	-10.882
strategy▁	-10.8822
grace▁	-10.8823
Mart	-10.8824
fire	-10.8825
Language▁	-10.8826
entertainment▁	-10.8826
institution▁	-10.8826
Fred▁	-10.8829
iers▁	-10.8829
1886▁	-10.883
limit▁	-10.883
interesting▁	-10.8831
Pictures▁	-10.8831
calm▁	-10.8832
rom	-10.8834
Turner▁	-10.8836
Croatian▁	-10.8837
Morris▁	-10.8838
glad▁	-10.8838
Stan	-10.8838
Cle	-10.8838
plan	-10.8844
nap	-10.8848
fla	-10.8849
lined▁	-10.8854
Milan▁	-10.8856
waves▁	-10.8857
Orleans▁	-10.8859
trail▁	-10.8859
assault▁	-10.886
Dem	-10.8862
occupation▁	-10.8865
erg	-10.8868
soundtrack▁	-10.8871
marry▁	-10.8871
load▁	-10.8872
domin	-10.8873
Assistant▁	-10.8876
Tigers▁	-10.8876
drugs▁	-10.8876
sentence▁	-10.8876
ado▁	-10.8879
Sil	-10.8881
lieutenant▁	-10.8887
jobs▁	-10.8887
ré	-10.8888
businessman▁	-10.8888
successor▁	-10.8893
Hei	-10.8893
Comm	-10.8894
bid▁	-10.8898
injuries▁	-10.8898
surgery▁	-10.8898
Edition▁	-10.8898
denied▁	-10.8898
logical▁	-10.8899
ces▁	-10.89
Thi	-10.8902
Dead▁	-10.8904
squ	-10.8905
cash▁	-10.8905
sun	-10.8905
Rico▁	-10.8907
ken	-10.8907
letting▁	-10.8907
downtown▁	-10.8908
qualifying▁	-10.8909
reign▁	-10.8914
manufacturing▁	-10.8915
10.	-10.8918
ling	-10.8918
1887▁	-10.8919
Mul	-10.8921
tools▁	-10.8921
Profile▁	-10.8922
cit	-10.8928
lad	-10.8929
Parti	-10.8929
benefit▁	-10.8932
Vel	-10.8934
Nan	-10.8934
beer▁	-10.8937
obviously▁	-10.8938
Mitchell▁	-10.8943
Call	-10.8945
frequency▁	-10.8949
underground▁	-10.895
tip▁	-10.8953
Sen	-10.8956
Technical▁	-10.896
smooth▁	-10.896
bomb▁	-10.8963
Bou	-10.8963
Type▁	-10.8966
forests▁	-10.8967
gi▁	-10.8967
oned▁	-10.8969
jan	-10.897
keys▁	-10.8971
Der	-10.8972
rell▁	-10.8973
Cel	-10.8973
rapidly▁	-10.8977
AS	-10.8978
LGBT▁	-10.8979
Od	-10.8981
obvious▁	-10.8983
supplies▁	-10.8983
ack	-10.8983
gathered▁	-10.8988
10–	-10.899
Af	-10.899
Kha	-10.899
2010	-10.8993
chu	-10.8997
unusual▁	-10.9002
press	-10.9003
channels▁	-10.9003
ting	-10.9003
Qui	-10.9004
Late▁	-10.9006
smoke▁	-10.9006
replacement▁	-10.901
eira▁	-10.9012
Bush▁	-10.9015
Kol	-10.9016
nit	-10.9016
•▁	-10.9018
cop	-10.902
boards▁	-10.9024
continuing▁	-10.9025
tribe▁	-10.9027
parliament▁	-10.9034
processes▁	-10.9034
element▁	-10.9035
backed▁	-10.9037
mad▁	-10.9042
ff▁	-10.9044
Hans▁	-10.9046
Poly	-10.9046
counties▁	-10.9046
eve▁	-10.9048
Nicholas▁	-10.9051
hil	-10.9052
ony▁	-10.9054
rod	-10.9056
matters▁	-10.9058
truly▁	-10.9059
Sky▁	-10.906
mani	-10.9065
Elementary▁	-10.9068
anth	-10.907
RS▁	-10.9071
1882▁	-10.9072
paused▁	-10.9075
Democrats▁	-10.9079
endemic▁	-10.9079
prince▁	-10.9079
Jonathan▁	-10.908
1884▁	-10.9083
fund▁	-10.9084
Additionally▁	-10.9085
Afghanistan▁	-10.9085
strongly▁	-10.9085
sted▁	-10.9088
filmed▁	-10.9091
guilty▁	-10.9091
Epi	-10.9094
heading▁	-10.9107
portrayed▁	-10.9108
jumped▁	-10.9108
motor▁	-10.9108
Tha	-10.9115
Mam	-10.9117
experiences▁	-10.9119
indigenous▁	-10.9119
squadron▁	-10.9119
feels▁	-10.9121
arrest▁	-10.9123
kat	-10.9124
Bachelor▁	-10.9125
Faculty▁	-10.9125
Standard▁	-10.9125
traveled▁	-10.9125
Paul	-10.9126
jer	-10.9127
mode▁	-10.913
eliminated▁	-10.9131
suffering▁	-10.9131
mail▁	-10.9132
asc	-10.9134
requires▁	-10.9142
Sto	-10.9143
dr▁	-10.9144
Fine▁	-10.9146
Dy	-10.9147
kov▁	-10.9148
authors▁	-10.9148
smiling▁	-10.9148
Barbara▁	-10.9148
debate▁	-10.9149
Off	-10.9149
scope▁	-10.9151
sisters▁	-10.9152
ising▁	-10.9156
Temp	-10.9157
shaking▁	-10.9161
1000▁	-10.9162
etic▁	-10.9162
pink▁	-10.9162
criticism▁	-10.9165
los▁	-10.9167
Borough▁	-10.9167
Petr	-10.9171
Record▁	-10.9173
cave▁	-10.9175
ministers▁	-10.9177
pictures▁	-10.9177
temp	-10.9178
iso	-10.918
scholar▁	-10.9183
night	-10.9184
meter▁	-10.9188
34	-10.9188
willing▁	-10.9188
Greater▁	-10.9189
Sw	-10.919
IC	-10.9191
ral▁	-10.9194
clothing▁	-10.9195
Wo	-10.9196
1861▁	-10.9198
nica▁	-10.92
poets▁	-10.9203
bones▁	-10.9206
Companies▁	-10.9206
Arabic▁	-10.9206
instance▁	-10.921
equipped▁	-10.9212
tunnel▁	-10.9212
igh	-10.9218
shi	-10.9221
dow	-10.9225
wanting▁	-10.9225
besides▁	-10.9228
popularity▁	-10.9229
personality▁	-10.9229
Warren▁	-10.9229
Fellow▁	-10.923
formations▁	-10.9231
Jerusalem▁	-10.9235
gri	-10.9238
tru	-10.9239
nov	-10.9239
audio▁	-10.924
Vancouver▁	-10.924
Islam▁	-10.9245
meets▁	-10.9245
Educational▁	-10.9246
MA	-10.9247
forever▁	-10.9248
sz	-10.9249
sang▁	-10.9254
ifying▁	-10.9255
Sav	-10.9256
appeal▁	-10.9258
Saints▁	-10.9258
bach▁	-10.9258
CA	-10.926
processing▁	-10.9264
ads▁	-10.9271
hang	-10.9275
vas	-10.9276
Gall	-10.9278
components▁	-10.9281
sudden▁	-10.9281
Indians▁	-10.9282
hunting▁	-10.9282
tar▁	-10.9283
1862▁	-10.9286
mirror▁	-10.9287
Leg	-10.929
Caribbean▁	-10.9293
moon▁	-10.9293
Classic▁	-10.9294
Lind	-10.9294
Contemporary▁	-10.9295
replacing▁	-10.9296
ati▁	-10.93
tom▁	-10.9302
ular▁	-10.9302
steam▁	-10.9302
wan	-10.9303
1940	-10.9303
Universal▁	-10.9305
celebrated▁	-10.9305
Trinity▁	-10.9305
modified▁	-10.9305
exposed▁	-10.9306
Hunter▁	-10.9309
proposal▁	-10.931
discovery▁	-10.931
ough	-10.9311
Delhi▁	-10.9311
Private▁	-10.9311
="#	-10.9312
crash▁	-10.9313
max▁	-10.9315
voting▁	-10.9322
membership▁	-10.9322
publisher▁	-10.9322
claiming▁	-10.9322
ease▁	-10.9323
Fra	-10.9324
beating▁	-10.9325
roo	-10.933
Philippine▁	-10.9334
regiment▁	-10.9334
indicate▁	-10.9335
light	-10.9335
cry▁	-10.9337
hom	-10.9337
iz▁	-10.9337
eno	-10.9339
adaptation▁	-10.934
Action▁	-10.9342
dan▁	-10.9343
Jar	-10.9343
ingham▁	-10.9343
eller▁	-10.9344
swa	-10.9345
Bul	-10.9347
Limited▁	-10.9351
Critical▁	-10.9351
gam	-10.9361
Original▁	-10.9363
ă	-10.9364
jaw▁	-10.9365
ora▁	-10.9367
riv	-10.9368
eh	-10.937
Capital▁	-10.9371
movies▁	-10.9375
column▁	-10.9381
set	-10.9381
Rangers▁	-10.9383
gang▁	-10.9386
eri	-10.9387
SI▁	-10.9389
graph▁	-10.9389
Zone▁	-10.9389
put	-10.9392
fictional▁	-10.9392
Guinea▁	-10.9393
tens	-10.9395
Hand	-10.9395
reform▁	-10.9396
sav	-10.9397
colleges▁	-10.9398
Form	-10.9399
Pil	-10.9402
fifty▁	-10.9404
roots▁	-10.9405
uncredited▁	-10.9407
landscape▁	-10.9416
slipped▁	-10.9416
Terr	-10.9416
historians▁	-10.9416
Saudi▁	-10.9417
45	-10.9424
Barry▁	-10.9426
possibility▁	-10.9428
iano▁	-10.943
anne▁	-10.9432
Release▁	-10.9436
raising▁	-10.9436
dom	-10.9439
kg▁	-10.944
46	-10.944
ori▁	-10.9441
ject	-10.9441
mmer	-10.9443
Food▁	-10.9446
illi	-10.9449
ée▁	-10.945
48	-10.9451
destroy▁	-10.9452
loaded▁	-10.9454
insul	-10.9455
AR▁	-10.9456
ours▁	-10.9458
Rat	-10.9459
infrastructure▁	-10.9463
volumes▁	-10.9464
snapped▁	-10.9469
flesh▁	-10.947
prove▁	-10.947
Nas	-10.9472
Bad	-10.9472
assembly▁	-10.9475
achieve▁	-10.9481
meetings▁	-10.9481
visiting▁	-10.9481
markets▁	-10.9482
smith▁	-10.9487
Labor▁	-10.9487
Nebraska▁	-10.9487
Seven▁	-10.9493
angel	-10.9496
peaked▁	-10.9499
=3	-10.95
rocks▁	-10.9503
aimed▁	-10.9508
losses▁	-10.9508
poverty▁	-10.9511
Collins▁	-10.9512
DJ▁	-10.9516
satellite▁	-10.9517
poems▁	-10.9517
license▁	-10.9517
flower▁	-10.9517
39	-10.952
Sat	-10.9526
Berg	-10.9528
Side▁	-10.9528
ista▁	-10.953
cent	-10.9531
abilities▁	-10.9532
Persian▁	-10.9532
boundary▁	-10.9535
hunter▁	-10.9536
ox▁	-10.9537
listening▁	-10.9541
municipalities▁	-10.9547
TS▁	-10.9548
Evans▁	-10.9548
Count▁	-10.9552
ranks▁	-10.9552
ane	-10.9552
Benjamin▁	-10.9553
forcing▁	-10.9553
stra	-10.9553
wrestling▁	-10.9559
oy▁	-10.9559
innings▁	-10.956
1881▁	-10.9563
aul	-10.9563
photo▁	-10.9567
azi	-10.957
Cook▁	-10.9572
electro	-10.9575
1863▁	-10.9581
10,000▁	-10.9583
Arena▁	-10.9585
matic▁	-10.9586
Rail▁	-10.9586
Manhattan▁	-10.9589
parliamentary▁	-10.9595
uck▁	-10.96
seek▁	-10.9605
Ian▁	-10.9606
Houses▁	-10.961
cabinet▁	-10.9613
licensed▁	-10.9613
eighth▁	-10.9614
mond▁	-10.9614
Tit	-10.9618
wood	-10.9621
Non▁	-10.9623
Kings▁	-10.9626
phe	-10.9627
news	-10.9629
outs▁	-10.9631
drinking▁	-10.9631
Din	-10.9636
boss▁	-10.9638
Gla	-10.9639
edi	-10.964
cleared▁	-10.964
hr▁	-10.9643
din	-10.9645
abad▁	-10.9646
john▁	-10.9648
к	-10.9649
Originally▁	-10.9649
relationships▁	-10.9649
indeed▁	-10.9649
medals▁	-10.965
Ot	-10.9652
rice▁	-10.9652
Cities▁	-10.9653
Weekly▁	-10.9655
chy▁	-10.9657
ira▁	-10.9657
emma▁	-10.9658
chapel▁	-10.9662
attracted▁	-10.9667
Virgin▁	-10.967
aim▁	-10.967
mrs▁	-10.9671
Site▁	-10.9671
anywhere▁	-10.9673
strip▁	-10.9673
expensive▁	-10.9673
suspended▁	-10.9673
carbon▁	-10.9674
UN▁	-10.9676
elli	-10.9679
violent▁	-10.9679
shi▁	-10.9681
Mak	-10.9683
Territory▁	-10.9685
д	-10.9685
DA▁	-10.9687
IP▁	-10.9688
seed▁	-10.9689
Bir	-10.969
Alb	-10.969
asi	-10.9692
seeking▁	-10.9692
Yale▁	-10.9693
bathroom▁	-10.9693
hot	-10.9695
Wild▁	-10.9697
dying▁	-10.9698
Socialist▁	-10.9704
Unit▁	-10.9705
https	-10.9707
Orange▁	-10.9708
Episode▁	-10.971
Peru▁	-10.9711
ocean▁	-10.9711
tea▁	-10.9712
ár	-10.9714
FF	-10.9716
fled▁	-10.9717
longest▁	-10.9717
Around▁	-10.9717
gift▁	-10.9717
conf	-10.9722
survey▁	-10.9722
White	-10.9723
lob	-10.9724
Colombia▁	-10.9728
Child▁	-10.9728
agencies▁	-10.9729
Flight▁	-10.9731
1883▁	-10.9732
artillery▁	-10.9734
involvement▁	-10.9734
Cooper▁	-10.9735
illegal▁	-10.9738
tric	-10.9739
insurance▁	-10.974
var▁	-10.9743
Recipients▁	-10.9746
Freedom▁	-10.9746
ket	-10.9747
ack▁	-10.9747
Parish▁	-10.975
championships▁	-10.9752
throne▁	-10.9754
stroke▁	-10.9754
arc	-10.9755
ago	-10.9755
panel▁	-10.9755
Commissioner▁	-10.9758
Chamber▁	-10.976
Gir	-10.9761
audi	-10.9762
Hudson▁	-10.9765
accounts▁	-10.9772
rab	-10.9774
Harrison▁	-10.9777
Systems▁	-10.9777
ray	-10.9778
Not	-10.9779
600▁	-10.978
dh	-10.978
forty▁	-10.9781
tyr	-10.9782
Sant	-10.9783
Alice▁	-10.9783
ru▁	-10.9785
capit	-10.9785
rie▁	-10.9785
enjoy▁	-10.9786
circuit▁	-10.9789
owns▁	-10.9789
Larry▁	-10.9791
SE▁	-10.9793
Cuba▁	-10.9793
Wing▁	-10.9794
Parker▁	-10.9795
Armenian▁	-10.9795
surviving▁	-10.9795
chin	-10.9798
busy▁	-10.9801
Communications▁	-10.9801
immediate▁	-10.9801
ê	-10.9801
Syn	-10.9804
Muhammad▁	-10.9807
Alaska▁	-10.9808
Bet	-10.9808
Barb	-10.9809
youngest▁	-10.9814
Terry▁	-10.9816
1870▁	-10.9816
dul	-10.9817
Draft▁	-10.9817
gram▁	-10.9817
YouTube▁	-10.982
attorney▁	-10.982
Meanwhile▁	-10.982
Jerry▁	-10.9821
Theo	-10.9821
eff	-10.9823
wind	-10.9826
Ancient▁	-10.9826
Bristol▁	-10.9826
tool▁	-10.9826
Giants▁	-10.9827
representation▁	-10.9828
advice▁	-10.9836
31	-10.984
pect	-10.9842
Clinton▁	-10.9844
helps▁	-10.9845
AT▁	-10.9848
tan▁	-10.9849
Nature▁	-10.9851
hop▁	-10.9852
Lyn	-10.9855
free	-10.9856
makeup▁	-10.9857
figured▁	-10.9857
ami	-10.9859
affiliated▁	-10.9863
voiced▁	-10.9863
Nat	-10.9864
Computer▁	-10.9869
bottle▁	-10.9869
ES▁	-10.9871
terminal▁	-10.9872
â	-10.9873
morph	-10.9875
lawyers▁	-10.9875
photography▁	-10.9875
statue▁	-10.9876
railroad▁	-10.9876
ER▁	-10.9878
AN▁	-10.9879
hero▁	-10.9881
32	-10.9882
recovered▁	-10.9883
releases▁	-10.9884
Mai	-10.9889
struggle▁	-10.9894
visitors▁	-10.9894
eva▁	-10.9895
stitu	-10.9896
TC▁	-10.9899
Vil	-10.99
tran	-10.9901
amateur▁	-10.9906
belonged▁	-10.9906
nervous▁	-10.9906
Control▁	-10.9907
describe▁	-10.9907
chase▁	-10.9912
Treaty▁	-10.9912
sentenced▁	-10.9912
och▁	-10.9913
waist▁	-10.9913
spar	-10.9916
Hawaii▁	-10.9919
martial▁	-10.9919
sized▁	-10.9919
pm▁	-10.992
Cop	-10.992
remove▁	-10.9921
1879▁	-10.9923
lots▁	-10.9923
South	-10.9925
hin	-10.9925
AN	-10.9926
definition▁	-10.9931
reaches▁	-10.9932
amo	-10.9934
pure▁	-10.9935
Policy▁	-10.9937
ör	-10.9938
ów▁	-10.9941
1878▁	-10.9941
Performance▁	-10.9943
Phoenix▁	-10.9943
1875▁	-10.9944
graphic▁	-10.9946
Phil▁	-10.9949
circumstances▁	-10.995
play	-10.9953
Bea	-10.9954
Bill	-10.9956
penalty▁	-10.9956
crimes▁	-10.9956
outer▁	-10.9957
sky	-10.9958
junction▁	-10.9959
NHL▁	-10.9961
convinced▁	-10.9962
alleged▁	-10.9962
stress▁	-10.9969
orchestra▁	-10.997
manage▁	-10.997
FI	-10.9972
Common▁	-10.9976
plastic▁	-10.9976
bow▁	-10.9977
Let▁	-10.9979
Bulgarian▁	-10.9981
ship	-10.9982
harm	-10.9983
feld▁	-10.9984
guide▁	-10.9986
grin▁	-10.9987
chemistry▁	-10.9987
Sky	-10.9991
1876▁	-10.9991
inn▁	-10.9991
competing▁	-10.9993
bot	-10.9995
Google▁	-11
SP	-11.0002
5.	-11.0005
symbol▁	-11.001
ancy▁	-11.001
biography▁	-11.0014
ür	-11.0015
life	-11.0016
Lloyd▁	-11.0018
increasingly▁	-11.0018
ender▁	-11.0019
graduating▁	-11.0025
AC	-11.0026
akh	-11.0028
influential▁	-11.0031
murdered▁	-11.0037
wished▁	-11.0045
decline▁	-11.0049
Pass	-11.0049
drafted▁	-11.005
woods▁	-11.0056
Diocese▁	-11.0056
hyper	-11.0056
assist▁	-11.0058
worn▁	-11.0058
rival▁	-11.0059
Ell	-11.0059
Pap	-11.006
ishing▁	-11.0062
turn	-11.0062
effectively▁	-11.0062
palace▁	-11.0064
rows▁	-11.0064
Las▁	-11.0069
maintenance▁	-11.0069
ratio▁	-11.0071
Kas	-11.0072
side	-11.0075
elo	-11.0075
Falls▁	-11.008
Bernard▁	-11.0083
assi	-11.0083
mp	-11.0087
Architecture▁	-11.0088
time	-11.0089
tender▁	-11.0091
zar	-11.0091
erson▁	-11.0092
43	-11.0092
ever	-11.0094
bin	-11.0094
lou	-11.0098
Beijing▁	-11.01
scientist▁	-11.01
easier▁	-11.0101
nell▁	-11.0105
Aviation▁	-11.0108
sie▁	-11.011
Rob	-11.0113
waste▁	-11.0114
August	-11.012
bishops▁	-11.0121
identify▁	-11.0126
Franc	-11.0127
Thr	-11.0135
manga▁	-11.0136
prim	-11.0137
talent▁	-11.0139
Bus	-11.0141
Jud	-11.0142
controversy▁	-11.0145
declined▁	-11.0145
leton▁	-11.0151
4.	-11.0151
territories▁	-11.0151
erie▁	-11.0152
resolution▁	-11.0152
contra	-11.0155
naked▁	-11.0156
yne▁	-11.0157
conductor▁	-11.0164
Bac	-11.0165
Rav	-11.0167
therapy▁	-11.017
domain▁	-11.0174
dancing▁	-11.0176
las	-11.0178
VI▁	-11.0179
dou	-11.018
Ari	-11.018
sleeping▁	-11.0181
scal	-11.0182
nar▁	-11.0183
fantasy▁	-11.0185
twin▁	-11.0185
upset▁	-11.0187
Rap	-11.0191
sym	-11.0193
Qa	-11.0193
demolished▁	-11.0196
couples▁	-11.0196
spell▁	-11.0198
с	-11.0199
comics▁	-11.02
Charts▁	-11.0201
document▁	-11.0202
Š	-11.0202
drum▁	-11.0202
mal▁	-11.0202
sad▁	-11.0204
nearest▁	-11.0208
Mass	-11.0213
alt	-11.0214
Athens▁	-11.0215
eyed▁	-11.0216
networks▁	-11.0221
distinguished▁	-11.0221
exists▁	-11.0225
gue	-11.0227
alia▁	-11.0227
transition▁	-11.0228
sending▁	-11.0229
passage▁	-11.023
Father▁	-11.023
Nik	-11.0232
locomotives▁	-11.024
transportation▁	-11.024
Page▁	-11.0241
stuck▁	-11.0243
spin	-11.025
jack	-11.0253
funded▁	-11.0253
Munich▁	-11.0254
Keith▁	-11.0257
alex▁	-11.0258
Friday▁	-11.0259
Unlike▁	-11.0259
gger▁	-11.0261
2.5▁	-11.0264
palm▁	-11.027
cm▁	-11.0271
Buffalo▁	-11.0273
Top	-11.0273
false▁	-11.0273
bi▁	-11.0275
donated▁	-11.0276
log▁	-11.0277
<▁	-11.0277
Population▁	-11.028
aci	-11.028
searching▁	-11.0281
disestablished▁	-11.0283
output▁	-11.0283
part	-11.0284
Mess	-11.0284
Kun	-11.0285
convicted▁	-11.0285
vampires▁	-11.0285
whereas▁	-11.0285
shares▁	-11.0286
birthday▁	-11.0286
minimum▁	-11.0286
depending▁	-11.0288
with	-11.0288
ão▁	-11.0291
absence▁	-11.0292
tel	-11.0294
.1▁	-11.0295
Roman	-11.0296
earn▁	-11.0297
bas	-11.0297
hydro	-11.0301
Neil▁	-11.0301
fer▁	-11.0306
linear▁	-11.0306
lessly▁	-11.0306
concentration▁	-11.0311
stal	-11.0312
zed▁	-11.0315
occasions▁	-11.0318
competitive▁	-11.0324
kingdom▁	-11.0324
eling▁	-11.0327
bet	-11.0328
imagine▁	-11.0328
Marvel▁	-11.0332
Herbert▁	-11.0332
memories▁	-11.0332
Jam	-11.0333
Defunct▁	-11.0337
numbered▁	-11.0337
Li▁	-11.0338
Ann	-11.0339
transmission▁	-11.0339
knee▁	-11.034
SE	-11.0341
dogs▁	-11.0343
Amsterdam▁	-11.0344
Barcelona▁	-11.0344
leather▁	-11.0344
Div	-11.0349
mart	-11.035
Cos	-11.0353
arrangement▁	-11.0356
ama▁	-11.0359
cer▁	-11.036
Branch▁	-11.0361
Environmental▁	-11.0363
expect▁	-11.0363
raw▁	-11.0364
Dick▁	-11.0365
eight	-11.0368
witch▁	-11.0369
jan▁	-11.0369
59	-11.0371
ports▁	-11.0372
abuse▁	-11.0374
afterwards▁	-11.0376
viewed▁	-11.0376
protests▁	-11.0378
alis	-11.0382
Representative▁	-11.0382
neuro	-11.0383
preserved▁	-11.0384
Hun	-11.0385
sole▁	-11.0386
bent▁	-11.0388
esh	-11.0388
lur	-11.0389
Filmography▁	-11.0389
jam	-11.0391
zi▁	-11.0392
Play▁	-11.0396
Gol	-11.04
cable▁	-11.04
1–0▁	-11.04
marketing▁	-11.0402
sponsored▁	-11.0402
platforms▁	-11.0402
rapid▁	-11.0403
gil	-11.0405
zu	-11.0408
amongst▁	-11.0409
Bobby▁	-11.0409
tically▁	-11.041
writes▁	-11.041
zy▁	-11.041
Fund▁	-11.0411
1877▁	-11.0413
=1	-11.0414
resident▁	-11.0415
journals▁	-11.0415
Vegas▁	-11.0416
By	-11.0417
annually▁	-11.0422
centers▁	-11.0423
Canal▁	-11.0425
hon	-11.0426
sheet▁	-11.0426
Costa▁	-11.0426
intense▁	-11.0428
associate▁	-11.0428
freyja▁	-11.0428
Adelaide▁	-11.0428
instrument▁	-11.043
Model▁	-11.0432
gradually▁	-11.0435
awa	-11.0435
Robin▁	-11.0437
mines▁	-11.0437
50,000▁	-11.0438
tap	-11.044
unlike▁	-11.044
Catherine▁	-11.0441
commanded▁	-11.0441
escaped▁	-11.0441
Part	-11.0445
1871▁	-11.0446
laughing▁	-11.0448
icul	-11.0448
expedition▁	-11.0448
fec	-11.045
customers▁	-11.0454
Vas	-11.046
Christ	-11.0462
arch▁	-11.0463
burst▁	-11.0463
eric▁	-11.0464
ient▁	-11.0465
useful▁	-11.0465
suitable▁	-11.0467
disc▁	-11.0468
Kenya▁	-11.0469
Gray▁	-11.0471
cost	-11.0474
Conservation▁	-11.0474
Pel	-11.0474
mus▁	-11.0475
honour▁	-11.0476
trading▁	-11.0477
sphere▁	-11.0478
Hugh▁	-11.0479
800▁	-11.0479
agu	-11.0479
Cincinnati▁	-11.0481
attributed▁	-11.0481
discussion▁	-11.0481
cheeks▁	-11.0481
tw	-11.0481
withdrew▁	-11.0481
ares▁	-11.0481
Hope▁	-11.0482
å	-11.0484
Pop▁	-11.0484
fed▁	-11.0485
fle	-11.049
fun	-11.0491
texts▁	-11.0492
clay▁	-11.0492
mere▁	-11.0493
Step	-11.0494
Tech▁	-11.0498
RA	-11.05
ques▁	-11.0505
deeply▁	-11.0507
Madison▁	-11.0507
Denver▁	-11.0507
Nation▁	-11.0509
Luis▁	-11.0511
extreme▁	-11.0513
bran	-11.0514
colors▁	-11.0515
gent▁	-11.0516
Ken▁	-11.0521
Taxa▁	-11.0521
leaf▁	-11.0523
tag▁	-11.0526
Rom	-11.0526
whilst▁	-11.0527
belonging▁	-11.0527
ruling▁	-11.0529
Nam	-11.0529
defence▁	-11.053
Jay▁	-11.053
Pun	-11.0539
organised▁	-11.054
CD	-11.054
inches▁	-11.054
suggest▁	-11.0546
rai	-11.0547
Fleet▁	-11.0548
Anti▁	-11.0549
Hebrew▁	-11.0553
suspected▁	-11.0553
Distribution▁	-11.0553
ranging▁	-11.0554
iness▁	-11.0555
considerable▁	-11.056
totally▁	-11.0561
Finals▁	-11.0563
Les	-11.0566
Election▁	-11.0566
Bad▁	-11.0567
Roberts▁	-11.0568
exit▁	-11.0568
plic	-11.0568
aux▁	-11.057
1868▁	-11.0571
teri	-11.0571
Broadcasting▁	-11.0573
clo	-11.0573
HL▁	-11.0576
Gau	-11.0577
adults▁	-11.058
completion▁	-11.058
mechanical▁	-11.058
Storm▁	-11.058
any	-11.0581
rev	-11.0585
posted▁	-11.0585
Municipal▁	-11.0586
Operations▁	-11.0587
cutting▁	-11.0588
Springs▁	-11.059
shake▁	-11.0592
Industry▁	-11.0593
partially▁	-11.0593
voices▁	-11.0593
osis▁	-11.0595
od▁	-11.0596
bond▁	-11.0599
Jacob▁	-11.0599
CC	-11.0604
Gl	-11.0604
1872▁	-11.0604
rock	-11.0606
activists▁	-11.0606
remainder▁	-11.0606
1873▁	-11.0611
Trail▁	-11.0611
destruction▁	-11.0613
BS▁	-11.0614
cap▁	-11.0615
UN	-11.0615
agh▁	-11.0616
Report▁	-11.0618
57	-11.062
frowned▁	-11.0621
Vit	-11.0622
sand	-11.0622
Anglo▁	-11.0629
Knights▁	-11.0631
ios▁	-11.0631
scared▁	-11.0632
populations▁	-11.0634
ovi	-11.0634
bling▁	-11.0635
Masters▁	-11.0639
doubles▁	-11.0639
recommended▁	-11.0639
fitted▁	-11.0639
15–	-11.0641
mos	-11.0642
estr	-11.0645
tale▁	-11.0645
Ali	-11.0646
Flo	-11.065
ums▁	-11.0651
participation▁	-11.0653
shoes▁	-11.0653
SD▁	-11.0656
Ray	-11.0659
ceiling▁	-11.0659
shri	-11.0661
raced▁	-11.0666
Southeast▁	-11.0667
AL▁	-11.0671
1867▁	-11.0671
dominated▁	-11.0675
Harold▁	-11.0675
1860▁	-11.0677
née▁	-11.0679
fighters▁	-11.068
vor	-11.068
Within▁	-11.068
Ara	-11.0682
colony▁	-11.0684
Honor▁	-11.0684
Symphony▁	-11.0686
grinned▁	-11.0686
liquid▁	-11.0687
Wall▁	-11.0687
Ltd	-11.0688
liner▁	-11.0689
fe▁	-11.0689
earning▁	-11.0689
RE	-11.0694
rog	-11.0698
considering▁	-11.0706
icus▁	-11.0707
ense▁	-11.071
Farm▁	-11.0711
pil	-11.0711
Azerbaijan▁	-11.0713
Bran	-11.0715
pitch▁	-11.0716
MP	-11.0719
eo	-11.072
Legacy▁	-11.072
exception▁	-11.072
eria▁	-11.0721
constitutional▁	-11.0723
dust▁	-11.0725
tape▁	-11.0726
departure▁	-11.0727
themes▁	-11.0728
Days▁	-11.0729
elder▁	-11.073
Viol	-11.0731
permission▁	-11.0732
nik	-11.0732
Artillery▁	-11.0733
Electric▁	-11.0734
dominant▁	-11.0735
lys	-11.0739
mol	-11.074
wee	-11.074
informed▁	-11.0743
credits▁	-11.0746
zero▁	-11.0747
Hispanic▁	-11.0747
Industrial▁	-11.0747
tested▁	-11.0749
val▁	-11.075
harder▁	-11.0751
modern	-11.0751
closure▁	-11.0752
CH	-11.0752
SU▁	-11.0753
Head	-11.0759
Dav	-11.076
Attorney▁	-11.076
festivals▁	-11.076
eligible▁	-11.076
pedi	-11.076
3,000▁	-11.076
Overall▁	-11.0761
acres▁	-11.0765
rus	-11.0766
Petersburg▁	-11.0767
balls▁	-11.0768
Market▁	-11.0771
Boo	-11.0771
experimental▁	-11.0774
Deaths▁	-11.0774
nominations▁	-11.0776
variant▁	-11.0781
wel	-11.0784
Oliver▁	-11.0785
arrow▁	-11.0786
runners▁	-11.0787
ous	-11.0791
1874▁	-11.0792
tension▁	-11.0794
fuck▁	-11.0794
hiding▁	-11.0799
ub▁	-11.0799
Ralph▁	-11.0801
Berkeley▁	-11.0801
Syria▁	-11.0801
Bengal▁	-11.0801
ices▁	-11.0802
bet▁	-11.0804
researchers▁	-11.0808
erected▁	-11.0808
shouted▁	-11.0808
let	-11.0813
Wei	-11.0817
loose▁	-11.0818
neg	-11.0823
tribute▁	-11.0823
liber	-11.0824
vo▁	-11.0826
Magic▁	-11.0827
Sierra▁	-11.0828
girlfriend▁	-11.0828
widespread▁	-11.0828
pace▁	-11.083
slave▁	-11.0835
encouraged▁	-11.0835
lowered▁	-11.0836
ceased▁	-11.0836
venue▁	-11.084
iko▁	-11.0842
Vincent▁	-11.0842
forehead▁	-11.0847
kir	-11.0847
DS▁	-11.0848
Buddhist▁	-11.0848
electricity▁	-11.0848
pushing▁	-11.0848
folded▁	-11.0848
demon▁	-11.0851
Martin	-11.0852
pra	-11.0853
dom▁	-11.0853
secured▁	-11.0855
olo▁	-11.0856
São▁	-11.0857
Som	-11.0859
1869▁	-11.086
hav	-11.0862
IT▁	-11.0862
uzz	-11.0862
generated▁	-11.0862
ently▁	-11.0862
stu	-11.0865
orange▁	-11.0866
careful▁	-11.0869
versus▁	-11.087
Roo	-11.087
Future▁	-11.0873
2–1▁	-11.0873
viv	-11.0874
Muslims▁	-11.0876
broadcasting▁	-11.0876
Delaware▁	-11.0876
*	-11.0878
Ober	-11.0878
Zu	-11.0881
Stor	-11.0881
alization▁	-11.0882
thrown▁	-11.0882
conservation▁	-11.0883
photographs▁	-11.0883
logic▁	-11.0884
Row	-11.0887
greatly▁	-11.0889
ô	-11.0889
wound▁	-11.0897
Key▁	-11.0898
ough▁	-11.0898
Hart	-11.09
aging▁	-11.0901
Guy▁	-11.0903
Voivodeship▁	-11.0903
ava▁	-11.0904
charity▁	-11.0907
Jun	-11.0909
Pakistani▁	-11.091
external▁	-11.091
sworth▁	-11.0916
cio▁	-11.0917
Fair▁	-11.0917
Mik	-11.0921
Norfolk▁	-11.0924
parent▁	-11.0925
gal▁	-11.0928
occasion▁	-11.0931
substantial▁	-11.0931
Outstanding▁	-11.0932
pun	-11.0932
lab	-11.0936
benefits▁	-11.0937
emperor▁	-11.0937
memorial▁	-11.0939
Montana▁	-11.094
phones▁	-11.0941
intersection▁	-11.0943
salt▁	-11.0944
meat▁	-11.0948
lab▁	-11.0949
placing▁	-11.095
physician▁	-11.0951
settlements▁	-11.0951
diameter▁	-11.0952
ş	-11.0952
evolution▁	-11.0953
Bulgaria▁	-11.0958
mathematics▁	-11.0958
kicked▁	-11.096
Fire	-11.0962
Stat	-11.0962
Minor▁	-11.0965
agriculture▁	-11.0965
Lam	-11.0967
shadow▁	-11.0967
sharing▁	-11.0968
miss	-11.0972
cricketer▁	-11.0972
happening▁	-11.0972
funny▁	-11.0972
Bis	-11.0973
mont	-11.0974
ache▁	-11.0975
decisions▁	-11.0979
employment▁	-11.0979
partly▁	-11.0982
cargo▁	-11.0984
contribution▁	-11.0986
Mod	-11.0991
eri▁	-11.0995
ET▁	-11.0999
Fall▁	-11.1
bridges▁	-11.1
rifle▁	-11.1
Murphy▁	-11.1006
Lou	-11.101
Kel	-11.1012
Winners▁	-11.1013
apply▁	-11.1014
Lun	-11.1017
bat▁	-11.1018
Brisbane▁	-11.102
significance▁	-11.102
44	-11.102
trapped▁	-11.1021
honors▁	-11.1021
stat	-11.1024
Dream▁	-11.1025
spaces▁	-11.1025
incidents▁	-11.1027
rarely▁	-11.1028
behalf▁	-11.1032
abroad▁	-11.1033
Pala	-11.1034
Croatia▁	-11.1034
Ottawa▁	-11.1034
Tat	-11.1035
Vermont▁	-11.1035
Congo▁	-11.1039
reportedly▁	-11.1041
commented▁	-11.1041
prop	-11.1043
Nepal▁	-11.1049
Craig▁	-11.1049
Stuart▁	-11.1049
defending▁	-11.1049
edges▁	-11.105
ignored▁	-11.1055
trem	-11.1058
merely▁	-11.1058
Lions▁	-11.1058
6:	-11.106
у	-11.1062
Number▁	-11.1062
ele▁	-11.1063
Geo	-11.1064
1866▁	-11.1068
Scientific▁	-11.1069
shield▁	-11.1069
ović▁	-11.107
Cri	-11.1074
Hoo	-11.1075
Financial▁	-11.1076
Data▁	-11.1078
kins▁	-11.1081
IC▁	-11.1084
Right▁	-11.1085
Wang▁	-11.1085
tables▁	-11.1089
controversial▁	-11.109
ink▁	-11.1092
contested▁	-11.1093
sam	-11.1096
phi	-11.1097
Small▁	-11.1099
crown▁	-11.1099
pes▁	-11.1105
greg	-11.111
governments▁	-11.1111
supports▁	-11.1111
vol▁	-11.1115
rang▁	-11.1117
Plan	-11.1121
Grace▁	-11.1122
eux▁	-11.1123
frequent▁	-11.1125
styles▁	-11.1129
owed▁	-11.1129
pit▁	-11.113
opponents▁	-11.1132
Secret▁	-11.1132
cinema▁	-11.1132
possession▁	-11.1132
adventure▁	-11.1134
exact▁	-11.1134
shopping▁	-11.1135
sens	-11.1138
Communes▁	-11.1139
Raymond▁	-11.1139
Rag	-11.1141
muttered▁	-11.1141
NC▁	-11.1142
dozen▁	-11.1147
cli	-11.1149
grip▁	-11.1151
Dennis▁	-11.1153
mixing▁	-11.1154
jury▁	-11.1154
Hindu▁	-11.1155
stops▁	-11.1158
cancelled▁	-11.116
merchant▁	-11.116
elevation▁	-11.116
glance▁	-11.1164
hn▁	-11.1167
stronger▁	-11.1167
electrical▁	-11.1167
56	-11.117
dollars▁	-11.1174
infantry▁	-11.1174
tube▁	-11.1175
jar	-11.1175
alli	-11.118
characteristics▁	-11.1181
And	-11.1185
Buck	-11.1186
ole▁	-11.1188
instrumental▁	-11.1189
dreams▁	-11.1189
jet▁	-11.1189
moral▁	-11.119
admit▁	-11.1195
lucky▁	-11.1196
Eli	-11.1196
Gur	-11.1198
250▁	-11.1201
Admiral▁	-11.1202
corn▁	-11.1203
rid▁	-11.1207
comfortable▁	-11.121
Maz	-11.1211
gods▁	-11.1211
loop▁	-11.1212
ori	-11.1212
detailed▁	-11.1213
FL▁	-11.1215
segment▁	-11.1216
2,000▁	-11.122
Bomb	-11.1223
Fil	-11.1226
intention▁	-11.123
eville▁	-11.1232
line	-11.1234
uniform▁	-11.1234
displayed▁	-11.1236
Indonesian▁	-11.1238
alcohol▁	-11.1238
ag▁	-11.1238
cried▁	-11.1238
integrated▁	-11.1238
Viv	-11.1239
vi▁	-11.124
mari	-11.1241
uh▁	-11.1244
Baptist▁	-11.1245
percussion▁	-11.1245
premiere▁	-11.1245
Events▁	-11.1245
enters▁	-11.1245
Code▁	-11.1247
55	-11.1249
vers▁	-11.125
Stanford▁	-11.1253
=4	-11.1253
vig	-11.1254
hills▁	-11.1257
beaten▁	-11.1257
connecting▁	-11.1259
recognize▁	-11.1259
Mother▁	-11.1263
Kee	-11.1264
opp	-11.1266
sculpture▁	-11.1266
remote▁	-11.1266
Butler▁	-11.1267
aj▁	-11.1268
1850▁	-11.127
corporate▁	-11.1271
photo	-11.1271
Susan▁	-11.1272
Venezuela▁	-11.1273
representatives▁	-11.1273
limits▁	-11.1274
cc	-11.1275
stand	-11.1275
sit	-11.1278
=7	-11.1279
Together▁	-11.128
monument▁	-11.128
guests▁	-11.128
bench▁	-11.1282
roy▁	-11.1283
preferred▁	-11.1285
kk	-11.1286
Source▁	-11.1287
conclusion▁	-11.1287
East	-11.129
spiritual▁	-11.1292
shower▁	-11.1292
concerts▁	-11.1294
Hard	-11.1297
cemetery▁	-11.1301
discuss▁	-11.1301
stretched▁	-11.1302
gallery▁	-11.1302
creative▁	-11.1303
badly▁	-11.1304
anime▁	-11.1305
ima▁	-11.1306
apparent▁	-11.131
till▁	-11.1311
North	-11.1311
Organ	-11.1311
clu	-11.1311
repair▁	-11.1313
yu	-11.1313
illy▁	-11.1314
Gan	-11.1315
convention▁	-11.1316
michael▁	-11.1316
Florence▁	-11.1316
regime▁	-11.1317
Byzantine▁	-11.1323
conservative▁	-11.1323
museums▁	-11.1323
read	-11.1324
Wind	-11.1326
wy	-11.1326
eck▁	-11.1327
blow▁	-11.1328
defenders▁	-11.133
typ	-11.1333
Artist▁	-11.1333
Students▁	-11.1345
EU▁	-11.1345
extent▁	-11.1346
exp	-11.1347
ont	-11.1351
emotional▁	-11.1352
obtain▁	-11.1352
blade▁	-11.1357
Economy▁	-11.1359
discussed▁	-11.1359
ph▁	-11.1363
Hall	-11.1364
argument▁	-11.1366
engineers▁	-11.1366
participants▁	-11.1366
PA	-11.1367
ama	-11.1373
Bar▁	-11.1374
Perry▁	-11.1375
pay	-11.1377
Band▁	-11.1378
Statistics▁	-11.138
tribes▁	-11.138
Helen▁	-11.1381
NE	-11.1383
=6	-11.1384
Lei	-11.1384
was	-11.1385
makers▁	-11.1386
Formula▁	-11.1388
fault▁	-11.1389
Coll	-11.1391
architectural▁	-11.1395
=2	-11.1396
Serie▁	-11.1396
may	-11.1399
tig	-11.1402
barr	-11.1402
rebuilt▁	-11.1403
ün	-11.1403
shots▁	-11.1403
Burn	-11.1406
0–	-11.1408
oh	-11.141
categories▁	-11.141
Yama	-11.1414
puls	-11.1414
RAF▁	-11.1416
coaching▁	-11.1418
mers▁	-11.1418
illness▁	-11.1418
Gene	-11.142
clar	-11.142
Key	-11.1421
Hat	-11.1422
activated▁	-11.1423
battery▁	-11.1423
keyboards▁	-11.1424
atic▁	-11.1428
stare▁	-11.143
dell▁	-11.143
enemies▁	-11.1431
funeral▁	-11.1431
expert▁	-11.1431
shan▁	-11.1433
genetic▁	-11.1434
raz	-11.1436
dismissed▁	-11.1443
restoration▁	-11.1445
Drive▁	-11.1457
Female▁	-11.1459
borders▁	-11.1461
bud	-11.1464
mun	-11.1466
literally▁	-11.1467
periods▁	-11.1467
alliance▁	-11.1467
Edwards▁	-11.1468
Jefferson▁	-11.1474
cha▁	-11.1474
touchdown▁	-11.1475
Finance▁	-11.1476
Leeds▁	-11.1476
Angel▁	-11.1478
Pon	-11.1481
ale	-11.1482
ith▁	-11.1483
Slav	-11.1486
ales▁	-11.1487
SL▁	-11.1488
ñ	-11.149
Fen	-11.1493
vertical▁	-11.1497
ala	-11.1499
call	-11.15
е	-11.1502
acoustic▁	-11.1503
civilian▁	-11.1504
graph	-11.1505
green	-11.1506
rak	-11.1507
eats▁	-11.151
Rogers▁	-11.151
victim▁	-11.151
playoffs▁	-11.1511
hips▁	-11.1514
peoples▁	-11.1518
lunch▁	-11.1518
iah▁	-11.1519
erton▁	-11.1521
Cab	-11.1523
partners▁	-11.1525
steady▁	-11.1525
solar▁	-11.1525
referring▁	-11.1525
в	-11.1526
welcome▁	-11.1527
colored▁	-11.1527
Cher	-11.1528
relocated▁	-11.1528
Watson▁	-11.1528
elia▁	-11.1529
izes▁	-11.1529
struggled▁	-11.1532
indicates▁	-11.1533
Kl	-11.1538
SM▁	-11.1538
mates▁	-11.1542
Eg	-11.1546
sion	-11.1548
cub	-11.155
ees▁	-11.1554
ups▁	-11.1554
eda▁	-11.1556
submarine▁	-11.1557
happens▁	-11.1562
Anglican▁	-11.1562
RA▁	-11.1562
tl	-11.1563
Commons▁	-11.1563
Jos	-11.1564
operational▁	-11.1569
fre	-11.157
ī	-11.1572
wider▁	-11.1573
Tommy▁	-11.1574
Corn	-11.1575
relevant▁	-11.1576
options▁	-11.1581
Kr	-11.1581
trop	-11.1581
CR▁	-11.1581
twisted▁	-11.1584
demo	-11.1584
pag	-11.1589
Economics▁	-11.1591
advertising▁	-11.1591
Peninsula▁	-11.1591
tenure▁	-11.1593
hated▁	-11.1593
emigrants▁	-11.1594
vast▁	-11.1595
angel▁	-11.1595
isolated▁	-11.1598
athlete▁	-11.1598
Flying▁	-11.1599
nod▁	-11.1599
pants▁	-11.16
luck▁	-11.1601
asleep▁	-11.1602
ault▁	-11.1602
Nav	-11.1602
allies▁	-11.1604
duo▁	-11.1605
jur	-11.1605
lowest▁	-11.1606
awareness▁	-11.1606
Kre	-11.1607
trap▁	-11.1609
volleyball▁	-11.1613
bow	-11.1613
grand	-11.1614
lateral▁	-11.162
sur▁	-11.1621
atr	-11.1621
illo▁	-11.1624
Rod	-11.1625
Higher▁	-11.1625
Id	-11.1626
excellent▁	-11.1628
killer▁	-11.1634
Magn	-11.1634
trials▁	-11.1634
percentage▁	-11.1635
clinical▁	-11.1635
Wel	-11.1636
editions▁	-11.1637
ib▁	-11.1637
drummer▁	-11.1642
traded▁	-11.1642
Rhode▁	-11.1645
lap	-11.1646
beth▁	-11.1646
photographer▁	-11.165
pregnant▁	-11.165
principles▁	-11.165
leaning▁	-11.1651
latest▁	-11.1651
heim▁	-11.1652
Apple▁	-11.1654
thinks▁	-11.1656
cup	-11.1656
т	-11.1657
Auckland▁	-11.1657
rushed▁	-11.1658
Frank	-11.1661
biological▁	-11.1661
reporter▁	-11.1661
Coach▁	-11.1662
attending▁	-11.1666
farmers▁	-11.1672
pa▁	-11.1678
buses▁	-11.1678
component▁	-11.1679
speaker▁	-11.1679
just	-11.1684
ethan▁	-11.1689
tend▁	-11.169
aga▁	-11.1692
Abbey▁	-11.1695
Prem	-11.1695
publicly▁	-11.1697
knocked▁	-11.1697
Exchange▁	-11.1699
connections▁	-11.1702
exclusive▁	-11.1702
mechanism▁	-11.1702
phrase▁	-11.1702
Syrian▁	-11.1702
Lea	-11.1702
universe▁	-11.1706
yt	-11.1708
Revival▁	-11.1709
Mason▁	-11.1709
hn	-11.1712
teach▁	-11.1713
м	-11.1716
ander	-11.1717
120▁	-11.1718
ino	-11.1722
Germans▁	-11.1722
bars▁	-11.1724
Steven▁	-11.1726
mans▁	-11.1726
Horse▁	-11.1727
Jacques▁	-11.1731
opportunities▁	-11.1731
qualify▁	-11.1731
SP▁	-11.1731
sailed▁	-11.1732
Friends▁	-11.1732
comfort▁	-11.1733
Rick▁	-11.1734
Luke▁	-11.1735
[	-11.1735
buck	-11.1736
beam▁	-11.1738
gardens▁	-11.1739
brook▁	-11.174
Wolf▁	-11.1743
gy▁	-11.1745
atta	-11.1746
Campaign▁	-11.1746
gaining▁	-11.1746
Aircraft▁	-11.1747
adam▁	-11.1751
ín▁	-11.1752
Until▁	-11.1754
Phillips▁	-11.1755
forgotten▁	-11.1755
forwards▁	-11.1755
fee▁	-11.1757
otic▁	-11.1758
Tun	-11.1759
sung▁	-11.176
climbed▁	-11.1761
assisted▁	-11.1761
fish	-11.1762
Roll	-11.1762
Ind	-11.1764
gin	-11.1765
ichi▁	-11.1766
delivery▁	-11.1769
ninth▁	-11.177
bite▁	-11.1771
Single▁	-11.1771
berry▁	-11.1772
his	-11.1774
terr	-11.1775
mc	-11.1776
crack	-11.1777
muscle▁	-11.1777
CP▁	-11.1777
Parks▁	-11.1778
CB	-11.1782
thro	-11.1785
AF▁	-11.1787
Pl	-11.1789
gie▁	-11.1791
operator▁	-11.1792
mand	-11.1792
pose▁	-11.1795
Bag	-11.1796
connect▁	-11.1798
distant▁	-11.1799
Student▁	-11.1799
Are▁	-11.1799
Venice▁	-11.1802
-2	-11.1804
mistake▁	-11.1806
tournaments▁	-11.1813
Shel	-11.1815
lick▁	-11.1815
Eddie▁	-11.1816
sigh▁	-11.1817
Productions▁	-11.1821
produces▁	-11.1821
deeper▁	-11.1821
Chapter▁	-11.1822
bed	-11.1828
essential▁	-11.1828
Independence▁	-11.1829
Wol	-11.183
tho	-11.1832
legislative▁	-11.1836
Instead▁	-11.1837
ea▁	-11.1838
ía▁	-11.184
lot	-11.1843
jake▁	-11.1843
sing	-11.1843
Writing▁	-11.1844
inter▁	-11.1844
eb▁	-11.1844
Gilbert▁	-11.1844
franc	-11.1847
chy	-11.185
FK▁	-11.185
holes▁	-11.1852
Dragon▁	-11.1856
Fourth▁	-11.1856
mood▁	-11.1858
confidence▁	-11.1859
relation▁	-11.186
fan	-11.1862
belief▁	-11.1864
opponent▁	-11.1866
organisations▁	-11.1866
practical▁	-11.1867
Hea	-11.187
plates▁	-11.187
cen	-11.1874
ann▁	-11.1874
Car▁	-11.1875
Box▁	-11.1875
oli▁	-11.1876
fal	-11.1876
Circuit▁	-11.1881
Danny▁	-11.1883
ingen▁	-11.1884
MD▁	-11.1885
efficient▁	-11.1889
summary▁	-11.1889
Shortly▁	-11.189
lied▁	-11.1891
tanks▁	-11.1892
internet▁	-11.1893
urg	-11.1893
cent▁	-11.1894
bases▁	-11.1894
completing▁	-11.1896
patterns▁	-11.1896
Fur	-11.1899
FF▁	-11.1901
mann	-11.1903
attempting▁	-11.1904
eth▁	-11.1909
flo	-11.1909
Et	-11.1911
accessible▁	-11.1912
provinces▁	-11.1912
machines▁	-11.1912
perfectly▁	-11.1912
rises▁	-11.1913
maps▁	-11.1918
Additional▁	-11.1919
Annual▁	-11.1919
Bak	-11.192
Hau	-11.1922
throwing▁	-11.1922
root▁	-11.1923
Swa	-11.1924
serial▁	-11.1924
ania▁	-11.1925
tec	-11.1926
wondering▁	-11.1927
fairly▁	-11.1929
wai	-11.1934
toured▁	-11.1934
jeans▁	-11.1937
ott	-11.1938
affair▁	-11.194
Rud	-11.1941
Next▁	-11.1942
breaks▁	-11.1944
Greg▁	-11.1945
winds▁	-11.1947
Sche	-11.1948
portrait▁	-11.195
venture▁	-11.1951
Arnold▁	-11.1952
Chal	-11.1953
emotions▁	-11.1954
couch▁	-11.1955
eye	-11.1955
gel▁	-11.1957
keeper▁	-11.1957
treaty▁	-11.1957
Actor▁	-11.1957
james▁	-11.1958
Allied▁	-11.1959
awa▁	-11.196
Drama▁	-11.196
aud▁	-11.1961
defend▁	-11.1962
Hum	-11.1963
instantly▁	-11.1965
gauge▁	-11.1965
Sox▁	-11.1967
Ton	-11.1968
motor	-11.1971
characterized▁	-11.1973
biology▁	-11.1973
Tyr	-11.1973
Manuel▁	-11.1974
Cast	-11.1976
Tru	-11.198
worker▁	-11.1981
lings▁	-11.1981
Delta▁	-11.1982
supporters▁	-11.1988
Hill	-11.1989
evolved▁	-11.199
locally▁	-11.199
establishing▁	-11.1995
decides▁	-11.1996
punk▁	-11.1999
ador	-11.2002
cream▁	-11.2003
Sullivan▁	-11.2003
oth	-11.2006
slaves▁	-11.2007
eggs▁	-11.2008
ila▁	-11.2009
CO▁	-11.201
Meta	-11.2012
Prim	-11.2013
break	-11.2014
ongoing▁	-11.2015
Horn	-11.2017
Fish▁	-11.2017
exercise▁	-11.2018
LC▁	-11.202
staying▁	-11.202
yg	-11.202
bare▁	-11.202
pee	-11.2022
CE	-11.2023
Had	-11.2024
flat	-11.2029
ovich▁	-11.203
sessions▁	-11.2033
yd	-11.2037
Dou	-11.204
Baby▁	-11.2044
α	-11.2046
Lock	-11.2047
inaugural▁	-11.2049
conventional▁	-11.2057
Protection▁	-11.2057
AL	-11.206
Along▁	-11.2061
End	-11.2064
Intelligence▁	-11.2064
Schedule▁	-11.2064
initiated▁	-11.2064
Bour	-11.2064
Christianity▁	-11.2065
standings▁	-11.2065
interrupted▁	-11.2071
new	-11.2074
2.0▁	-11.2079
iff▁	-11.208
deployed▁	-11.208
coins▁	-11.208
tha	-11.208
sup	-11.2083
solutions▁	-11.2087
suburb▁	-11.2087
lock	-11.2088
Airlines▁	-11.2089
sugar▁	-11.2089
½▁	-11.2092
Pac	-11.2094
constitution▁	-11.2095
Web▁	-11.2095
assets▁	-11.2096
Philosophy▁	-11.2097
leagues▁	-11.2097
bonus▁	-11.21
san▁	-11.2103
58	-11.2104
astic▁	-11.2104
Prof	-11.2104
Tab	-11.2104
Gru	-11.2106
presentation▁	-11.2107
Mr▁	-11.2108
mud▁	-11.2109
jason▁	-11.2112
voters▁	-11.2112
ranges▁	-11.2112
dock▁	-11.2114
tica▁	-11.2117
touring▁	-11.2118
Wellington▁	-11.2119
ris▁	-11.2119
Movie▁	-11.2119
holy▁	-11.212
honorary▁	-11.2126
Lebanon▁	-11.2126
Agriculture▁	-11.2126
organic▁	-11.2126
breakfast▁	-11.2126
54	-11.2128
Latino▁	-11.2128
uri▁	-11.2132
dean▁	-11.2133
regulations▁	-11.2134
Winner▁	-11.2134
cuts▁	-11.2135
Bah	-11.214
Nigerian▁	-11.2141
photos▁	-11.2142
residing▁	-11.2143
kn	-11.2144
partial▁	-11.2145
Mass▁	-11.2146
automatic▁	-11.215
Archbishop▁	-11.215
TV	-11.2151
pitched▁	-11.2151
treat▁	-11.2152
Grove▁	-11.2154
fate▁	-11.2154
owski▁	-11.2155
Idaho▁	-11.2157
sensitive▁	-11.2157
subsidiary▁	-11.2157
Article▁	-11.2157
regard▁	-11.2158
topics▁	-11.2158
Thai▁	-11.216
gap▁	-11.2161
kills▁	-11.2161
rum▁	-11.2168
tract	-11.2171
respond▁	-11.2172
puts▁	-11.2174
cock▁	-11.2176
rat▁	-11.2178
Pic	-11.2178
boyfriend▁	-11.2181
pressing▁	-11.2182
rings▁	-11.2183
és▁	-11.2186
identical▁	-11.2188
files▁	-11.2191
bour	-11.2194
god	-11.2195
Tennis▁	-11.2196
show	-11.2198
iron	-11.2198
Cruz▁	-11.2198
Ah	-11.22
thesis▁	-11.2201
Having▁	-11.2201
button▁	-11.2201
ș	-11.2204
Guardian▁	-11.2204
Eng	-11.2205
Unincorporated▁	-11.2205
Moh	-11.2208
violin▁	-11.2208
court	-11.2209
Milwaukee▁	-11.2212
requested▁	-11.2212
nam	-11.2212
Pedro▁	-11.2212
Jose▁	-11.2216
atori	-11.2218
gear▁	-11.2218
rod▁	-11.2219
1848▁	-11.2219
Secondary▁	-11.222
ero	-11.222
RO	-11.222
Golf▁	-11.222
Lip	-11.2221
merger▁	-11.2223
Ou	-11.2223
milk▁	-11.2226
1857▁	-11.2226
cord	-11.2227
hab	-11.2227
spotted▁	-11.2227
Que	-11.2227
Competition▁	-11.2228
Arabia▁	-11.2228
fires▁	-11.223
Gregory▁	-11.223
cloud▁	-11.2231
lav	-11.2234
Blan	-11.2235
rhythm▁	-11.2235
wealth▁	-11.2235
Ron	-11.2235
jacket▁	-11.2237
grows▁	-11.2243
implemented▁	-11.2243
Mobile▁	-11.2243
eus▁	-11.2243
spin▁	-11.2246
PhD▁	-11.2248
smart▁	-11.2248
1859▁	-11.2249
Friedrich▁	-11.2251
Sang	-11.2253
Draw▁	-11.2254
mic▁	-11.2257
eldest▁	-11.2259
golf▁	-11.2259
Study▁	-11.2262
opens▁	-11.2263
david▁	-11.2264
talks▁	-11.2266
recipient▁	-11.2266
elsewhere▁	-11.2266
Fellows▁	-11.2266
adi	-11.2267
dragon▁	-11.2267
Newcastle▁	-11.2275
tori	-11.2279
sufficient▁	-11.2282
Republicans▁	-11.2282
believes▁	-11.2282
initiative▁	-11.2282
bits▁	-11.2283
gates▁	-11.2285
AM	-11.2285
Voice▁	-11.2287
ware▁	-11.2287
ordin	-11.2287
usage▁	-11.2289
rr	-11.229
atmosphere▁	-11.229
boundaries▁	-11.229
dual▁	-11.2291
Ghana▁	-11.2291
Pop	-11.2293
Dame▁	-11.2295
wat	-11.2295
imb	-11.2296
debt▁	-11.2298
Renaissance▁	-11.2298
paint▁	-11.2298
Ivan▁	-11.2298
Microsoft▁	-11.2298
finance▁	-11.2299
Such▁	-11.2303
Chair▁	-11.2303
SC	-11.2304
1855▁	-11.2306
muscles▁	-11.2306
Range▁	-11.2306
enburg▁	-11.2307
chess▁	-11.2309
Op▁	-11.2309
Ball▁	-11.2309
fold▁	-11.2313
diseases▁	-11.2314
McG	-11.2314
eni	-11.2317
geni	-11.2317
Warsaw▁	-11.232
itz	-11.2321
Get▁	-11.2322
tab	-11.2323
16–	-11.2326
WA▁	-11.2326
hardly▁	-11.2327
Price▁	-11.2327
Love	-11.2328
Whi	-11.2329
involves▁	-11.2329
Um	-11.233
Scotia▁	-11.2331
Soc	-11.2332
pla	-11.2333
Sign	-11.2334
planted▁	-11.2335
High	-11.2336
economics▁	-11.2337
Joint▁	-11.2337
walks▁	-11.2338
ref	-11.234
Fort	-11.2342
ott▁	-11.2343
assists▁	-11.2344
pointing▁	-11.2345
respective▁	-11.2345
traveling▁	-11.2345
decorated▁	-11.2345
Deb	-11.2349
pic	-11.2349
Fighter▁	-11.2353
rope▁	-11.2354
rou	-11.2357
productions▁	-11.2361
switched▁	-11.2361
ó▁	-11.2364
Down	-11.2367
confusion▁	-11.2372
express▁	-11.2374
ables▁	-11.2376
aqu	-11.2376
creature▁	-11.2377
Clarke▁	-11.2378
bu▁	-11.2379
Cross	-11.238
ugh▁	-11.238
prints▁	-11.2384
aboard▁	-11.2385
settle▁	-11.2385
Nag	-11.2385
Cant	-11.2386
Neo	-11.2386
diverse▁	-11.239
tha▁	-11.239
Nashville▁	-11.2393
terrible▁	-11.2393
anda▁	-11.2393
ordinary▁	-11.2394
enko▁	-11.2395
managing▁	-11.2402
tun	-11.2404
grandson▁	-11.2405
wire▁	-11.2405
lakes▁	-11.2406
special	-11.2407
holiday▁	-11.2409
magnetic▁	-11.2409
Sony▁	-11.2409
itu	-11.2409
counted▁	-11.241
Leo▁	-11.241
detail▁	-11.241
mix	-11.241
apo	-11.2413
ddle▁	-11.2414
tile▁	-11.2415
Fol	-11.2417
illustrated▁	-11.2417
narrative▁	-11.2417
substitute▁	-11.2417
Harvey▁	-11.2417
lon	-11.2422
panic▁	-11.2423
retail▁	-11.2426
nobody▁	-11.2429
lover▁	-11.243
Democrat▁	-11.2433
Poetry▁	-11.2433
continuous▁	-11.2433
Maj	-11.2436
rip	-11.2436
tag	-11.2437
88	-11.2439
onian▁	-11.2441
Villa	-11.2444
cod	-11.2445
11–	-11.2445
unincorporated▁	-11.2445
Shah▁	-11.2445
desert▁	-11.2446
Mang	-11.2448
Initially▁	-11.2449
compound▁	-11.2449
oria▁	-11.2452
Run	-11.2455
Maurice▁	-11.2458
hitting▁	-11.246
Oscar▁	-11.2462
restricted▁	-11.2465
nights▁	-11.2465
rect	-11.2466
Ath	-11.2467
Sheffield▁	-11.2473
battalion▁	-11.2473
manufactured▁	-11.2473
ON▁	-11.2473
novelist▁	-11.2473
ghost▁	-11.2476
Much▁	-11.2477
uma▁	-11.2478
Chan	-11.2478
count	-11.248
arrive▁	-11.2482
Sul	-11.2486
enforcement▁	-11.2489
bac	-11.2489
banned▁	-11.249
checked▁	-11.249
grandmother▁	-11.249
servant▁	-11.2491
Kot	-11.2492
3.5▁	-11.2492
ente▁	-11.2494
settlers▁	-11.2497
speakers▁	-11.2497
gall	-11.2498
Ala	-11.2498
78	-11.2499
gle	-11.2499
Jay	-11.2499
cattle▁	-11.2505
Gabriel▁	-11.2505
rel	-11.2509
outbreak▁	-11.251
án	-11.2514
Fiction▁	-11.2514
Pont	-11.2515
bad	-11.2515
shire▁	-11.2515
ashi▁	-11.2516
terminus▁	-11.2517
grab▁	-11.2518
vent▁	-11.252
tsu	-11.2521
Confederate▁	-11.2521
Kerala▁	-11.2521
Leader▁	-11.2522
graphics▁	-11.253
lag	-11.2531
atter	-11.2531
Chapel▁	-11.2531
Hindi▁	-11.2534
sat	-11.2535
Wilhelm▁	-11.2537
Abu▁	-11.2537
cabin▁	-11.2539
carp	-11.254
sect	-11.2542
shops▁	-11.2543
Brunswick▁	-11.2545
Regular▁	-11.2545
Pul	-11.2546
cooperation▁	-11.2547
breast▁	-11.255
viewing▁	-11.2551
absolutely▁	-11.2553
ava	-11.2555
vy▁	-11.2556
lia▁	-11.2559
Pad	-11.256
slide▁	-11.2562
Leonard▁	-11.2562
flav	-11.2566
margin▁	-11.2567
cata	-11.2567
rib	-11.2568
Commerce▁	-11.2569
Eagles▁	-11.2569
teen▁	-11.2569
Rob▁	-11.257
prey▁	-11.2572
scores▁	-11.2574
playoff▁	-11.2575
pas	-11.2579
fic	-11.2579
Kom	-11.258
reviewed▁	-11.2582
ather	-11.2585
rays▁	-11.2585
asp	-11.2585
Climate▁	-11.2586
flash▁	-11.2586
Mut	-11.2591
monthly▁	-11.2594
Sak	-11.2598
MI	-11.2598
Sus	-11.2599
curve▁	-11.2599
Tai	-11.2599
VII▁	-11.26
Pea	-11.2601
CF▁	-11.2603
Sl	-11.2605
sample▁	-11.2606
Jer	-11.2607
Grey▁	-11.2608
affect▁	-11.261
collapsed▁	-11.261
competitors▁	-11.261
manufacturer▁	-11.261
Calv	-11.261
lighting▁	-11.2614
eld	-11.2616
loc	-11.2617
Meg	-11.2618
Saskatchewan▁	-11.2618
Blood▁	-11.2619
76	-11.2621
human	-11.2621
rowing▁	-11.2623
æ	-11.2623
concerning▁	-11.2626
ord	-11.2628
Morning▁	-11.263
chal	-11.263
Bud	-11.263
paying▁	-11.2632
crying▁	-11.2632
Bird▁	-11.2633
mia▁	-11.2634
eer▁	-11.2636
honey▁	-11.2636
animation▁	-11.2637
locks▁	-11.2639
Burg	-11.264
scholarship▁	-11.2642
crypt	-11.2644
visits▁	-11.2645
laughter▁	-11.2648
Gy	-11.265
recognised▁	-11.2651
moni	-11.2652
esses▁	-11.2652
cont	-11.2652
spots▁	-11.2653
counts▁	-11.2655
Cold▁	-11.2656
mini▁	-11.2657
had	-11.2658
ci▁	-11.2658
yang▁	-11.266
Plan▁	-11.2661
Leon	-11.2662
Ridge▁	-11.2664
patrol▁	-11.2667
mike▁	-11.2667
originated▁	-11.2668
hau	-11.267
Holland▁	-11.2674
coalition▁	-11.2675
proteins▁	-11.2676
Pres	-11.2676
hydr	-11.2676
reads▁	-11.2677
Multi	-11.2678
Marc	-11.2679
SI	-11.268
Run▁	-11.2681
priests▁	-11.2683
pitcher▁	-11.2684
argue▁	-11.2684
1.2▁	-11.2685
gir	-11.2687
Xi	-11.2688
Taxonomy▁	-11.2691
legend▁	-11.2693
Wai	-11.2694
inning▁	-11.2694
Def	-11.2696
uli	-11.2699
Princeton▁	-11.27
ky	-11.2703
citing▁	-11.2704
aero	-11.2705
housed▁	-11.2706
Vladimir▁	-11.2708
submitted▁	-11.2708
resumed▁	-11.271
crosses▁	-11.2712
Patt	-11.2713
Fon	-11.2714
insisted▁	-11.2716
Commercial▁	-11.2718
Northwest▁	-11.2718
wealthy▁	-11.2724
Ross	-11.2724
coll	-11.2725
mess▁	-11.2726
kh▁	-11.2726
metric▁	-11.2727
Pay	-11.2728
oro▁	-11.2728
Lav	-11.273
jail▁	-11.2732
nephew▁	-11.2732
reduction▁	-11.2732
empire▁	-11.2732
ID▁	-11.2733
LA	-11.2733
2/	-11.2736
Miss	-11.2737
Villa▁	-11.2738
ét	-11.2739
Oc	-11.2739
stock	-11.2739
Encyclopedia▁	-11.2741
Bosnia▁	-11.2741
Chil	-11.2744
Where▁	-11.2744
tia▁	-11.2747
waved▁	-11.2755
Serv	-11.2757
Hughes▁	-11.2757
Somerset▁	-11.2757
valuable▁	-11.2757
legacy▁	-11.2757
See	-11.2758
53	-11.276
med	-11.2761
trick▁	-11.2761
tours▁	-11.2761
radar▁	-11.2762
lott	-11.2762
firing▁	-11.2763
eman▁	-11.2769
extra	-11.277
Soul▁	-11.2772
Soon▁	-11.2772
answers▁	-11.2774
thriller▁	-11.2774
1.1▁	-11.2776
Lat	-11.2776
increases▁	-11.2782
4,000▁	-11.2782
rent▁	-11.2782
Legal▁	-11.2783
holder▁	-11.2783
VIII▁	-11.2783
inus▁	-11.2786
ME	-11.2788
camps▁	-11.279
sequel▁	-11.279
Reading▁	-11.279
bie▁	-11.2792
revenue▁	-11.2795
Esp	-11.2796
Sad	-11.2802
1854▁	-11.2806
arriving▁	-11.2807
minority▁	-11.2807
River	-11.2808
soap▁	-11.2808
Revolutionary▁	-11.2809
reminded▁	-11.2811
Fictional▁	-11.2815
attractions▁	-11.2815
consistent▁	-11.2815
Diamond▁	-11.2815
NO	-11.2815
Wildlife▁	-11.2818
pyr	-11.2819
tac	-11.282
Pot	-11.282
Nancy▁	-11.2822
ER	-11.2823
lem	-11.2824
Mau	-11.2826
Based▁	-11.2826
Sean▁	-11.2826
olog	-11.2827
ferr	-11.2828
Fan	-11.2828
1858▁	-11.283
Christians▁	-11.283
Deep▁	-11.2831
Gamb	-11.2831
66	-11.2831
dispute▁	-11.2832
-3▁	-11.2832
orum▁	-11.2834
Total▁	-11.2836
breath	-11.2836
Every▁	-11.2838
Joan▁	-11.284
doorway▁	-11.2843
Ai	-11.2845
dot	-11.2846
describing▁	-11.2848
manufacturers▁	-11.2848
midfielders▁	-11.2848
11.	-11.285
interviews▁	-11.2851
uj	-11.2852
belong▁	-11.2854
glu	-11.2857
Environment▁	-11.2857
screamed▁	-11.2857
traditions▁	-11.2857
weird▁	-11.2857
database▁	-11.2857
rubbed▁	-11.2858
national	-11.2859
Grand	-11.286
adh	-11.2863
exclusively▁	-11.2865
bearing▁	-11.2865
debuts▁	-11.2865
ticket▁	-11.2865
esi	-11.2867
school	-11.2867
RT▁	-11.2873
accurate▁	-11.2873
simultaneously▁	-11.2873
68	-11.2873
switch▁	-11.2873
berg	-11.2874
basin▁	-11.2877
bay	-11.2878
Kill	-11.2879
Prague▁	-11.2882
Methodist▁	-11.2882
dear▁	-11.2884
Ple	-11.2884
grass	-11.2884
vul	-11.2886
ms	-11.2892
Lakes▁	-11.2893
Ground▁	-11.2899
stolen▁	-11.2901
ley	-11.2903
1852▁	-11.2906
Abraham▁	-11.2907
explains▁	-11.2908
tak	-11.2912
Carl	-11.2913
Full▁	-11.2915
pairs▁	-11.2915
inspiration▁	-11.2915
Filipino▁	-11.2915
monster▁	-11.2919
focuses▁	-11.2924
incumbent▁	-11.2924
suppose▁	-11.2924
bold▁	-11.2926
nickname▁	-11.2926
Workers▁	-11.2927
hallway▁	-11.2927
oriented▁	-11.2928
yr▁	-11.2929
Law	-11.2933
conversion▁	-11.2934
Sum	-11.2939
Laura▁	-11.294
ruler▁	-11.2941
sbury▁	-11.2945
×▁	-11.2945
outstanding▁	-11.2946
printing▁	-11.2946
Home	-11.295
random▁	-11.295
Merit▁	-11.2952
kit	-11.2953
egg▁	-11.2953
Ful	-11.2956
bowl▁	-11.2957
arrangements▁	-11.2957
closest▁	-11.2957
principle▁	-11.2958
ario▁	-11.296
styl	-11.296
Hus	-11.2963
dependent▁	-11.2964
snow	-11.2964
expand▁	-11.2965
Individual▁	-11.2966
chant	-11.2966
corn	-11.2968
rang	-11.297
Cand	-11.297
är	-11.2972
overseas▁	-11.2974
ote▁	-11.2976
boxing▁	-11.2977
cosm	-11.2978
pit	-11.2981
Tol	-11.2981
reveal▁	-11.2982
carrier▁	-11.2983
payment▁	-11.2983
fat	-11.2986
Derby▁	-11.2988
Otto▁	-11.2988
42	-11.2988
Was	-11.2989
harm▁	-11.299
Bene	-11.299
pursue▁	-11.2991
reveals▁	-11.2991
blind▁	-11.2991
alternate▁	-11.2991
psycho	-11.2991
Grammy▁	-11.2992
angu	-11.2992
Essex▁	-11.2993
Wells▁	-11.2993
Gul	-11.2997
craft	-11.2998
sent	-11.2999
compositions▁	-11.3003
siege▁	-11.3008
tends▁	-11.3009
Bus▁	-11.3012
error▁	-11.3016
bak	-11.3019
François▁	-11.3025
constituencies▁	-11.3025
metropolitan▁	-11.3025
amazing▁	-11.3025
Hamburg▁	-11.3026
Machine▁	-11.3026
perspective▁	-11.3033
100	-11.3036
NA▁	-11.3039
División▁	-11.3042
explanation▁	-11.3042
implementation▁	-11.3042
dealing▁	-11.3042
prepare▁	-11.3042
Spo	-11.3042
tum	-11.3043
bloody▁	-11.3048
Musicians▁	-11.3051
uch▁	-11.3052
impressed▁	-11.3053
Columbus▁	-11.3053
pet▁	-11.3056
grades▁	-11.3058
doctors▁	-11.3059
Gothic▁	-11.3059
Sec	-11.3061
ament	-11.3061
Ltd▁	-11.3065
Paulo▁	-11.3066
17–	-11.3066
person	-11.3067
inherited▁	-11.3067
package▁	-11.3067
purple▁	-11.3067
Sultan▁	-11.3067
stability▁	-11.3074
missile▁	-11.3076
hunt▁	-11.3077
ripped▁	-11.3078
än	-11.3078
SO	-11.308
wer▁	-11.3081
flood▁	-11.3081
measured▁	-11.3084
…▁	-11.3084
87	-11.3085
Fitz	-11.3085
defended▁	-11.3086
bigger▁	-11.3086
riff	-11.3088
USS▁	-11.3091
Michel▁	-11.3092
Cour	-11.3092
rh	-11.3092
Academic▁	-11.3093
Facebook▁	-11.3093
Therefore▁	-11.3093
roster▁	-11.3093
Sig	-11.3094
→▁	-11.3095
gel	-11.3095
recalled▁	-11.3096
Hon	-11.3096
origins▁	-11.3098
friendship▁	-11.3101
Semi	-11.3104
sp▁	-11.3106
scap	-11.3107
OC▁	-11.3109
Distinguished▁	-11.311
Railways▁	-11.311
Vir	-11.3111
bel▁	-11.3111
ovo▁	-11.3113
ros▁	-11.3115
thor	-11.3117
1849▁	-11.3117
Engineers▁	-11.3118
execution▁	-11.3118
Teams▁	-11.3118
filming▁	-11.3119
ases▁	-11.3119
lung▁	-11.3122
kel▁	-11.3122
kick	-11.3125
Net	-11.3127
anus▁	-11.3128
lean▁	-11.3128
Those▁	-11.3128
interpretation▁	-11.3129
Room▁	-11.3131
cali	-11.3132
rounded▁	-11.3132
Marc▁	-11.3132
Mario▁	-11.3135
indic	-11.3135
exhibited▁	-11.3135
favour▁	-11.3135
mystery▁	-11.3136
Glen	-11.3136
Manager▁	-11.3136
kate▁	-11.3141
fol	-11.3144
belongs▁	-11.3144
corresponding▁	-11.3144
Celtic▁	-11.3145
Churches▁	-11.3145
immigrants▁	-11.3145
Saf	-11.3146
rust	-11.3147
Sz	-11.315
Kai	-11.3151
Gill	-11.3151
flex	-11.3151
Kle	-11.3152
Amendment▁	-11.3153
Wallace▁	-11.3153
hence▁	-11.3155
posts▁	-11.3157
ulu▁	-11.316
discover▁	-11.3161
Cardinals▁	-11.3161
vest	-11.3162
kon	-11.3166
Dr▁	-11.3167
bull	-11.3169
resignation▁	-11.317
borg▁	-11.317
metr	-11.3172
Py	-11.3172
Archive▁	-11.3173
casting▁	-11.3175
get	-11.3176
Vic	-11.3178
Palestine▁	-11.3178
disaster▁	-11.318
kings▁	-11.3182
=5	-11.3184
add	-11.3184
monastery▁	-11.3187
ß	-11.3195
Lithuanian▁	-11.3196
exposure▁	-11.3196
gol	-11.3196
likes▁	-11.3198
zy	-11.3198
pell	-11.3199
vet	-11.3203
bal▁	-11.3204
Provincial▁	-11.3204
compiled▁	-11.3204
strategic▁	-11.3205
tribu	-11.3211
Iraqi▁	-11.3213
shocked▁	-11.3213
width▁	-11.3213
crashed▁	-11.3214
ep▁	-11.3218
Johann▁	-11.3219
Cuban▁	-11.3219
Mill▁	-11.322
ule▁	-11.3221
scrib	-11.3221
Mumbai▁	-11.3221
surely▁	-11.3224
opter	-11.3225
yours▁	-11.3226
sab	-11.3228
reflected▁	-11.323
symptoms▁	-11.323
devoted▁	-11.3231
timber▁	-11.3231
industries▁	-11.3232
telephone▁	-11.3232
Seg	-11.3232
Fisher▁	-11.3234
igan▁	-11.3235
hun	-11.3238
Athletes▁	-11.3239
Spencer▁	-11.3239
contributing▁	-11.3239
corruption▁	-11.3239
pianist▁	-11.3239
Stockholm▁	-11.3239
Bart	-11.3239
revised▁	-11.3239
charter▁	-11.3241
Shaw▁	-11.3242
Pep	-11.3245
fix▁	-11.3246
ju▁	-11.3246
topic▁	-11.3246
Furthermore▁	-11.3247
Punjab▁	-11.3247
Religious▁	-11.3247
lash▁	-11.3248
touching▁	-11.325
firms▁	-11.3251
pan▁	-11.3251
raid▁	-11.3254
Marcus▁	-11.3255
1856▁	-11.3255
columns▁	-11.3256
prisoner▁	-11.3256
Bha	-11.3256
stretch▁	-11.3256
Pand	-11.3258
Fat	-11.3259
ols▁	-11.3259
proof▁	-11.3259
metre▁	-11.3261
mask▁	-11.3261
IA▁	-11.3262
Rep	-11.3263
Uganda▁	-11.3265
communist▁	-11.3265
influences▁	-11.3265
yu▁	-11.3271
Rein	-11.3273
Throughout▁	-11.3273
Vietnamese▁	-11.3273
citizen▁	-11.3273
Hunt▁	-11.3274
cz	-11.3274
Krist	-11.3277
calendar▁	-11.3282
dramatic▁	-11.3283
dur	-11.3283
brings▁	-11.3285
Cav	-11.3285
Boy	-11.3288
ographic▁	-11.3289
peter▁	-11.329
explosion▁	-11.3291
summit▁	-11.3291
midfielder▁	-11.3291
public	-11.3291
ej	-11.3293
Perth▁	-11.3294
alter	-11.3296
zer	-11.3297
Name▁	-11.3298
Cart	-11.3298
Kara	-11.3299
continental▁	-11.3299
7:	-11.33
kur	-11.33
ego▁	-11.33
89	-11.3302
departed▁	-11.3302
shadows▁	-11.3304
revolution▁	-11.3308
Elections▁	-11.3308
dropping▁	-11.3308
swept▁	-11.3308
Hart▁	-11.3311
ps	-11.3311
hospitals▁	-11.3312
meal▁	-11.3312
regulation▁	-11.3317
carries▁	-11.3319
12–	-11.332
Sir	-11.3325
cht▁	-11.3325
reserves▁	-11.3325
LI	-11.3326
Junction▁	-11.3326
elly▁	-11.3326
Taka	-11.3326
Mé	-11.3328
hair	-11.3331
12.	-11.3331
HC▁	-11.3333
dav	-11.3333
certified▁	-11.3335
Iv	-11.3338
elo▁	-11.334
noble▁	-11.3341
della▁	-11.3341
bachelor▁	-11.3343
slight▁	-11.3345
Lisa▁	-11.3346
jurisdiction▁	-11.3352
Ever	-11.3353
cano	-11.3354
Left▁	-11.3356
rode▁	-11.3356
Carr	-11.3357
Low▁	-11.336
Protestant▁	-11.3361
Ö	-11.3361
Ernest▁	-11.3361
Mills▁	-11.3363
eas	-11.3363
14–	-11.3363
imm	-11.3364
Ev	-11.3368
joy▁	-11.3369
demonstrated▁	-11.3369
functional▁	-11.3369
preparation▁	-11.3369
delayed▁	-11.337
41	-11.3375
rus▁	-11.3376
−	-11.3377
tourist▁	-11.3378
circular▁	-11.3378
Mani	-11.3379
Bil	-11.338
Ent	-11.3383
1851▁	-11.3385
logy▁	-11.3386
Shanghai▁	-11.3387
authored▁	-11.3387
collapse▁	-11.3387
creatures▁	-11.3387
Sussex▁	-11.3388
cord▁	-11.3388
woke▁	-11.339
valid▁	-11.3392
phan	-11.3394
writings▁	-11.3396
brands▁	-11.3396
Pod	-11.3398
paul▁	-11.3398
Maritime▁	-11.3398
Nine▁	-11.3399
gentle▁	-11.3399
Mix▁	-11.34
liberal▁	-11.3402
pounds▁	-11.3403
Gran	-11.3404
attacking▁	-11.3405
challenged▁	-11.3405
negotiations▁	-11.3405
qualification▁	-11.3405
inducted▁	-11.3405
CI	-11.3405
fastest▁	-11.3405
Sag	-11.3407
choir▁	-11.3407
ophil	-11.3408
heart	-11.341
Brit	-11.3412
Indianapolis▁	-11.3413
antly▁	-11.3415
zhou▁	-11.3419
Wen	-11.3419
elite▁	-11.342
ole	-11.3421
quest▁	-11.3422
yelled▁	-11.3422
1.3▁	-11.3422
oxygen▁	-11.3422
internationally▁	-11.3423
pass	-11.3424
vary▁	-11.3427
lus	-11.3429
Westminster▁	-11.3431
manuscript▁	-11.3431
Franz▁	-11.3432
Dog▁	-11.3432
andra▁	-11.3433
Stre	-11.3433
Liberty▁	-11.3434
Arn	-11.3437
lis	-11.3439
kol	-11.344
Palestinian▁	-11.344
plum	-11.3441
Formation▁	-11.3444
travelled▁	-11.3449
extend▁	-11.3451
boots▁	-11.3452
Finally▁	-11.3461
slip▁	-11.3461
util	-11.3462
utter	-11.3462
grid▁	-11.3465
Roosevelt▁	-11.3466
cho▁	-11.3473
Shak	-11.3474
acquisition▁	-11.3475
sciences▁	-11.3475
relegated▁	-11.3475
Durham▁	-11.3477
targets▁	-11.3477
oides▁	-11.3482
depicted▁	-11.3484
reporting▁	-11.3484
riders▁	-11.3487
Kenneth▁	-11.3487
lifetime▁	-11.3488
aft▁	-11.3491
onder	-11.3492
Miguel▁	-11.3493
detective▁	-11.3493
feeding▁	-11.3493
binding▁	-11.3494
founders▁	-11.3495
13–	-11.3498
hipp	-11.3498
75	-11.3498
nas	-11.35
ë	-11.3501
blood	-11.3504
polit	-11.3507
roll	-11.3509
comparison▁	-11.3511
restaurants▁	-11.3511
dirt▁	-11.3511
Wat	-11.3511
=8	-11.3512
raw	-11.3513
herb	-11.3517
campaigns▁	-11.352
installation▁	-11.352
temporarily▁	-11.352
cal▁	-11.3523
ree▁	-11.3523
flights▁	-11.3526
editors▁	-11.3528
Shakespeare▁	-11.3528
ambassador▁	-11.3528
tol	-11.3532
Ted▁	-11.3534
abb	-11.3536
rested▁	-11.3536
Ambassador▁	-11.3537
studios▁	-11.3537
neu	-11.3543
Laboratory▁	-11.3546
challenges▁	-11.3546
sixteen▁	-11.3546
temperatures▁	-11.3546
Oak	-11.3546
Archives▁	-11.3547
laps▁	-11.3548
Andre	-11.3552
Kate▁	-11.3555
Jamaica▁	-11.3555
Mac▁	-11.3556
orn▁	-11.356
iously▁	-11.3563
mass	-11.3563
Classical▁	-11.3564
Reed▁	-11.3566
rand	-11.3568
altered▁	-11.3568
Chester▁	-11.3568
loves▁	-11.3569
aine▁	-11.3569
swallowed▁	-11.357
battles▁	-11.357
quarters▁	-11.357
gang	-11.3571
Tsu	-11.3572
Nintendo▁	-11.3573
breeding▁	-11.3573
PM▁	-11.3574
zen▁	-11.3574
Yan	-11.3574
seth▁	-11.3576
att▁	-11.3578
pot▁	-11.3579
aims▁	-11.3581
virtual▁	-11.3582
lifting▁	-11.3582
nu▁	-11.3587
enni	-11.3589
outdoor▁	-11.359
lexi	-11.359
inhabited▁	-11.3591
Jon▁	-11.3593
Pete▁	-11.3597
alle	-11.3597
comments▁	-11.3597
burg	-11.3598
Bot	-11.3598
aviation▁	-11.3598
100,000▁	-11.36
Cardinal▁	-11.36
theories▁	-11.36
bio▁	-11.3601
WA	-11.3603
Justin▁	-11.3603
Wan	-11.3606
MO	-11.3608
Literary▁	-11.3609
Armed▁	-11.3609
ED▁	-11.361
main	-11.3613
fus	-11.3613
vid	-11.3614
Cork▁	-11.3616
corporation▁	-11.3618
anim	-11.362
artwork▁	-11.362
Naz	-11.3622
aye▁	-11.3622
meth	-11.3622
labor	-11.3623
everywhere▁	-11.3627
ota▁	-11.3628
warned▁	-11.3629
prices▁	-11.363
coup▁	-11.3631
quo	-11.3636
athletics▁	-11.3636
Owen▁	-11.364
101▁	-11.3642
FA	-11.3644
academy▁	-11.3645
revenge▁	-11.3645
л	-11.3646
updated▁	-11.3647
disorder▁	-11.3648
ena	-11.3648
Laur	-11.3649
Ing	-11.3651
planes▁	-11.3653
stin	-11.3654
deemed▁	-11.3654
dynamic▁	-11.3655
silk▁	-11.3661
Comedy▁	-11.3663
demands▁	-11.3663
span▁	-11.3665
2–0▁	-11.3665
Foster▁	-11.3665
Oakland▁	-11.3666
hist	-11.3666
kt	-11.3668
Motor▁	-11.3671
controls▁	-11.3672
stopping▁	-11.3672
Articles▁	-11.3672
Photo	-11.3673
emi	-11.3676
hara▁	-11.3677
exhibitions▁	-11.3681
furniture▁	-11.3681
indicating▁	-11.3682
popul	-11.3685
ini	-11.3689
designation▁	-11.369
extinct▁	-11.369
focusing▁	-11.369
20,000▁	-11.369
psychology▁	-11.3691
Support▁	-11.3691
tai	-11.3697
Fuji	-11.3698
witness▁	-11.3699
....▁	-11.37
TE▁	-11.3704
Mars▁	-11.3705
sacred▁	-11.3705
naming▁	-11.3707
tightly▁	-11.3708
Actress▁	-11.3708
step	-11.3711
width	-11.3717
Religion▁	-11.3717
gathering▁	-11.3717
honest▁	-11.3719
logo▁	-11.3721
1840▁	-11.3721
Software▁	-11.3726
departments▁	-11.3726
extensively▁	-11.3726
Eagle▁	-11.3726
Armenia▁	-11.3727
Lit	-11.3727
drunk▁	-11.373
worthy▁	-11.373
spr	-11.3731
Say	-11.3731
project	-11.3732
Santiago▁	-11.3735
fourteen▁	-11.3736
enrolled▁	-11.3737
agged▁	-11.3738
cey▁	-11.374
Dominican▁	-11.3745
laboratory▁	-11.3745
afford▁	-11.3749
properly▁	-11.3754
Panama▁	-11.3754
populated▁	-11.3755
Stories▁	-11.3755
climb▁	-11.3756
canal▁	-11.3756
haz	-11.3757
pleased▁	-11.3757
depression▁	-11.3763
vulnerable▁	-11.3763
Isaac▁	-11.3763
house	-11.3768
patch▁	-11.3768
aker▁	-11.377
elementary▁	-11.3772
receives▁	-11.3772
disbanded▁	-11.3772
nurse▁	-11.3772
superior▁	-11.3772
samples▁	-11.3772
Double▁	-11.3772
check	-11.3773
Isle▁	-11.3773
Overview▁	-11.3773
Daniel	-11.3774
wrist▁	-11.3775
Maur	-11.3778
ete▁	-11.3778
itis▁	-11.3778
employee▁	-11.3781
andr	-11.3782
lows▁	-11.3785
oka▁	-11.3787
Piano▁	-11.3787
ks	-11.3788
IT	-11.3789
zane▁	-11.3789
permitted▁	-11.379
Self▁	-11.3792
ped	-11.3795
fi▁	-11.3798
framework▁	-11.3799
altitude▁	-11.38
oats▁	-11.3802
IL▁	-11.3802
index▁	-11.3802
eur	-11.3803
Stein	-11.3805
Lis	-11.3806
ene	-11.3807
predecessor▁	-11.3809
con▁	-11.3809
Sai	-11.3809
Hitler▁	-11.3809
mini	-11.3811
Matt	-11.3813
uka▁	-11.3815
Olympi	-11.3816
belly▁	-11.3817
recovery▁	-11.3818
PlayStation▁	-11.3819
intent▁	-11.3826
Jacob	-11.3827
imprisoned▁	-11.3827
unsuccessful▁	-11.3837
cab	-11.3844
Cinema▁	-11.3845
promoting▁	-11.3845
failing▁	-11.385
Naga	-11.385
lion▁	-11.3853
kov	-11.3854
1847▁	-11.3854
ν	-11.3854
novelists▁	-11.3855
Desert▁	-11.3855
computers▁	-11.3857
hed	-11.3862
ager▁	-11.3863
patri	-11.3863
Dictionary▁	-11.3864
messages▁	-11.3864
ministry▁	-11.3864
Birds▁	-11.3865
Cass	-11.3866
mature▁	-11.3866
nos	-11.3873
legislature▁	-11.3873
pioneer▁	-11.3873
technologies▁	-11.3873
DE	-11.3874
Fro	-11.3877
SF▁	-11.3877
Grande▁	-11.388
laying▁	-11.3881
murmured▁	-11.3882
emphasis▁	-11.3882
thirteen▁	-11.3882
chel	-11.3883
Yang▁	-11.3884
AB	-11.3884
urged▁	-11.3886
difficulty▁	-11.3891
Ron▁	-11.3892
bourne▁	-11.3892
porch▁	-11.3894
Riv	-11.3894
excited▁	-11.3895
thereafter▁	-11.3897
ivity▁	-11.3898
seri	-11.39
CT▁	-11.39
Yugoslavia▁	-11.3901
spun▁	-11.3901
shar	-11.3903
depend	-11.3903
Circle▁	-11.3903
itt▁	-11.3905
Brand	-11.3907
ulation▁	-11.3908
phor	-11.3909
architects▁	-11.391
rape▁	-11.3913
Bryan▁	-11.3913
princess▁	-11.3919
skill▁	-11.3919
fort	-11.3919
mary▁	-11.3919
specialized▁	-11.392
ograph	-11.392
kam	-11.3923
enz	-11.3926
OR▁	-11.3927
1846▁	-11.3927
noting▁	-11.3928
Liu▁	-11.3928
mainstream▁	-11.3929
stem▁	-11.3929
farming▁	-11.3929
Physics▁	-11.393
Om	-11.3931
Monday▁	-11.3932
hem	-11.3932
Powell▁	-11.3933
andy▁	-11.3934
Spirit▁	-11.3934
Kaz	-11.3937
diversity▁	-11.3937
Holmes▁	-11.3939
Angels▁	-11.3943
searched▁	-11.3943
archaeological▁	-11.3947
documented▁	-11.3947
listened▁	-11.3947
dancer▁	-11.3947
dine▁	-11.3949
1.4▁	-11.3951
super▁	-11.3951
zu▁	-11.3953
knock▁	-11.3953
Cabinet▁	-11.3956
restrictions▁	-11.3956
floors▁	-11.3957
Ther	-11.396
EC	-11.3961
mud	-11.3965
participating▁	-11.3965
77	-11.3966
client▁	-11.3967
Lab	-11.3969
Chap	-11.3971
worship▁	-11.3973
Aaron▁	-11.3976
agh	-11.3979
Mala	-11.3979
Forum▁	-11.398
fair	-11.3982
IX▁	-11.3982
Giovanni▁	-11.3984
Lithuania▁	-11.3984
Lud	-11.3986
cloth▁	-11.3989
vert▁	-11.3991
bike▁	-11.3993
NS▁	-11.3993
riot▁	-11.3993
sculptor▁	-11.3994
Hawk	-11.3994
Scot	-11.3994
Rai	-11.3995
Theory▁	-11.3996
cav	-11.3997
AFC▁	-11.4001
ements▁	-11.4002
hart▁	-11.4002
oak▁	-11.4002
supplied▁	-11.4003
march▁	-11.4003
Bennett▁	-11.4003
shorter▁	-11.4003
point	-11.4005
Rose	-11.4005
saving▁	-11.4008
tenth▁	-11.4008
Maha	-11.401
iest▁	-11.4012
whisper▁	-11.4012
Tw	-11.4012
rein	-11.4013
circles▁	-11.4013
colonel▁	-11.4014
hir	-11.4019
migration▁	-11.4019
ovsky▁	-11.4019
Copenhagen▁	-11.4021
temples▁	-11.4024
bing▁	-11.4024
sank▁	-11.4029
Lau	-11.403
repeatedly▁	-11.4031
pac	-11.4034
plat	-11.4036
healthy▁	-11.404
Sing	-11.4041
objective▁	-11.4041
yama▁	-11.4045
codes▁	-11.4047
†▁	-11.4048
Electoral▁	-11.405
Morocco▁	-11.405
traditionally▁	-11.405
removal▁	-11.405
MTV▁	-11.405
Chen▁	-11.4051
variable▁	-11.4052
brush▁	-11.4054
ipper▁	-11.4054
Newton▁	-11.4055
lett▁	-11.4056
RNA▁	-11.4056
Advanced▁	-11.4059
1,1	-11.4059
register▁	-11.406
1.6▁	-11.4062
addressed▁	-11.4064
reply▁	-11.4066
XI▁	-11.4066
scra	-11.4066
Ald	-11.4068
artificial▁	-11.4068
experiment▁	-11.4068
travels▁	-11.4068
Popular▁	-11.4069
nut▁	-11.4069
Kirk	-11.407
gat	-11.4077
Decision▁	-11.4078
eighteen▁	-11.4078
Ib	-11.4079
pig	-11.408
Pearl▁	-11.408
rot▁	-11.4081
wild	-11.4081
Nikol	-11.4081
hos	-11.4083
pad	-11.4083
chorus▁	-11.4083
halt▁	-11.4087
who	-11.4088
onne▁	-11.409
hul	-11.4091
ifies▁	-11.4091
yi▁	-11.4091
Queens▁	-11.4093
Rig	-11.4093
attendance▁	-11.4097
hello▁	-11.4097
lu▁	-11.4097
relating▁	-11.4098
Ships▁	-11.4098
blues▁	-11.4101
1853▁	-11.4105
Spec	-11.4105
Wind▁	-11.4105
toll▁	-11.4105
innocent▁	-11.4106
hack	-11.4107
actively▁	-11.411
700▁	-11.4113
presents▁	-11.4114
mort	-11.4115
satisfied▁	-11.4116
Estonian▁	-11.4116
breathe▁	-11.4117
interpret	-11.4117
passion▁	-11.4118
fusion▁	-11.4124
51	-11.4125
diplomatic▁	-11.4125
Gaz	-11.4126
equi	-11.4126
Bros	-11.4126
zon	-11.413
garage▁	-11.4132
rapper▁	-11.4132
Footballers▁	-11.4134
Gardens▁	-11.4135
=9	-11.4136
carved▁	-11.4136
stown▁	-11.4137
divi	-11.4143
tourism▁	-11.4144
chat	-11.4145
ku▁	-11.4146
Mich	-11.4148
pill	-11.4148
dem	-11.4148
wise▁	-11.4149
Politicians▁	-11.4153
societies▁	-11.4153
sberg▁	-11.4153
centres▁	-11.4154
posed▁	-11.4159
cole▁	-11.4159
Gos	-11.416
collaborated▁	-11.4163
bull▁	-11.4163
haven▁	-11.4165
collect▁	-11.4167
Oil▁	-11.4169
handling▁	-11.4169
Histori	-11.4169
Schu	-11.417
allo	-11.417
Cann	-11.4171
desperate▁	-11.4172
cc▁	-11.4173
mixture▁	-11.4173
som	-11.4176
Eth	-11.4177
owl▁	-11.4177
ective▁	-11.4178
52	-11.4179
Montgomery▁	-11.4182
kan▁	-11.4183
ór	-11.4183
blinked▁	-11.4184
kinds▁	-11.4185
astr	-11.4185
-3	-11.4189
ı▁	-11.419
pile▁	-11.4191
underneath▁	-11.4191
wonderful▁	-11.4191
€▁	-11.4191
Harbor▁	-11.4191
towers▁	-11.4192
rachel▁	-11.4192
slav	-11.4192
Louise▁	-11.4192
cotton▁	-11.4193
imperial▁	-11.4193
boxes▁	-11.4193
tomb▁	-11.4196
NC	-11.4198
icing▁	-11.4199
widow▁	-11.4201
beetle▁	-11.4201
Simpson▁	-11.4201
Liv	-11.4201
dirty▁	-11.4202
labels▁	-11.4202
umi▁	-11.4203
resting▁	-11.4207
ISO▁	-11.4207
cycling▁	-11.4208
itude▁	-11.4208
chen	-11.421
skull▁	-11.421
Beginning▁	-11.4211
Honorary▁	-11.4211
sporting▁	-11.4214
Ei	-11.4215
leigh▁	-11.4215
Circ	-11.4216
radiation▁	-11.4216
bombing▁	-11.4217
Palm	-11.4218
boarding▁	-11.4218
Parliamentary▁	-11.422
formula▁	-11.4221
AF	-11.4221
sel▁	-11.4221
colonies▁	-11.4221
heir▁	-11.4222
Rac	-11.4223
Merc	-11.4226
SD	-11.4226
AB▁	-11.4227
Math	-11.4227
Palmer▁	-11.4227
essentially▁	-11.423
infection▁	-11.423
Andrews▁	-11.423
instant▁	-11.423
power	-11.423
nus▁	-11.4236
blame▁	-11.4238
connects▁	-11.4239
historically▁	-11.4239
Cameron▁	-11.4239
shoved▁	-11.424
scope	-11.4243
nav	-11.4243
west	-11.4244
Julian▁	-11.4244
generate▁	-11.4249
Aires▁	-11.425
Disc▁	-11.4252
Legend▁	-11.4254
Tiger▁	-11.4256
tony▁	-11.4257
distinction▁	-11.4258
Buenos▁	-11.4258
arrives▁	-11.4259
listings▁	-11.4259
Wer	-11.4262
ans	-11.4264
aq▁	-11.4264
investigate▁	-11.4268
Steel▁	-11.4268
surrender▁	-11.4268
Tampa▁	-11.4269
Indies▁	-11.4269
Ellis▁	-11.4271
ote	-11.4271
fur▁	-11.4272
tune▁	-11.4273
Low	-11.4275
mobil	-11.4275
will	-11.4276
Case▁	-11.4277
ś	-11.4277
past	-11.4278
ssen▁	-11.4278
naturally▁	-11.4279
Indi	-11.428
Nick	-11.428
tense▁	-11.4281
ema▁	-11.4281
retreat▁	-11.4281
num▁	-11.4282
Drum	-11.4285
Again▁	-11.4286
Abb	-11.4286
approaches▁	-11.4287
carriage▁	-11.4287
procedure▁	-11.4287
Claude▁	-11.4287
thrust▁	-11.4287
quer	-11.4288
urge▁	-11.4293
Cow	-11.4294
Alm	-11.4294
_▁	-11.4296
molecular▁	-11.4297
99	-11.4301
tear▁	-11.4301
bus	-11.4302
amin	-11.4303
posit	-11.4303
Currently▁	-11.4306
quit	-11.4306
reducing▁	-11.4306
tine▁	-11.4308
Campus▁	-11.431
dent▁	-11.4312
constantly▁	-11.4316
elevator▁	-11.4316
Manu	-11.4316
Sound	-11.4317
Davies▁	-11.4317
Legion▁	-11.4318
Never▁	-11.4318
signals▁	-11.432
ische▁	-11.4325
Calgary▁	-11.4326
Night	-11.4327
0.0	-11.4328
3/	-11.433
ech▁	-11.4332
Blake▁	-11.4332
Tong	-11.4332
white	-11.4334
Manitoba▁	-11.4335
corridor▁	-11.4335
earthquake▁	-11.4335
identification▁	-11.4335
intellectual▁	-11.4335
footage▁	-11.4342
bir	-11.4344
wiped▁	-11.4345
hungry▁	-11.4345
Todd▁	-11.4347
cant	-11.4348
Cole▁	-11.4348
Rice▁	-11.4351
Hind	-11.4352
Mot	-11.4352
graduation▁	-11.4355
Progressive▁	-11.4355
collective▁	-11.4355
Contr	-11.4356
6,000▁	-11.4357
Light	-11.4362
nom	-11.4362
crea	-11.4363
difficulties▁	-11.4364
bee▁	-11.4366
institute▁	-11.4367
copper▁	-11.4368
ven▁	-11.4368
Rou	-11.4368
Chang	-11.437
fake▁	-11.4372
iv▁	-11.4373
rik▁	-11.4374
ę	-11.4374
seeds▁	-11.4374
tical▁	-11.4374
Nord	-11.4375
opo	-11.4376
lop	-11.4377
last	-11.4377
ettes▁	-11.4377
proud▁	-11.4377
Break	-11.4378
filling▁	-11.4378
Plant▁	-11.4379
enna▁	-11.4381
Scar	-11.4383
thomas▁	-11.4383
pupils▁	-11.4384
sink▁	-11.4385
bags▁	-11.4386
1,2	-11.4386
sailing▁	-11.4387
Zhang▁	-11.4388
Rain	-11.4389
wil	-11.4391
Jon	-11.4393
commenced▁	-11.4393
Hag	-11.4396
peer▁	-11.4397
tributary▁	-11.4401
1,0	-11.4401
scream▁	-11.4401
dish▁	-11.4402
reverse▁	-11.4402
casualties▁	-11.4403
engage▁	-11.4404
š▁	-11.4408
Sau	-11.4408
Bull	-11.441
insky▁	-11.4411
Java▁	-11.4412
instruction▁	-11.4413
regardless▁	-11.4413
contracts▁	-11.4413
dissolved▁	-11.4415
quet▁	-11.4415
stored▁	-11.4415
chairs▁	-11.4416
arena▁	-11.4418
1.0▁	-11.4421
Towns▁	-11.4422
intensity▁	-11.4422
snake▁	-11.4423
Rem	-11.4423
select▁	-11.4424
cephal	-11.4426
Connor▁	-11.4429
slammed▁	-11.4432
Wie	-11.4433
HF▁	-11.4436
Sher	-11.4438
VA▁	-11.4438
engagement▁	-11.4442
relieved▁	-11.4442
Blue	-11.4443
bears▁	-11.4445
anic▁	-11.4445
wor	-11.4447
Mega	-11.4449
rally▁	-11.4449
curr	-11.4449
Ronald▁	-11.4452
excuse▁	-11.4452
tham▁	-11.4453
pilots▁	-11.4453
cott	-11.4455
ocks▁	-11.4456
logan▁	-11.4461
descendants▁	-11.4462
Jennifer▁	-11.4462
resort▁	-11.4465
lasting▁	-11.4467
quadr	-11.447
veteran▁	-11.4471
Dig	-11.4472
personally▁	-11.4472
Novels▁	-11.4472
79	-11.4475
auc	-11.4476
app▁	-11.4477
Josh▁	-11.4477
Bod	-11.4478
ière▁	-11.4478
65	-11.4479
69	-11.4479
pine▁	-11.4481
Colonial▁	-11.4481
impressive▁	-11.4482
Chilean▁	-11.4482
strict▁	-11.4487
Yellow▁	-11.4487
ples▁	-11.4487
tailed▁	-11.449
assessment▁	-11.4491
Curtis▁	-11.4491
Return▁	-11.4491
clients▁	-11.4492
Sabha▁	-11.4493
figur	-11.4493
Act	-11.4494
nip	-11.4496
input▁	-11.4496
86	-11.4498
Mach	-11.4498
wheels▁	-11.4499
affiliate▁	-11.4501
punishment▁	-11.4501
shelter▁	-11.4501
tossed▁	-11.4501
keeps▁	-11.4501
aru▁	-11.4501
Albanian▁	-11.4502
Spider▁	-11.4502
wen	-11.4502
Stock	-11.4503
variation▁	-11.4503
Show	-11.4504
Rh	-11.4504
cultures▁	-11.4505
Bin	-11.4507
interaction▁	-11.451
till	-11.451
experiments▁	-11.4511
scattered▁	-11.4511
kilometers▁	-11.4511
Ministers▁	-11.4511
Cin	-11.4511
Manila▁	-11.4514
Shan	-11.4515
PS	-11.4515
sten	-11.4517
opt	-11.452
defender▁	-11.4521
dri	-11.4523
Set	-11.4525
elevated▁	-11.453
Obama▁	-11.4531
taxes▁	-11.4534
Lucas▁	-11.4535
1–1▁	-11.4537
destination▁	-11.454
aspect▁	-11.454
structural▁	-11.4542
anga▁	-11.4542
MG▁	-11.4544
lease▁	-11.4546
thy	-11.4546
Rachel▁	-11.455
Change▁	-11.455
;	-11.4551
TI	-11.4551
labour▁	-11.4553
Rolling▁	-11.4554
ility▁	-11.4554
Wild	-11.4555
Gang	-11.456
Amateur▁	-11.456
Solomon▁	-11.456
him	-11.456
than	-11.4561
Win▁	-11.4562
NT▁	-11.4562
Duncan▁	-11.4563
onym	-11.4563
rik	-11.4565
bre▁	-11.4565
Cad	-11.4565
dys	-11.4568
Sm	-11.4568
solve▁	-11.457
instructions▁	-11.457
swung▁	-11.4572
Ast	-11.4572
85	-11.4578
Chelsea▁	-11.458
philosopher▁	-11.458
whenever▁	-11.458
kissing▁	-11.458
civilians▁	-11.458
Eugene▁	-11.458
rides▁	-11.4582
deliver▁	-11.4584
ū▁	-11.4584
eiro▁	-11.4587
Gate▁	-11.4587
tough▁	-11.4588
Kul	-11.4589
coached▁	-11.4592
helm	-11.4595
Mixed▁	-11.4596
imagined▁	-11.4597
extending▁	-11.4599
CP	-11.4599
vocalist▁	-11.46
lic▁	-11.4602
ο	-11.4609
celebration▁	-11.4609
strict	-11.4611
liver▁	-11.4612
stereo	-11.4616
Regi	-11.4618
arius▁	-11.4618
unions▁	-11.4619
hm	-11.4619
Cyprus▁	-11.4619
automatically▁	-11.4619
guided▁	-11.4619
Gab	-11.4619
burial▁	-11.4621
=0	-11.4621
Interstate▁	-11.4627
cylinder▁	-11.4629
dimensional▁	-11.4629
Ruth▁	-11.463
directions▁	-11.463
hall	-11.463
tent▁	-11.4632
ister	-11.4632
shaft▁	-11.4634
hib	-11.4634
Gibb	-11.4636
Hull▁	-11.4636
flies▁	-11.4638
releasing▁	-11.4639
householder▁	-11.4639
shy▁	-11.4639
fist▁	-11.4639
sustained▁	-11.464
uncertain▁	-11.4642
Shah	-11.4642
emotion▁	-11.4648
Off▁	-11.4649
celebrate▁	-11.4649
examination▁	-11.4649
occasional▁	-11.4649
Index▁	-11.465
seized▁	-11.4653
Salt▁	-11.4654
equation▁	-11.4656
Sou	-11.4656
airline▁	-11.4658
Indigenous▁	-11.4659
Rhe	-11.4661
pause▁	-11.4668
Herzegovina▁	-11.4669
volunteers▁	-11.4669
1844▁	-11.467
Cornwall▁	-11.467
hind	-11.467
rm	-11.4671
itter▁	-11.4673
Stock▁	-11.4675
nah▁	-11.4675
Georgian▁	-11.4676
alien▁	-11.4677
Hunt	-11.4677
Bears▁	-11.4678
crat	-11.4679
Bert	-11.468
spite▁	-11.4681
Principal▁	-11.4682
mouth	-11.4683
Table▁	-11.4684
struggling▁	-11.4689
Ferdinand▁	-11.4689
assume▁	-11.4689
Kri	-11.4697
DP▁	-11.4697
Wis	-11.4698
gu▁	-11.4699
ica	-11.4699
generations▁	-11.4699
statements▁	-11.4699
Pir	-11.4701
mount▁	-11.4703
spy▁	-11.4705
anchor▁	-11.4705
Tel	-11.4708
climbing▁	-11.4709
sham▁	-11.4709
attitude▁	-11.4709
Devon▁	-11.471
pop	-11.4713
sweet	-11.4713
dragged▁	-11.4713
flora▁	-11.4716
cavalry▁	-11.4719
distinctive▁	-11.4719
Tourism▁	-11.472
Allan▁	-11.472
lightly▁	-11.472
Cli	-11.4724
pus▁	-11.4726
ember	-11.4728
situations▁	-11.4729
fauna▁	-11.473
omi	-11.4731
shallow▁	-11.4731
regi	-11.4731
Meh	-11.4739
Recording▁	-11.4739
progressive▁	-11.4739
Emily▁	-11.474
basement▁	-11.474
Gmina▁	-11.474
Rich	-11.474
AFL▁	-11.474
Come▁	-11.4742
oper	-11.4743
Malta▁	-11.4745
pride▁	-11.4748
abolished▁	-11.4749
helicopter▁	-11.4749
squeezed▁	-11.4749
currency▁	-11.4749
Bronze▁	-11.475
Rid	-11.475
crops▁	-11.4753
sorts▁	-11.4753
TE	-11.4754
Raz	-11.4755
ratt	-11.4755
Hell	-11.4756
hing	-11.4756
ratings▁	-11.4757
Kis	-11.4758
Franco▁	-11.4759
aggregate▁	-11.4759
neighboring▁	-11.4759
warfare▁	-11.4759
saw	-11.4761
Newport▁	-11.4761
Rum	-11.4762
Tales▁	-11.4762
pens	-11.4766
Dum	-11.4767
Without▁	-11.4769
Wit	-11.4772
cand	-11.4772
chester▁	-11.4774
sten▁	-11.4775
Pis	-11.4775
Pre▁	-11.4776
Pick	-11.4776
Roc	-11.4778
announcement▁	-11.478
invented▁	-11.478
Maxim	-11.4781
Playing▁	-11.4781
Int	-11.4787
aug	-11.4788
Complete▁	-11.479
Sergeant▁	-11.479
divorce▁	-11.479
fundamental▁	-11.479
improvement▁	-11.479
diesel▁	-11.479
thumb▁	-11.479
Antarctic▁	-11.479
hardware▁	-11.479
NASA▁	-11.479
iva▁	-11.4791
pter	-11.4796
Denis▁	-11.4796
rem	-11.4798
dos▁	-11.4799
Lancashire▁	-11.48
Paralympics▁	-11.48
syndrome▁	-11.48
5/	-11.48
Headquarters▁	-11.48
cili	-11.48
André▁	-11.48
flowing▁	-11.4801
Beau	-11.4802
namely▁	-11.4802
ature▁	-11.4803
minds▁	-11.4804
ferry▁	-11.4804
ope▁	-11.4805
cast	-11.4809
locomotive▁	-11.481
survivors▁	-11.481
lam▁	-11.4813
sweat▁	-11.4815
Presidential▁	-11.4815
manu	-11.4815
ground	-11.4818
omo▁	-11.4818
FO	-11.4819
comment▁	-11.482
diplomat▁	-11.482
Relations▁	-11.4821
hay	-11.4824
Beg	-11.4828
fly	-11.4828
lith	-11.4829
branded▁	-11.483
Malaysian▁	-11.483
iri▁	-11.4833
sarah▁	-11.4834
gio▁	-11.4836
road	-11.4838
comprehensive▁	-11.484
judicial▁	-11.484
deb	-11.4841
Thor	-11.4841
integration▁	-11.4842
uit	-11.4842
consequences▁	-11.4843
Resources▁	-11.4844
aga	-11.4844
topped▁	-11.4847
consult	-11.4849
complicated▁	-11.485
perceived▁	-11.485
fortress▁	-11.4851
colleagues▁	-11.4851
astro	-11.4851
servants▁	-11.4851
Crow	-11.4852
cross	-11.4853
cus▁	-11.4854
Bath▁	-11.4855
petition▁	-11.4859
MLB▁	-11.4861
honours▁	-11.4861
glasses▁	-11.4862
dler▁	-11.4862
mansion▁	-11.4863
1845▁	-11.4866
Kazakhstan▁	-11.4871
Wyoming▁	-11.4871
mysterious▁	-11.4871
н	-11.4874
layers▁	-11.4877
Imp	-11.4878
survival▁	-11.4881
18.	-11.4882
blocked▁	-11.4883
Sup	-11.4885
hurst▁	-11.489
improvements▁	-11.4891
cameras▁	-11.4891
rivals▁	-11.4893
equally▁	-11.4893
cake▁	-11.4894
tech▁	-11.4895
ivor	-11.4895
ige▁	-11.4896
toes▁	-11.4897
trio▁	-11.4899
accommodate▁	-11.4901
IN▁	-11.4902
hug▁	-11.4902
4/	-11.4903
rider▁	-11.4908
brushed▁	-11.4911
ε	-11.4912
exhibit▁	-11.4912
añ	-11.4912
ME▁	-11.4916
Las	-11.4916
readers▁	-11.4917
Frankfurt▁	-11.4922
Safety▁	-11.4922
absolute▁	-11.4922
observation▁	-11.4922
dé	-11.4922
Oct	-11.4924
ria▁	-11.4929
gene	-11.493
ι	-11.4932
questioned▁	-11.4932
succession▁	-11.4932
Still▁	-11.4932
ars	-11.4932
Leslie▁	-11.4933
Bau	-11.4934
iki▁	-11.4937
genes▁	-11.4937
Sudan▁	-11.4938
zan	-11.494
pent	-11.494
eaux▁	-11.4941
convince▁	-11.4942
Leon▁	-11.4943
IF▁	-11.4947
kor	-11.4949
dining▁	-11.495
Č	-11.4953
developments▁	-11.4953
feat▁	-11.4955
Armstrong▁	-11.4955
Lac	-11.4956
vis▁	-11.4959
drops▁	-11.4959
day	-11.4959
Happy▁	-11.4963
Tree▁	-11.4963
]	-11.4965
masters▁	-11.4969
dome▁	-11.4974
way	-11.4975
cour	-11.4977
TA	-11.4978
hopes▁	-11.4979
Woods▁	-11.498
Rovers▁	-11.4981
well	-11.4983
Devil▁	-11.4983
Discovery▁	-11.4983
Memphis▁	-11.4984
saint▁	-11.4984
Universe▁	-11.4984
lun	-11.4985
limbs▁	-11.4987
Turk	-11.4991
Dam▁	-11.4992
characteristic▁	-11.4994
Exhibition▁	-11.4994
Sr▁	-11.4995
ideal▁	-11.4996
oku▁	-11.4997
creator▁	-11.4997
Khal	-11.4997
torn▁	-11.4998
TR	-11.4999
ando▁	-11.4999
Gon	-11.5002
assembled▁	-11.5004
predominantly▁	-11.5004
coo	-11.5004
athletic▁	-11.5004
Robertson▁	-11.5005
mainland▁	-11.5008
bread▁	-11.501
Porter▁	-11.5012
ere▁	-11.5014
disrupt	-11.5014
fabric▁	-11.5014
Gerald▁	-11.5014
concepts▁	-11.5015
chapters▁	-11.5015
Far▁	-11.5015
Albania▁	-11.5016
chor	-11.5016
interpreted▁	-11.5016
cou	-11.5017
washed▁	-11.5018
000▁	-11.5019
picks▁	-11.5022
Sah	-11.5023
amounts▁	-11.5023
1841▁	-11.5024
τ	-11.5025
Bug	-11.5026
Mull	-11.5027
itch	-11.5028
hawk▁	-11.5028
Gren	-11.5029
Combat▁	-11.5031
quarterback▁	-11.5031
1.8▁	-11.5031
Batman▁	-11.5031
diocese▁	-11.5035
efficiency▁	-11.5035
saxophone▁	-11.5035
simon▁	-11.5036
torture▁	-11.5037
quit▁	-11.5038
AD	-11.504
3–1▁	-11.5042
Mann	-11.5044
shu	-11.5044
physically▁	-11.5045
marble▁	-11.505
HMS▁	-11.505
Yar	-11.5051
liv	-11.5052
110▁	-11.5059
Wool	-11.5061
aq	-11.5063
mega	-11.5065
Iceland▁	-11.5066
Julia▁	-11.5067
sheets▁	-11.5069
Web	-11.5071
DR▁	-11.5071
radical▁	-11.5078
ruth	-11.5079
CR	-11.508
Ts	-11.5082
Can▁	-11.5083
Poll	-11.5083
Herald▁	-11.5087
Organizations▁	-11.5087
wars▁	-11.5089
neo	-11.5089
iro▁	-11.5093
sake▁	-11.5096
Pant	-11.5096
bill	-11.5097
authorized▁	-11.5097
permanently▁	-11.5097
suspect▁	-11.5097
Fernando▁	-11.5098
%	-11.51
rolls▁	-11.5101
Mit	-11.5102
cats▁	-11.5102
RD	-11.5104
drag▁	-11.5104
arium▁	-11.5105
bore▁	-11.5106
Harper▁	-11.5106
wrestler▁	-11.5108
wounds▁	-11.5108
Bradley▁	-11.5109
17.	-11.511
nest▁	-11.5114
shaw▁	-11.5117
prov	-11.5118
Á	-11.5118
Surrey▁	-11.5118
Planning▁	-11.5119
par▁	-11.512
Hom	-11.512
firmly▁	-11.5121
henry▁	-11.5124
Pit	-11.5125
kil	-11.5126
Sid	-11.5127
tore▁	-11.5128
DE▁	-11.5129
Fighting▁	-11.5129
Electronic▁	-11.5129
thermal▁	-11.5131
high	-11.5131
Tir	-11.5134
tissue▁	-11.5135
jor	-11.5137
fame▁	-11.5138
1800▁	-11.5139
brilliant▁	-11.5139
Put	-11.5143
quin	-11.5145
odor	-11.5149
г	-11.515
Examples▁	-11.515
mond	-11.5153
Rich▁	-11.5154
Map	-11.5154
Ghost▁	-11.5155
Direct	-11.5155
Broad	-11.5156
guil	-11.5156
layout▁	-11.5157
Kno	-11.5157
advocate▁	-11.516
consumption▁	-11.516
relatives▁	-11.516
extends▁	-11.5163
pulse▁	-11.5163
Monte	-11.5164
wen▁	-11.5169
Engineer▁	-11.5171
renewed▁	-11.5171
Citations▁	-11.5171
harsh▁	-11.5173
united▁	-11.5174
8)▁	-11.5175
Wheel	-11.5177
ERA▁	-11.5177
illes▁	-11.518
Crist	-11.518
Ring▁	-11.5181
Beyond▁	-11.5181
enormous▁	-11.5181
screaming▁	-11.5181
rocket▁	-11.5188
pala	-11.5188
commentary▁	-11.5192
guitars▁	-11.5192
severely▁	-11.5192
conducting▁	-11.5192
plenty▁	-11.5192
ailing▁	-11.5192
pronounced▁	-11.5194
Coo	-11.5195
PO	-11.5196
kul	-11.5201
Anton	-11.5202
disestablishment	-11.5202
siblings▁	-11.5202
honored▁	-11.5202
Caroline▁	-11.5203
test	-11.5204
ration▁	-11.5204
ruins▁	-11.5205
Rot	-11.5206
Ble	-11.5208
comedian▁	-11.5211
Ard	-11.5212
20–	-11.5214
él	-11.5214
hen▁	-11.5214
Gam	-11.5215
NI	-11.5217
67	-11.5218
It	-11.5218
fail▁	-11.5221
pulls▁	-11.5223
psychological▁	-11.5224
threats▁	-11.5224
comprises▁	-11.5224
Beat	-11.5224
Than	-11.5226
preserve▁	-11.5227
Take	-11.523
8,000▁	-11.5233
Lie	-11.5233
sits▁	-11.5234
commitment▁	-11.5234
concentrated▁	-11.5234
slept▁	-11.5234
Picture▁	-11.5234
Back	-11.5236
Jack	-11.5236
chron	-11.5239
-21▁	-11.524
usa▁	-11.524
Pier	-11.5244
Orlando▁	-11.5244
Others▁	-11.5245
Dai	-11.5249
Wu▁	-11.5249
trace▁	-11.525
Henri▁	-11.5254
eared▁	-11.5254
Eventually▁	-11.5255
possessed▁	-11.5255
Stevens▁	-11.5255
1,3	-11.5256
Angel	-11.5257
protect	-11.5258
Amb	-11.5259
wyn▁	-11.5259
sec	-11.5261
Doo	-11.5261
Work	-11.5261
atum▁	-11.5263
associations▁	-11.5266
programmes▁	-11.5266
victories▁	-11.5266
how	-11.5266
symbols▁	-11.5266
pros	-11.5268
Vall	-11.5268
Bass▁	-11.527
enders▁	-11.5271
16.	-11.5273
UFC▁	-11.5274
Carol▁	-11.5275
Catholics▁	-11.5276
Ecuador▁	-11.5276
experts▁	-11.5276
preparing▁	-11.5276
1837▁	-11.5277
generals▁	-11.5278
Kumar▁	-11.5279
Fight▁	-11.5281
interface▁	-11.5282
privat	-11.5283
Money▁	-11.5285
Guitar▁	-11.5287
Capitol▁	-11.5287
1836▁	-11.5288
Pass▁	-11.5289
fluid▁	-11.5289
Belfast▁	-11.5289
encourage▁	-11.529
1830▁	-11.5295
Against▁	-11.5297
suspension▁	-11.5297
fewer▁	-11.5298
Continental▁	-11.5299
attraction▁	-11.5299
Aboriginal▁	-11.5299
Planet▁	-11.53
ogue▁	-11.53
Burns▁	-11.5301
Block▁	-11.5303
eli▁	-11.5304
EPs▁	-11.5305
rushing▁	-11.5306
Care▁	-11.5307
cow	-11.5308
Warriors▁	-11.5308
assignment▁	-11.5308
awful▁	-11.5308
reflect▁	-11.5308
Slovenia▁	-11.5308
Nathan▁	-11.5312
plasm	-11.5312
CB▁	-11.5314
bin▁	-11.5314
discovers▁	-11.5317
ibn▁	-11.5317
recruited▁	-11.5319
Letters▁	-11.5319
finite▁	-11.5319
Jur	-11.5319
Estonia▁	-11.532
hid▁	-11.532
Mar▁	-11.532
rington▁	-11.532
businesspeople▁	-11.5321
tub	-11.5323
beds▁	-11.5324
Mono	-11.5324
nick	-11.5324
mpton▁	-11.5325
Sweet▁	-11.5329
bath	-11.5329
oxy	-11.533
grad	-11.533
mant	-11.5334
Take▁	-11.5334
delay▁	-11.5334
Vid	-11.5336
slavery▁	-11.5341
1.7▁	-11.5343
child	-11.5343
Og	-11.5343
AG▁	-11.5344
contribute▁	-11.5345
Banks▁	-11.5345
Neg	-11.5345
SV▁	-11.5346
zel▁	-11.5346
Cycl	-11.5346
Game	-11.5347
Der▁	-11.5348
Chase▁	-11.5348
Faith▁	-11.5349
pseudo	-11.5351
prayer▁	-11.5351
bled▁	-11.5351
Bradford▁	-11.5351
ggers▁	-11.5353
axi	-11.5355
marking▁	-11.5355
contents▁	-11.5359
nak	-11.5359
oids▁	-11.536
acknowledged▁	-11.5361
warrior▁	-11.5361
faint▁	-11.5362
vel▁	-11.5362
courage▁	-11.5362
fortune▁	-11.5363
vey▁	-11.5366
phy	-11.5372
independently▁	-11.5372
Adventures▁	-11.5372
Res	-11.5378
clean	-11.5379
Lucy▁	-11.538
autumn▁	-11.5383
ð	-11.5383
dialogue▁	-11.5383
sliding▁	-11.5383
Bear▁	-11.5383
fat▁	-11.5385
shima▁	-11.5388
ops▁	-11.5392
Flam	-11.5394
Linda▁	-11.5398
Brahm	-11.5402
doc	-11.5403
owing▁	-11.5404
volunteer▁	-11.5404
yesterday▁	-11.5404
romance▁	-11.5406
View▁	-11.5407
Interview▁	-11.5409
field	-11.5409
escu▁	-11.5409
Jin	-11.5409
Starting▁	-11.5409
160	-11.541
Kay	-11.541
Past▁	-11.5412
blog▁	-11.5412
EA▁	-11.5414
nett▁	-11.5414
Presbyterian▁	-11.5415
firm	-11.5415
Fifth▁	-11.5415
cliff▁	-11.5416
Barn	-11.5417
ør	-11.5422
Gross	-11.5424
array▁	-11.5426
democracy▁	-11.5426
Alpha▁	-11.5426
Ahmed▁	-11.5426
DF▁	-11.5427
construct▁	-11.5428
clam	-11.5428
Sons▁	-11.5429
Spi	-11.543
py	-11.5432
Han▁	-11.5433
Nadu▁	-11.5433
Card	-11.5434
Mathematics▁	-11.5437
gasped▁	-11.5437
consist▁	-11.5437
freestyle▁	-11.5438
handled▁	-11.5439
64	-11.5439
adia▁	-11.5439
uy	-11.544
IP	-11.5441
Yoshi	-11.5441
Batt	-11.5442
static▁	-11.5444
eurs▁	-11.5444
Marco▁	-11.5445
exile▁	-11.5446
п	-11.5447
Canterbury▁	-11.5447
continent▁	-11.5447
discrimination▁	-11.5448
pipe▁	-11.5448
Dru	-11.5448
rah▁	-11.5449
LS▁	-11.545
wet	-11.5453
loading▁	-11.5455
particles▁	-11.5456
IBM▁	-11.5458
Hopkins▁	-11.5458
Documentary▁	-11.5459
Goal	-11.5459
patent▁	-11.546
orbit▁	-11.5461
undergraduate▁	-11.5461
huh▁	-11.5462
quil	-11.5462
cooking▁	-11.5464
Ax	-11.5465
tasks▁	-11.5465
uro▁	-11.5466
upcoming▁	-11.5469
curled▁	-11.5469
Richardson▁	-11.5469
attractive▁	-11.5469
examined▁	-11.5469
Lodge▁	-11.5469
specified▁	-11.547
universal▁	-11.5472
door	-11.5473
kind	-11.5479
Luxembourg▁	-11.548
heroes▁	-11.548
rebels▁	-11.548
PR▁	-11.5482
feared▁	-11.5486
Penn▁	-11.549
beliefs▁	-11.5491
striking▁	-11.5491
boxers▁	-11.5492
prompted▁	-11.5495
News	-11.5499
sque	-11.55
rebellion▁	-11.5502
refugees▁	-11.5502
separation▁	-11.5502
frozen▁	-11.5502
cogni	-11.5503
stance▁	-11.5504
boxer▁	-11.5504
Males▁	-11.5507
Beck	-11.5507
Kyle▁	-11.5507
alien	-11.5508
iya	-11.5509
swing▁	-11.5511
anza▁	-11.5512
agreements▁	-11.5512
receiver▁	-11.5512
Belgrade▁	-11.5514
Haven▁	-11.5517
wich▁	-11.552
omy	-11.552
Herr	-11.552
medic	-11.5521
similarly▁	-11.5523
Burton▁	-11.5523
Physical▁	-11.5525
seated▁	-11.5526
anya▁	-11.5527
1835▁	-11.5528
provision▁	-11.5529
Hell▁	-11.5529
joe▁	-11.5529
Oak▁	-11.553
Remix▁	-11.5531
Astro	-11.5534
Baronet▁	-11.5534
encountered▁	-11.5534
jumping▁	-11.5534
Interior▁	-11.5534
nominee▁	-11.5534
Cardiff▁	-11.5534
Kho	-11.5537
Alv	-11.5537
Dub	-11.5538
ishes▁	-11.554
Emma▁	-11.554
Crime▁	-11.5543
oti	-11.5544
este▁	-11.5544
encounter▁	-11.5545
inian▁	-11.5545
moderate▁	-11.5545
Geneva▁	-11.5546
hausen▁	-11.5546
stake▁	-11.5547
PC	-11.5548
Cox▁	-11.555
manages▁	-11.5551
Category▁	-11.5556
brigade▁	-11.5556
narrowed▁	-11.5556
pleasant▁	-11.5556
streak▁	-11.5556
sculptures▁	-11.5556
Liberation▁	-11.5558
shan	-11.5559
ladies▁	-11.5561
transformed▁	-11.5564
humor▁	-11.5565
Edmonton▁	-11.5567
Reynolds▁	-11.5567
scandal▁	-11.5567
Animal▁	-11.5567
practically▁	-11.5567
holders▁	-11.5568
Guards▁	-11.5569
tit	-11.5569
kai▁	-11.5569
—	-11.557
Vari	-11.5571
portions▁	-11.5572
Inter▁	-11.5574
secret	-11.5575
protecting▁	-11.5576
allied▁	-11.5577
Heaven▁	-11.5578
realm▁	-11.5578
sche	-11.5579
Oslo▁	-11.5579
gut▁	-11.558
ryan▁	-11.5584
01	-11.5584
luke▁	-11.5585
dawn▁	-11.5586
text	-11.5587
dry	-11.5588
lik	-11.5588
operators▁	-11.5589
impression▁	-11.559
Bed	-11.559
other	-11.5592
SO▁	-11.5593
armor▁	-11.5596
centered▁	-11.5597
adi▁	-11.5599
tackles▁	-11.56
strikes▁	-11.56
retiring▁	-11.56
Impact▁	-11.5601
floating▁	-11.5601
ola	-11.5601
streams▁	-11.5602
Choice▁	-11.5604
13.	-11.5604
shipping▁	-11.5606
even	-11.5607
brow▁	-11.5609
Notre▁	-11.561
Fel	-11.561
achievements▁	-11.5611
daniel▁	-11.5611
Sli	-11.5611
gramm	-11.5613
inder▁	-11.5614
town	-11.5614
emily▁	-11.5614
renowned▁	-11.5615
Lion▁	-11.5615
Semi▁	-11.5617
allegations▁	-11.5622
democratic▁	-11.5622
assured▁	-11.5622
öl	-11.5622
murders▁	-11.5622
signature▁	-11.5622
kawa▁	-11.5623
revolutionary▁	-11.5623
Clar	-11.5623
bab	-11.5626
bills▁	-11.5628
Away▁	-11.5629
ienne▁	-11.563
reserved▁	-11.563
behaviour▁	-11.5633
shoe▁	-11.5633
deals▁	-11.5636
overs▁	-11.5637
cardi	-11.5639
Abdul▁	-11.5641
caps▁	-11.5641
oire▁	-11.5641
awake▁	-11.5642
terrorist▁	-11.5644
custom▁	-11.5644
relaxed▁	-11.5644
Abd	-11.5644
1838▁	-11.5644
vari	-11.5645
axis▁	-11.5645
suits▁	-11.5649
ress▁	-11.5654
targeted▁	-11.5655
companion▁	-11.5655
PP▁	-11.5655
faded▁	-11.5655
nationally▁	-11.5657
board	-11.5658
Nacional▁	-11.5666
Treaties▁	-11.5666
Heights▁	-11.5666
scorer▁	-11.5667
bitch▁	-11.5667
beast▁	-11.5667
mothers▁	-11.5668
You	-11.5671
lusi	-11.5673
Brooks▁	-11.5674
ies	-11.5675
theatrical▁	-11.5677
explore▁	-11.5677
key	-11.5686
distribut	-11.5686
potentially▁	-11.5688
presenter▁	-11.5688
Copa▁	-11.5689
nuts▁	-11.5689
Course▁	-11.5689
Triple▁	-11.569
Hai	-11.5691
63	-11.5697
race	-11.5699
Gö	-11.5699
Achievement▁	-11.5699
True▁	-11.5703
dense▁	-11.5703
mouse▁	-11.5704
ová▁	-11.5707
Foot	-11.5708
eaten▁	-11.571
Algeria▁	-11.571
Budapest▁	-11.571
performers▁	-11.571
GA▁	-11.571
tv▁	-11.5712
Loss▁	-11.5712
wash▁	-11.5712
thereby▁	-11.5712
eve	-11.5715
Open	-11.5716
endings▁	-11.572
exterior▁	-11.5721
Estate▁	-11.5721
Chess▁	-11.5724
absorbed▁	-11.5732
administered▁	-11.5732
Haz	-11.5734
curious▁	-11.5734
Fantasy▁	-11.5735
sided▁	-11.5735
relay▁	-11.5738
HD▁	-11.5738
beck▁	-11.574
oop▁	-11.5744
Rochester▁	-11.5744
immigration▁	-11.5746
strained▁	-11.5748
NASCAR▁	-11.5754
executives▁	-11.5754
mythology▁	-11.5754
vector▁	-11.5754
Location▁	-11.5754
CM▁	-11.5755
lawsuit▁	-11.5755
atch▁	-11.5756
panels▁	-11.5758
Fle	-11.5758
Sham	-11.576
reforms▁	-11.576
Hes	-11.5762
Malcolm▁	-11.5765
prevented▁	-11.5765
03	-11.5766
Nobel▁	-11.5767
specialist▁	-11.5767
sdale▁	-11.5768
130▁	-11.5769
lumin	-11.5773
sequences▁	-11.5774
ela	-11.5775
habit▁	-11.5775
Nevertheless▁	-11.5777
threatening▁	-11.5777
Scho	-11.5778
symbol	-11.578
1832▁	-11.578
Tang▁	-11.578
4.5▁	-11.5781
pin▁	-11.5782
eros▁	-11.5784
06	-11.5786
Learning▁	-11.5787
vill	-11.5787
Roads▁	-11.5787
expecting▁	-11.5788
touchdowns▁	-11.5788
Burials▁	-11.5788
songwriters▁	-11.5788
Twitter▁	-11.5788
Complex▁	-11.5788
Miles▁	-11.5789
1812▁	-11.5792
nee▁	-11.5793
Advisory▁	-11.5799
consciousness▁	-11.5799
Kos	-11.5799
provisions▁	-11.58
2.3▁	-11.5801
transformation▁	-11.5801
retain▁	-11.5802
Snow▁	-11.5802
etics▁	-11.5805
Kid	-11.5806
Gene▁	-11.5807
displays▁	-11.5807
7/	-11.5808
Testament▁	-11.581
travelling▁	-11.581
ultimate▁	-11.5811
Kingston▁	-11.5812
Gin	-11.5813
2.2▁	-11.5819
diving▁	-11.582
Brussels▁	-11.5821
igu	-11.5823
sheep▁	-11.5824
grants▁	-11.5826
freight▁	-11.5826
fasci	-11.5826
Ages▁	-11.5828
sian▁	-11.5828
lining▁	-11.583
Transit▁	-11.5831
Old	-11.5831
flor	-11.5832
1839▁	-11.5832
eph	-11.5832
74	-11.5833
lessons▁	-11.5834
biting▁	-11.5836
Ship	-11.5836
Call▁	-11.5841
PL▁	-11.5843
some	-11.5844
curved▁	-11.5845
flooding▁	-11.5847
barrel▁	-11.5848
Arc	-11.5849
broad	-11.5853
lish▁	-11.5853
Administrative▁	-11.5855
tightened▁	-11.5855
draws▁	-11.5855
localities▁	-11.5855
variants▁	-11.5855
variations▁	-11.5856
Tourist▁	-11.5856
Various▁	-11.5857
Glenn▁	-11.5858
ophor	-11.5859
volu	-11.5862
Cord	-11.5863
ы	-11.5866
Endemic▁	-11.5866
proceeded▁	-11.5866
enzyme▁	-11.5866
Kru	-11.5869
surnames▁	-11.587
Disc	-11.5876
yar	-11.5877
approaching▁	-11.5878
followers▁	-11.5878
goddess▁	-11.5878
consumer▁	-11.5878
Bailey▁	-11.5878
cult▁	-11.5878
María▁	-11.588
rebounds▁	-11.5881
enable▁	-11.5881
hypo	-11.5884
Dorothy▁	-11.5889
insects▁	-11.5889
Glen▁	-11.589
strings▁	-11.589
Rang	-11.5899
icker▁	-11.5899
Boulevard▁	-11.59
dialect▁	-11.59
governing▁	-11.59
Morrison▁	-11.59
arguing▁	-11.59
eager▁	-11.5903
erra	-11.5903
Martha▁	-11.5904
05	-11.5909
horse	-11.5909
ence	-11.5915
Tap	-11.5915
aea▁	-11.5921
Motor	-11.5922
ame	-11.5923
conferences▁	-11.5923
maintaining▁	-11.5923
für▁	-11.5923
cfc▁	-11.5923
Michel	-11.5923
Springfield▁	-11.5924
lind	-11.5926
bride▁	-11.5926
discontinued▁	-11.5929
2.4▁	-11.593
Milton▁	-11.5931
Tropical▁	-11.5934
sailors▁	-11.5934
desired▁	-11.5934
Oper	-11.5935
Ans	-11.594
gui	-11.594
Brook▁	-11.5942
joke▁	-11.5942
Kad	-11.5942
master	-11.5943
LE	-11.5944
Tour	-11.5945
font▁	-11.5945
Publishers▁	-11.5945
crystal▁	-11.5945
hesitated▁	-11.5945
inscription▁	-11.5945
sucked▁	-11.5945
broadcasts▁	-11.5945
dubbed▁	-11.5946
manor▁	-11.5947
Sister▁	-11.5947
But	-11.5948
Being▁	-11.5953
Train▁	-11.5954
introduce▁	-11.5957
revealing▁	-11.5957
Lutheran▁	-11.5957
welfare▁	-11.5957
requiring▁	-11.5957
Dynasty▁	-11.5957
duke▁	-11.5957
Rabbi▁	-11.5958
care	-11.5964
picking▁	-11.5964
gas	-11.5965
iss▁	-11.5965
pathy▁	-11.5968
achievement▁	-11.5968
segments▁	-11.5968
Ludwig▁	-11.5968
circulation▁	-11.5968
poll▁	-11.5969
mac▁	-11.5971
Sof	-11.5974
manual▁	-11.5974
hou	-11.5975
praise▁	-11.5975
Amazon▁	-11.5976
guilt▁	-11.5977
hull▁	-11.5978
Harbour▁	-11.5979
escort▁	-11.5979
NEAT▁	-11.598
ologies▁	-11.5982
Tyler▁	-11.5983
dos	-11.5983
borne▁	-11.5983
lov	-11.5984
ML▁	-11.5985
ès▁	-11.5986
Day	-11.5986
div	-11.5987
dash	-11.5988
gest	-11.599
revival▁	-11.5991
drinks▁	-11.5991
offs▁	-11.5991
demons▁	-11.5994
bert	-11.5994
Rhy	-11.5994
buff	-11.5996
Singer▁	-11.5997
How	-11.5999
Dream	-11.6
rs▁	-11.6001
ifications▁	-11.6002
Legislature▁	-11.6002
viol	-11.6002
prototype▁	-11.6003
Ulster▁	-11.6004
imposed▁	-11.6005
Eye▁	-11.6006
creates▁	-11.6007
Andrea▁	-11.6009
14.	-11.6009
flashed▁	-11.6011
alb	-11.6013
procedures▁	-11.6014
wrestlers▁	-11.6014
designers▁	-11.6014
enabled▁	-11.6014
Jag	-11.6014
jerked▁	-11.6015
Edgar▁	-11.6015
ultra	-11.6017
arity▁	-11.6017
streaming▁	-11.6018
casts▁	-11.6018
Hop	-11.6019
Rec	-11.6019
joins▁	-11.602
Kids▁	-11.6023
endra▁	-11.6025
μ	-11.6025
eyebrows▁	-11.6025
guidance▁	-11.6026
ced	-11.6026
nau	-11.6028
locate▁	-11.6028
USSR▁	-11.6029
Milli	-11.6032
lingu	-11.6032
deceased▁	-11.6033
neutral▁	-11.6034
Napoleon▁	-11.6037
citizenship▁	-11.6037
excitement▁	-11.6037
drawings▁	-11.6038
devi	-11.6038
triple▁	-11.6038
gur	-11.6039
underwent▁	-11.604
×	-11.6041
-4▁	-11.6042
amy▁	-11.6044
ρ	-11.6048
Rab	-11.6048
Chancellor▁	-11.6048
Fellowship▁	-11.6048
Kenny▁	-11.6049
lier▁	-11.6051
0.5▁	-11.6055
resource▁	-11.6055
Lyon▁	-11.6058
BA	-11.6058
Hero▁	-11.6059
customer▁	-11.6059
warriors▁	-11.6059
Chiefs▁	-11.6059
Chemical▁	-11.606
trunk▁	-11.606
1842▁	-11.606
Mind▁	-11.6063
α▁	-11.6064
hai▁	-11.6064
Karen▁	-11.6065
Hodg	-11.6065
Flu	-11.6067
collecting▁	-11.6068
asse▁	-11.6069
expatriates▁	-11.6071
intervention▁	-11.6071
Slovak▁	-11.6071
Medic	-11.6073
Pirates▁	-11.6074
brew	-11.6074
eti	-11.6075
Sem	-11.6076
sexy▁	-11.6077
Rus	-11.6078
music	-11.6079
remix▁	-11.6081
physicist▁	-11.6082
poured▁	-11.6082
lens▁	-11.6083
Fraser▁	-11.6083
cht	-11.6084
entries▁	-11.6088
Sheriff▁	-11.6094
indoor▁	-11.6094
cello▁	-11.6096
hammer▁	-11.6098
Hick	-11.6098
chains▁	-11.6099
cock	-11.6101
eil▁	-11.6102
necessarily▁	-11.6105
stationed▁	-11.6105
deposits▁	-11.6105
Generation▁	-11.6106
permit▁	-11.6106
Stakes▁	-11.611
Pat▁	-11.6111
strain▁	-11.6112
arg	-11.6113
seal▁	-11.6113
archive▁	-11.6114
PGA▁	-11.6115
ammunition▁	-11.6117
monitoring▁	-11.6117
Jeremy▁	-11.6117
Directors▁	-11.6118
improving▁	-11.6118
GB▁	-11.6119
Heroes▁	-11.612
elena▁	-11.6121
Lists▁	-11.6124
foli	-11.6124
Il▁	-11.6125
Ellen▁	-11.6127
Carlo▁	-11.6128
ift	-11.6128
playwright▁	-11.6129
specimens▁	-11.6129
matrix▁	-11.613
compounds▁	-11.613
Jamie▁	-11.6132
termin	-11.6133
fucking▁	-11.6134
Salv	-11.6134
navy▁	-11.614
Associate▁	-11.614
ère▁	-11.614
Plaza▁	-11.6141
tail	-11.6142
mall▁	-11.6145
illard▁	-11.6146
ignore▁	-11.6151
Database▁	-11.6152
custody▁	-11.6152
Henderson▁	-11.6152
hal▁	-11.6154
drives▁	-11.6154
margin	-11.6156
Bull▁	-11.6157
breast	-11.6158
Globe▁	-11.6159
Present	-11.6162
UP▁	-11.6163
Myanmar▁	-11.6163
divorced▁	-11.6163
involve▁	-11.6163
motorcycle▁	-11.6164
ritual▁	-11.6164
Cornell▁	-11.6165
nicknamed▁	-11.6166
Aero	-11.6169
Arms▁	-11.617
Sit	-11.617
Fall	-11.617
mills▁	-11.6175
expanding▁	-11.6175
argues▁	-11.6175
Universities▁	-11.6175
Santos▁	-11.6178
wage▁	-11.6179
Spe	-11.6182
ester▁	-11.6185
sack▁	-11.6185
Ultimate▁	-11.6186
then	-11.6187
Version▁	-11.6189
alter▁	-11.619
Lynn▁	-11.619
Feder	-11.6193
evo▁	-11.6195
polo▁	-11.6197
screenwriter▁	-11.6198
libraries▁	-11.6198
Sei	-11.6199
practiced▁	-11.62
Path	-11.6203
izer▁	-11.6205
Ach	-11.6205
Stro	-11.6206
NSW▁	-11.6207
clenched▁	-11.621
tray▁	-11.621
Invest	-11.6213
Neuro	-11.6214
rail	-11.6216
97	-11.6217
ral	-11.6218
Main	-11.6218
stad▁	-11.6218
bou	-11.6219
heated▁	-11.622
fence▁	-11.622
ا	-11.6221
angles▁	-11.6221
warmth▁	-11.6221
bacteria▁	-11.6222
lt	-11.6224
Near▁	-11.6225
awn▁	-11.6227
Cort	-11.6229
Got▁	-11.6229
Raf	-11.623
PI▁	-11.623
Brother▁	-11.6233
Edmund▁	-11.6233
believing▁	-11.6233
voyage▁	-11.6233
Agricultural▁	-11.6233
vat	-11.6235
wishes▁	-11.6238
Plants▁	-11.6238
gard▁	-11.6239
Brook	-11.6241
reader▁	-11.6243
Monroe▁	-11.6245
quarter	-11.6246
saur	-11.6248
Jesse▁	-11.6249
1.9▁	-11.6251
Gas	-11.6252
reactions▁	-11.6254
Inspector▁	-11.6256
widened▁	-11.6256
Reform▁	-11.6257
vinyl▁	-11.6257
lectures▁	-11.6257
Match▁	-11.6258
GP▁	-11.6259
Kim	-11.6262
NY	-11.6265
uf	-11.6266
1843▁	-11.6267
Albany▁	-11.6268
Crystal▁	-11.6268
invitation▁	-11.6268
Brighton▁	-11.6268
aka	-11.6268
matt▁	-11.6269
Eco	-11.6269
varying▁	-11.6269
hetero	-11.6272
mitt	-11.6273
ssel▁	-11.6273
Emergency▁	-11.628
nis	-11.628
Dylan▁	-11.6281
colours▁	-11.6281
Non	-11.6285
Petro	-11.6289
lighter▁	-11.6291
Nad	-11.6291
Beetles▁	-11.6292
Slovakia▁	-11.6292
accomplished▁	-11.6292
suggesting▁	-11.6292
Saxon▁	-11.6292
pursued▁	-11.6292
alley▁	-11.6295
vac	-11.6295
zen	-11.6297
Ale	-11.6298
Dale▁	-11.6301
Newfoundland▁	-11.6303
Salvador▁	-11.6303
allegedly▁	-11.6303
findings▁	-11.6303
Gibson▁	-11.6303
Windsor▁	-11.6303
nowhere▁	-11.6305
Acc	-11.6306
sunk▁	-11.6309
amma▁	-11.6309
jay	-11.631
Thur	-11.6312
izzy▁	-11.6313
acquire▁	-11.6315
editorial▁	-11.6315
dollar▁	-11.6316
terror▁	-11.6317
eep▁	-11.632
boot▁	-11.632
hag	-11.632
overhead▁	-11.632
origin	-11.632
treating▁	-11.6322
fred▁	-11.6323
aba	-11.6325
oval▁	-11.6326
Walt▁	-11.6326
tate▁	-11.6327
doctoral▁	-11.6327
fights▁	-11.6327
journalism▁	-11.6327
banking▁	-11.633
grams▁	-11.633
SB▁	-11.633
dun	-11.6331
Cohen▁	-11.6341
corps▁	-11.6342
emerging▁	-11.6343
Glo	-11.6345
Using▁	-11.6346
National	-11.6349
stained▁	-11.635
swear▁	-11.635
doctorate▁	-11.635
mutual▁	-11.6351
Bavaria▁	-11.6351
dancers▁	-11.6351
adr▁	-11.6351
gather▁	-11.6352
comprising▁	-11.6352
space	-11.6354
performer▁	-11.6355
conscious▁	-11.6356
goal	-11.6356
Ey	-11.6358
facts▁	-11.6359
Hayes▁	-11.636
а▁	-11.636
Lt▁	-11.6361
bod	-11.6362
Theodore▁	-11.6362
Champ	-11.6364
Kap	-11.6364
Set▁	-11.6365
essay▁	-11.6365
Dow	-11.6368
tales▁	-11.6373
lung	-11.6374
Adrian▁	-11.6376
dug▁	-11.6378
hill	-11.6378
must	-11.6379
logically▁	-11.6381
Print	-11.6382
hob	-11.6383
Ng	-11.6384
clouds▁	-11.6386
sacrifice▁	-11.6386
advisor▁	-11.6386
ographer▁	-11.6386
Critics▁	-11.6386
Emmy▁	-11.6387
Rol	-11.6387
entity▁	-11.6387
RE▁	-11.6388
и▁	-11.6388
Amy▁	-11.639
Ladies▁	-11.639
3–0▁	-11.6391
capita▁	-11.6392
upp	-11.6392
Pyr	-11.6392
Diana▁	-11.6393
melan	-11.6393
8:	-11.6395
resolved▁	-11.6396
battle	-11.6396
item▁	-11.6398
Elliott▁	-11.6398
Hurricane▁	-11.6398
Yankees▁	-11.6398
-20▁	-11.6398
privately▁	-11.6398
Ut	-11.6399
libr	-11.6401
blew▁	-11.6402
duration▁	-11.6402
brian▁	-11.6405
RCA▁	-11.6406
tat	-11.6406
iza▁	-11.6407
missionary▁	-11.641
Inside▁	-11.641
3–2▁	-11.6413
rhy	-11.6413
ona	-11.6416
Mid▁	-11.6416
glow▁	-11.642
cared▁	-11.642
Song	-11.6421
з	-11.6422
cathedral▁	-11.6422
prestigious▁	-11.6422
manuscripts▁	-11.6422
farmer▁	-11.6423
Hugo▁	-11.6425
mund	-11.6429
bark▁	-11.6429
ITV▁	-11.643
boy	-11.643
94	-11.6431
rations▁	-11.6432
fu▁	-11.6432
Fran	-11.6433
Gaelic▁	-11.6434
recipients▁	-11.6434
swimmers▁	-11.6434
promising▁	-11.6434
southeastern▁	-11.6434
quantum▁	-11.6434
best	-11.6437
lash	-11.6438
VC▁	-11.6438
Gat	-11.6439
stead▁	-11.6441
Brown	-11.6444
speaks▁	-11.6444
yx▁	-11.6445
algorithm▁	-11.6445
requirement▁	-11.6445
advised▁	-11.6445
AIDS▁	-11.6445
halfway▁	-11.6445
congregation▁	-11.6446
offense▁	-11.6446
Til	-11.6448
-4	-11.645
Nil	-11.645
eir	-11.6451
Grim	-11.6452
anz	-11.6455
Every	-11.6455
amine▁	-11.6455
rim	-11.6455
Agreement▁	-11.6457
developer▁	-11.6457
routine▁	-11.6458
flames▁	-11.6458
Monte▁	-11.6459
Dir	-11.646
Jen	-11.646
arched▁	-11.6461
Twin▁	-11.6462
clearing▁	-11.6463
isa▁	-11.6463
spine▁	-11.6465
numer	-11.6466
tens▁	-11.6466
publish▁	-11.6469
silently▁	-11.647
Genus▁	-11.6473
2.1▁	-11.6474
depends▁	-11.6475
breed▁	-11.6476
overcome▁	-11.648
asi▁	-11.648
see	-11.648
Shadow▁	-11.6481
growled▁	-11.6481
bounded▁	-11.6481
pursuit▁	-11.6483
mel▁	-11.6487
73	-11.649
parti	-11.6492
cure▁	-11.6493
sail▁	-11.6493
MBA▁	-11.6493
Chemistry▁	-11.6493
powder▁	-11.6493
Criminal▁	-11.6493
settling▁	-11.6493
trophy▁	-11.6493
bullet▁	-11.6494
Primera▁	-11.6495
ante	-11.6497
salv	-11.6501
ț	-11.6505
Communication▁	-11.6505
ordained▁	-11.6505
lengths▁	-11.6505
nationwide▁	-11.6505
blast▁	-11.6508
transit▁	-11.6511
й▁	-11.6513
hybrid▁	-11.6513
360▁	-11.6515
literacy▁	-11.6517
phenomenon▁	-11.6517
synthesis▁	-11.6518
ā▁	-11.6518
Pack	-11.6519
ile	-11.652
neo▁	-11.652
AI▁	-11.652
Carroll▁	-11.6521
ming	-11.6522
Sleep	-11.6522
Flor	-11.6523
Ami	-11.6523
hem▁	-11.6523
wald▁	-11.6525
bassist▁	-11.6528
sharply▁	-11.6529
theoretical▁	-11.6529
probability▁	-11.6529
aftermath▁	-11.6529
BL▁	-11.6531
Wick	-11.6534
Matsu	-11.6534
Persi	-11.6535
CW▁	-11.6541
educator▁	-11.6541
governmental▁	-11.6541
abel▁	-11.6542
EN	-11.6542
Eight▁	-11.6543
Roy	-11.6543
Doug▁	-11.6544
tenor▁	-11.6545
nails▁	-11.6545
opsis▁	-11.655
Real	-11.655
faction▁	-11.6552
nerve▁	-11.6552
wheel	-11.6553
organisms▁	-11.6553
theorem▁	-11.6553
30,000▁	-11.6553
Hem	-11.6553
Speaker▁	-11.6553
handsome▁	-11.6554
hail	-11.6555
finger	-11.6557
smiles▁	-11.6559
Vision▁	-11.6559
Kab	-11.6563
tem	-11.6564
Dodgers▁	-11.6565
favorable▁	-11.6565
Belarus▁	-11.6565
transported▁	-11.6566
consultant▁	-11.6567
arians▁	-11.6567
Guil	-11.657
Iz	-11.6574
Schw	-11.6574
rocky▁	-11.6577
Cavalry▁	-11.6578
Producer▁	-11.6578
audiences▁	-11.6578
Bry	-11.658
Human	-11.658
Cole	-11.6583
Preston▁	-11.6583
estates▁	-11.6584
earth	-11.6587
verses▁	-11.6588
farms▁	-11.6589
Palomar▁	-11.659
ensemble▁	-11.659
eventual▁	-11.659
registration▁	-11.659
clerk▁	-11.659
Collect	-11.659
varied▁	-11.659
Marg	-11.659
surfaces▁	-11.6591
heels▁	-11.6591
upstairs▁	-11.6592
mim	-11.6593
Metal▁	-11.6593
imi	-11.6596
alarm▁	-11.66
Analysis▁	-11.6602
enhanced▁	-11.6602
legendary▁	-11.6602
Plymouth▁	-11.6602
define▁	-11.6604
solely▁	-11.6604
Sisters▁	-11.6604
secrets▁	-11.6604
Colin▁	-11.6604
visions▁	-11.6605
Editor▁	-11.661
Bridge	-11.6611
scop	-11.6613
reliable▁	-11.6614
av▁	-11.6614
3.0▁	-11.6616
KO▁	-11.6616
isha▁	-11.6618
edged▁	-11.662
express	-11.6621
Wikipedia▁	-11.6626
configuration▁	-11.6626
Sco	-11.6627
scott▁	-11.6629
Lok▁	-11.6635
tally▁	-11.6636
diet▁	-11.6638
wolves▁	-11.6638
Boeing▁	-11.6638
Richards▁	-11.6638
cert	-11.664
cart	-11.664
breathed▁	-11.6642
Lep	-11.6642
crowned▁	-11.6643
avi▁	-11.6643
GC▁	-11.6645
richard▁	-11.6645
BCE▁	-11.6648
restore▁	-11.6649
Maharashtra▁	-11.665
reflection▁	-11.665
withdrawal▁	-11.665
here	-11.6651
sus▁	-11.6651
recover▁	-11.6651
160▁	-11.6652
utility▁	-11.6653
ately▁	-11.6653
hosting▁	-11.6655
varies▁	-11.6658
Burke▁	-11.6658
methyl	-11.666
enlisted▁	-11.6662
accidentally▁	-11.6662
conflicts▁	-11.6662
imprisonment▁	-11.6662
ilo▁	-11.6665
Too	-11.6666
Americas▁	-11.6666
thal	-11.6669
Annie▁	-11.6671
Am▁	-11.6672
remarkable▁	-11.6675
18–	-11.6675
dock	-11.6677
ación▁	-11.6678
kun	-11.6678
Ped	-11.6678
Count	-11.668
hire▁	-11.6683
Master	-11.6683
Border▁	-11.6685
administrator▁	-11.6687
Seoul▁	-11.6687
eter▁	-11.6688
lovely▁	-11.6689
armies▁	-11.669
grain▁	-11.669
ī▁	-11.6693
bush▁	-11.6695
deer▁	-11.6695
shal	-11.6696
recall▁	-11.6698
Trinidad▁	-11.6699
Heinrich▁	-11.6699
trailer▁	-11.6699
Archaeological▁	-11.6699
dynamics▁	-11.6699
portraits▁	-11.6699
packed▁	-11.67
Yu▁	-11.67
Zen	-11.6701
ballet▁	-11.6701
Way	-11.6701
Indo▁	-11.6702
Lov	-11.6705
ahn▁	-11.6706
19.	-11.6707
Ballet▁	-11.6708
Ras	-11.671
opus▁	-11.671
Alf	-11.6711
Halifax▁	-11.6711
Istanbul▁	-11.6711
decrease▁	-11.6711
succeed▁	-11.6711
virtually▁	-11.6711
loyal▁	-11.6711
receptor▁	-11.6712
millions▁	-11.6713
Naples▁	-11.6713
Prote	-11.6718
Things▁	-11.6718
mentions▁	-11.6721
Leipzig▁	-11.6724
Sofia▁	-11.6726
én▁	-11.6727
crack▁	-11.6728
batting▁	-11.6728
roman	-11.6729
Hir	-11.6731
matched▁	-11.6732
abs	-11.6733
pending▁	-11.6733
180▁	-11.6733
Arctic▁	-11.6737
Heat▁	-11.6737
Rhine▁	-11.6738
bats▁	-11.6738
Brun	-11.6738
Southwest▁	-11.6738
shorts▁	-11.6739
sensation▁	-11.674
anism▁	-11.6742
paths▁	-11.6742
rap▁	-11.6744
uncomfortable▁	-11.6747
oi	-11.6747
comput	-11.6748
Ethiopia▁	-11.6748
profession▁	-11.6748
Janeiro▁	-11.6749
onist▁	-11.675
learns▁	-11.675
direct	-11.6751
Bang	-11.6752
ESPN▁	-11.6752
Lad	-11.6753
Guest▁	-11.6754
ов	-11.6755
Chic	-11.676
Arsenal▁	-11.676
Karnataka▁	-11.676
occurring▁	-11.676
cans▁	-11.6762
Bog	-11.6764
cycles▁	-11.6765
cade▁	-11.6766
bast	-11.6768
scen	-11.6769
Basin▁	-11.6769
rational▁	-11.6769
trips▁	-11.6773
ř	-11.6773
Factory▁	-11.6773
commanding▁	-11.6773
mathematician▁	-11.6773
Chau	-11.6775
Samp	-11.6776
sounding▁	-11.6778
Gram	-11.6779
IM	-11.6781
ono	-11.6782
loving▁	-11.6783
Bren	-11.6784
Quarter▁	-11.6785
Barnes▁	-11.6785
aggressive▁	-11.6785
feminist▁	-11.6785
researcher▁	-11.6785
averaged▁	-11.6785
william▁	-11.6785
NATO▁	-11.6785
rainfall▁	-11.6787
rim▁	-11.6789
conjunction▁	-11.6791
yll	-11.6792
colon	-11.6793
cage▁	-11.6797
professionals▁	-11.6797
satisfaction▁	-11.6797
terrorism▁	-11.6797
suffer▁	-11.6798
spelled▁	-11.6799
95	-11.6799
onwards▁	-11.6801
Edwin▁	-11.6804
Archi	-11.6808
Level▁	-11.6808
[...]
