<unk>	0
<s>	0
</s>	0
<pad>	0
▁the	-2.96305
▁of	-3.63563
▁in	-3.76515
s	-3.82256
▁and	-3.83272
▁a	-4.01574
▁to	-4.18675
▁was	-4.76563
▁is	-5.01414
▁for	-5.03052
▁on	-5.07829
▁as	-5.09978
▁by	-5.20357
▁with	-5.24898
▁	-5.26593
▁he	-5.32283
ing	-5.36984
▁at	-5.42601
▁from	-5.44438
ed	-5.44669
▁that	-5.51492
e	-5.65335
▁his	-5.6677
▁it	-5.69622
▁an	-5.76926
y	-5.9116
▁be	-6.05891
d	-6.10401
▁were	-6.10544
a	-6.13969
▁also	-6.18971
▁which	-6.19569
▁are	-6.19689
er	-6.25329
▁or	-6.27354
o	-6.28141
▁new	-6.33177
▁this	-6.33537
▁had	-6.37731
▁first	-6.37829
▁has	-6.4338
es	-6.44375
ly	-6.46188
t	-6.46326
n	-6.46699
▁her	-6.47364
▁she	-6.47402
▁one	-6.51045
▁de	-6.55961
▁their	-6.56102
th	-6.57444
▁after	-6.57496
▁18	-6.57501
▁not	-6.57898
▁who	-6.59423
▁its	-6.61077
▁but	-6.6128
▁references	-6.64088
▁re	-6.69759
▁two	-6.71292
▁have	-6.76457
▁people	-6.77178
▁american	-6.7871
al	-6.79962
▁p	-6.81214
▁they	-6.81622
▁all	-6.82372
▁s	-6.82861
▁i	-6.83509
i	-6.84012
▁b	-6.84989
k	-6.85499
▁c	-6.85571
▁m	-6.87556
▁been	-6.87889
▁other	-6.88981
▁1	-6.89708
▁no	-6.94468
▁when	-6.96963
▁over	-6.98651
▁during	-7.00632
▁time	-7.02256
▁2	-7.03613
▁school	-7.0388
▁may	-7.03978
m	-7.04214
▁university	-7.04478
▁national	-7.05787
▁into	-7.05938
▁united	-7.0706
z	-7.08924
▁e	-7.10949
▁world	-7.11211
▁up	-7.11281
▁there	-7.11576
an	-7.1165
▁d	-7.1298
ers	-7.13351
▁out	-7.13874
▁f	-7.13962
▁state	-7.14922
▁3	-7.15109
▁more	-7.15452
▁t	-7.15453
on	-7.15672
▁war	-7.16565
▁states	-7.21903
us	-7.22288
▁under	-7.22595
▁born	-7.2277
▁un	-7.23478
▁g	-7.23729
▁years	-7.23737
▁film	-7.23754
▁players	-7.24142
▁can	-7.24307
▁k	-7.247
▁would	-7.24836
▁where	-7.25023
▁external	-7.25407
▁city	-7.25637
▁st	-7.26064
▁links	-7.26413
en	-7.26414
▁later	-7.2912
▁only	-7.29401
r	-7.29489
▁between	-7.30114
▁year	-7.30306
p	-7.3037
▁south	-7.30372
▁three	-7.30459
▁about	-7.31164
in	-7.31361
▁most	-7.31655
▁some	-7.34248
▁la	-7.34275
▁him	-7.3439
▁season	-7.34799
man	-7.34875
▁part	-7.34937
▁4	-7.35617
▁us	-7.35819
▁so	-7.36164
c	-7.37553
▁17	-7.38546
▁r	-7.39188
▁second	-7.39626
▁co	-7.39968
▁made	-7.4089
▁team	-7.41344
x	-7.41693
▁history	-7.41799
▁h	-7.42308
▁while	-7.42966
▁series	-7.43919
▁n	-7.4409
ic	-7.44125
▁such	-7.44141
g	-7.45314
▁used	-7.45512
▁10	-7.45877
st	-7.46345
▁county	-7.46701
▁north	-7.48012
▁league	-7.48496
h	-7.48553
▁16	-7.48591
▁known	-7.49843
or	-7.49852
▁5	-7.49933
▁than	-7.50504
▁see	-7.50559
▁l	-7.51619
ion	-7.51809
▁music	-7.52411
▁15	-7.52608
▁w	-7.5277
▁then	-7.52926
▁life	-7.52956
▁20	-7.53516
▁became	-7.54194
▁district	-7.54735
b	-7.55376
▁before	-7.55519
▁high	-7.55998
ton	-7.56356
▁many	-7.56459
▁through	-7.57535
▁being	-7.57679
▁football	-7.57773
▁well	-7.58094
2	-7.58662
▁including	-7.5898
▁12	-7.59337
le	-7.59549
▁o	-7.59697
▁both	-7.59961
▁v	-7.60015
▁house	-7.60358
▁group	-7.61198
▁these	-7.61238
▁work	-7.61259
l	-7.6162
ies	-7.61857
▁against	-7.61927
▁early	-7.62373
▁do	-7.62593
▁international	-7.62808
▁7	-7.63317
▁march	-7.64616
▁family	-7.64767
▁films	-7.6509
▁john	-7.65318
▁west	-7.65407
f	-7.66413
▁since	-7.66917
▁6	-7.66945
▁8	-7.67418
▁until	-7.68076
▁british	-7.68569
▁career	-7.68638
▁name	-7.68858
▁will	-7.68981
▁j	-7.69094
▁york	-7.69406
▁september	-7.70348
▁august	-7.70739
▁me	-7.71167
▁living	-7.71388
▁number	-7.71877
▁game	-7.72587
▁october	-7.72675
▁four	-7.7279
▁area	-7.73011
▁home	-7.73044
▁january	-7.73822
▁however	-7.74034
▁following	-7.74126
▁club	-7.74225
▁album	-7.74676
▁games	-7.75765
▁government	-7.76278
▁june	-7.76545
is	-7.76563
▁company	-7.76918
▁11	-7.76994
▁2010	-7.77153
▁14	-7.77162
na	-7.77523
▁july	-7.77587
▁college	-7.7801
▁end	-7.78162
▁played	-7.78197
ia	-7.78408
▁ma	-7.78493
▁them	-7.78946
▁general	-7.79129
▁13	-7.79441
6	-7.79473
▁november	-7.80563
▁births	-7.80716
▁released	-7.80726
▁april	-7.81184
ry	-7.81372
▁won	-7.81705
1	-7.82128
▁best	-7.82243
▁december	-7.8302
▁back	-7.83541
u	-7.84208
▁place	-7.84563
▁former	-7.84718
▁several	-7.84769
▁air	-7.84967
▁le	-7.85208
▁church	-7.85677
▁english	-7.86265
able	-7.86475
▁list	-7.86798
9	-7.87014
▁day	-7.87049
▁man	-7.87354
▁2011	-7.87443
son	-7.88179
▁public	-7.88821
um	-7.88848
▁called	-7.89125
▁per	-7.89134
▁go	-7.89227
▁same	-7.8957
▁9	-7.89628
ity	-7.89973
▁members	-7.90254
▁east	-7.906
▁long	-7.90744
▁each	-7.90834
▁21	-7.9113
▁member	-7.91422
▁if	-7.91811
ation	-7.92134
▁february	-7.92307
▁art	-7.92359
w	-7.9257
▁now	-7.92613
▁2009	-7.92643
▁2012	-7.92802
▁station	-7.93333
▁al	-7.93375
▁2008	-7.93639
▁2007	-7.93684
ch	-7.94082
▁television	-7.94303
▁2013	-7.94828
▁party	-7.94919
▁we	-7.95028
el	-7.95287
▁line	-7.9556
▁car	-7.95997
3	-7.96072
▁2014	-7.96217
▁song	-7.96634
ar	-7.96654
▁found	-7.97639
▁dis	-7.97897
▁sa	-7.9811
▁2006	-7.98278
▁service	-7.98371
▁use	-7.98524
▁based	-7.99204
ta	-7.99326
▁like	-7.99498
▁2015	-8.0009
▁river	-8.00174
v	-8.00217
▁u	-8.01062
▁show	-8.01298
▁order	-8.01337
ist	-8.0138
▁final	-8.01529
▁2016	-8.01629
▁system	-8.01751
▁ka	-8.02017
▁french	-8.0212
▁german	-8.02181
▁town	-8.02403
▁set	-8.02639
▁park	-8.02744
▁band	-8.03236
▁local	-8.03263
▁women	-8.03281
re	-8.03374
▁began	-8.03499
ne	-8.03839
▁ha	-8.03913
▁named	-8.04215
▁na	-8.04269
▁water	-8.04325
▁book	-8.04391
▁major	-8.04499
j	-8.04983
▁held	-8.05042
▁du	-8.05045
ley	-8.05558
▁due	-8.05696
▁san	-8.06255
▁london	-8.06286
▁black	-8.06367
▁population	-8.06644
▁son	-8.06838
▁bo	-8.07424
▁my	-8.07457
▁division	-8.07618
▁law	-8.07972
▁could	-8.07992
▁did	-8.08059
▁established	-8.08137
▁pre	-8.08373
▁century	-8.08408
▁any	-8.08517
▁located	-8.0854
▁2018	-8.08715
▁around	-8.08971
▁death	-8.09111
▁vi	-8.09439
▁single	-8.09677
▁2017	-8.09731
▁award	-8.09756
▁president	-8.10039
▁road	-8.10641
▁army	-8.11462
▁because	-8.11478
▁land	-8.11574
▁se	-8.1169
▁took	-8.11816
as	-8.12377
▁30	-8.12441
▁cup	-8.12636
▁published	-8.12835
▁head	-8.12989
▁age	-8.13448
▁di	-8.13582
▁built	-8.13863
de	-8.13877
▁down	-8.13891
▁died	-8.14006
▁you	-8.14283
▁top	-8.14355
▁ca	-8.14493
▁ii	-8.14564
▁last	-8.14932
▁association	-8.14974
▁court	-8.15244
▁en	-8.1529
▁served	-8.155
▁player	-8.15599
▁left	-8.15605
▁another	-8.1563
▁25	-8.15645
▁post	-8.15915
▁19	-8.15929
▁main	-8.16157
▁third	-8.16282
ce	-8.16909
▁five	-8.16917
▁2005	-8.17025
ra	-8.171
▁education	-8.17209
▁building	-8.17521
▁men	-8.17658
▁small	-8.17688
os	-8.17793
ism	-8.17814
▁play	-8.17839
▁2000	-8.17857
▁along	-8.17924
age	-8.17977
▁royal	-8.18011
▁received	-8.18311
▁2019	-8.18639
▁pro	-8.188
▁within	-8.18982
▁bar	-8.19201
▁what	-8.19746
▁village	-8.19899
▁center	-8.2018
▁short	-8.20272
▁x	-8.20377
te	-8.20717
▁old	-8.21175
ian	-8.21412
▁military	-8.21468
ma	-8.21938
▁sub	-8.22024
▁great	-8.22395
▁development	-8.22795
ive	-8.23055
▁white	-8.23442
▁species	-8.23723
▁ba	-8.23759
▁power	-8.23822
ts	-8.24008
▁said	-8.2401
▁lo	-8.24112
▁off	-8.24163
land	-8.24193
ie	-8.24234
▁central	-8.24842
▁side	-8.24879
▁director	-8.24956
▁mo	-8.25061
▁own	-8.2518
▁ex	-8.2523
ine	-8.25688
▁research	-8.25768
to	-8.25877
▁large	-8.26007
▁record	-8.26324
▁red	-8.26343
▁male	-8.26639
▁street	-8.26938
▁field	-8.27008
▁24	-8.27734
nd	-8.27875
▁union	-8.28079
4	-8.28409
▁include	-8.28417
▁2020	-8.28442
▁championship	-8.28637
▁country	-8.29077
▁con	-8.29286
▁2004	-8.29362
▁late	-8.29407
▁council	-8.29595
thcentury	-8.29751
▁just	-8.29784
▁radio	-8.29865
▁ko	-8.30038
▁summer	-8.30095
▁still	-8.3032
▁video	-8.30599
ty	-8.30649
▁lu	-8.30951
▁ho	-8.31051
▁political	-8.31175
▁original	-8.31875
▁mar	-8.3194
▁although	-8.31942
▁22	-8.32059
▁ra	-8.32196
▁department	-8.32234
▁win	-8.32396
▁included	-8.32417
▁according	-8.32467
▁el	-8.32496
▁round	-8.32888
5	-8.33059
▁england	-8.33107
▁those	-8.33478
▁official	-8.33503
▁track	-8.33642
▁community	-8.33778
▁pa	-8.34503
▁king	-8.34508
way	-8.34945
▁very	-8.35508
▁australia	-8.35664
▁bi	-8.35743
ke	-8.35867
▁william	-8.35883
▁rock	-8.36029
▁ro	-8.36098
▁free	-8.36252
ment	-8.36288
ka	-8.36365
▁million	-8.36375
▁ja	-8.36718
▁times	-8.37116
▁sea	-8.37339
▁near	-8.37371
▁california	-8.37594
▁live	-8.37843
▁six	-8.37879
▁island	-8.37997
▁23	-8.38088
▁george	-8.38242
▁2003	-8.38537
▁green	-8.38608
▁office	-8.38913
▁li	-8.38917
▁social	-8.39274
▁works	-8.39293
▁love	-8.39296
▁led	-8.39514
▁children	-8.39628
▁hall	-8.39668
▁songs	-8.39714
la	-8.39795
▁deaths	-8.39801
▁australian	-8.39884
▁production	-8.39894
▁da	-8.40087
▁form	-8.40263
▁among	-8.40328
▁election	-8.40473
▁western	-8.40783
▁way	-8.4084
▁open	-8.40931
▁super	-8.41413
▁society	-8.41419
▁make	-8.41555
▁different	-8.41805
▁moved	-8.42041
▁title	-8.42065
▁professional	-8.42112
▁again	-8.4238
▁project	-8.42519
▁young	-8.42537
ve	-8.42735
▁even	-8.42761
▁2002	-8.42785
▁z	-8.42969
▁indian	-8.42995
da	-8.43038
▁much	-8.43051
▁act	-8.43075
▁further	-8.43135
▁2001	-8.43197
▁france	-8.43609
▁often	-8.4369
▁father	-8.43695
▁y	-8.4389
▁region	-8.44108
▁india	-8.44292
▁id	-8.44382
▁km	-8.4443
▁james	-8.44475
▁support	-8.44525
▁records	-8.44607
▁non	-8.44712
▁total	-8.4486
▁board	-8.45388
▁business	-8.46015
▁came	-8.46175
id	-8.46457
▁site	-8.4653
▁police	-8.46805
▁european	-8.46817
▁special	-8.4687
▁role	-8.469
▁period	-8.47146
at	-8.47162
▁run	-8.4795
▁po	-8.4796
▁ten	-8.48003
▁force	-8.4813
▁1990	-8.48287
▁awards	-8.48333
▁press	-8.48503
▁written	-8.48529
▁dr	-8.48559
ro	-8.48832
▁described	-8.48864
▁light	-8.4902
▁take	-8.49226
▁paul	-8.49325
▁human	-8.49376
▁point	-8.49626
▁railway	-8.49922
▁produced	-8.50121
▁battle	-8.50308
▁northern	-8.50413
▁services	-8.50553
▁david	-8.50609
▁26	-8.50894
▁fc	-8.51027
▁having	-8.51175
▁next	-8.51238
ate	-8.51277
am	-8.51369
▁su	-8.51407
▁version	-8.51794
▁good	-8.51915
▁am	-8.52127
▁si	-8.52347
▁given	-8.52627
▁fire	-8.5281
▁albums	-8.53148
▁robert	-8.53172
▁canadian	-8.53192
▁went	-8.53327
▁2021	-8.53477
se	-8.53541
▁canada	-8.5375
▁ni	-8.53835
▁museum	-8.5386
▁tu	-8.54173
▁started	-8.54186
▁health	-8.54274
▁various	-8.54369
▁science	-8.54372
▁night	-8.54374
▁design	-8.54443
▁grand	-8.5447
▁28	-8.54546
go	-8.54654
by	-8.54762
▁27	-8.54782
▁announced	-8.54833
▁tour	-8.54974
▁modern	-8.55144
ko	-8.5531
▁story	-8.55535
▁class	-8.55695
▁pe	-8.55738
ler	-8.55816
▁ga	-8.56116
▁using	-8.56137
▁1999	-8.56488
▁tri	-8.565
▁how	-8.56587
▁race	-8.5661
▁teams	-8.56693
▁married	-8.56746
▁right	-8.56863
▁places	-8.56912
▁program	-8.57058
▁gold	-8.5717
il	-8.5724
▁students	-8.5727
▁gu	-8.57371
▁star	-8.57387
▁control	-8.57983
▁mc	-8.58016
ca	-8.58165
▁ta	-8.58255
▁match	-8.58259
▁far	-8.58523
▁bu	-8.58725
co	-8.58778
ness	-8.58883
▁become	-8.5953
za	-8.59538
▁minister	-8.59766
▁few	-8.59775
it	-8.59801
▁cast	-8.59945
▁mu	-8.59975
▁germany	-8.60035
▁every	-8.60222
▁america	-8.60349
▁website	-8.60462
▁created	-8.60493
▁1980	-8.60925
▁media	-8.61058
va	-8.61371
▁hand	-8.61383
8	-8.61524
sh	-8.61742
▁fa	-8.6175
ck	-8.61758
▁kingdom	-8.61843
18	-8.61874
▁mid	-8.61912
▁without	-8.62329
▁lost	-8.62343
▁southern	-8.62398
▁1998	-8.6241
▁china	-8.62545
ga	-8.62654
▁100	-8.62706
▁style	-8.62708
▁half	-8.62745
▁books	-8.63096
▁joined	-8.63222
▁debut	-8.6334
▁position	-8.63372
▁events	-8.63754
less	-8.63915
▁little	-8.64053
que	-8.64469
ance	-8.64546
▁chief	-8.64767
▁case	-8.64782
▁historic	-8.64846
▁worked	-8.64892
▁ed	-8.64905
▁ce	-8.64946
▁japanese	-8.65004
▁buildings	-8.65155
▁29	-8.65454
cy	-8.65533
den	-8.65968
▁never	-8.66011
ya	-8.66026
ant	-8.66049
▁full	-8.66156
▁1996	-8.66407
▁sports	-8.66651
▁italian	-8.66804
▁alumni	-8.66969
ized	-8.6697
▁1997	-8.67061
▁days	-8.67156
▁hu	-8.67272
▁cha	-8.67297
▁charles	-8.67436
▁space	-8.67438
▁anti	-8.67463
▁japan	-8.67666
▁footballers	-8.678
tic	-8.67839
▁van	-8.68008
▁womens	-8.68109
▁schools	-8.68139
et	-8.68214
ling	-8.6829
▁lead	-8.68331
rd	-8.68343
▁31	-8.68486
▁inter	-8.68487
▁russian	-8.68528
est	-8.68742
ham	-8.68906
▁uk	-8.6897
▁together	-8.69054
▁returned	-8.69098
▁wrote	-8.69177
ner	-8.69262
ary	-8.69399
▁thomas	-8.69456
ina	-8.69553
▁opened	-8.69826
ville	-8.69948
▁release	-8.70082
▁event	-8.70148
▁language	-8.70219
ford	-8.70468
ous	-8.70633
▁institute	-8.70675
▁stage	-8.70717
com	-8.70718
ter	-8.7078
▁sp	-8.70904
▁base	-8.71105
▁founded	-8.7116
men	-8.71268
▁level	-8.71288
nt	-8.71374
▁though	-8.71419
▁tv	-8.71483
▁bay	-8.71877
▁port	-8.7189
▁middle	-8.72023
▁information	-8.72095
ors	-8.7249
▁cross	-8.72688
7	-8.72861
▁common	-8.73093
▁groups	-8.73218
up	-8.73229
▁1970	-8.73242
▁recorded	-8.73251
▁popular	-8.73261
▁1995	-8.73532
▁che	-8.73591
▁sun	-8.7377
▁ch	-8.73977
ba	-8.74075
▁civil	-8.74112
▁similar	-8.74323
10	-8.7439
ja	-8.74598
▁present	-8.75057
▁ge	-8.75144
▁1994	-8.75175
▁40	-8.75351
▁va	-8.75677
▁personal	-8.75735
▁alignright	-8.75784
▁lake	-8.75787
▁academy	-8.76085
▁coach	-8.76217
▁trade	-8.76265
▁im	-8.76268
▁cor	-8.76306
▁1992	-8.76367
▁province	-8.76381
▁centre	-8.76482
▁bur	-8.76534
▁jo	-8.76535
▁te	-8.76596
▁seven	-8.76691
▁directed	-8.76712
▁roman	-8.7677
▁bank	-8.76785
▁wife	-8.76807
▁notes	-8.7683
▁chinese	-8.76831
▁michael	-8.76836
▁mac	-8.7693
ang	-8.77004
▁washington	-8.77101
▁mother	-8.77231
▁episode	-8.77281
▁ver	-8.77383
▁continued	-8.774
▁less	-8.77411
▁low	-8.77475
ge	-8.77475
▁wa	-8.775
▁europe	-8.77922
▁companies	-8.77983
ha	-8.77991
▁mark	-8.78098
▁areas	-8.78466
▁real	-8.78629
▁construction	-8.78674
▁results	-8.7874
▁body	-8.78895
▁once	-8.7892
▁ne	-8.78948
▁completed	-8.78972
▁important	-8.79024
▁ku	-8.79036
▁forces	-8.79103
ni	-8.79255
▁model	-8.79264
▁appointed	-8.79312
▁pi	-8.79438
▁working	-8.79651
▁considered	-8.79709
▁making	-8.79898
▁committee	-8.79911
▁route	-8.80012
▁front	-8.80286
▁za	-8.80392
rs	-8.80398
▁basketball	-8.80494
▁republic	-8.80851
▁result	-8.80882
▁artists	-8.81206
▁ya	-8.81215
▁pan	-8.81305
▁arts	-8.81519
▁help	-8.81534
▁1993	-8.81535
▁festival	-8.8162
▁current	-8.81755
▁private	-8.8203
▁hill	-8.82312
▁character	-8.82379
ah	-8.82611
ana	-8.82922
▁mi	-8.82948
00	-8.83015
▁range	-8.83041
▁get	-8.83043
▁elected	-8.83183
▁training	-8.83233
▁medal	-8.83456
▁1960	-8.83614
ber	-8.83633
be	-8.83649
▁ben	-8.8366
▁50	-8.83714
▁originally	-8.83803
12	-8.83826
▁hospital	-8.83935
▁god	-8.8396
▁olympics	-8.84096
▁1991	-8.84157
▁eastern	-8.8425
line	-8.8426
▁points	-8.84283
▁signed	-8.84335
▁big	-8.84338
me	-8.84355
▁process	-8.84552
▁brown	-8.84641
▁performance	-8.84695
▁wood	-8.84808
▁appeared	-8.84814
▁developed	-8.85027
▁peter	-8.85072
▁1987	-8.85196
▁formed	-8.85514
▁daughter	-8.8552
▁review	-8.85591
▁addition	-8.85612
▁himself	-8.85647
▁network	-8.85739
ung	-8.85759
▁professor	-8.85827
▁ru	-8.86201
▁federal	-8.86385
▁par	-8.86432
ur	-8.86564
▁must	-8.86644
▁bill	-8.86698
▁across	-8.86709
▁playing	-8.86733
▁capital	-8.86896
▁upon	-8.86909
▁female	-8.86909
▁blue	-8.86911
▁tournament	-8.86973
▁ti	-8.87037
▁africa	-8.87163
▁spanish	-8.87234
▁theatre	-8.87259
ical	-8.87359
les	-8.87457
ff	-8.87525
▁studies	-8.87609
▁average	-8.87693
▁rights	-8.87694
20	-8.8778
▁har	-8.87815
ium	-8.87935
▁catholic	-8.87939
ology	-8.88
▁brother	-8.88005
ad	-8.88132
▁example	-8.88217
▁hit	-8.88256
▁zealand	-8.88297
50	-8.88527
▁martin	-8.88532
▁away	-8.88766
▁put	-8.88956
17	-8.89026
▁sch	-8.89027
▁ship	-8.89051
time	-8.89065
▁medical	-8.89115
▁saint	-8.893
▁gar	-8.89321
▁peak	-8.89797
▁culture	-8.89973
15	-8.90025
▁natural	-8.90155
ze	-8.90303
▁study	-8.90316
ard	-8.90342
▁author	-8.90454
▁others	-8.90495
▁1988	-8.90526
▁para	-8.90566
▁musical	-8.90751
▁texas	-8.90817
ul	-8.90897
▁los	-8.91063
▁close	-8.91085
▁week	-8.91417
field	-8.91609
▁camp	-8.91633
▁vol	-8.91791
16	-8.91793
ful	-8.91929
▁0	-8.92145
▁should	-8.92249
▁artist	-8.92257
lo	-8.92408
▁return	-8.92457
▁1989	-8.9258
ted	-8.92658
▁term	-8.92867
▁sent	-8.92879
▁stations	-8.92979
no	-8.92984
▁gi	-8.93082
day	-8.93117
▁african	-8.93246
▁hard	-8.93309
▁campaign	-8.93325
▁coast	-8.93391
▁paris	-8.93418
ny	-8.93844
▁novel	-8.93849
▁bridge	-8.9397
▁henry	-8.94032
ier	-8.94133
▁available	-8.94212
▁ran	-8.94421
30	-8.94548
▁birth	-8.94553
ius	-8.95113
▁sold	-8.95252
ster	-8.95269
▁ad	-8.95327
▁ri	-8.95498
ney	-8.95567
ists	-8.95604
▁chi	-8.95627
▁ke	-8.95747
▁eight	-8.95896
▁del	-8.95969
▁independent	-8.96049
▁wi	-8.96053
▁type	-8.96192
▁senior	-8.96362
▁baseball	-8.96393
▁despite	-8.96431
▁os	-8.96682
▁throughout	-8.96825
▁writers	-8.96835
pe	-8.96895
▁section	-8.969
▁met	-8.97049
▁text	-8.97055
▁shows	-8.97116
der	-8.97163
sa	-8.9718
▁performed	-8.97274
▁mary	-8.97289
▁mens	-8.97306
▁action	-8.97414
▁ar	-8.97492
▁contract	-8.97586
▁gave	-8.97625
▁technology	-8.97731
▁ju	-8.97785
▁ground	-8.97798
▁conference	-8.9781
▁news	-8.97826
ally	-8.97843
▁championships	-8.9786
▁studio	-8.97969
▁sir	-8.98091
▁aircraft	-8.98156
▁smith	-8.98303
▁taken	-8.98308
▁sh	-8.98362
▁richard	-8.98552
▁competition	-8.98642
▁ever	-8.98663
▁bra	-8.98676
▁christian	-8.9878
▁currently	-8.98832
▁governor	-8.98832
▁hi	-8.99319
▁singles	-8.99408
▁foreign	-8.99476
▁politician	-8.99483
ri	-8.99532
▁lower	-8.9957
▁via	-8.99669
▁management	-8.99689
▁staff	-8.99937
▁mount	-8.99947
ish	-9.00005
▁features	-9.00006
▁plan	-9.00135
▁dar	-9.00292
▁1986	-9.00317
▁change	-9.00331
▁data	-9.0036
ir	-9.00466
▁followed	-9.00499
▁killed	-9.00517
▁organization	-9.00631
▁care	-9.00646
▁months	-9.00799
▁command	-9.00841
▁ireland	-9.00892
▁magazine	-9.00964
▁designed	-9.00965
▁come	-9.00976
▁officer	-9.00996
▁eventually	-9.0126
▁does	-9.01261
▁test	-9.01306
ez	-9.01311
▁collection	-9.01361
▁1984	-9.01445
▁assembly	-9.01493
wood	-9.015
lin	-9.01506
000	-9.01515
▁olympic	-9.01639
ong	-9.01752
▁cal	-9.01783
▁census	-9.02033
▁guitar	-9.02122
▁regional	-9.02135
ji	-9.02145
▁q	-9.02256
berg	-9.02283
▁fourth	-9.02452
14	-9.02561
▁virginia	-9.02666
▁prior	-9.02815
▁market	-9.029
▁mon	-9.02979
ng	-9.03058
▁library	-9.03072
wa	-9.03103
▁plant	-9.03157
▁navy	-9.03166
▁child	-9.03168
▁start	-9.03228
ki	-9.03231
▁mal	-9.03419
40	-9.03523
▁refer	-9.03604
▁access	-9.03664
▁woman	-9.03794
▁strong	-9.03819
▁deal	-9.03853
▁primary	-9.0399
▁1950	-9.04033
▁seen	-9.04092
▁awarded	-9.04114
▁leading	-9.04176
▁edition	-9.04238
▁ball	-9.04319
▁movement	-9.04344
▁1985	-9.04526
▁actor	-9.04543
▁parliament	-9.04548
▁instead	-9.04591
un	-9.04595
the	-9.04684
▁saw	-9.04706
▁featured	-9.04838
▁includes	-9.05059
shire	-9.05069
▁finished	-9.05113
ated	-9.05351
▁valley	-9.05415
▁fi	-9.05426
gen	-9.05443
he	-9.0549
ti	-9.05668
ette	-9.05672
▁mountain	-9.0584
▁countries	-9.05885
▁louis	-9.05998
▁sound	-9.06018
▁key	-9.06099
▁commission	-9.06191
▁reported	-9.06225
▁food	-9.06348
▁heart	-9.06362
▁attack	-9.06421
▁above	-9.06422
▁sam	-9.06434
▁unit	-9.06469
▁writer	-9.06669
▁et	-9.06971
▁success	-9.07208
▁sand	-9.07328
ization	-9.07372
▁sal	-9.07482
▁captain	-9.07598
11	-9.07769
▁chicago	-9.07783
▁largest	-9.07924
▁industry	-9.08005
▁frank	-9.08043
▁native	-9.0812
▁economic	-9.08372
▁florida	-9.08391
▁remained	-9.08443
13	-9.08495
▁1983	-9.08651
▁our	-9.0872
▁standard	-9.08785
▁1982	-9.08819
▁past	-9.08857
▁leader	-9.08887
ks	-9.08925
▁ep	-9.08982
▁soviet	-9.09046
▁bass	-9.0911
▁mexico	-9.09538
▁sha	-9.09598
▁nu	-9.09619
▁commercial	-9.09843
▁rugby	-9.09859
▁ab	-9.09917
▁fu	-9.09941
ions	-9.1005
▁listed	-9.10077
ile	-9.1016
ino	-9.10198
0	-9.10294
▁register	-9.10298
▁writing	-9.10301
q	-9.10387
▁drama	-9.10403
well	-9.10484
▁previous	-9.10491
▁empire	-9.10535
▁goal	-9.10688
▁replaced	-9.11124
ac	-9.11141
▁future	-9.11142
▁individual	-9.11165
▁boy	-9.11172
di	-9.11269
bb	-9.11457
▁introduced	-9.11478
▁usually	-9.11488
▁outside	-9.11498
▁gun	-9.11545
▁foundation	-9.11578
▁establishments	-9.11684
▁provide	-9.11866
▁trans	-9.11874
▁transport	-9.11902
▁aligncenter	-9.11921
▁prime	-9.11926
pa	-9.12019
▁move	-9.12071
▁thus	-9.12099
▁irish	-9.12196
▁reading	-9.12213
▁either	-9.12216
ting	-9.12233
▁today	-9.12235
▁rose	-9.12245
▁notable	-9.1227
ship	-9.12376
▁least	-9.1242
▁italy	-9.12465
▁bal	-9.12506
▁silver	-9.12509
▁systems	-9.12546
▁fe	-9.12602
▁characters	-9.12683
▁host	-9.12703
▁fall	-9.12841
idae	-9.12858
▁producer	-9.12923
▁ob	-9.12985
▁vocals	-9.13091
▁historical	-9.131
▁1979	-9.13114
▁don	-9.13185
▁involved	-9.1322
19	-9.13307
▁master	-9.13535
▁added	-9.13554
▁wales	-9.13559
▁regular	-9.13633
▁got	-9.13676
▁able	-9.13686
ud	-9.13979
▁russia	-9.13991
do	-9.14064
▁manager	-9.143
▁bus	-9.14382
▁soon	-9.14446
▁legal	-9.14506
▁prize	-9.14564
▁beginning	-9.14594
ade	-9.14603
▁active	-9.14619
▁dan	-9.14642
▁degree	-9.14719
▁fair	-9.14792
▁youth	-9.14804
▁34	-9.15236
▁hockey	-9.15239
▁voice	-9.15248
▁wide	-9.15279
▁shot	-9.15298
▁view	-9.15332
▁yu	-9.15346
li	-9.154
▁kar	-9.15426
▁1981	-9.15611
▁your	-9.15614
▁greek	-9.15738
▁gra	-9.15739
▁square	-9.15803
▁structure	-9.15974
▁jack	-9.16033
▁1976	-9.16106
▁face	-9.16127
zi	-9.16182
▁background	-9.16185
town	-9.16444
▁almost	-9.16513
▁previously	-9.16564
▁scored	-9.16701
▁joseph	-9.16726
off	-9.16768
▁forest	-9.168
▁provided	-9.16887
▁pennsylvania	-9.1689
▁self	-9.17011
▁break	-9.17033
mar	-9.17046
▁1972	-9.17078
21	-9.17124
▁1978	-9.17157
▁chart	-9.17196
▁ice	-9.17312
▁singer	-9.17347
▁rather	-9.17367
▁sources	-9.17408
tz	-9.1754
▁behind	-9.17739
ons	-9.17795
im	-9.17801
▁turn	-9.17986
▁report	-9.18038
side	-9.1807
▁energy	-9.18081
▁cultural	-9.18084
▁multi	-9.18168
▁ban	-9.1825
zz	-9.18374
▁missing	-9.18416
▁ram	-9.18529
▁higher	-9.18546
au	-9.18617
ins	-9.18624
▁winter	-9.18664
▁bad	-9.18689
▁brand	-9.18723
tion	-9.18985
▁1974	-9.19081
25	-9.19253
▁dark	-9.1931
▁1977	-9.1944
ak	-9.19464
▁islands	-9.19512
▁bell	-9.19552
ite	-9.19798
out	-9.19823
▁operations	-9.2006
▁channel	-9.20095
▁35	-9.20104
▁airport	-9.20164
▁practice	-9.20174
▁limited	-9.20183
▁size	-9.20198
year	-9.2021
▁highway	-9.20219
▁cut	-9.20355
uk	-9.20359
hl	-9.2036
▁stated	-9.20413
▁student	-9.20444
▁units	-9.20502
▁1945	-9.20507
pur	-9.2051
▁selected	-9.20572
ek	-9.20644
ps	-9.20646
▁pay	-9.20667
▁pass	-9.20757
▁footballer	-9.20813
▁congress	-9.20938
mann	-9.21138
ku	-9.21142
▁person	-9.21211
▁secretary	-9.21229
▁additional	-9.21259
don	-9.21262
ns	-9.21263
▁angeles	-9.21387
ata	-9.21404
▁security	-9.2143
▁personnel	-9.21481
▁wall	-9.21484
▁rest	-9.21489
▁reached	-9.21502
ol	-9.21718
▁rural	-9.21822
▁1975	-9.21902
dy	-9.22035
▁executive	-9.22071
▁thought	-9.22133
▁dance	-9.22202
▁train	-9.2221
of	-9.22285
▁complex	-9.22337
▁decided	-9.22416
▁lee	-9.22466
▁whose	-9.22502
▁placed	-9.22602
▁score	-9.22718
▁date	-9.2285
▁clubs	-9.22867
▁nations	-9.22873
▁stone	-9.22883
▁mor	-9.23121
▁cur	-9.23196
▁1973	-9.23452
▁ships	-9.23557
▁1968	-9.23637
▁below	-9.23961
mi	-9.23971
▁mr	-9.24011
▁brought	-9.24037
▁castle	-9.24115
▁carolina	-9.24177
▁plays	-9.24214
ide	-9.24231
▁need	-9.24364
▁money	-9.24474
ward	-9.24481
▁interest	-9.24513
bo	-9.24609
▁call	-9.24616
▁traditional	-9.24645
▁winning	-9.2467
▁justice	-9.24706
ey	-9.24724
▁families	-9.24789
▁parish	-9.24817
ft	-9.24927
▁scottish	-9.2495
▁opera	-9.24968
▁1930	-9.24969
▁32	-9.24977
▁democratic	-9.25033
▁here	-9.25057
▁table	-9.25194
▁attended	-9.25254
▁mis	-9.25268
ik	-9.25284
▁mass	-9.25348
57	-9.25415
▁sometimes	-9.25486
▁expatriate	-9.25552
▁wild	-9.25582
▁tax	-9.25604
▁dutch	-9.25689
67	-9.25695
▁course	-9.25738
hu	-9.25744
▁minor	-9.25805
▁possible	-9.25837
ms	-9.25895
▁1940	-9.25983
▁engineering	-9.2599
▁room	-9.26099
▁mad	-9.26125
▁taking	-9.26147
▁seasons	-9.26243
▁closed	-9.2648
▁code	-9.2652
▁pop	-9.26584
▁operation	-9.2663
▁1969	-9.26691
▁solo	-9.26827
▁ki	-9.26831
▁approximately	-9.26876
▁lord	-9.26981
▁des	-9.27013
▁find	-9.27082
▁know	-9.27105
han	-9.27298
sen	-9.2734
mon	-9.27349
ov	-9.27467
▁annual	-9.27501
▁cra	-9.27559
▁sc	-9.27566
▁fight	-9.27591
▁1971	-9.2763
58	-9.27639
ities	-9.27667
▁web	-9.27668
▁bat	-9.27753
▁elections	-9.27856
▁decision	-9.2788
stcentury	-9.27962
78	-9.27966
▁successful	-9.28072
▁matches	-9.28158
▁policy	-9.28191
▁flight	-9.28233
▁der	-9.28274
▁ye	-9.28304
▁earth	-9.28654
▁dun	-9.28707
▁financial	-9.2874
▁initially	-9.28916
▁shi	-9.29011
▁biography	-9.29103
▁complete	-9.29161
▁prince	-9.29169
▁speed	-9.29282
▁administration	-9.29283
▁junior	-9.29334
▁runs	-9.29348
▁dead	-9.29352
ella	-9.29417
▁temple	-9.29436
▁online	-9.29491
back	-9.29524
▁length	-9.29565
▁fact	-9.29637
▁1964	-9.29765
▁journal	-9.29776
▁goals	-9.29799
▁label	-9.29807
▁nine	-9.29855
▁location	-9.29867
▁especially	-9.29919
▁hotel	-9.30017
▁consist	-9.3006
▁seat	-9.30243
▁mel	-9.30246
▁latin	-9.30275
▁opening	-9.30447
▁township	-9.30521
▁dam	-9.30593
▁1967	-9.30643
ap	-9.30645
05	-9.30684
ory	-9.3085
▁property	-9.30869
▁regiment	-9.31
▁cap	-9.31033
▁1965	-9.31038
▁corps	-9.31073
▁assistant	-9.31119
77	-9.31163
▁spain	-9.31236
▁administrative	-9.31249
84	-9.31256
68	-9.31337
▁defeated	-9.31349
▁jewish	-9.31443
▁em	-9.31468
zo	-9.31501
▁cd	-9.31609
▁spring	-9.31647
▁represented	-9.31738
▁foot	-9.3174
▁overall	-9.31753
▁era	-9.31776
▁religious	-9.31827
▁poland	-9.31907
▁bre	-9.31957
based	-9.31989
▁related	-9.3203
▁gas	-9.32036
▁significant	-9.32072
▁digital	-9.32208
▁farm	-9.32214
▁running	-9.32255
▁changed	-9.32457
▁direct	-9.32484
▁towards	-9.32515
▁better	-9.32558
▁beat	-9.32603
ker	-9.327
▁deep	-9.32715
▁stadium	-9.32749
▁th	-9.32749
▁source	-9.32856
▁metal	-9.32989
ble	-9.33027
▁winner	-9.33027
▁champion	-9.33059
▁bol	-9.33099
▁michigan	-9.33227
sky	-9.3325
▁survey	-9.33271
81	-9.33322
23	-9.33323
▁parts	-9.33408
▁block	-9.33554
▁asian	-9.33561
▁cover	-9.33584
▁ended	-9.33635
io	-9.33645
▁map	-9.33653
▁loss	-9.33722
▁double	-9.33762
▁sin	-9.33814
▁gri	-9.33881
▁highest	-9.33894
over	-9.33923
ent	-9.33958
▁hal	-9.33971
▁cy	-9.34066
74	-9.3407
▁1920	-9.34157
bc	-9.34378
and	-9.34379
▁ste	-9.34398
▁movie	-9.34431
▁bio	-9.34572
▁comedy	-9.34576
▁page	-9.34639
▁feature	-9.34697
mer	-9.34729
▁count	-9.34777
▁gallery	-9.349
▁tre	-9.34924
gar	-9.35069
▁honor	-9.35186
▁certain	-9.35258
▁edward	-9.35306
▁polish	-9.35311
▁allowed	-9.3542
▁issue	-9.35425
▁scotland	-9.35482
house	-9.35486
res	-9.35537
▁peace	-9.35545
▁recording	-9.35573
▁surface	-9.35574
ll	-9.35607
▁travel	-9.35621
▁launched	-9.35671
▁issues	-9.35711
ise	-9.35777
▁marine	-9.35897
▁whom	-9.35899
▁associated	-9.35929
▁op	-9.35978
cc	-9.36026
▁poly	-9.36133
▁border	-9.36134
ev	-9.36154
24	-9.36289
▁global	-9.36323
▁create	-9.36342
▁bishop	-9.36358
fa	-9.36398
72	-9.36441
▁1966	-9.36503
▁article	-9.36609
▁arm	-9.36624
▁victory	-9.36654
▁word	-9.36674
▁sta	-9.36681
▁oil	-9.36718
▁secret	-9.36764
07	-9.36838
▁sister	-9.36839
▁activities	-9.36853
▁generally	-9.3692
▁itself	-9.36936
▁bla	-9.36954
▁pen	-9.37016
▁tower	-9.37063
▁multiple	-9.37105
▁earlier	-9.37229
▁ancient	-9.37286
▁urban	-9.37292
▁politicians	-9.37334
▁nature	-9.3738
▁cu	-9.37392
▁cat	-9.37462
▁faculty	-9.37512
▁means	-9.37535
▁ski	-9.37619
je	-9.37704
▁britain	-9.3781
▁actress	-9.37828
▁60	-9.37929
▁cost	-9.37975
▁grade	-9.38005
▁pu	-9.38103
▁jan	-9.38124
08	-9.3816
▁houses	-9.38161
▁nor	-9.38275
60	-9.38299
port	-9.3831
▁beach	-9.3833
▁spent	-9.38413
▁appearance	-9.38491
▁orchestra	-9.38544
▁required	-9.38592
▁municipality	-9.38675
▁owned	-9.38702
▁genus	-9.38798
▁sport	-9.38943
▁ze	-9.39072
▁burn	-9.39087
▁ve	-9.39097
▁mission	-9.39221
▁1944	-9.39224
ski	-9.39276
▁wing	-9.3929
▁literature	-9.39307
▁attempt	-9.39314
▁les	-9.39345
▁commander	-9.39346
▁fort	-9.39349
▁engine	-9.39437
▁give	-9.39489
ig	-9.39491
▁ci	-9.39501
76	-9.39502
▁draw	-9.39559
om	-9.39562
▁names	-9.39611
▁account	-9.39629
▁tra	-9.39633
▁clear	-9.39689
▁cities	-9.39742
▁response	-9.39752
op	-9.39797
▁lived	-9.39802
tar	-9.39802
▁hot	-9.39802
66	-9.3982
▁ministry	-9.39832
let	-9.39834
▁oxford	-9.39845
▁plot	-9.3995
▁material	-9.39955
▁han	-9.40132
▁blood	-9.40217
▁marriage	-9.40234
▁going	-9.40263
▁mayor	-9.4028
▁lack	-9.40282
83	-9.40453
▁mil	-9.40463
ini	-9.40505
▁1963	-9.40506
bi	-9.40582
▁friend	-9.4062
kins	-9.40823
▁estate	-9.40855
▁squadron	-9.40861
ever	-9.40899
▁job	-9.41066
▁joe	-9.41074
▁academic	-9.41187
▁too	-9.41245
gan	-9.41248
▁tom	-9.41277
▁branch	-9.41315
tes	-9.41316
▁cell	-9.41388
▁queen	-9.41407
▁1962	-9.41446
▁iii	-9.41464
▁pick	-9.41471
▁eu	-9.41554
▁critical	-9.41607
ow	-9.41612
▁gal	-9.41649
35	-9.41674
ver	-9.41728
▁grant	-9.41738
▁ty	-9.41745
75	-9.41829
82	-9.41856
▁murder	-9.41956
▁yo	-9.41956
▁architecture	-9.42053
▁jean	-9.42062
73	-9.42075
▁winners	-9.42128
▁1961	-9.42142
▁color	-9.42179
ability	-9.42189
▁columbia	-9.42203
▁asia	-9.42207
▁editor	-9.42243
▁contains	-9.42291
▁changes	-9.42331
▁friends	-9.42353
▁want	-9.4236
▁vo	-9.42408
▁45	-9.42414
▁numerous	-9.4244
▁separate	-9.42502
▁ohio	-9.42508
▁rain	-9.42515
mo	-9.42529
▁bob	-9.42554
▁tracks	-9.42559
▁micro	-9.42673
▁talk	-9.42694
led	-9.4272
▁sportspeople	-9.42772
▁computer	-9.42889
▁meeting	-9.42982
▁pacific	-9.4301
▁status	-9.43091
▁programs	-9.43114
▁kan	-9.432
▁already	-9.4326
war	-9.43465
▁bl	-9.43481
dor	-9.43513
gue	-9.43529
ola	-9.4355
▁zo	-9.43623
▁subsequently	-9.43628
yl	-9.43634
▁fo	-9.43651
▁medalists	-9.43659
▁upper	-9.43687
▁hy	-9.4369
03	-9.43761
▁chairman	-9.43772
▁stop	-9.43862
▁ham	-9.44144
▁massachusetts	-9.44317
ure	-9.44319
▁entire	-9.44364
▁subject	-9.4439
▁becoming	-9.44446
▁stars	-9.44449
▁kh	-9.44463
ens	-9.44469
▁ny	-9.44487
▁evidence	-9.44513
▁1956	-9.44526
▁famous	-9.44606
▁jersey	-9.44694
▁col	-9.44719
▁lines	-9.44771
▁rate	-9.44793
▁actors	-9.4484
04	-9.44962
▁organizations	-9.44967
mp	-9.45009
▁entered	-9.45074
▁illinois	-9.45142
▁leg	-9.45159
rich	-9.45194
▁1942	-9.45221
▁officers	-9.45238
▁memorial	-9.45311
▁description	-9.45383
nce	-9.45391
▁tim	-9.45475
▁jones	-9.45545
ese	-9.45749
▁cases	-9.45853
▁drive	-9.45862
▁retired	-9.45866
▁sl	-9.45901
▁champions	-9.45923
▁paper	-9.46083
▁finally	-9.46144
▁theory	-9.46277
▁husband	-9.46383
▁majority	-9.46386
▁alexander	-9.46597
▁interview	-9.46651
▁studied	-9.46683
▁starting	-9.46694
nes	-9.46729
▁girl	-9.46749
▁creek	-9.46803
▁hours	-9.46885
▁cru	-9.46947
▁fl	-9.46952
▁increased	-9.46992
▁path	-9.47028
▁pla	-9.47067
kin	-9.47086
▁1952	-9.47164
▁1939	-9.47306
▁stra	-9.47308
sk	-9.47403
ano	-9.47408
▁bowl	-9.47409
▁vice	-9.47418
▁relationship	-9.47481
▁caused	-9.47515
▁je	-9.47538
▁fr	-9.4755
▁piano	-9.47565
chi	-9.47572
▁meaning	-9.47662
▁israel	-9.47717
▁distribution	-9.47738
01	-9.47764
▁judge	-9.47807
▁fle	-9.47814
▁boston	-9.47842
one	-9.47843
▁1958	-9.47887
▁communities	-9.47922
▁fifth	-9.47955
▁defense	-9.47964
80	-9.48024
88	-9.48072
▁always	-9.48074
▁1948	-9.48103
▁physical	-9.48109
▁noted	-9.4813
ten	-9.48144
▁stories	-9.48158
ably	-9.48248
▁jr	-9.48355
▁ocean	-9.48577
▁tar	-9.48582
▁structures	-9.48639
▁concert	-9.48675
▁georgia	-9.48732
ot	-9.48901
▁1959	-9.48917
fc	-9.48939
zy	-9.49073
tor	-9.49134
che	-9.49155
65	-9.49194
con	-9.49216
22	-9.49229
▁reform	-9.49241
▁might	-9.49243
▁operated	-9.49244
illa	-9.49275
▁particularly	-9.49313
▁musicians	-9.49384
▁com	-9.49402
▁1943	-9.49402
▁terms	-9.49457
▁pra	-9.49532
45	-9.49565
king	-9.49571
▁1941	-9.49574
▁ec	-9.4959
▁sur	-9.49694
▁naval	-9.49715
▁fund	-9.49727
▁1957	-9.49882
▁store	-9.49892
jo	-9.49894
▁crew	-9.49941
▁pol	-9.49969
▁iron	-9.50155
ological	-9.50161
▁fellow	-9.50163
▁victoria	-9.50174
▁ly	-9.50239
▁girls	-9.50245
▁kind	-9.50368
▁broadcast	-9.50392
▁look	-9.50473
▁minutes	-9.50533
bs	-9.50587
iz	-9.50644
▁cho	-9.50659
hi	-9.50681
▁bc	-9.50685
▁cro	-9.50819
▁berlin	-9.50902
▁function	-9.50903
27	-9.50934
▁reserve	-9.50976
▁poor	-9.51033
ux	-9.51074
▁parents	-9.51152
06	-9.51222
▁mill	-9.51232
▁dor	-9.51245
ill	-9.513
ger	-9.51306
▁francisco	-9.51383
dale	-9.5142
ix	-9.51467
ut	-9.51536
▁passed	-9.51569
▁mostly	-9.51597
▁express	-9.51599
▁raised	-9.51612
ys	-9.51636
▁horse	-9.5168
▁serving	-9.51726
▁brothers	-9.51742
▁hong	-9.51747
▁premier	-9.51848
▁gene	-9.5191
▁politics	-9.51933
▁workers	-9.51939
▁contemporary	-9.52054
▁older	-9.52298
▁direction	-9.52354
▁volume	-9.52524
▁keep	-9.5264
▁maria	-9.52681
▁tr	-9.52809
▁fish	-9.52819
mb	-9.52978
▁fine	-9.53014
▁weeks	-9.53029
▁var	-9.53141
▁1946	-9.53143
▁row	-9.53161
▁golden	-9.53165
▁competed	-9.53261
af	-9.53281
▁corporation	-9.53358
▁industrial	-9.53378
▁stock	-9.53386
▁reception	-9.53411
per	-9.53422
▁build	-9.53436
▁kid	-9.53471
▁1955	-9.53523
▁agreement	-9.53596
ice	-9.53662
▁variety	-9.53663
▁featuring	-9.53724
▁ring	-9.53783
▁vote	-9.53816
▁od	-9.53847
79	-9.53848
ans	-9.53867
▁done	-9.53903
▁dc	-9.53946
▁software	-9.53989
▁crime	-9.54002
▁min	-9.54009
▁firm	-9.54013
48	-9.54054
▁effect	-9.54096
ii	-9.54178
ified	-9.54218
28	-9.54229
▁korean	-9.54236
▁1947	-9.5432
▁districts	-9.54353
55	-9.54374
▁experience	-9.54407
▁episodes	-9.54467
▁wor	-9.54487
▁greater	-9.54517
▁increase	-9.54583
▁republican	-9.54694
▁representatives	-9.54696
▁particular	-9.54703
▁senate	-9.54709
▁whole	-9.54711
▁joint	-9.54769
▁pp	-9.54814
▁uses	-9.54842
▁supported	-9.54863
▁shown	-9.54865
tv	-9.54956
▁watch	-9.54957
▁pal	-9.5498
▁ur	-9.55085
▁garden	-9.55093
▁die	-9.55116
33	-9.55156
▁leaving	-9.55165
▁kong	-9.55192
▁content	-9.55213
▁mur	-9.55225
85	-9.55227
▁entertainment	-9.55242
▁williams	-9.55264
ura	-9.55267
▁hold	-9.55305
▁emperor	-9.55309
▁remains	-9.55319
▁recent	-9.55358
▁focus	-9.55408
▁value	-9.55437
▁towns	-9.55447
▁forced	-9.55457
▁target	-9.55531
▁cl	-9.55703
▁wind	-9.55736
▁floor	-9.55804
▁scott	-9.55983
▁iv	-9.55994
▁heavy	-9.56044
▁kings	-9.56133
▁duke	-9.56172
du	-9.56175
ho	-9.56312
▁engineer	-9.56339
▁presented	-9.56359
▁fra	-9.56365
▁zone	-9.56387
▁eg	-9.56427
▁1953	-9.56479
95	-9.56488
37	-9.56551
▁appears	-9.5657
▁inside	-9.56577
▁month	-9.5661
awa	-9.5662
▁longer	-9.56636
▁descent	-9.56661
▁profile	-9.56809
▁latter	-9.56814
▁guide	-9.56829
▁machine	-9.56849
▁exchange	-9.56868
we	-9.56871
26	-9.56895
▁johnson	-9.57058
▁rail	-9.57104
▁mer	-9.57122
▁daniel	-9.57128
▁santa	-9.57136
▁lady	-9.57162
▁jackson	-9.57196
▁impact	-9.57198
▁territory	-9.57212
▁wilson	-9.57234
▁takes	-9.57269
▁33	-9.57307
▁proposed	-9.57346
▁dog	-9.5745
▁von	-9.57473
▁trail	-9.57495
▁motor	-9.57524
▁mixed	-9.57555
59	-9.57601
▁composed	-9.57612
gs	-9.57743
ara	-9.57752
▁newspaper	-9.5779
▁concept	-9.57799
▁41	-9.578
▁electric	-9.57811
har	-9.57819
64	-9.57834
▁racing	-9.57867
▁cricket	-9.57912
▁spot	-9.57943
cia	-9.57948
31	-9.58048
▁leave	-9.58133
▁flu	-9.58201
vi	-9.58219
▁claimed	-9.5822
▁format	-9.58259
▁candidate	-9.58276
▁rule	-9.58345
▁cause	-9.5843
▁promoted	-9.58433
▁principal	-9.5847
▁words	-9.5849
▁box	-9.58567
▁influence	-9.5857
▁secondary	-9.58673
set	-9.58694
▁1954	-9.58719
▁grow	-9.58745
▁price	-9.58758
org	-9.58837
▁larger	-9.58851
▁usa	-9.58858
47	-9.58904
▁appearances	-9.59
34	-9.59074
32	-9.59108
▁enough	-9.59117
▁186	-9.59126
▁bbc	-9.59146
▁positive	-9.59213
▁prevent	-9.5923
▁carl	-9.59295
▁supreme	-9.59305
▁fiction	-9.59379
▁bor	-9.59384
stone	-9.59385
▁join	-9.59478
▁mag	-9.59479
ran	-9.59481
▁1949	-9.59488
▁chair	-9.5949
▁troops	-9.59532
▁val	-9.59539
▁specific	-9.59769
▁1951	-9.59811
▁themselves	-9.59829
▁sydney	-9.59887
▁search	-9.60047
▁rich	-9.60106
▁settlement	-9.6013
ington	-9.60181
▁korea	-9.60218
▁soccer	-9.60222
▁individuals	-9.60223
iya	-9.60267
▁failed	-9.60381
▁visit	-9.60402
▁products	-9.6045
▁jazz	-9.60458
▁villages	-9.60499
▁heritage	-9.60545
▁wil	-9.60547
▁helped	-9.60559
▁relations	-9.60599
▁lieutenant	-9.60643
▁letter	-9.60794
▁daily	-9.60819
▁hol	-9.60856
▁swedish	-9.60937
▁pair	-9.60966
▁rank	-9.60977
▁bel	-9.61025
▁turned	-9.61037
▁200	-9.61038
▁cambridge	-9.61039
▁ol	-9.61054
▁authority	-9.61131
69	-9.61132
ded	-9.61149
▁65	-9.61153
▁pilot	-9.61185
▁steel	-9.61187
kar	-9.61196
▁70	-9.61214
och	-9.61279
▁wanted	-9.61331
unk	-9.61396
▁extended	-9.6143
burg	-9.61505
▁mind	-9.61517
▁treatment	-9.61601
▁1936	-9.61619
▁formerly	-9.61645
38	-9.61652
▁earned	-9.61689
0000	-9.61721
rey	-9.61732
▁acquired	-9.61732
▁wal	-9.61741
▁technical	-9.6182
ira	-9.62001
▁merc	-9.62015
▁kitt	-9.62032
▁bro	-9.62046
▁medicine	-9.62052
70	-9.62075
▁avenue	-9.62097
end	-9.62127
▁method	-9.62194
yn	-9.622
des	-9.62232
ell	-9.6225
▁believed	-9.62274
▁say	-9.62315
ari	-9.62316
▁rome	-9.6234
▁told	-9.62382
▁let	-9.62432
ram	-9.62485
▁classical	-9.62566
▁affairs	-9.62791
▁remaining	-9.62882
iro	-9.62992
▁demand	-9.62992
▁amount	-9.63041
▁lin	-9.63046
▁boys	-9.63108
tra	-9.63122
ita	-9.63133
▁quarter	-9.63205
▁soldiers	-9.63223
fl	-9.63231
▁sky	-9.63244
▁doctor	-9.63304
▁problems	-9.63374
▁lot	-9.63411
ai	-9.63417
▁allow	-9.63467
09	-9.63646
itz	-9.63647
▁screen	-9.63652
▁revolution	-9.63661
▁sil	-9.63766
car	-9.63771
▁carried	-9.63867
▁1918	-9.63925
▁christ	-9.6393
▁mainly	-9.64025
em	-9.64039
▁therefore	-9.64042
▁campus	-9.64112
▁offered	-9.64121
▁syn	-9.64136
▁scene	-9.64139
▁hum	-9.64212
▁1938	-9.64229
54	-9.64299
▁yet	-9.64301
▁claim	-9.64355
head	-9.64404
▁36	-9.64465
▁read	-9.64485
yard	-9.64522
▁basic	-9.64562
▁brazil	-9.64604
▁ray	-9.64605
▁tur	-9.64731
▁classic	-9.64743
▁covered	-9.64768
▁ky	-9.64872
▁poet	-9.64915
▁80	-9.64937
ich	-9.64989
▁elements	-9.64991
▁forms	-9.6502
▁37	-9.65027
▁twenty	-9.65047
▁fast	-9.65074
▁defeat	-9.6509
02	-9.65179
▁tree	-9.65206
▁1937	-9.65213
▁mountains	-9.65236
ls	-9.65236
▁protect	-9.65285
▁sex	-9.65342
▁hope	-9.65359
▁languages	-9.65409
▁ger	-9.65452
▁xi	-9.65495
▁liberal	-9.65512
ds	-9.65523
▁sk	-9.65667
▁parties	-9.65742
▁fleet	-9.6579
▁lives	-9.65811
▁plans	-9.65845
referred	-9.65879
ok	-9.65904
▁sciences	-9.65974
▁plants	-9.65978
▁broad	-9.66062
▁rules	-9.66076
▁jim	-9.66158
▁income	-9.66185
▁statistics	-9.66199
▁image	-9.66268
▁true	-9.66376
▁nearly	-9.66391
uz	-9.664
ett	-9.66424
cker	-9.66501
▁prison	-9.66546
▁len	-9.66547
▁draft	-9.66578
▁projects	-9.66655
▁sho	-9.66739
▁mike	-9.66759
▁door	-9.6677
▁jose	-9.66797
▁kir	-9.66853
▁iran	-9.66894
▁mas	-9.66905
▁scientific	-9.66959
kov	-9.67094
ire	-9.67122
36	-9.67157
▁novels	-9.67236
▁pr	-9.67259
more	-9.67352
▁morning	-9.67376
▁conditions	-9.67429
▁cas	-9.6752
▁est	-9.67606
▁formation	-9.67691
▁guard	-9.67695
▁nearby	-9.67715
86	-9.67799
▁br	-9.67807
▁chris	-9.68002
chen	-9.68069
▁fat	-9.68185
▁reason	-9.68227
▁stephen	-9.68233
▁limit	-9.68258
▁yellow	-9.68273
▁split	-9.68383
water	-9.68402
aka	-9.68444
▁ali	-9.68447
▁graduated	-9.68486
vo	-9.685
ull	-9.68565
▁kill	-9.68698
▁heat	-9.68704
red	-9.68726
sey	-9.68827
▁serve	-9.68834
▁responsible	-9.68845
▁tank	-9.68888
▁figure	-9.68917
▁flag	-9.68999
▁clark	-9.69063
▁elizabeth	-9.69064
▁distance	-9.69073
ay	-9.69107
▁mcc	-9.69142
▁angel	-9.69184
44	-9.69192
▁idea	-9.69232
▁pakistan	-9.69248
uff	-9.69272
▁documentary	-9.69276
▁initial	-9.69308
▁fer	-9.69355
ations	-9.69471
▁tro	-9.69561
▁issued	-9.69566
▁whether	-9.69599
▁labour	-9.6967
▁approach	-9.69715
▁forward	-9.69715
▁bull	-9.69721
▁miles	-9.69728
bar	-9.69754
▁mat	-9.69809
▁consists	-9.69901
▁arch	-9.69911
▁bands	-9.69928
▁prominent	-9.69949
gi	-9.69963
▁folk	-9.69966
▁wheel	-9.7
als	-9.70015
▁kal	-9.70082
63	-9.70155
▁42	-9.70202
▁crown	-9.70204
▁cre	-9.7022
▁saying	-9.70227
▁publications	-9.70277
51	-9.70288
90	-9.7043
ron	-9.70432
87	-9.70508
▁toronto	-9.70519
lan	-9.7058
▁ontario	-9.70596
▁cr	-9.70627
ants	-9.70637
▁protection	-9.70655
▁deputy	-9.70657
▁question	-9.70668
▁municipal	-9.70671
▁follow	-9.70695
▁ir	-9.70712
▁provides	-9.70745
▁share	-9.70805
▁challenge	-9.70894
▁analysis	-9.70973
ence	-9.70982
▁bronze	-9.7099
▁cancer	-9.71081
tan	-9.71083
▁edge	-9.71086
▁ash	-9.71088
71	-9.71154
▁leaders	-9.71261
▁storm	-9.71277
▁southeast	-9.71341
61	-9.71379
▁step	-9.71383
▁sar	-9.71545
▁walk	-9.71579
▁discovered	-9.71591
▁miss	-9.71638
▁unknown	-9.71669
▁strike	-9.717
tle	-9.71754
▁theater	-9.71757
net	-9.71769
▁stand	-9.71778
▁shar	-9.71791
▁representative	-9.71826
▁trust	-9.71882
▁1935	-9.71898
▁managed	-9.71931
ica	-9.71931
97	-9.71932
▁ken	-9.71971
▁reach	-9.72001
▁sm	-9.72082
▁likely	-9.721
▁acting	-9.72127
▁alignleft	-9.72128
▁cook	-9.72146
▁environment	-9.72208
▁arthur	-9.72221
▁albert	-9.72293
▁1919	-9.72303
▁windows	-9.72315
53	-9.72337
▁gate	-9.72349
▁py	-9.7237
▁housing	-9.72467
▁transferred	-9.72501
▁directly	-9.72511
▁dia	-9.72521
▁card	-9.72574
▁trial	-9.72596
▁bas	-9.72604
▁leadership	-9.72611
▁equipment	-9.72614
▁articles	-9.72621
▁agency	-9.72707
▁reflect	-9.72712
▁constructed	-9.72714
ely	-9.72838
▁climate	-9.72863
top	-9.72898
▁1914	-9.72952
▁lar	-9.72977
▁environmental	-9.73071
56	-9.73112
▁legend	-9.73138
▁residents	-9.73144
▁43	-9.73155
▁sr	-9.73178
▁safety	-9.73202
41	-9.73255
▁epi	-9.73268
▁infantry	-9.73269
board	-9.73271
93	-9.73289
▁display	-9.73344
use	-9.73346
▁hop	-9.73463
▁alongside	-9.73505
ph	-9.73538
▁painting	-9.73542
kh	-9.73571
▁moving	-9.73658
▁44	-9.73809
▁simon	-9.7387
▁makes	-9.73903
98	-9.73912
▁effects	-9.73935
sch	-9.73996
▁mm	-9.74065
▁religion	-9.74066
▁publishing	-9.74094
low	-9.7412
cha	-9.74129
▁sites	-9.74152
▁quality	-9.74153
▁asked	-9.7418
▁regard	-9.74181
si	-9.74219
▁growth	-9.74273
▁pressure	-9.74282
▁charge	-9.74305
▁sign	-9.74335
▁alternative	-9.74341
hr	-9.74365
▁conservative	-9.74453
▁rise	-9.74527
▁educational	-9.74545
▁loan	-9.74576
▁things	-9.74582
▁emb	-9.74626
ible	-9.74661
▁squad	-9.74716
▁philadelphia	-9.74786
▁conducted	-9.74869
▁gre	-9.74885
her	-9.74917
ju	-9.74951
▁sexual	-9.75009
ised	-9.75025
▁risk	-9.75027
▁advanced	-9.75052
29	-9.75077
▁lies	-9.75078
▁teaching	-9.75153
▁imperial	-9.75155
▁gro	-9.75165
▁cla	-9.75204
▁federation	-9.75204
▁hay	-9.75274
▁charts	-9.75379
▁wave	-9.7541
ston	-9.75412
▁meet	-9.75413
▁bibliography	-9.75453
▁fox	-9.75482
▁tan	-9.75557
▁dur	-9.75608
▁1932	-9.75652
▁continue	-9.75689
▁1929	-9.75729
▁swa	-9.75735
▁mexican	-9.75859
ru	-9.75873
▁surname	-9.75952
▁max	-9.75955
▁composer	-9.75964
▁northwest	-9.76005
▁luc	-9.76006
▁1933	-9.76009
law	-9.76105
▁pur	-9.76134
62	-9.7618
▁renamed	-9.76189
▁escape	-9.7619
▁traffic	-9.76213
▁dedicated	-9.76255
▁fur	-9.76366
▁sw	-9.7641
▁product	-9.76424
▁arrived	-9.76478
▁pat	-9.7651
▁stream	-9.76531
ative	-9.76562
▁appear	-9.76596
▁90	-9.76597
▁ber	-9.76622
▁dy	-9.76649
po	-9.76665
▁railroad	-9.76729
ize	-9.76735
▁fame	-9.76746
light	-9.76801
▁appeal	-9.76809
▁revealed	-9.76835
▁participated	-9.76883
▁economy	-9.76899
▁bring	-9.76925
▁primarily	-9.76942
▁facilities	-9.76971
▁netherlands	-9.76984
▁equal	-9.76992
▁steve	-9.77023
▁poll	-9.77036
▁gen	-9.77041
▁taylor	-9.77158
94	-9.77178
gun	-9.77192
▁spin	-9.77209
ial	-9.77277
▁internet	-9.77281
▁ib	-9.77299
▁leaves	-9.77306
▁extra	-9.77322
▁priest	-9.77341
▁contact	-9.77345
▁immediately	-9.77448
▁il	-9.77469
92	-9.77478
ged	-9.77504
▁log	-9.77535
▁ser	-9.7779
▁kra	-9.778
▁hero	-9.77803
▁note	-9.77804
▁rare	-9.77816
▁damage	-9.77924
▁500	-9.77929
▁1934	-9.7793
▁anne	-9.77933
▁palm	-9.77935
▁ap	-9.77955
like	-9.78016
ova	-9.78025
▁address	-9.78028
▁combat	-9.78032
▁fun	-9.78046
▁exhibition	-9.78123
▁pin	-9.78184
▁chamber	-9.78197
▁problem	-9.78206
▁zh	-9.78245
ery	-9.78246
▁promotion	-9.78308
▁moon	-9.78318
▁levels	-9.78375
▁produce	-9.78394
▁pl	-9.78435
▁teacher	-9.78466
▁launch	-9.78474
▁populated	-9.78562
▁officially	-9.78598
▁stay	-9.78603
▁wy	-9.78617
▁something	-9.78642
▁mono	-9.78663
▁cars	-9.78669
▁spar	-9.78713
▁shortly	-9.78795
▁founder	-9.78843
▁weight	-9.78884
fer	-9.78892
▁coming	-9.78934
▁churches	-9.79097
▁norwegian	-9.79099
▁programming	-9.79138
▁slow	-9.79254
▁hat	-9.79259
▁brad	-9.79262
▁gain	-9.79272
▁defence	-9.79285
▁freedom	-9.79297
▁convention	-9.79343
▁francis	-9.79375
▁types	-9.79411
▁1917	-9.79443
▁disease	-9.79649
▁resources	-9.79694
▁brigade	-9.79711
▁listing	-9.79733
bu	-9.79747
▁highly	-9.79799
ci	-9.79801
▁potential	-9.79806
▁kim	-9.79807
yan	-9.79814
▁palace	-9.79832
▁1931	-9.7984
▁drums	-9.79865
▁sweden	-9.79887
▁felt	-9.79898
▁think	-9.79898
42	-9.79902
era	-9.79915
▁64	-9.79962
my	-9.79968
▁mir	-9.79973
▁bear	-9.79999
▁flow	-9.80034
▁task	-9.80114
▁guest	-9.80166
▁arms	-9.8018
▁audience	-9.802
43	-9.80278
▁operating	-9.80304
▁geography	-9.80316
▁percent	-9.8033
▁intended	-9.80341
▁trip	-9.80364
▁childrens	-9.80384
▁criminal	-9.80398
▁quickly	-9.80423
▁sri	-9.80483
ua	-9.80491
▁independence	-9.8052
▁critics	-9.80521
▁legislative	-9.80553
▁votes	-9.80554
▁planned	-9.80567
▁giving	-9.80611
▁tennis	-9.80655
▁smaller	-9.8066
▁ji	-9.8067
▁reference	-9.80735
▁phase	-9.80743
▁couple	-9.80753
▁bru	-9.80783
▁transfer	-9.80785
mouth	-9.80868
▁atlantic	-9.8087
▁villa	-9.80872
lon	-9.80876
▁kur	-9.809
▁reviews	-9.80921
▁kr	-9.80985
▁removed	-9.81005
▁divided	-9.8102
mont	-9.81023
▁sn	-9.81055
▁mun	-9.81076
52	-9.8108
▁except	-9.81109
worth	-9.81111
▁ven	-9.81117
▁probably	-9.81117
ani	-9.81147
▁typically	-9.81218
▁gl	-9.81219
▁commonly	-9.81246
ane	-9.81314
▁minnesota	-9.81354
▁corner	-9.8136
▁platform	-9.81361
▁combined	-9.81398
▁zi	-9.81407
▁southwest	-9.81419
▁nation	-9.81441
▁activity	-9.81501
▁1928	-9.81586
▁ferr	-9.81606
▁davis	-9.81611
zen	-9.81669
bra	-9.81755
▁partner	-9.8182
▁jane	-9.8191
▁comes	-9.81943
▁headquarters	-9.8205
▁kansas	-9.82064
▁dream	-9.82183
▁moment	-9.822
▁creation	-9.82254
ating	-9.82278
▁rev	-9.82345
▁origin	-9.82384
▁fighting	-9.82385
▁er	-9.8244
istic	-9.82443
▁wisconsin	-9.82469
▁rio	-9.82473
▁counter	-9.82497
▁1921	-9.82563
▁billion	-9.82591
▁1922	-9.82603
▁earl	-9.82628
aga	-9.82722
▁arab	-9.82776
▁poetry	-9.82782
dd	-9.82832
▁suit	-9.82838
▁grew	-9.82842
▁advance	-9.82897
▁tall	-9.82958
▁raf	-9.82971
▁gang	-9.82985
▁symbol	-9.83027
▁1924	-9.83048
dar	-9.83055
▁literary	-9.83087
▁1927	-9.83096
▁transportation	-9.83111
ado	-9.83133
▁save	-9.83152
▁1910	-9.83155
▁ward	-9.83164
▁finish	-9.83189
▁knowledge	-9.83222
▁roll	-9.83255
▁shop	-9.83274
▁spacewatch	-9.83293
89	-9.83399
language	-9.83414
▁spread	-9.83419
▁numbers	-9.83463
▁institutions	-9.83464
ach	-9.83468
▁peoples	-9.83528
▁develop	-9.83695
▁compared	-9.83755
▁euro	-9.83756
▁basis	-9.8386
▁marc	-9.83909
▁fell	-9.83968
▁accept	-9.83973
▁flat	-9.83982
▁hosted	-9.84027
bel	-9.84029
▁steam	-9.84079
▁lemmon	-9.84109
▁avoid	-9.84154
▁holding	-9.84211
born	-9.8423
▁bon	-9.84235
▁dont	-9.84297
▁din	-9.84302
▁ordered	-9.84422
ison	-9.84455
▁khan	-9.84502
▁fan	-9.84553
▁holy	-9.84592
96	-9.84629
▁assigned	-9.84671
▁qui	-9.84671
▁magic	-9.84741
▁colorado	-9.84748
ena	-9.8475
▁recently	-9.84788
▁scale	-9.8479
▁net	-9.8479
ef	-9.84842
▁cemetery	-9.84873
▁progress	-9.84917
▁1926	-9.84922
▁attention	-9.84924
ada	-9.85013
▁rub	-9.85014
ick	-9.85053
▁cape	-9.85073
rie	-9.85119
▁indiana	-9.85159
▁las	-9.85175
▁hair	-9.85193
fe	-9.85259
▁communist	-9.85326
▁photo	-9.85353
▁capacity	-9.85365
▁battalion	-9.85395
▁semi	-9.85398
ila	-9.85452
▁por	-9.85519
▁75	-9.85521
▁applied	-9.85611
39	-9.85643
▁follows	-9.8566
▁birds	-9.8576
▁nominated	-9.85856
ken	-9.85904
▁38	-9.85908
▁glass	-9.85916
▁efforts	-9.85936
els	-9.8594
can	-9.85945
dan	-9.85945
kan	-9.85988
▁mix	-9.86005
▁programme	-9.86005
▁sector	-9.86027
46	-9.86087
▁andrew	-9.86165
▁journalist	-9.86169
▁meta	-9.86263
▁ability	-9.86308
▁northeast	-9.86311
▁eye	-9.86327
▁destroyed	-9.86345
▁snow	-9.86378
▁1916	-9.86438
tha	-9.86458
▁singapore	-9.86459
ee	-9.86485
▁owner	-9.86538
▁1900	-9.86585
▁comics	-9.86603
▁script	-9.86707
▁qua	-9.86709
▁tele	-9.86752
▁captured	-9.86769
▁respectively	-9.86778
▁adopted	-9.8678
una	-9.8682
▁portion	-9.86835
▁titles	-9.86837
▁auto	-9.86838
▁sons	-9.86872
▁mit	-9.86874
▁brazilian	-9.86937
▁zu	-9.86967
▁ending	-9.87025
▁tun	-9.8703
▁purchased	-9.87044
▁kat	-9.87052
▁rad	-9.87054
win	-9.87095
▁187	-9.87113
▁hills	-9.87194
▁graduate	-9.87201
▁sales	-9.87205
49	-9.87208
▁chapter	-9.87233
▁mile	-9.87248
▁tell	-9.87277
su	-9.87419
▁spirit	-9.87424
hood	-9.87454
▁models	-9.87503
▁needed	-9.87557
▁organized	-9.87624
▁ross	-9.87628
▁portuguese	-9.87634
▁1925	-9.87671
val	-9.87678
gger	-9.87782
ments	-9.87788
▁surrounding	-9.87819
ou	-9.87864
▁races	-9.87869
▁beyond	-9.87939
▁wins	-9.87949
▁enter	-9.88001
▁pap	-9.88031
▁lock	-9.8807
▁normal	-9.88135
▁presidential	-9.88162
▁alliance	-9.88197
uck	-9.88379
▁1915	-9.88482
xi	-9.88517
▁becomes	-9.88576
▁cold	-9.88693
▁adult	-9.88772
▁labor	-9.88795
▁feed	-9.88826
heim	-9.88856
ida	-9.88888
dal	-9.88977
▁organ	-9.89019
▁disc	-9.89075
▁column	-9.89105
▁condition	-9.89174
▁hur	-9.89285
kes	-9.89323
▁bed	-9.89356
qui	-9.89388
▁constitution	-9.89405
▁rod	-9.89425
▁sab	-9.8947
ries	-9.89505
▁publication	-9.89509
▁visual	-9.89583
▁attorney	-9.89585
▁flying	-9.89592
▁vas	-9.89609
▁swiss	-9.89642
▁mode	-9.89698
▁bit	-9.89756
▁widely	-9.89849
▁fear	-9.89871
▁circuit	-9.89873
▁feet	-9.89896
cal	-9.89907
die	-9.89974
▁walter	-9.89993
▁turkey	-9.90019
▁intelligence	-9.90035
▁1912	-9.90059
▁option	-9.90079
▁gor	-9.90167
▁soul	-9.90228
▁titled	-9.9024
cher	-9.90257
▁younger	-9.90286
99	-9.90286
▁declared	-9.90298
▁fri	-9.90357
▁citizens	-9.9049
▁serious	-9.90518
▁1000	-9.90586
▁choice	-9.90587
▁artillery	-9.9059
▁presence	-9.90607
▁borough	-9.90607
▁aid	-9.90609
▁1923	-9.90628
▁nick	-9.90659
▁oblast	-9.90679
▁depend	-9.90795
▁christmas	-9.90869
▁alex	-9.90909
▁nan	-9.90922
down	-9.90951
▁colour	-9.90957
▁bgcolord	-9.91006
ala	-9.91084
ensis	-9.91088
wan	-9.91137
▁baby	-9.91182
ault	-9.91289
▁sunday	-9.91328
▁unique	-9.91333
▁hor	-9.91374
▁why	-9.91399
▁trees	-9.91434
▁harry	-9.91489
▁oregon	-9.91514
▁remain	-9.91557
▁learning	-9.91587
▁dynasty	-9.91605
morph	-9.91669
▁buried	-9.91697
tu	-9.91736
gg	-9.91986
ves	-9.91987
ular	-9.92005
▁metropolitan	-9.92021
▁twice	-9.9207
▁planet	-9.92074
▁wolf	-9.92115
pped	-9.92145
▁fred	-9.92149
▁lewis	-9.92223
▁tennessee	-9.92251
ye	-9.92293
▁flo	-9.92366
▁goes	-9.92369
▁opposition	-9.92394
▁mentioned	-9.92408
▁purpose	-9.9241
▁esp	-9.92432
▁generation	-9.92473
▁rear	-9.92525
▁weekly	-9.92529
▁whi	-9.92558
▁perform	-9.92582
yo	-9.92585
bert	-9.9259
▁entry	-9.92612
▁chain	-9.9263
▁jam	-9.92648
▁actually	-9.92722
hen	-9.92742
▁hydro	-9.92743
▁jump	-9.92756
▁signal	-9.92782
▁185	-9.9288
▁largely	-9.92892
▁animal	-9.92923
vin	-9.92986
las	-9.93006
▁plu	-9.93037
▁estimated	-9.93049
▁agreed	-9.93104
ika	-9.9314
▁setting	-9.9315
▁plate	-9.93155
▁simple	-9.9317
og	-9.9319
▁armed	-9.93279
▁letters	-9.93364
▁roles	-9.93375
▁domestic	-9.93389
▁formula	-9.93437
yearold	-9.93455
▁agent	-9.9349
▁supply	-9.93495
▁gained	-9.93498
▁print	-9.93532
mid	-9.93616
▁bgcolore	-9.93633
burn	-9.93634
▁shape	-9.93647
▁studios	-9.93735
▁accepted	-9.93809
▁link	-9.93813
▁chemical	-9.9382
tt	-9.93845
▁cathedral	-9.93846
▁sense	-9.9388
▁musician	-9.9389
▁vehicles	-9.9391
▁conflict	-9.93976
▁educated	-9.93989
ky	-9.93992
ao	-9.9404
▁athletics	-9.94055
▁moscow	-9.94088
▁yards	-9.94124
lam	-9.94131
▁category	-9.94202
▁rap	-9.94263
▁blo	-9.94294
▁golf	-9.94325
raw	-9.94335
▁aim	-9.9441
cs	-9.9442
▁bond	-9.94455
cht	-9.94583
▁occurred	-9.94592
▁mp	-9.94599
▁lind	-9.94607
▁fresh	-9.94617
▁slave	-9.94654
▁serves	-9.94708
▁electronic	-9.94803
▁sat	-9.94808
▁mont	-9.94842
▁regions	-9.94866
▁interior	-9.94883
▁philippines	-9.94901
▁expanded	-9.94915
▁effective	-9.94956
▁suffered	-9.95014
▁planning	-9.95017
▁accident	-9.95122
mond	-9.95138
▁eric	-9.95171
▁mus	-9.95204
▁fly	-9.9523
ides	-9.95269
▁reports	-9.95291
▁stylebackground	-9.95292
▁speech	-9.953
▁sixth	-9.95302
▁fashion	-9.95311
▁shoot	-9.9533
▁string	-9.95401
▁suburb	-9.9542
▁rival	-9.95424
▁czech	-9.95502
▁athletes	-9.95536
▁internal	-9.95572
▁twin	-9.95584
bul	-9.95616
▁rivers	-9.9564
▁austria	-9.95654
▁colonial	-9.95657
nan	-9.95704
▁jay	-9.9575
▁coin	-9.95789
▁recognized	-9.95826
▁begins	-9.95835
▁arizona	-9.95848
▁strip	-9.95886
▁expedition	-9.95953
▁horn	-9.96019
▁growing	-9.96115
▁painter	-9.96168
▁hands	-9.96168
▁spa	-9.9621
▁situation	-9.96245
▁confirmed	-9.96264
▁reduced	-9.96284
cular	-9.96366
▁mine	-9.96406
▁animals	-9.96409
▁masters	-9.96443
▁ranked	-9.96462
▁cinema	-9.96473
▁whit	-9.96509
▁pitch	-9.96542
▁norway	-9.9655
▁hart	-9.96558
▁alone	-9.96561
▁bow	-9.96655
▁ren	-9.96659
▁mos	-9.9667
▁manchester	-9.96719
▁pun	-9.96741
▁scar	-9.96742
▁nuclear	-9.96744
▁send	-9.96755
▁providing	-9.96799
▁switzerland	-9.96799
▁promote	-9.96814
ago	-9.96835
▁performances	-9.96837
▁kick	-9.96872
oon	-9.96886
lu	-9.96897
▁vehicle	-9.96918
▁kentucky	-9.96976
▁materials	-9.96978
▁gla	-9.97005
oz	-9.97005
▁rabbi	-9.9704
▁vs	-9.97074
ab	-9.97118
▁kept	-9.97147
▁den	-9.97152
▁seats	-9.97165
▁object	-9.97166
rad	-9.97193
▁egypt	-9.97231
▁philip	-9.9727
▁scoring	-9.97302
▁fal	-9.97337
▁identified	-9.97392
▁arena	-9.97394
▁baron	-9.9742
nny	-9.97421
▁israeli	-9.97445
▁tony	-9.97495
▁1913	-9.9756
▁expected	-9.97622
▁leon	-9.97637
▁coaches	-9.97663
▁paid	-9.97719
▁paintings	-9.97719
▁mall	-9.97742
jan	-9.9778
▁plain	-9.97784
▁46	-9.97787
▁none	-9.97792
▁grave	-9.97796
ning	-9.97801
▁boo	-9.97854
▁tam	-9.97865
▁maryland	-9.979
▁boat	-9.97937
▁contest	-9.97945
▁memory	-9.97947
▁roof	-9.97948
▁tru	-9.97974
▁receive	-9.98024
▁corn	-9.98033
▁drug	-9.98037
▁unlike	-9.98054
▁returning	-9.98081
▁sav	-9.98089
ole	-9.9812
▁offers	-9.98219
▁etc	-9.98226
▁piece	-9.98259
▁pool	-9.98267
air	-9.9836
oid	-9.98368
▁throw	-9.9838
stein	-9.98441
▁turkish	-9.98442
▁authorities	-9.98485
▁miller	-9.98487
▁chu	-9.9851
ians	-9.98516
ria	-9.98532
▁difficult	-9.9857
▁tradition	-9.98584
▁straight	-9.98603
▁chile	-9.98613
▁directors	-9.98645
▁jews	-9.98654
present	-9.98668
▁metro	-9.98704
▁simply	-9.98732
wick	-9.98734
▁48	-9.98742
▁greece	-9.98808
▁recognition	-9.98842
▁finance	-9.98861
tus	-9.9887
tal	-9.98888
▁falls	-9.98936
▁positions	-9.99019
▁taught	-9.99079
pi	-9.99102
▁wrestling	-9.99103
▁philosophy	-9.99162
ars	-9.99167
▁char	-9.99172
▁buck	-9.99203
ub	-9.99222
▁lyrics	-9.99251
ines	-9.99269
▁expansion	-9.99271
▁historian	-9.99301
▁gr	-9.99306
▁ethnic	-9.99326
▁weather	-9.99333
▁starring	-9.9942
ula	-9.99425
ator	-9.99468
▁tend	-9.99525
▁ul	-9.99544
▁singers	-9.99564
▁supporting	-9.99567
▁inspired	-9.99567
▁lap	-9.99584
ax	-9.99611
▁wei	-9.99635
▁resulted	-9.99705
anda	-9.9979
▁resulting	-9.99794
▁performing	-9.99863
tri	-9.99938
ily	-9.99973
zer	-9.99976
▁300	-9.99993
▁missouri	-10.0001
▁kin	-10.0001
room	-10.0002
▁gall	-10.0006
▁tried	-10.0007
▁feel	-10.0012
▁killing	-10.0012
aya	-10.0025
▁kil	-10.0027
▁brook	-10.0034
▁ter	-10.0035
ven	-10.0036
▁facility	-10.0039
lands	-10.0041
▁colonel	-10.0041
▁agricultural	-10.0051
▁sale	-10.0057
▁respect	-10.0063
▁says	-10.0063
▁continues	-10.0064
▁dave	-10.0064
▁behavior	-10.0065
▁inc	-10.0067
▁tal	-10.0069
▁49	-10.0072
▁males	-10.0074
▁granted	-10.008
▁investment	-10.0081
▁melbourne	-10.0081
▁narrow	-10.0086
▁brain	-10.0087
▁designated	-10.0088
▁raid	-10.0092
▁canal	-10.0094
ren	-10.0098
▁danish	-10.0101
▁broke	-10.0104
▁arrested	-10.0108
▁tokyo	-10.0108
▁reg	-10.0109
▁dub	-10.0119
zard	-10.0119
▁properties	-10.0123
▁ut	-10.0123
▁1908	-10.0124
▁mari	-10.0125
▁selection	-10.0128
▁claims	-10.0135
▁obtained	-10.0135
▁compete	-10.014
▁push	-10.0141
▁newly	-10.0144
▁composition	-10.0145
▁females	-10.015
▁cells	-10.0152
▁bomb	-10.0159
▁effort	-10.0159
▁flood	-10.016
▁introduction	-10.016
▁cb	-10.0166
▁favor	-10.0167
▁kam	-10.017
ification	-10.019
▁rep	-10.0192
▁sum	-10.0196
▁officials	-10.0198
▁dean	-10.0199
wich	-10.0207
▁52	-10.0214
ugh	-10.0216
▁lane	-10.0217
▁anna	-10.0217
▁alabama	-10.022
▁1911	-10.0221
▁eyes	-10.0226
▁brian	-10.0233
▁reaction	-10.0235
ral	-10.0236
▁billboard	-10.0236
chy	-10.0237
▁injury	-10.0237
tro	-10.024
▁chapel	-10.024
▁anderson	-10.024
shi	-10.0241
mu	-10.0241
▁solid	-10.025
▁soft	-10.0254
▁oklahoma	-10.0256
▁core	-10.0256
▁cow	-10.026
▁grey	-10.0263
▁adam	-10.0266
ros	-10.0275
▁reign	-10.0276
▁jacob	-10.0279
▁honours	-10.0281
▁faith	-10.0281
lie	-10.0283
▁iraq	-10.0284
▁rat	-10.0292
▁dj	-10.0293
▁tie	-10.0305
mus	-10.0307
▁connected	-10.0309
▁tells	-10.0309
rick	-10.0311
▁yan	-10.0318
abad	-10.0321
▁bird	-10.0322
▁pioneer	-10.0325
▁households	-10.0329
fi	-10.0329
▁howard	-10.0331
▁schedule	-10.0337
▁fields	-10.0347
▁glen	-10.0349
ids	-10.0352
▁losing	-10.0352
▁offer	-10.0352
bed	-10.0356
▁que	-10.0356
▁matter	-10.0358
▁try	-10.0361
▁athletic	-10.0363
▁pil	-10.0365
▁salt	-10.0365
▁cannot	-10.037
▁permanent	-10.0371
ying	-10.0374
▁flora	-10.0379
▁picture	-10.0382
▁versions	-10.0389
▁pictures	-10.0391
hou	-10.0393
▁suggested	-10.0394
▁bureau	-10.0395
long	-10.0403
▁nothing	-10.0404
▁quebec	-10.0405
▁buy	-10.0407
▁existing	-10.0423
sha	-10.0432
▁habitat	-10.0432
▁classes	-10.0432
▁amateur	-10.0435
wi	-10.0438
▁factory	-10.044
▁sy	-10.0444
▁bright	-10.0445
▁trains	-10.0445
▁lincoln	-10.0448
▁fully	-10.045
▁gay	-10.045
▁pull	-10.0456
▁gray	-10.0463
▁shan	-10.0471
▁ill	-10.0476
ovic	-10.0476
▁crash	-10.0482
▁cam	-10.0483
gon	-10.0485
▁fil	-10.0486
▁comic	-10.0487
▁prop	-10.0488
▁provincial	-10.0489
▁morris	-10.049
play	-10.0492
yer	-10.0497
▁seem	-10.0502
▁recordings	-10.0502
▁protest	-10.0508
▁application	-10.0509
▁rh	-10.0511
▁pad	-10.0513
az	-10.0523
▁worth	-10.0524
▁request	-10.0528
▁55	-10.0528
▁ele	-10.0536
ches	-10.054
▁showed	-10.054
▁neo	-10.0544
▁identity	-10.0545
▁succeeded	-10.0551
▁completely	-10.0554
▁attacks	-10.0558
▁spi	-10.0559
▁def	-10.056
▁architect	-10.0563
▁ukraine	-10.0564
▁investigation	-10.0567
ture	-10.0568
ding	-10.0568
▁chance	-10.057
▁aero	-10.0571
▁rush	-10.0572
▁sti	-10.0577
gate	-10.0577
▁shift	-10.0577
▁pul	-10.0578
ore	-10.0585
▁hungarian	-10.059
▁queensland	-10.0596
▁situated	-10.0597
▁ie	-10.0602
night	-10.0603
▁partnership	-10.0603
▁gran	-10.0603
scar	-10.0603
▁dick	-10.0608
▁actresses	-10.061
▁pas	-10.0613
▁sara	-10.0613
▁gives	-10.0614
▁ped	-10.0621
▁guy	-10.0631
▁communication	-10.0638
▁und	-10.0638
▁constant	-10.0645
▁39	-10.065
▁vin	-10.0652
▁expert	-10.0653
▁powers	-10.0653
▁sit	-10.0656
season	-10.0661
▁ker	-10.0661
▁severe	-10.0667
▁dal	-10.0668
▁funding	-10.067
▁magn	-10.0672
▁ncaa	-10.0676
▁jeff	-10.068
▁candidates	-10.068
thy	-10.0682
▁douglas	-10.0683
▁bha	-10.0688
▁subsequent	-10.069
▁sla	-10.0698
▁spell	-10.07
▁clean	-10.0708
▁mobile	-10.0708
gers	-10.0711
▁circle	-10.0716
▁oldest	-10.0717
▁contain	-10.0721
▁slo	-10.0721
▁bgcolorfefefe	-10.0723
▁figures	-10.0732
▁phil	-10.0732
▁ukrainian	-10.0734
▁argentina	-10.0736
oke	-10.0737
▁allows	-10.0745
cock	-10.0746
▁uncle	-10.0748
▁allen	-10.0749
▁samuel	-10.0752
book	-10.0754
▁vac	-10.0754
▁failure	-10.0755
▁anthony	-10.0755
uri	-10.0761
american	-10.0766
▁lang	-10.0771
▁laws	-10.0774
bol	-10.0774
▁antonio	-10.0777
▁conservation	-10.0778
▁learn	-10.079
▁audio	-10.0799
▁creating	-10.08
▁motion	-10.0801
▁jer	-10.0804
▁commonwealth	-10.0805
▁ros	-10.0807
▁fans	-10.0807
▁mini	-10.0808
▁competitions	-10.081
mas	-10.0811
▁translation	-10.0812
▁safe	-10.0814
▁sequence	-10.0816
▁nas	-10.0819
▁bag	-10.0819
▁kha	-10.0819
▁hans	-10.0827
▁aired	-10.0828
▁lay	-10.0829
▁marked	-10.083
▁methods	-10.083
▁portrait	-10.0832
▁file	-10.0838
▁400	-10.0838
▁guns	-10.0839
▁austrian	-10.0839
▁fit	-10.084
ury	-10.084
▁jud	-10.0843
▁bottom	-10.0845
bury	-10.0846
▁extension	-10.0849
▁bush	-10.085
rin	-10.0857
▁bought	-10.0858
▁commissioned	-10.086
▁taiwan	-10.0864
▁catal	-10.0865
▁tel	-10.0868
ious	-10.0868
▁liga	-10.0873
▁alan	-10.0877
ale	-10.0885
▁electoral	-10.0888
▁fruit	-10.089
▁residence	-10.0895
▁matt	-10.0897
▁1906	-10.0898
▁switch	-10.0903
ball	-10.0903
▁sen	-10.0908
▁pieces	-10.0911
▁broadcasting	-10.0914
▁shin	-10.0916
ska	-10.0916
▁welsh	-10.0917
▁2022	-10.0918
▁hamilton	-10.0924
uda	-10.0928
▁universities	-10.0929
▁puerto	-10.0931
▁belgium	-10.0937
▁lyn	-10.0937
mes	-10.094
▁patrick	-10.0947
▁rescue	-10.0948
▁detroit	-10.0962
▁standing	-10.0964
▁scholar	-10.0964
▁cabinet	-10.0967
▁connecticut	-10.0967
▁allowing	-10.0968
▁mai	-10.0969
▁moore	-10.0976
▁talent	-10.0979
▁height	-10.0979
▁ottoman	-10.098
▁princess	-10.098
▁iowa	-10.0982
▁connect	-10.0985
▁victor	-10.0991
▁hip	-10.0991
dad	-10.0993
▁cm	-10.0998
aki	-10.0999
▁sel	-10.0999
▁passenger	-10.1006
▁vel	-10.101
▁mani	-10.1016
mmy	-10.1018
▁defined	-10.1021
▁dragon	-10.1021
▁ultimately	-10.1027
ose	-10.1029
▁custom	-10.103
▁tag	-10.103
▁maximum	-10.103
▁gil	-10.1036
▁discover	-10.1036
▁parliamentary	-10.1041
▁managers	-10.1042
▁shell	-10.1042
▁dry	-10.1045
▁nazi	-10.1051
▁panel	-10.1055
▁shore	-10.106
dge	-10.1061
pp	-10.1061
▁frederick	-10.1064
▁driver	-10.1066
▁ok	-10.1068
▁pages	-10.1072
▁universal	-10.1075
▁theme	-10.1076
▁acid	-10.1077
▁communications	-10.1077
▁51	-10.1078
▁founding	-10.1078
▁fictional	-10.1081
wards	-10.1083
▁mental	-10.1086
▁agriculture	-10.109
od	-10.109
▁chosen	-10.1092
▁landscape	-10.1098
pm	-10.1103
ace	-10.1105
▁approved	-10.1109
▁hour	-10.1112
▁correct	-10.1117
▁maintain	-10.1118
▁hon	-10.1118
aw	-10.1123
▁norman	-10.1123
▁oak	-10.1126
▁finding	-10.1126
▁acts	-10.1129
▁factor	-10.1132
mm	-10.1132
▁unable	-10.1134
ologist	-10.1138
▁weak	-10.1138
oc	-10.1139
▁distinguished	-10.1151
▁1905	-10.1156
weight	-10.1163
▁47	-10.1163
▁greatest	-10.1166
▁muslim	-10.1171
▁hawk	-10.1172
▁suggest	-10.1173
▁jun	-10.1178
▁blues	-10.1184
▁colspan	-10.1189
▁pale	-10.1191
▁phone	-10.1191
▁retirement	-10.1193
▁worldwide	-10.1195
▁begin	-10.1196
▁achieved	-10.1198
▁plat	-10.1202
▁louisiana	-10.1204
cus	-10.1206
▁believe	-10.121
▁budget	-10.1212
▁fuel	-10.1223
▁details	-10.1234
▁rifle	-10.1236
▁merchant	-10.1236
▁weapons	-10.1239
▁nfl	-10.1239
▁disambiguation	-10.1244
▁establishment	-10.1245
dia	-10.1247
▁shared	-10.1258
▁collected	-10.126
ray	-10.1263
▁nat	-10.1266
▁quin	-10.1268
▁settled	-10.127
▁collaboration	-10.127
▁animated	-10.1277
▁message	-10.1279
▁relatively	-10.1281
ath	-10.1282
ways	-10.1285
▁onto	-10.129
▁vietnam	-10.1291
nia	-10.1292
▁1890	-10.1292
▁miami	-10.1298
▁entrance	-10.1298
ash	-10.1299
▁necessary	-10.1307
▁lands	-10.131
▁reli	-10.1313
related	-10.1316
▁metres	-10.1318
▁cole	-10.1322
▁sample	-10.1323
▁1909	-10.1324
▁1904	-10.1327
▁dress	-10.1328
▁catch	-10.133
▁maj	-10.1332
ual	-10.1333
▁harvard	-10.134
▁representing	-10.1343
▁bath	-10.1343
tter	-10.1346
▁wo	-10.1349
▁ltd	-10.1354
▁dvd	-10.1356
cent	-10.1358
cks	-10.136
▁queens	-10.136
▁threat	-10.1361
▁elementary	-10.1365
▁arc	-10.1367
rt	-10.1372
▁invasion	-10.1373
▁juan	-10.1373
▁scheme	-10.1377
▁ann	-10.1378
▁mrs	-10.138
▁lou	-10.1381
▁sole	-10.1381
eo	-10.1382
▁document	-10.1384
▁tin	-10.1385
van	-10.139
▁really	-10.1393
▁pope	-10.1395
▁finals	-10.1402
▁sides	-10.1406
all	-10.1406
oma	-10.1407
▁applications	-10.1407
▁karl	-10.1409
▁caus	-10.1417
▁pet	-10.1419
▁connection	-10.1419
▁soundtrack	-10.1423
▁sell	-10.1424
▁scheduled	-10.1429
▁frequently	-10.1433
▁margaret	-10.1435
▁aged	-10.144
▁fro	-10.1442
▁patients	-10.1442
▁lawyer	-10.1444
▁cer	-10.1448
▁centuries	-10.1449
▁ign	-10.1451
▁cycle	-10.1453
hn	-10.1455
if	-10.1456
mir	-10.1457
▁skin	-10.1459
ened	-10.146
▁fisher	-10.146
▁houston	-10.1462
▁honour	-10.1464
▁orange	-10.1466
tis	-10.1469
bre	-10.1471
▁qualified	-10.1471
▁walls	-10.1473
▁pot	-10.1476
▁containing	-10.1476
nnie	-10.1477
▁shu	-10.1481
▁represent	-10.1483
mal	-10.1483
▁incident	-10.1485
yu	-10.1488
▁rot	-10.149
▁seventh	-10.149
▁recruit	-10.1493
▁occupied	-10.1495
▁extensive	-10.1496
▁select	-10.1499
ue	-10.1504
▁charter	-10.1508
▁herself	-10.1511
▁twelve	-10.1512
▁bin	-10.1515
▁powerful	-10.1517
▁africanamerican	-10.1522
▁meant	-10.1523
▁entitled	-10.1526
ned	-10.1527
gie	-10.153
sburg	-10.1531
▁bengal	-10.1532
▁1907	-10.1533
▁prix	-10.1537
▁examples	-10.1544
▁knight	-10.1545
▁copies	-10.1546
▁enemy	-10.1553
▁islamic	-10.1555
▁holds	-10.1555
▁remix	-10.156
▁mah	-10.156
style	-10.1561
var	-10.1565
lets	-10.1565
bon	-10.1566
▁standards	-10.1566
▁teachers	-10.1566
tel	-10.1577
▁treaty	-10.1579
▁tunnel	-10.1579
▁mol	-10.1579
▁cler	-10.158
▁rob	-10.1581
▁walker	-10.1584
▁margin	-10.1588
▁compilation	-10.1589
▁shah	-10.1593
▁evening	-10.1596
▁refused	-10.1596
ump	-10.1598
fall	-10.16
▁perfect	-10.1605
▁bou	-10.1606
▁mut	-10.1612
mail	-10.1613
▁attempts	-10.1618
▁medieval	-10.162
▁ac	-10.1623
▁diego	-10.1627
cast	-10.1631
acy	-10.1636
wing	-10.164
chester	-10.1647
▁median	-10.1648
▁fighter	-10.1652
▁portugal	-10.1652
ique	-10.1652
▁broken	-10.1654
▁coal	-10.1658
▁54	-10.1662
▁nt	-10.1664
agh	-10.1672
▁peru	-10.1673
▁relative	-10.1673
▁junction	-10.1675
▁monte	-10.1677
▁tit	-10.168
▁hundred	-10.168
ack	-10.1681
pper	-10.1681
▁cave	-10.1682
▁vis	-10.1684
ight	-10.1685
▁journey	-10.1689
▁wat	-10.169
▁app	-10.1692
ip	-10.1694
ris	-10.1694
▁ridge	-10.1704
▁visited	-10.1712
tsu	-10.1716
▁vision	-10.1716
for	-10.1717
▁hind	-10.1723
91	-10.1724
▁cel	-10.1725
▁grass	-10.1732
▁negative	-10.1737
body	-10.1739
our	-10.174
▁tea	-10.1742
▁dropped	-10.1744
▁resolution	-10.1751
▁resigned	-10.1756
▁gender	-10.1765
▁184	-10.1767
▁receiving	-10.1772
zh	-10.1773
right	-10.1774
▁aviation	-10.1775
▁bang	-10.1775
▁singh	-10.1776
▁magazines	-10.1778
▁wish	-10.1782
▁slightly	-10.1785
▁53	-10.1786
▁trying	-10.1786
▁qu	-10.1786
▁63	-10.1788
run	-10.1795
▁michel	-10.1804
▁brick	-10.1805
▁violence	-10.1806
box	-10.1807
▁banks	-10.1807
▁write	-10.181
iv	-10.1813
▁belgian	-10.1814
▁denmark	-10.1819
▁gordon	-10.1821
▁pav	-10.1821
▁amendment	-10.183
▁montreal	-10.1831
▁elder	-10.1836
▁carbon	-10.1842
▁genre	-10.1844
und	-10.1844
▁trophy	-10.1844
zu	-10.1845
▁segment	-10.1846
▁tourist	-10.185
aries	-10.1853
▁linear	-10.1854
▁frame	-10.1855
▁hawaii	-10.1855
▁drawing	-10.1855
gel	-10.1856
▁1903	-10.186
cho	-10.1862
▁tail	-10.1862
▁fought	-10.1863
▁hunter	-10.1865
▁translated	-10.1866
▁wag	-10.1868
▁cool	-10.1869
▁opposed	-10.1872
▁initiative	-10.1878
▁anniversary	-10.1879
iki	-10.188
▁explain	-10.188
▁cant	-10.1885
▁egg	-10.1893
▁outstanding	-10.1896
erry	-10.1899
eller	-10.1901
nik	-10.1903
▁expression	-10.1906
▁attempted	-10.1907
▁criticism	-10.1914
▁density	-10.1917
▁check	-10.1918
▁brief	-10.1918
▁camera	-10.1918
▁hell	-10.1926
▁increasing	-10.1927
▁images	-10.1939
▁incorporated	-10.1941
▁sna	-10.1943
zan	-10.1944
▁twi	-10.1945
▁datasortvalue	-10.1948
▁neg	-10.1948
▁constituency	-10.1949
▁mort	-10.1949
▁developing	-10.1953
▁needs	-10.1958
ets	-10.1961
▁locations	-10.1961
▁baker	-10.1968
▁affect	-10.1969
▁determined	-10.1969
▁genera	-10.197
▁sleep	-10.1977
▁specifically	-10.1977
▁qualifying	-10.1979
uc	-10.1988
▁actions	-10.1992
▁monument	-10.1992
▁om	-10.1996
non	-10.1999
aceae	-10.2006
▁occupation	-10.2006
▁statement	-10.2008
▁orthodox	-10.2011
iff	-10.2016
▁hunt	-10.2019
▁senator	-10.2022
uch	-10.2027
▁mean	-10.2031
gh	-10.2051
▁1902	-10.2052
▁sing	-10.2054
▁gib	-10.2054
▁pier	-10.2054
▁struggle	-10.2055
▁attacked	-10.2067
place	-10.2072
▁violin	-10.2079
▁focused	-10.2079
▁credit	-10.2079
▁ceremony	-10.2079
▁advantage	-10.2081
▁employed	-10.2083
ei	-10.2086
▁romanian	-10.2089
▁adaptation	-10.2089
▁converted	-10.2091
▁toward	-10.2099
▁classification	-10.21
▁colombia	-10.2107
▁household	-10.2108
▁reduce	-10.2109
▁pala	-10.2111
▁engineers	-10.2116
▁passing	-10.2118
ddy	-10.2119
▁tale	-10.212
▁resistance	-10.2128
▁lie	-10.213
ancy	-10.2131
oul	-10.2139
▁roads	-10.2145
▁cad	-10.2148
▁legacy	-10.2149
▁tropical	-10.215
nant	-10.2152
▁combination	-10.2154
▁diocese	-10.2154
▁touch	-10.2157
lum	-10.2159
▁rapid	-10.2159
▁roy	-10.216
▁pleas	-10.2162
oli	-10.2165
▁lawrence	-10.2166
▁add	-10.2166
gu	-10.2169
enberg	-10.2169
nch	-10.2173
▁contrast	-10.2178
▁barr	-10.2179
elle	-10.218
▁stu	-10.2188
▁occurs	-10.2191
▁organisation	-10.2192
▁kent	-10.2195
▁debate	-10.2196
point	-10.2196
cca	-10.2196
▁composers	-10.2197
kk	-10.2197
▁shooting	-10.22
ae	-10.2201
▁cass	-10.2202
vision	-10.2202
▁donald	-10.2203
ther	-10.2205
▁improve	-10.2207
▁getting	-10.2207
▁dublin	-10.2209
▁cent	-10.2211
vian	-10.2215
▁reality	-10.2217
▁ag	-10.2227
▁users	-10.2227
▁someone	-10.2229
hara	-10.2232
▁saturday	-10.2234
▁crisis	-10.2236
▁terr	-10.2237
▁spoke	-10.2243
▁cul	-10.2251
▁looking	-10.2252
▁edinburgh	-10.2254
rus	-10.2256
▁1901	-10.2256
▁strength	-10.2259
▁raj	-10.2261
▁doing	-10.2265
▁chen	-10.2267
▁eleven	-10.2268
▁speak	-10.227
▁alfred	-10.2271
▁cricketers	-10.2275
▁abu	-10.228
▁ang	-10.2283
▁crossing	-10.2284
▁persons	-10.2287
▁proposal	-10.2288
bound	-10.2289
▁pittsburgh	-10.2295
▁desert	-10.2301
int	-10.2302
▁importance	-10.2303
rill	-10.2305
▁opinion	-10.2311
ori	-10.2311
▁hug	-10.2313
▁geo	-10.2315
aria	-10.2317
▁56	-10.2317
▁clan	-10.2322
hard	-10.2329
lic	-10.233
▁protected	-10.2331
▁kos	-10.2332
▁heard	-10.2334
▁bab	-10.2335
▁proper	-10.2337
▁covers	-10.2338
▁hungary	-10.2339
▁possibly	-10.2339
▁peninsula	-10.2339
▁faced	-10.2339
▁rud	-10.234
▁cher	-10.2347
rk	-10.2348
izing	-10.2351
▁dispute	-10.2353
▁crowd	-10.2358
▁bruce	-10.236
▁alleged	-10.2361
▁ryan	-10.2362
▁bern	-10.2362
▁mps	-10.2364
▁formal	-10.237
▁repair	-10.2371
nut	-10.2373
▁vocal	-10.238
ben	-10.2381
elli	-10.2383
▁berg	-10.2395
tics	-10.2397
▁sang	-10.2401
▁revival	-10.2401
▁hollywood	-10.2402
▁roger	-10.2402
▁recipients	-10.2405
▁institution	-10.2411
▁parallel	-10.2413
▁mississippi	-10.2415
▁wonder	-10.2415
▁reasons	-10.2418
▁exist	-10.2419
gy	-10.2422
▁load	-10.2433
▁transition	-10.2434
eh	-10.2435
▁ful	-10.2438
▁scholars	-10.2446
onia	-10.2446
▁moral	-10.2447
▁derived	-10.2454
▁lim	-10.2458
▁kevin	-10.2462
▁temperature	-10.2467
▁offices	-10.2469
bach	-10.2469
ml	-10.247
▁nam	-10.2471
▁lun	-10.2475
▁consecutive	-10.2477
nell	-10.2477
isation	-10.2477
▁functions	-10.2479
▁mul	-10.2482
cat	-10.2483
▁marie	-10.2484
▁guinea	-10.2488
▁jon	-10.2492
▁lei	-10.2493
▁fre	-10.2498
ali	-10.2498
▁gau	-10.25
▁sets	-10.2506
▁qa	-10.2512
▁150	-10.2515
▁edited	-10.2516
▁indonesia	-10.2517
▁rick	-10.2518
atus	-10.252
▁kelly	-10.252
▁audit	-10.2524
▁1880	-10.2534
▁medium	-10.2534
▁es	-10.2535
zar	-10.2538
▁quite	-10.2546
▁bodies	-10.2546
ake	-10.2547
▁abb	-10.2548
▁establish	-10.2553
▁lab	-10.2558
▁arkansas	-10.2559
pet	-10.256
▁license	-10.2572
▁socialist	-10.2573
▁hindu	-10.2575
▁manufacturing	-10.2578
ep	-10.258
▁participate	-10.2581
▁sca	-10.2581
▁jordan	-10.2581
ogen	-10.2582
▁62	-10.2584
▁robinson	-10.259
▁wear	-10.259
▁sad	-10.2592
▁contributed	-10.2593
▁phd	-10.2593
osa	-10.2596
▁beautiful	-10.2599
▁occur	-10.2601
ea	-10.2604
▁rhode	-10.2604
▁essay	-10.2605
arian	-10.2605
▁kun	-10.2612
▁purchase	-10.2613
class	-10.2618
ret	-10.2619
▁sto	-10.262
▁painters	-10.2622
▁carry	-10.2623
pher	-10.2624
▁sud	-10.2627
mund	-10.2636
rous	-10.2636
▁pipe	-10.2637
master	-10.2637
▁1898	-10.264
▁finds	-10.2641
▁invited	-10.2642
kie	-10.2652
haus	-10.2652
▁capture	-10.2652
▁obs	-10.2653
▁matthew	-10.2655
ille	-10.2656
▁successfully	-10.266
▁finland	-10.266
owned	-10.266
▁abandoned	-10.2662
▁delay	-10.2665
▁penn	-10.2665
▁vic	-10.2669
▁mining	-10.2669
▁wu	-10.2671
▁harris	-10.2672
▁cau	-10.2673
ashi	-10.2674
▁mention	-10.2674
▁attend	-10.268
▁neuro	-10.2681
tta	-10.2681
tian	-10.2682
▁sought	-10.2686
▁dev	-10.2688
▁sweet	-10.2688
▁index	-10.2689
▁coastal	-10.2693
▁answer	-10.2706
▁laid	-10.2709
ike	-10.2712
▁merged	-10.2712
▁employees	-10.2713
▁finnish	-10.2717
▁sail	-10.2719
▁clay	-10.272
rell	-10.272
▁fail	-10.2726
▁pole	-10.2734
▁wings	-10.2738
▁cuba	-10.2738
nn	-10.2741
▁fin	-10.2748
▁everything	-10.2748
▁thing	-10.2751
▁lam	-10.2754
▁revenue	-10.2757
▁drop	-10.2757
mans	-10.2758
▁plane	-10.2758
▁jesus	-10.2762
rat	-10.2763
▁pack	-10.2764
▁parks	-10.2765
▁streets	-10.2769
▁nov	-10.277
▁tamil	-10.2772
▁noble	-10.2773
▁wire	-10.2775
rah	-10.2778
ome	-10.2782
▁ministers	-10.2783
uma	-10.2784
▁engines	-10.2788
▁dates	-10.2796
onic	-10.2796
▁scenes	-10.2797
▁scot	-10.28
▁statue	-10.2801
▁plus	-10.2805
▁detect	-10.2812
▁existence	-10.2812
▁cable	-10.2813
ona	-10.2813
▁museums	-10.2817
row	-10.2818
▁ox	-10.2823
▁suff	-10.2825
▁conduct	-10.2829
▁ways	-10.283
▁domain	-10.283
▁argentine	-10.2832
▁apple	-10.2833
▁wars	-10.2841
▁ghost	-10.2843
west	-10.2847
▁singing	-10.2848
▁bee	-10.2848
ssex	-10.2849
▁romania	-10.2852
▁context	-10.2854
▁passes	-10.2855
▁poems	-10.2859
▁volleyball	-10.2861
▁consider	-10.2861
▁decades	-10.2863
sons	-10.2864
▁gift	-10.2871
erra	-10.2871
▁premiered	-10.2876
▁swimming	-10.2879
lock	-10.288
▁utah	-10.289
▁lanka	-10.2893
min	-10.2894
ically	-10.2895
hill	-10.2902
▁wine	-10.2907
▁objects	-10.291
▁admiral	-10.2911
▁flowers	-10.2911
ser	-10.2911
▁alter	-10.2912
yang	-10.2915
▁fla	-10.2916
nda	-10.2917
▁associate	-10.2921
▁calling	-10.2925
▁adapted	-10.293
▁emergency	-10.293
▁scientists	-10.2935
▁didnt	-10.2943
▁satellite	-10.2945
ates	-10.2947
▁sid	-10.2947
sea	-10.2948
▁manga	-10.2952
▁billy	-10.2952
tty	-10.2953
▁expressed	-10.2957
▁decade	-10.2964
▁scr	-10.2965
▁franchise	-10.2973
▁tang	-10.2975
oy	-10.298
mel	-10.2982
▁session	-10.2985
nz	-10.2993
▁exercise	-10.2994
▁archive	-10.2997
▁comp	-10.3006
▁views	-10.3009
rod	-10.3013
▁underground	-10.3015
▁tube	-10.302
rry	-10.3026
▁gala	-10.3026
ox	-10.3029
▁finishing	-10.303
▁terra	-10.3031
▁registered	-10.3035
▁hired	-10.3035
▁funds	-10.3037
▁influenced	-10.3037
▁kit	-10.304
borough	-10.3044
▁bri	-10.3044
bridge	-10.3047
▁covid	-10.3051
▁soil	-10.3058
▁romantic	-10.3063
uf	-10.3064
▁worlds	-10.3068
▁measure	-10.3069
▁bangladesh	-10.307
▁pear	-10.3076
▁neighborhood	-10.308
▁bone	-10.308
hra	-10.3081
ages	-10.3086
unt	-10.3088
▁helen	-10.3089
gus	-10.3099
▁nar	-10.3102
▁injured	-10.3105
uv	-10.3111
oka	-10.3118
▁ideas	-10.3123
feld	-10.3123
▁minute	-10.3126
▁ref	-10.3128
▁ph	-10.3134
▁malaysia	-10.314
ama	-10.3142
are	-10.3146
▁offensive	-10.3146
▁bound	-10.3146
▁shut	-10.315
ban	-10.3152
lla	-10.3153
▁improved	-10.3153
▁monk	-10.3153
▁trained	-10.3154
▁pain	-10.3154
▁virtual	-10.3155
▁equivalent	-10.3159
▁causes	-10.3161
ase	-10.3163
rant	-10.3164
▁hits	-10.3167
▁quot	-10.3171
▁jess	-10.3172
▁bernard	-10.3184
▁1895	-10.3189
▁exact	-10.3193
▁calls	-10.3197
▁adams	-10.3198
▁ron	-10.3201
▁barn	-10.3201
▁thirty	-10.3203
▁morgan	-10.3205
▁protein	-10.3206
▁gan	-10.3207
▁solar	-10.321
ario	-10.3213
▁atlanta	-10.3214
▁truth	-10.3225
▁notice	-10.3227
▁gaz	-10.323
▁retail	-10.3233
▁stating	-10.3236
▁perhaps	-10.3237
▁jet	-10.3238
ag	-10.3238
▁1896	-10.3242
bot	-10.3249
▁pic	-10.325
▁physics	-10.3251
▁graham	-10.3251
ridge	-10.3254
▁economics	-10.3254
▁cleveland	-10.3256
▁hir	-10.3258
▁residential	-10.3259
ami	-10.326
▁papers	-10.326
▁counties	-10.3264
lton	-10.3265
▁ry	-10.3267
dom	-10.3268
▁lists	-10.327
enburg	-10.3275
▁oh	-10.3277
▁reaching	-10.3278
cu	-10.3283
▁harp	-10.3284
ges	-10.3285
fm	-10.3285
▁sli	-10.3292
bia	-10.3294
▁judges	-10.3294
▁dai	-10.3301
▁nova	-10.3304
▁infrastructure	-10.3307
eng	-10.331
kha	-10.3316
▁suicide	-10.3317
▁landing	-10.3319
▁playoffs	-10.332
▁desire	-10.3321
▁1870	-10.3324
▁semifinals	-10.3325
▁egyptian	-10.3327
▁russell	-10.3328
▁christopher	-10.3333
▁mathematics	-10.3334
▁pit	-10.3334
▁involving	-10.3342
▁installed	-10.3343
▁drivers	-10.3346
eg	-10.3346
▁ends	-10.3347
▁contained	-10.3349
ij	-10.3352
▁basin	-10.3356
▁collections	-10.3357
▁heavily	-10.3357
sis	-10.336
▁nelson	-10.3363
▁craft	-10.3363
▁skills	-10.3372
lers	-10.3373
its	-10.3374
▁restaurant	-10.3375
▁ahead	-10.3379
▁cub	-10.338
▁courts	-10.3381
▁typical	-10.3383
▁rating	-10.3383
▁productions	-10.3386
▁discography	-10.3387
old	-10.3387
▁hampshire	-10.3389
sar	-10.339
▁defensive	-10.3393
manuel	-10.34
▁indigenous	-10.3406
▁opportunity	-10.3412
▁ride	-10.3413
▁employ	-10.3417
sta	-10.3417
▁determine	-10.342
▁proved	-10.3421
▁sharp	-10.3421
▁fantasy	-10.3422
liga	-10.3422
▁tip	-10.3422
▁voted	-10.3423
▁triple	-10.3429
▁understanding	-10.3431
▁divisions	-10.3432
▁serbian	-10.3436
▁entirely	-10.344
▁documents	-10.3442
▁stan	-10.3442
ped	-10.3443
▁membership	-10.3447
▁advocate	-10.3448
wall	-10.345
▁tries	-10.345
▁61	-10.3451
▁discovery	-10.3455
lines	-10.3461
▁truck	-10.3463
▁ahm	-10.3468
▁bos	-10.3471
hs	-10.3473
▁gy	-10.3479
▁hang	-10.3481
▁orders	-10.3487
▁closely	-10.3488
▁submarine	-10.349
▁apart	-10.3491
llo	-10.3493
▁campbell	-10.35
▁1899	-10.3503
▁regulations	-10.3504
▁blu	-10.3506
gli	-10.3512
▁joining	-10.3514
▁observed	-10.3517
▁rig	-10.3518
▁obtain	-10.3523
▁terminal	-10.3524
▁replace	-10.3528
▁disney	-10.3528
ough	-10.3531
▁ambassador	-10.3531
800	-10.3539
▁seattle	-10.354
phy	-10.354
▁spiritual	-10.3542
tier	-10.3542
▁emi	-10.3547
▁commissioner	-10.3549
▁creative	-10.3552
▁apartment	-10.3556
▁collect	-10.3563
▁superior	-10.3563
▁ensure	-10.3565
nk	-10.3568
▁shir	-10.357
▁emp	-10.3571
▁techniques	-10.3572
ug	-10.3572
▁briefly	-10.3572
▁stake	-10.3577
▁representation	-10.358
mble	-10.358
▁monarch	-10.3581
▁mouth	-10.3584
▁maintained	-10.3584
▁drew	-10.3588
▁thailand	-10.359
▁universe	-10.359
shed	-10.3595
▁merit	-10.3598
▁actual	-10.36
▁distributed	-10.361
▁honorary	-10.3615
▁artistic	-10.362
shaped	-10.3622
▁jimmy	-10.3629
▁tram	-10.3629
coming	-10.3631
▁engaged	-10.3631
▁opposite	-10.3633
▁mechanism	-10.3634
▁territories	-10.3639
▁window	-10.3641
▁kl	-10.3644
▁device	-10.3644
▁islam	-10.3645
▁sarah	-10.3646
▁johnny	-10.3648
▁bah	-10.3649
▁insurance	-10.3649
bility	-10.3656
▁ivan	-10.3657
▁diamond	-10.366
▁pri	-10.366
▁controlled	-10.3669
pin	-10.3669
▁shr	-10.367
▁petro	-10.3673
▁downtown	-10.3673
▁nag	-10.3675
▁burg	-10.3676
▁assistance	-10.3679
▁adventure	-10.3686
▁gill	-10.3687
▁additionally	-10.3691
▁drawn	-10.3693
▁rebel	-10.3695
▁argued	-10.3705
▁seek	-10.3706
▁lgbt	-10.3706
▁derby	-10.3709
▁gru	-10.3712
▁gardens	-10.3713
▁comment	-10.372
dp	-10.3721
▁kol	-10.3728
▁expand	-10.373
incorporated	-10.3737
rett	-10.3738
▁vienna	-10.3742
rated	-10.3749
aux	-10.375
▁concluded	-10.3752
▁lea	-10.3754
▁values	-10.3758
▁missile	-10.3758
▁burial	-10.376
▁1893	-10.3762
ify	-10.3768
▁adjacent	-10.3769
▁contributions	-10.3769
gal	-10.3771
▁daw	-10.3773
▁horror	-10.3775
mina	-10.3778
▁defunct	-10.3782
▁saints	-10.3783
▁nep	-10.3785
▁nepal	-10.3788
ingham	-10.3793
▁au	-10.3795
▁affected	-10.38
▁arrest	-10.3802
▁thick	-10.3805
▁cart	-10.3807
▁hel	-10.3818
▁mik	-10.3818
▁duty	-10.3819
▁progressive	-10.3822
▁assault	-10.3822
▁colli	-10.3823
▁stamp	-10.3827
▁belief	-10.3829
▁warm	-10.3831
ello	-10.3831
▁cash	-10.3833
▁renew	-10.3837
▁seal	-10.3839
▁1894	-10.3843
00000	-10.3849
▁weekend	-10.3852
ava	-10.3853
▁scout	-10.3855
▁liverpool	-10.3855
▁rhythm	-10.3856
▁producing	-10.3856
▁attached	-10.3862
▁listen	-10.3865
olo	-10.3867
▁database	-10.3867
▁inhabitants	-10.3869
▁gulf	-10.3873
▁authors	-10.3875
▁fill	-10.3878
▁designer	-10.3882
▁victims	-10.3887
▁instruments	-10.3887
▁newspapers	-10.3893
▁ruled	-10.3896
▁knew	-10.3896
general	-10.3897
yle	-10.3898
▁export	-10.39
▁rem	-10.3903
▁layer	-10.3904
▁poem	-10.3905
▁bul	-10.3906
ring	-10.3907
▁praised	-10.391
▁critic	-10.3911
▁venezuela	-10.3919
▁endemic	-10.392
log	-10.3924
▁kon	-10.3926
ping	-10.3929
▁austin	-10.3929
▁parent	-10.393
ora	-10.3934
▁relief	-10.3938
▁intention	-10.3938
ense	-10.3938
▁electro	-10.3939
▁sib	-10.3939
ulu	-10.394
▁distinct	-10.394
cas	-10.3942
phal	-10.3943
▁lit	-10.3945
▁tren	-10.3946
▁ei	-10.3947
▁instance	-10.395
▁owners	-10.3951
▁kennedy	-10.3954
▁spo	-10.396
▁barb	-10.3962
level	-10.3965
oto	-10.3968
▁element	-10.3969
aj	-10.397
▁rico	-10.3975
▁peri	-10.3981
▁coalition	-10.3986
mato	-10.3986
bus	-10.3987
sley	-10.3988
▁chose	-10.3991
ht	-10.3994
vich	-10.3994
▁fib	-10.3995
▁1897	-10.4003
▁appointment	-10.4004
bet	-10.4007
▁highlight	-10.4007
▁ago	-10.401
ato	-10.4017
▁rice	-10.4018
gio	-10.4019
▁predict	-10.402
▁exhibit	-10.4022
▁1889	-10.4023
▁1860	-10.4024
▁cousin	-10.4025
rina	-10.4026
▁uniform	-10.4027
▁climb	-10.4034
▁successor	-10.4038
▁legislature	-10.4042
key	-10.405
where	-10.405
put	-10.4051
▁wol	-10.4059
▁edit	-10.4061
▁accused	-10.4063
▁items	-10.4063
bian	-10.4064
▁regarded	-10.4067
▁dallas	-10.4071
osaur	-10.4076
▁thi	-10.4078
▁seems	-10.408
▁pattern	-10.408
▁stood	-10.4089
far	-10.4097
ec	-10.4103
▁networks	-10.4106
▁spectr	-10.4107
▁eli	-10.4109
▁trouble	-10.4113
akh	-10.4113
▁flam	-10.4115
▁playoff	-10.412
▁fathers	-10.4121
oth	-10.4126
▁cartoon	-10.4127
▁thompson	-10.413
vis	-10.4131
obby	-10.4132
▁gone	-10.4132
▁cong	-10.4133
ovo	-10.4135
▁describes	-10.4141
▁tribe	-10.4142
▁wright	-10.4145
▁manage	-10.4152
▁orbit	-10.4155
▁starts	-10.4156
▁brooklyn	-10.4156
▁producers	-10.4157
▁disp	-10.4161
▁eat	-10.4161
▁marshall	-10.4162
▁youtube	-10.4162
tory	-10.4162
lain	-10.4165
▁prove	-10.4166
▁chess	-10.4166
▁sultan	-10.4168
▁bridges	-10.4168
▁carrier	-10.4169
▁disorder	-10.417
▁mega	-10.4173
ito	-10.418
▁1892	-10.4181
mos	-10.4185
▁nest	-10.4186
▁dancer	-10.4187
nder	-10.4189
▁tai	-10.4192
▁gross	-10.4193
▁genetic	-10.4194
▁analy	-10.4194
vas	-10.4196
▁sim	-10.4197
atic	-10.4199
▁1891	-10.4201
▁stewart	-10.4201
▁definition	-10.4203
▁diagnos	-10.4205
▁alt	-10.4207
▁lev	-10.4208
▁hoo	-10.4219
sson	-10.4223
▁coat	-10.4223
mark	-10.423
▁amaz	-10.423
ming	-10.4231
▁replacement	-10.4232
▁doubles	-10.4232
▁carlos	-10.4232
▁mala	-10.4233
roy	-10.4233
▁sic	-10.4235
ido	-10.4236
osis	-10.4238
▁easily	-10.4241
▁lac	-10.4242
▁jen	-10.4249
▁jur	-10.425
▁strategy	-10.4251
art	-10.4252
virus	-10.4254
▁transit	-10.4254
▁nurse	-10.426
▁photography	-10.427
▁milan	-10.4271
▁caught	-10.4271
▁lecture	-10.4273
▁committed	-10.4273
rid	-10.4275
▁sugar	-10.4276
▁patent	-10.4279
▁warner	-10.428
▁earliest	-10.4282
▁controversy	-10.4282
▁backing	-10.4287
▁flash	-10.4288
▁shadow	-10.4288
▁aut	-10.429
▁smok	-10.4291
▁operate	-10.4293
▁measures	-10.4294
▁credited	-10.4296
▁stanley	-10.4297
▁grounds	-10.4298
▁chan	-10.4299
▁imp	-10.4305
wer	-10.4308
▁passage	-10.431
▁anything	-10.4315
▁meters	-10.4316
▁belong	-10.4319
▁seed	-10.432
page	-10.432
▁leaf	-10.4324
▁painted	-10.4324
rock	-10.4324
▁legislation	-10.4324
▁remark	-10.4325
▁holiday	-10.4325
▁raise	-10.4326
▁happy	-10.4327
▁guitarist	-10.4328
ography	-10.4328
▁tha	-10.4333
▁crystal	-10.4334
▁maine	-10.4334
▁kno	-10.4339
▁lift	-10.4341
▁factors	-10.4341
dos	-10.4343
▁courses	-10.4345
▁lis	-10.4346
▁consumer	-10.4347
lb	-10.4347
▁discussion	-10.4347
▁sala	-10.4349
sbury	-10.4349
▁till	-10.4349
▁strategic	-10.4349
fully	-10.4351
▁suspect	-10.4352
▁stem	-10.4355
ess	-10.4355
▁survived	-10.4362
▁gary	-10.4362
▁fran	-10.4362
▁inner	-10.4368
dies	-10.437
▁swan	-10.4374
▁historians	-10.4374
▁restoration	-10.4374
2000	-10.4381
pit	-10.4389
rage	-10.439
▁turb	-10.439
len	-10.4391
▁blan	-10.4399
▁brit	-10.4399
▁sens	-10.4399
▁birmingham	-10.4407
hand	-10.4407
▁evans	-10.4408
▁patrol	-10.4408
▁robin	-10.4417
▁dies	-10.4417
▁cypr	-10.4419
theless	-10.4422
▁childhood	-10.4424
▁cloud	-10.4429
kers	-10.4432
lia	-10.4432
sc	-10.4432
▁juli	-10.4432
fast	-10.4436
▁stores	-10.4439
▁delhi	-10.4443
▁melod	-10.4443
terior	-10.4444
lly	-10.4444
▁governments	-10.4445
wy	-10.4446
etta	-10.4446
▁clinical	-10.4447
▁az	-10.4447
▁revolutionary	-10.4447
▁learned	-10.4448
▁sau	-10.4449
▁lau	-10.445
uru	-10.445
▁jar	-10.445
▁driving	-10.445
▁pierre	-10.445
gas	-10.4451
▁colony	-10.4452
▁med	-10.4456
▁coup	-10.4457
lay	-10.4458
▁fee	-10.446
▁benefit	-10.446
▁user	-10.446
▁happen	-10.4463
work	-10.4464
dolph	-10.4465
▁esc	-10.4465
roll	-10.4466
▁poets	-10.4468
▁otherwise	-10.447
ex	-10.4471
▁henri	-10.4483
▁silent	-10.4486
▁soldier	-10.4488
▁hurricane	-10.4489
nie	-10.4489
▁broadway	-10.4493
▁af	-10.4494
▁prisoners	-10.4495
▁luis	-10.4496
▁policies	-10.4497
▁sul	-10.4502
▁ultra	-10.4508
▁venues	-10.4511
▁surround	-10.4513
▁sher	-10.4513
▁charlotte	-10.4518
▁percussion	-10.4521
▁wel	-10.4522
nu	-10.4522
▁routes	-10.4524
▁glo	-10.4524
▁laboratory	-10.4526
post	-10.4528
ters	-10.4529
▁lor	-10.4529
▁journalists	-10.4529
▁vers	-10.4534
▁filmography	-10.4541
▁iranian	-10.4543
▁defend	-10.4546
lope	-10.4548
▁gh	-10.4548
▁portland	-10.4549
▁lan	-10.455
▁brun	-10.4554
▁offering	-10.4559
▁sections	-10.4559
▁venture	-10.456
▁virgin	-10.456
▁passengers	-10.4562
gor	-10.4564
▁kor	-10.4568
▁bishops	-10.4568
▁meanwhile	-10.4569
iled	-10.4572
▁ple	-10.4573
▁1885	-10.4574
▁nomination	-10.4579
▁grace	-10.458
▁locality	-10.4584
▁kara	-10.4585
▁guards	-10.4586
▁regularly	-10.4586
▁barbara	-10.4591
wang	-10.4595
▁costs	-10.4595
▁sanct	-10.4597
▁qualification	-10.4598
craft	-10.4605
▁vega	-10.4609
▁1888	-10.461
▁extend	-10.462
▁franklin	-10.4623
eno	-10.4624
▁easy	-10.4633
▁serbia	-10.4635
▁knights	-10.4639
▁ruler	-10.4639
▁math	-10.4641
▁rising	-10.4645
▁intersection	-10.4645
▁executed	-10.4646
▁summit	-10.4648
▁modul	-10.4648
▁wedding	-10.4649
▁arrive	-10.4651
▁ip	-10.4652
▁belt	-10.4653
▁nickname	-10.4654
▁mcg	-10.4655
▁zero	-10.4656
arch	-10.4657
▁clo	-10.4657
▁glasgow	-10.4661
▁wooden	-10.4662
ias	-10.4662
500	-10.4665
▁businessman	-10.4666
▁destroy	-10.4667
stad	-10.4667
tant	-10.4667
▁hearing	-10.4673
▁manner	-10.4674
▁batt	-10.4678
▁adopt	-10.4678
▁shield	-10.4679
▁bid	-10.4679
▁resid	-10.4679
▁showing	-10.468
▁arrival	-10.468
▁drum	-10.468
▁guer	-10.4684
▁peer	-10.4684
▁raja	-10.4684
▁responsibility	-10.4685
tch	-10.4687
stroke	-10.4688
illo	-10.4692
uro	-10.4694
▁patron	-10.4701
ast	-10.4703
▁songwriter	-10.4704
▁lip	-10.4704
▁devices	-10.4704
▁constitutional	-10.4706
ras	-10.4708
▁rocket	-10.471
▁goods	-10.4712
▁scholarship	-10.4718
▁wake	-10.4721
▁robb	-10.4722
▁instrumental	-10.4724
lus	-10.4724
▁winds	-10.4728
cos	-10.473
▁alice	-10.473
▁experimental	-10.4733
▁bras	-10.4736
▁instrument	-10.4738
lem	-10.4738
▁storage	-10.474
▁eco	-10.4741
fold	-10.4741
▁topic	-10.4742
xon	-10.4746
col	-10.4747
▁rooms	-10.4748
▁contra	-10.4754
▁charges	-10.4754
▁activist	-10.4757
uka	-10.476
▁arranged	-10.4766
▁astronom	-10.4767
▁pel	-10.4768
iling	-10.477
▁reporter	-10.4771
df	-10.4771
cz	-10.4773
gne	-10.4775
pel	-10.4777
▁stopped	-10.4777
▁temporary	-10.4778
▁prefecture	-10.4779
▁aqua	-10.478
▁summary	-10.4782
▁ant	-10.4783
hal	-10.4784
blo	-10.4785
▁prim	-10.4788
▁prepared	-10.479
▁prosecut	-10.479
▁evolution	-10.4792
▁ranking	-10.4795
▁rejected	-10.4796
▁guardian	-10.4796
▁illegal	-10.4796
▁animation	-10.48
▁cord	-10.4801
▁angle	-10.4801
▁tigers	-10.4802
▁fixed	-10.4803
▁interests	-10.4804
▁chap	-10.4805
▁architectural	-10.4807
eb	-10.4807
▁jason	-10.4808
▁identify	-10.4808
ement	-10.481
nstein	-10.4814
▁biggest	-10.4816
▁stress	-10.4818
▁delivered	-10.4819
▁opti	-10.4823
ric	-10.4826
esh	-10.4827
▁gets	-10.4827
▁error	-10.4829
▁1887	-10.4838
tile	-10.484
▁damaged	-10.4841
dish	-10.4842
▁participation	-10.4842
ero	-10.4848
anna	-10.4849
▁consult	-10.4849
▁imagin	-10.4854
▁siege	-10.4854
▁selling	-10.4858
ature	-10.4861
▁leads	-10.4863
▁testing	-10.4866
stead	-10.487
▁thousand	-10.488
▁employment	-10.4883
▁purposes	-10.4884
▁orleans	-10.4885
▁trace	-10.4885
▁cosm	-10.4886
▁sisters	-10.4886
▁daughters	-10.4891
▁wounded	-10.4892
▁photographer	-10.4896
▁eighth	-10.49
▁afterwards	-10.49
br	-10.4902
▁hyper	-10.4907
▁1886	-10.4909
▁hai	-10.4913
▁bron	-10.4914
▁av	-10.4915
boy	-10.4916
ved	-10.4918
▁carrying	-10.4923
▁loo	-10.4923
▁conductor	-10.4924
▁businesses	-10.4935
▁serial	-10.4936
▁thousands	-10.4937
▁electrical	-10.4937
pu	-10.494
star	-10.4941
▁transmission	-10.4943
▁questions	-10.4944
▁apply	-10.4947
ces	-10.4947
▁schu	-10.4953
▁baltimore	-10.4955
▁attract	-10.4959
▁restored	-10.496
raising	-10.4961
ody	-10.4964
load	-10.4967
▁require	-10.4967
▁springs	-10.497
▁englishlanguage	-10.497
▁uefa	-10.4971
▁hunting	-10.4972
▁components	-10.4976
uki	-10.4976
▁domin	-10.4976
▁stands	-10.4977
▁honors	-10.4977
▁charity	-10.4979
▁depth	-10.4979
▁proceed	-10.498
▁pac	-10.4983
▁costa	-10.4986
▁sv	-10.4988
oshi	-10.4989
▁bren	-10.499
▁shaw	-10.4994
ander	-10.4996
▁kiss	-10.4998
etti	-10.5
▁warren	-10.5002
▁span	-10.5002
▁exception	-10.5004
▁difference	-10.5006
▁bart	-10.5007
▁admitted	-10.5008
▁foster	-10.501
▁anchor	-10.501
▁sol	-10.501
▁victorian	-10.5013
brid	-10.5015
▁baptist	-10.5015
▁dig	-10.5016
bal	-10.5016
▁nigeria	-10.5017
▁marketing	-10.5018
▁workshop	-10.5018
▁carter	-10.502
▁ghana	-10.5024
▁gabriel	-10.5025
▁julia	-10.5027
▁guid	-10.5029
▁dating	-10.5029
print	-10.5029
olf	-10.503
oxy	-10.5033
mour	-10.5034
▁rout	-10.5036
▁volcan	-10.5036
▁archbishop	-10.5036
▁credits	-10.5038
▁fifa	-10.5041
▁mann	-10.5045
▁astro	-10.505
tero	-10.5051
▁racial	-10.5053
vor	-10.5057
anga	-10.5058
▁beauty	-10.5058
ites	-10.5059
▁mars	-10.506
▁pink	-10.5062
voy	-10.5064
▁ske	-10.5064
ceased	-10.5069
luc	-10.507
▁diet	-10.5072
itter	-10.5073
▁pradesh	-10.5075
lar	-10.5078
▁coverage	-10.508
pc	-10.5083
▁sort	-10.5085
▁murray	-10.5085
▁client	-10.5085
▁continuous	-10.509
llah	-10.5091
yama	-10.5092
▁charlie	-10.5095
city	-10.5096
▁companion	-10.5097
▁debuted	-10.5102
▁vessels	-10.5105
▁chase	-10.5106
▁ruth	-10.511
▁agree	-10.5113
ovan	-10.5113
▁wait	-10.5116
▁susan	-10.512
▁lion	-10.5127
▁bann	-10.5127
▁hole	-10.5127
▁extremely	-10.5127
▁neck	-10.5128
▁possess	-10.5128
▁bible	-10.5129
textaligncenter	-10.5131
▁conn	-10.5136
onian	-10.5138
leigh	-10.5145
▁import	-10.5147
▁chronicle	-10.5147
▁carol	-10.5154
▁dynamic	-10.5155
▁um	-10.5155
ikh	-10.5156
▁symphony	-10.5159
▁debt	-10.516
▁returns	-10.516
▁feli	-10.516
▁coll	-10.5164
▁stretch	-10.5166
▁trump	-10.5167
▁gear	-10.5171
▁formally	-10.5174
▁tape	-10.5176
▁designs	-10.5176
▁whilst	-10.5176
▁carn	-10.5176
▁chemistry	-10.5178
pping	-10.518
▁moths	-10.5182
▁favour	-10.5188
▁eugen	-10.5189
▁chand	-10.5189
▁retain	-10.519
▁moll	-10.5193
▁elli	-10.5196
▁battery	-10.5197
▁cooperation	-10.5201
▁psychology	-10.5202
▁depict	-10.5204
listed	-10.5204
▁madrid	-10.5205
▁agencies	-10.5206
itch	-10.5207
lag	-10.521
▁strange	-10.5218
▁dialect	-10.522
▁cited	-10.5223
▁hub	-10.5224
▁mitchell	-10.5225
▁rein	-10.5227
▁alb	-10.5227
▁jonathan	-10.5227
▁tied	-10.523
▁fishing	-10.5231
uel	-10.5233
inch	-10.5234
▁afghanistan	-10.5235
agan	-10.5238
▁wrong	-10.5239
▁pont	-10.5247
▁humans	-10.5251
lc	-10.5252
▁unsuccessful	-10.5253
position	-10.5255
▁turns	-10.5262
▁sword	-10.5265
▁sheriff	-10.5265
▁tourism	-10.5265
▁duties	-10.5266
▁roo	-10.5267
▁verb	-10.527
▁subjects	-10.527
▁estonia	-10.5271
list	-10.5271
▁poverty	-10.5272
▁experiment	-10.5272
▁ownership	-10.5275
venge	-10.5276
▁archaeological	-10.5282
▁accounts	-10.5284
verse	-10.5284
▁charged	-10.5287
cell	-10.5288
▁retained	-10.5288
ories	-10.5296
nold	-10.5297
▁congregation	-10.5298
▁photograph	-10.5298
▁eve	-10.5302
▁choir	-10.5304
▁pine	-10.5304
▁landmark	-10.5304
▁wayne	-10.5307
▁aspects	-10.5308
▁finger	-10.5309
▁skat	-10.5314
▁benjamin	-10.5319
▁uni	-10.532
▁assumed	-10.5324
▁hom	-10.5324
ics	-10.5325
▁sentence	-10.5329
▁profit	-10.5331
▁achievement	-10.5334
▁represents	-10.5335
▁lt	-10.5335
▁buffalo	-10.5336
▁mediterranean	-10.5336
▁editions	-10.5337
evil	-10.5339
phone	-10.5339
▁balance	-10.5341
▁experienced	-10.5341
▁bert	-10.5342
▁orient	-10.5343
thal	-10.5345
sex	-10.5345
smith	-10.5347
▁marqu	-10.5348
▁joan	-10.5348
▁dakota	-10.5353
berry	-10.5353
▁pure	-10.5357
roid	-10.536
▁coaching	-10.5361
▁speaker	-10.5361
rose	-10.5362
▁lawyers	-10.5362
een	-10.5363
▁solution	-10.5366
▁municipalities	-10.5366
aver	-10.5366
▁airlines	-10.5367
uge	-10.5367
▁chor	-10.5372
▁starred	-10.5376
▁heads	-10.5378
▁channels	-10.538
▁requirements	-10.5381
otic	-10.5382
▁differences	-10.5383
▁operational	-10.5385
▁homes	-10.5387
▁unusual	-10.5388
▁roughly	-10.5389
▁criticized	-10.5393
▁wet	-10.5395
▁orchid	-10.5395
▁cop	-10.5396
▁surgery	-10.5397
▁div	-10.5398
▁ford	-10.5399
▁lakes	-10.5402
▁concerns	-10.5404
▁leo	-10.5404
▁bullet	-10.5407
▁barry	-10.5412
▁significantly	-10.5412
▁concrete	-10.5416
▁treat	-10.5416
▁movies	-10.5417
ffe	-10.5419
▁120	-10.542
▁substantial	-10.5421
ked	-10.5422
aku	-10.5429
▁ratio	-10.5431
▁shock	-10.5433
▁everyone	-10.544
life	-10.5442
▁decline	-10.5444
▁covering	-10.5447
▁wha	-10.5449
▁radical	-10.545
▁deliver	-10.5452
▁popularity	-10.5452
▁worship	-10.5454
▁turner	-10.5454
finite	-10.5455
▁dollar	-10.5457
▁classified	-10.546
▁nord	-10.5462
▁elite	-10.5465
▁fired	-10.5468
hy	-10.5468
▁colleges	-10.5469
sville	-10.5471
▁loyal	-10.5472
▁amp	-10.5473
▁horses	-10.5476
▁gam	-10.5476
▁stages	-10.5477
▁eliminated	-10.5478
▁oliver	-10.5478
ima	-10.5481
▁assist	-10.5483
▁acquisition	-10.5483
▁industries	-10.5484
▁cove	-10.5487
▁resort	-10.5491
▁yorkshire	-10.5492
lyn	-10.5493
▁depression	-10.5494
▁interested	-10.5496
▁syria	-10.5499
▁glob	-10.5503
dder	-10.5505
space	-10.5506
▁volunteer	-10.5509
rak	-10.551
▁personality	-10.5511
gart	-10.5515
▁richmond	-10.5516
▁elevation	-10.5519
▁mineral	-10.5526
▁technique	-10.5529
owski	-10.5532
▁mand	-10.5533
▁maxim	-10.5534
▁robot	-10.5537
▁concentration	-10.5537
lk	-10.5539
▁practices	-10.554
▁demographics	-10.554
▁allied	-10.5541
▁portrayed	-10.5542
fan	-10.5544
▁runners	-10.5545
▁corporate	-10.5548
▁dra	-10.5549
stra	-10.5553
▁fau	-10.5554
▁tools	-10.5555
▁meets	-10.5557
gent	-10.5558
▁bud	-10.5559
▁philippine	-10.5566
▁losses	-10.5569
▁ic	-10.5573
▁premiere	-10.5574
phant	-10.5577
▁insect	-10.5583
▁voting	-10.5583
aire	-10.5584
matic	-10.5584
ardo	-10.5586
▁arabic	-10.5589
▁separated	-10.559
▁degrees	-10.5592
▁ethic	-10.5592
▁possession	-10.5595
wise	-10.5596
▁resident	-10.5596
▁parker	-10.5604
▁disaster	-10.5608
▁salva	-10.5609
▁bh	-10.5614
▁priv	-10.5617
▁malay	-10.5617
ock	-10.5618
▁publisher	-10.5619
▁nee	-10.5622
tric	-10.5632
▁jerusalem	-10.5633
▁pseudo	-10.5635
▁maha	-10.5637
▁tech	-10.564
▁cab	-10.5641
▁claud	-10.5643
▁ak	-10.5646
▁greg	-10.5646
▁bachelor	-10.5647
▁buddhist	-10.5647
▁partners	-10.5652
▁uc	-10.5652
▁pod	-10.5655
▁bosnia	-10.5657
▁tribute	-10.5658
bow	-10.5659
att	-10.5659
▁vermont	-10.5662
▁abbey	-10.5663
gos	-10.5664
▁continuing	-10.5665
▁visitors	-10.5665
▁dual	-10.5666
▁construct	-10.5666
▁commerce	-10.5667
▁sight	-10.5669
▁giant	-10.567
▁bir	-10.5671
▁linked	-10.5672
▁confus	-10.5673
▁objective	-10.5679
▁obli	-10.5681
▁martial	-10.5683
▁brave	-10.5684
▁monster	-10.5686
▁happened	-10.569
▁headed	-10.569
▁anime	-10.5692
acle	-10.5693
▁collective	-10.5694
▁boundary	-10.5696
▁wis	-10.5697
▁timber	-10.5698
▁ready	-10.5699
▁changing	-10.5699
▁geno	-10.57
▁yard	-10.57
▁convert	-10.5705
▁achieve	-10.5708
▁extreme	-10.5711
type	-10.5713
▁mason	-10.5715
▁operates	-10.5716
▁dec	-10.5717
▁pandemic	-10.5717
▁antarctic	-10.5724
▁71	-10.5726
ichi	-10.5727
▁counsel	-10.5729
▁collapse	-10.573
naut	-10.573
▁kath	-10.5731
▁rates	-10.5731
▁baronet	-10.5733
▁alternate	-10.5733
lov	-10.5734
dication	-10.5734
▁phy	-10.5734
▁chel	-10.5735
▁hid	-10.5739
▁mechanical	-10.5742
▁pianist	-10.5742
▁visiting	-10.5749
▁clock	-10.5752
▁promise	-10.5753
▁persian	-10.5753
▁defeating	-10.5754
▁adding	-10.5756
▁argument	-10.5757
most	-10.5757
▁sailor	-10.5759
yne	-10.576
hine	-10.5761
▁adults	-10.5765
act	-10.577
▁deposit	-10.5774
puls	-10.5774
del	-10.5776
▁abuse	-10.5778
▁suggests	-10.5781
▁indicat	-10.5786
rik	-10.5787
ico	-10.5789
▁devil	-10.5791
sman	-10.5791
▁tak	-10.5793
▁blind	-10.5794
▁pakistani	-10.5795
rit	-10.5801
dis	-10.5803
▁leonard	-10.5806
ert	-10.5808
▁capt	-10.5815
ient	-10.5818
▁hosts	-10.5819
▁continental	-10.5824
▁continu	-10.5824
▁prayer	-10.5825
▁alcohol	-10.5842
▁fossil	-10.5846
▁exc	-10.5847
▁fir	-10.5851
▁rent	-10.5854
lift	-10.5858
▁voyage	-10.5859
▁sprint	-10.586
▁ports	-10.5861
▁spider	-10.5862
▁prohibit	-10.5865
▁lose	-10.5875
▁competitive	-10.5876
▁choose	-10.5878
▁patriot	-10.5881
▁emil	-10.5881
▁rag	-10.5882
▁rowspan	-10.5886
▁httpwww	-10.5888
▁cooper	-10.5889
mor	-10.589
▁alexandr	-10.5892
▁widow	-10.5893
kel	-10.5895
fire	-10.5895
▁false	-10.5896
▁illustrated	-10.5898
▁cloth	-10.5899
ovsky	-10.5905
▁quant	-10.5907
▁forests	-10.5908
ib	-10.5908
▁drummer	-10.5914
▁ticket	-10.5916
arm	-10.5916
san	-10.592
nic	-10.5923
▁drink	-10.5924
▁satisf	-10.5925
ttle	-10.5927
▁perspective	-10.5927
live	-10.5936
▁surviving	-10.5937
▁cavalry	-10.5937
▁lib	-10.5937
▁branches	-10.5942
▁origins	-10.5943
▁voivodeship	-10.5944
▁cyclist	-10.5945
▁filled	-10.5947
mara	-10.5947
▁installation	-10.5949
met	-10.5952
ingly	-10.5955
▁luck	-10.5956
▁roster	-10.5961
▁practical	-10.5961
orrow	-10.5963
▁regime	-10.597
▁bristol	-10.5972
▁understand	-10.5976
▁stable	-10.598
▁bears	-10.5985
▁copy	-10.5987
▁differ	-10.5989
▁gather	-10.599
▁survive	-10.5993
uary	-10.5996
▁wildlife	-10.5997
▁harbor	-10.5999
▁confront	-10.6
tte	-10.6003
▁surrender	-10.6004
▁punjab	-10.6005
▁appearing	-10.6006
▁stayed	-10.6008
▁spoken	-10.601
▁kn	-10.601
bha	-10.6012
▁rangers	-10.6013
▁mack	-10.6014
▁incumbent	-10.6017
▁divorce	-10.6019
▁ideal	-10.6021
▁demolished	-10.6027
▁muhammad	-10.6029
▁archi	-10.6037
▁jamaica	-10.6039
▁pupil	-10.604
▁179	-10.604
hew	-10.604
ache	-10.6042
▁bryan	-10.6042
hman	-10.6043
▁legion	-10.6044
▁neu	-10.6045
she	-10.6046
▁philosopher	-10.6047
▁capable	-10.6048
zie	-10.605
▁integrated	-10.605
▁armenian	-10.6054
▁equi	-10.6055
▁discuss	-10.6059
▁seminar	-10.6059
him	-10.6061
cious	-10.6063
eur	-10.6063
▁hil	-10.6065
pt	-10.6065
wig	-10.6065
crypt	-10.6066
▁supposed	-10.607
▁celebration	-10.6072
▁manor	-10.6073
league	-10.6076
▁impress	-10.6076
▁servant	-10.6077
▁struck	-10.6078
▁comprise	-10.6081
▁stein	-10.6083
▁azerbaijan	-10.6083
▁caribbean	-10.6085
▁fifteen	-10.6086
▁voiced	-10.6087
eva	-10.6089
▁oct	-10.609
▁acc	-10.6093
▁vincent	-10.6095
▁thai	-10.6095
tors	-10.6095
▁cards	-10.6096
▁secure	-10.6097
hua	-10.6099
▁enjoy	-10.6101
ota	-10.6102
▁grove	-10.6102
▁josh	-10.6103
▁farmers	-10.6108
▁heaven	-10.6114
odi	-10.6115
▁maintenance	-10.6117
rum	-10.6119
▁rum	-10.612
▁maritime	-10.6124
▁preparation	-10.6124
▁missions	-10.6126
▁processes	-10.613
▁americas	-10.6132
▁cricketer	-10.6134
▁signing	-10.6137
▁asset	-10.6137
▁turk	-10.614
tical	-10.6141
than	-10.6143
▁scientist	-10.6145
▁tactic	-10.6146
itation	-10.6148
▁movements	-10.6156
▁payment	-10.6157
▁canton	-10.6159
rium	-10.616
pan	-10.6162
▁rosa	-10.6163
▁plastic	-10.6164
tons	-10.6167
▁massive	-10.6171
▁taxa	-10.6171
▁influential	-10.6177
▁potter	-10.618
▁250	-10.6186
▁bai	-10.6192
▁matri	-10.6198
▁alp	-10.6199
▁nicholas	-10.62
stock	-10.6201
▁videos	-10.6202
▁10000	-10.6203
▁rac	-10.6212
▁sporting	-10.6216
▁medals	-10.6216
▁luther	-10.622
▁yi	-10.6221
▁interpret	-10.6225
▁else	-10.6225
▁completion	-10.6227
▁modified	-10.6228
med	-10.6232
▁tir	-10.6234
▁encounter	-10.6235
▁canon	-10.624
▁bringing	-10.624
▁verse	-10.6241
▁advertising	-10.6243
▁thunder	-10.6245
▁filed	-10.6248
▁teenage	-10.6254
▁mills	-10.6256
cade	-10.6258
▁threatened	-10.6258
▁montana	-10.6259
▁indoor	-10.6266
▁penalty	-10.6267
▁educator	-10.6268
▁explained	-10.6269
▁download	-10.6271
▁occasionally	-10.6272
▁alaska	-10.6272
▁trinity	-10.6277
▁premi	-10.6279
▁beau	-10.628
cil	-10.6287
▁enable	-10.6288
▁nevada	-10.6292
view	-10.6294
▁abdul	-10.6295
▁forum	-10.6296
▁nonfiction	-10.6298
lle	-10.6298
▁cli	-10.6299
ister	-10.63
bes	-10.6301
▁participants	-10.6307
▁steven	-10.631
plane	-10.6311
yletextalignleft	-10.6312
▁breed	-10.6312
▁cle	-10.6314
▁width	-10.6314
▁markets	-10.6315
▁minim	-10.6315
bl	-10.6317
some	-10.6318
band	-10.6321
quin	-10.6321
▁boxer	-10.6324
▁comparison	-10.6326
▁kenya	-10.6326
▁fli	-10.6326
▁competing	-10.6329
nza	-10.633
▁apo	-10.6332
▁tests	-10.6333
hold	-10.6335
▁cran	-10.6337
▁mig	-10.6337
▁thin	-10.6348
▁jurisdiction	-10.635
▁glaci	-10.6351
▁conc	-10.6358
adi	-10.6359
▁trading	-10.6362
▁acoustic	-10.6362
mit	-10.6363
▁sculpture	-10.6365
rog	-10.6366
▁witness	-10.6368
▁involvement	-10.6372
▁pers	-10.6372
▁alien	-10.6377
▁characteristics	-10.6378
▁smart	-10.6378
▁dated	-10.6378
aron	-10.6385
▁implementation	-10.6394
▁nonprofit	-10.6394
umi	-10.6395
▁vessel	-10.6395
iva	-10.6397
xy	-10.6401
▁roberts	-10.6401
ule	-10.6402
▁crus	-10.6406
zel	-10.6407
gm	-10.6407
▁rebellion	-10.641
rano	-10.6414
atory	-10.6415
▁pursue	-10.6417
▁santo	-10.6417
fb	-10.6417
▁monastery	-10.6418
rna	-10.6429
ologists	-10.643
▁pastor	-10.643
▁rolling	-10.6432
ante	-10.6437
roe	-10.6439
ives	-10.6442
▁outer	-10.6442
▁researchers	-10.6442
▁graduating	-10.6444
▁biological	-10.6446
▁absor	-10.6451
▁organis	-10.6452
zon	-10.6454
▁ninth	-10.6456
▁mystery	-10.6459
borne	-10.6459
▁ensemble	-10.6461
▁lloyd	-10.6462
apping	-10.6462
hawk	-10.6465
▁highland	-10.6466
▁aka	-10.6469
▁agents	-10.6476
▁reputation	-10.6477
gram	-10.6477
▁fasci	-10.6478
▁approval	-10.6478
▁entering	-10.648
▁substitute	-10.648
▁eagle	-10.6483
▁chip	-10.6485
▁semifinal	-10.6485
fish	-10.6486
▁venue	-10.6487
power	-10.649
▁quick	-10.6491
▁carr	-10.6493
lis	-10.6495
grim	-10.6497
▁standings	-10.6498
iko	-10.6498
▁increasingly	-10.6499
▁speaking	-10.65
▁controversial	-10.6504
▁bloom	-10.6504
person	-10.6505
▁kne	-10.6505
▁concern	-10.6506
▁contribution	-10.6507
▁somewhat	-10.6507
dium	-10.6508
gerald	-10.6509
▁nominations	-10.6512
▁festivals	-10.6514
▁shri	-10.6514
▁handle	-10.6521
notes	-10.6522
▁requires	-10.6523
▁random	-10.6525
▁catherine	-10.6528
▁tackle	-10.6528
▁friendly	-10.6529
ties	-10.653
bit	-10.653
aro	-10.6535
▁lions	-10.6536
▁lamb	-10.6546
▁developer	-10.6547
▁comedian	-10.6547
▁anglican	-10.6548
▁neither	-10.6549
▁flower	-10.655
▁archives	-10.6551
world	-10.6551
▁particle	-10.6554
▁interpretation	-10.6562
etic	-10.6564
cdonald	-10.6566
▁fore	-10.6567
▁departure	-10.6568
▁architects	-10.657
▁swi	-10.6573
▁overview	-10.6574
▁shopping	-10.6574
▁friday	-10.6575
scope	-10.6576
▁enzyme	-10.6577
▁torn	-10.6578
ois	-10.6578
urs	-10.6578
so	-10.6579
▁organisations	-10.6579
par	-10.6581
▁accomplish	-10.6584
▁alberta	-10.6588
shan	-10.6589
▁fabric	-10.6591
▁turning	-10.6595
alam	-10.6596
lip	-10.6596
dh	-10.6596
yon	-10.6599
▁giants	-10.6603
lot	-10.6605
asa	-10.6606
▁marry	-10.6608
▁exile	-10.6611
▁uruguay	-10.6611
▁seeds	-10.6611
▁weapon	-10.6611
▁manhattan	-10.6612
▁colon	-10.6613
▁gua	-10.6615
▁mounted	-10.6616
bin	-10.6617
▁valid	-10.6618
ency	-10.6624
▁principles	-10.6624
▁opponents	-10.6625
▁jewel	-10.6627
▁frequency	-10.6627
▁https	-10.6627
▁jin	-10.6637
chu	-10.664
ennial	-10.6641
cket	-10.6641
▁boot	-10.6641
▁keyboards	-10.6644
▁bonus	-10.6649
▁output	-10.665
▁marty	-10.6651
▁herbert	-10.6652
▁retreat	-10.6653
▁anglo	-10.6654
▁minimum	-10.6655
▁volumes	-10.6656
▁democracy	-10.6659
away	-10.6661
eau	-10.667
eous	-10.6672
▁mirror	-10.6674
▁vale	-10.6675
▁munich	-10.6677
▁tat	-10.6679
▁sculptor	-10.6682
▁ages	-10.6683
bank	-10.6685
▁printed	-10.6686
▁innings	-10.6687
▁innovation	-10.6693
▁vancouver	-10.6693
▁democrats	-10.6699
▁marin	-10.6699
vet	-10.6703
elic	-10.6704
▁hugh	-10.6714
▁activists	-10.6716
ark	-10.6717
▁centers	-10.6717
lance	-10.6721
▁laur	-10.6722
▁nik	-10.6726
▁dancing	-10.6728
▁protestant	-10.6728
cin	-10.6729
▁lav	-10.6733
scale	-10.6734
▁birthday	-10.6737
▁pregnan	-10.6737
▁variable	-10.6739
▁craig	-10.6739
phan	-10.6741
▁declined	-10.6745
▁scope	-10.6745
▁entrepreneur	-10.6747
icon	-10.6748
▁boxing	-10.6753
▁indicated	-10.6753
cio	-10.6755
pelled	-10.6758
rc	-10.6759
▁waters	-10.6761
▁myth	-10.6764
▁bulgarian	-10.6764
▁luci	-10.6764
▁skill	-10.6765
▁clar	-10.6767
hol	-10.6769
▁ranch	-10.6775
▁root	-10.6775
▁nebraska	-10.6777
nba	-10.6779
▁gamb	-10.6781
▁strict	-10.6786
▁celebrated	-10.6786
umb	-10.6786
ats	-10.6786
▁keith	-10.6787
▁jerry	-10.6788
▁denied	-10.6793
▁marvel	-10.6795
story	-10.6796
▁hear	-10.68
▁indicate	-10.68
▁pitcher	-10.6807
fo	-10.6807
cken	-10.681
▁steal	-10.681
▁vit	-10.681
▁essential	-10.6811
eus	-10.6813
km	-10.6815
▁smooth	-10.6817
▁roots	-10.6819
▁iceland	-10.682
▁beijing	-10.6823
▁crimes	-10.6825
▁longest	-10.6825
▁earn	-10.6826
▁nominee	-10.6826
nor	-10.6826
▁portray	-10.6827
▁uss	-10.6828
ista	-10.683
▁signs	-10.6837
▁mongol	-10.6837
pid	-10.6841
▁stick	-10.6843
▁ear	-10.6845
▁helping	-10.6846
▁intellectual	-10.6846
▁provinces	-10.6847
bn	-10.685
▁dramatic	-10.6852
phosph	-10.6853
▁mans	-10.6853
▁sessions	-10.6854
▁deni	-10.6854
chan	-10.6859
▁tribes	-10.686
▁considerable	-10.6864
▁involve	-10.6867
vik	-10.6868
▁curve	-10.6868
▁falling	-10.6869
▁180	-10.687
▁significance	-10.6872
had	-10.6873
▁tribun	-10.6874
▁riding	-10.6878
▁bomber	-10.6878
▁dod	-10.6882
▁walking	-10.6884
▁leeds	-10.6884
▁woo	-10.6885
▁symp	-10.6892
tia	-10.6894
▁nc	-10.6895
▁harbour	-10.6896
▁ballet	-10.6896
metric	-10.6901
▁decrease	-10.6903
▁dimension	-10.6909
▁extinct	-10.6915
100	-10.6916
▁sig	-10.6916
▁butler	-10.6917
▁hus	-10.6917
▁earning	-10.6921
fs	-10.6922
▁hundreds	-10.6922
▁cali	-10.6923
▁perry	-10.6924
dell	-10.6925
▁civilian	-10.693
▁amongst	-10.6931
▁knock	-10.6932
▁filmed	-10.6933
uan	-10.6933
ception	-10.6937
▁platforms	-10.6941
kal	-10.6942
▁chest	-10.6944
grad	-10.6945
gging	-10.6946
iga	-10.6947
▁183	-10.6948
dra	-10.6948
rb	-10.6948
ptic	-10.6952
▁harmon	-10.6953
▁ruling	-10.6954
▁electricity	-10.6956
▁locomotives	-10.6958
ute	-10.6959
iri	-10.6964
mate	-10.6965
grade	-10.6966
lio	-10.697
▁lil	-10.697
▁prompt	-10.698
▁1500	-10.6982
▁flows	-10.6982
▁commune	-10.6984
▁consistent	-10.6989
lp	-10.6989
eri	-10.6993
▁studying	-10.6995
▁shall	-10.6995
▁reservoir	-10.6996
▁guild	-10.7
▁sounds	-10.7003
▁drain	-10.7004
▁oc	-10.7004
▁pow	-10.7007
▁looked	-10.701
mc	-10.7011
▁anyone	-10.7016
▁detective	-10.7017
▁lebanon	-10.7017
▁administrator	-10.7018
path	-10.7019
▁divin	-10.7019
▁forming	-10.702
▁passion	-10.7028
▁functional	-10.7029
▁nicola	-10.703
▁suspended	-10.7034
▁northwestern	-10.7035
iel	-10.7036
▁biology	-10.704
ternal	-10.7042
cycle	-10.7043
▁3000	-10.7044
▁chester	-10.7044
▁licensed	-10.7049
▁injuries	-10.7049
▁dictionary	-10.705
▁mou	-10.7052
▁percentage	-10.7052
▁bundes	-10.7062
▁beck	-10.7063
▁abroad	-10.7064
font	-10.7066
enne	-10.7067
▁disestablished	-10.7068
iana	-10.7068
▁argue	-10.7069
▁phoenix	-10.7069
▁dennis	-10.7069
▁competitors	-10.7069
lah	-10.7071
▁hann	-10.7073
unda	-10.7074
▁uncredited	-10.7077
▁wealth	-10.7079
▁accord	-10.708
▁anton	-10.709
▁graph	-10.709
▁supporters	-10.709
▁meetings	-10.7092
krishna	-10.7093
▁boats	-10.7093
itude	-10.7098
mpire	-10.7098
dong	-10.7098
▁gilbert	-10.71
▁cum	-10.7104
▁annually	-10.7106
▁cruise	-10.7106
▁outdoor	-10.7107
▁apparently	-10.7109
▁petr	-10.7111
▁moth	-10.7112
aa	-10.7117
▁execution	-10.7127
▁macedonia	-10.7129
winning	-10.7131
▁arabia	-10.7133
▁widespread	-10.7133
▁demo	-10.7135
▁publishers	-10.7136
▁affair	-10.7136
▁allies	-10.7137
dley	-10.7141
▁walt	-10.7141
▁serie	-10.7141
▁chick	-10.7143
▁detailed	-10.7145
wald	-10.7146
▁calendar	-10.7148
▁irr	-10.7149
▁reduction	-10.7155
▁collins	-10.716
▁ow	-10.7161
▁mines	-10.7161
▁journals	-10.7162
▁hughes	-10.7163
▁ost	-10.7164
▁harold	-10.7167
▁recommended	-10.7167
▁google	-10.7171
ania	-10.7172
▁psycho	-10.7175
▁neighbour	-10.7177
▁algorithm	-10.7177
▁sequel	-10.7178
▁amsterdam	-10.7178
▁ethiopia	-10.718
▁destruction	-10.7185
▁lad	-10.7186
ixture	-10.7186
game	-10.7188
▁pea	-10.72
▁strongly	-10.7202
▁fol	-10.7203
▁memoir	-10.7206
char	-10.7207
▁appropriate	-10.7207
▁thanks	-10.7208
acon	-10.7209
▁wan	-10.721
▁occup	-10.7212
▁syrian	-10.7215
▁heath	-10.7217
▁overseas	-10.7218
▁bulgaria	-10.7223
▁drugs	-10.7224
▁assessment	-10.7226
pine	-10.7234
▁clothing	-10.7236
▁ballo	-10.7236
▁sufficient	-10.7239
▁5000	-10.724
rupt	-10.724
▁framework	-10.724
▁americans	-10.724
▁borders	-10.7244
▁photographs	-10.7245
▁hudson	-10.7245
▁marks	-10.7247
▁southeastern	-10.725
lore	-10.725
▁mira	-10.7251
▁cluster	-10.7251
▁dir	-10.7251
▁railways	-10.7252
▁steps	-10.7253
▁proportion	-10.7253
▁eri	-10.7254
▁fitt	-10.7257
▁til	-10.726
▁abstract	-10.7263
bie	-10.7264
▁conclusion	-10.7264
dict	-10.7271
▁slovenia	-10.7275
▁thirteen	-10.7277
▁harrison	-10.7277
color	-10.7277
▁pub	-10.7278
▁conversion	-10.7279
▁merger	-10.7279
▁equipped	-10.7282
▁franc	-10.7282
say	-10.7282
▁croatian	-10.7283
▁kitchen	-10.7283
▁experiences	-10.7284
▁sham	-10.7286
▁effectively	-10.7286
▁integr	-10.7287
▁similarly	-10.7288
▁wr	-10.7289
▁kenne	-10.7291
▁illness	-10.7292
▁marco	-10.7292
▁visible	-10.7294
▁geometr	-10.7294
▁supplement	-10.7295
mbo	-10.7297
▁bun	-10.7299
▁managing	-10.7299
▁das	-10.7299
▁chat	-10.7299
▁newcastle	-10.7302
▁frequent	-10.7302
▁mes	-10.7303
lings	-10.7304
5000	-10.7305
▁violent	-10.7306
▁microsoft	-10.7307
www	-10.7308
▁structural	-10.7308
uli	-10.7308
case	-10.7312
▁technologies	-10.7316
▁southwestern	-10.7319
tre	-10.732
▁buc	-10.7321
▁ambi	-10.7322
sphere	-10.7322
▁prov	-10.7323
▁ask	-10.7324
▁fernand	-10.7325
▁liquid	-10.7326
▁600	-10.7327
▁relation	-10.7327
▁massacre	-10.733
▁adelaide	-10.7332
bor	-10.7335
rez	-10.7335
▁blocks	-10.7338
▁matters	-10.7338
tag	-10.7339
▁impos	-10.734
▁relationships	-10.734
ils	-10.7342
▁cliff	-10.7345
▁jefferson	-10.7347
▁holland	-10.7348
oh	-10.7352
▁concerned	-10.7352
▁citizen	-10.7356
rain	-10.7357
▁glor	-10.7359
nai	-10.736
▁styles	-10.736
enna	-10.7361
made	-10.7367
▁earthquake	-10.7369
▁affiliated	-10.7369
▁throne	-10.7375
▁diplomatic	-10.7375
▁existed	-10.7376
mic	-10.7376
owl	-10.738
▁screenwriter	-10.7384
▁uganda	-10.7386
▁suffering	-10.7387
▁thorn	-10.739
sp	-10.739
▁concerts	-10.739
▁hamburg	-10.739
▁phrase	-10.7392
▁allstar	-10.7393
▁ernest	-10.7395
▁phenomen	-10.7397
▁physician	-10.7402
leton	-10.7403
▁mosque	-10.7406
maker	-10.7411
▁viewers	-10.7415
▁hung	-10.7416
inger	-10.7416
pf	-10.742
▁specimen	-10.7421
▁tap	-10.7421
ging	-10.7422
▁processing	-10.7423
▁fundamental	-10.7425
▁grandfather	-10.7426
▁shelter	-10.7427
▁narrative	-10.7433
▁narrat	-10.7433
cott	-10.7434
▁utiliz	-10.7434
▁gm	-10.7436
pl	-10.7436
▁jenn	-10.7438
bah	-10.7438
aud	-10.7438
▁harm	-10.7439
▁mess	-10.744
▁cyclo	-10.744
▁categories	-10.7447
oni	-10.7452
▁donated	-10.7453
▁warning	-10.7454
dhi	-10.7454
▁diameter	-10.7455
▁tenure	-10.7456
▁contested	-10.7458
web	-10.7461
▁examination	-10.7461
ses	-10.7462
iers	-10.7467
▁sheet	-10.7467
▁remainder	-10.7469
state	-10.7469
▁inventor	-10.7469
hour	-10.7471
▁fen	-10.7479
▁improv	-10.748
▁cincinnati	-10.7483
eck	-10.7484
▁favorite	-10.7486
cream	-10.7486
fu	-10.7486
▁convicted	-10.7487
cked	-10.7492
▁herald	-10.7493
unch	-10.7495
▁nic	-10.7496
▁remove	-10.7499
▁cotton	-10.7499
▁lag	-10.7502
fia	-10.7507
iang	-10.7509
ifer	-10.7513
ester	-10.7513
▁monthly	-10.7516
▁leagues	-10.7521
▁attributed	-10.7522
ati	-10.7523
rl	-10.7524
rsen	-10.7524
▁holmes	-10.7528
▁griffi	-10.7528
▁thor	-10.7529
▁touring	-10.753
arrow	-10.753
▁eagles	-10.7533
utting	-10.7534
▁operator	-10.7534
▁dw	-10.7534
ivity	-10.7535
rm	-10.7535
▁transform	-10.7538
▁breaking	-10.754
onna	-10.7552
iti	-10.7554
▁normally	-10.7555
bro	-10.7556
shaw	-10.7559
▁julie	-10.7559
▁estimate	-10.756
▁adria	-10.7561
▁dangerous	-10.7561
sted	-10.7562
▁patient	-10.7564
▁trials	-10.7564
▁stuart	-10.7565
jar	-10.7566
▁spending	-10.7566
▁component	-10.7566
lying	-10.7566
▁incidents	-10.757
▁cris	-10.7575
▁preserved	-10.7577
amo	-10.7578
▁diplomat	-10.7578
▁spend	-10.7578
▁cancelled	-10.7579
▁vertical	-10.758
▁pie	-10.7584
▁antiqu	-10.7584
von	-10.7585
▁certification	-10.7586
▁protests	-10.7586
▁treated	-10.7587
wo	-10.7587
ple	-10.7587
▁sketch	-10.759
slav	-10.7591
erie	-10.7592
mates	-10.7593
▁bombing	-10.7596
▁ent	-10.76
▁lover	-10.7603
▁doub	-10.7604
▁110	-10.7608
▁hidden	-10.7608
▁sponsor	-10.7611
sal	-10.7616
▁affiliate	-10.7619
▁feeling	-10.762
▁auckland	-10.7621
▁lifetime	-10.7621
▁gir	-10.7622
▁facing	-10.7626
▁immediate	-10.7626
eta	-10.7627
▁territorial	-10.763
▁preced	-10.7634
audi	-10.7634
ouse	-10.7635
easant	-10.7635
▁lineup	-10.7636
▁seconds	-10.7637
▁pomerania	-10.7638
▁explore	-10.7639
▁woods	-10.764
etto	-10.7641
▁destination	-10.7641
▁petersburg	-10.7643
▁councillor	-10.7646
▁inspector	-10.7648
▁muscle	-10.7648
▁mck	-10.7653
rim	-10.7658
▁romance	-10.7663
pro	-10.7664
yce	-10.7667
▁sentenced	-10.7668
▁frances	-10.7668
▁reveal	-10.7671
nica	-10.7672
▁mak	-10.7675
▁rama	-10.7683
▁acclaim	-10.7685
▁youngest	-10.7688
▁confederate	-10.7689
foli	-10.769
▁discipline	-10.7696
▁pon	-10.7698
tial	-10.7699
▁rogers	-10.7705
mud	-10.7706
lumin	-10.7706
ew	-10.7706
▁inspiration	-10.7711
▁kaz	-10.7712
tina	-10.7714
hall	-10.7715
▁package	-10.7718
turb	-10.7719
dog	-10.772
▁manual	-10.7721
▁copper	-10.7724
cer	-10.7724
▁enterprise	-10.7724
▁ottawa	-10.7727
▁certificate	-10.7727
angular	-10.7733
▁succeed	-10.7733
▁albanian	-10.7734
▁describe	-10.7735
▁edwards	-10.7736
▁andrea	-10.7737
ene	-10.7743
▁penguin	-10.7745
pedia	-10.775
lash	-10.775
▁sep	-10.7754
▁wicket	-10.7754
▁str	-10.7759
▁immun	-10.7766
iness	-10.7768
▁fragment	-10.7769
▁minority	-10.7769
▁liberation	-10.7771
▁vir	-10.7773
apped	-10.7774
ept	-10.7783
▁fulltime	-10.7785
▁defending	-10.7786
▁rovers	-10.7788
▁playwright	-10.7793
dwin	-10.7794
▁encyclopedia	-10.7794
▁arrangement	-10.7795
▁mammal	-10.7795
▁celebrit	-10.7799
▁resource	-10.7799
▁graphic	-10.7802
nium	-10.7802
▁absence	-10.7804
▁gastropod	-10.7805
▁thinking	-10.7806
foot	-10.7807
▁governors	-10.7807
outs	-10.7809
▁alpha	-10.781
▁specialist	-10.7811
nice	-10.7812
iles	-10.7813
▁quar	-10.7814
▁realize	-10.7814
dol	-10.7818
meter	-10.7819
▁belonging	-10.7819
▁erected	-10.7824
stream	-10.7826
mps	-10.7826
▁adjust	-10.7826
▁gradually	-10.7827
▁seeking	-10.7829
▁statistical	-10.7833
▁101	-10.7833
▁sophi	-10.7836
nam	-10.784
▁themes	-10.7841
▁abd	-10.7841
▁byzantine	-10.7843
▁sitting	-10.7844
hang	-10.7849
▁remote	-10.785
▁diseases	-10.7851
▁cry	-10.7853
chin	-10.7854
▁denver	-10.7855
▁artwork	-10.7856
music	-10.7864
▁militia	-10.7865
▁predecessor	-10.7867
▁indians	-10.7867
▁som	-10.7872
▁shares	-10.7872
▁conversation	-10.7874
nity	-10.7877
▁hebrew	-10.7878
▁inaugural	-10.7879
▁surprise	-10.7879
▁mere	-10.7881
▁encouraged	-10.7882
eria	-10.7883
gin	-10.7887
▁defenders	-10.789
aho	-10.789
▁confess	-10.7895
▁byelection	-10.7897
▁tool	-10.7897
▁croatia	-10.7898
▁butterfl	-10.7899
▁presentation	-10.7901
▁rapidly	-10.7901
▁rav	-10.7903
making	-10.7904
▁stereo	-10.7906
▁ras	-10.7907
▁berkeley	-10.7908
stair	-10.7909
▁equation	-10.7911
▁sixteen	-10.7914
▁benefits	-10.7916
eth	-10.7918
▁keeping	-10.792
▁furn	-10.7923
cle	-10.7924
endo	-10.7925
▁carrie	-10.7929
▁doesnt	-10.7932
▁belarus	-10.7932
▁ord	-10.7935
▁adventures	-10.7936
ished	-10.7939
oo	-10.7944
▁schw	-10.7944
▁drag	-10.7945
▁kai	-10.7946
owen	-10.7946
gt	-10.7946
▁rounds	-10.7949
▁useful	-10.795
cence	-10.795
ddle	-10.7952
▁treasur	-10.7954
▁emer	-10.7956
▁advisory	-10.7959
▁wearing	-10.7959
sia	-10.7959
▁designation	-10.7964
hm	-10.7967
opol	-10.7975
▁ll	-10.7976
▁goalkeeper	-10.7978
▁reportedly	-10.798
▁styl	-10.7983
▁norfolk	-10.7984
▁emerged	-10.7989
700	-10.7991
▁protocol	-10.7992
▁clare	-10.7992
lips	-10.7994
ider	-10.7996
▁attracted	-10.7996
▁ev	-10.7998
round	-10.8
▁waste	-10.8002
aba	-10.8003
dc	-10.8006
▁ou	-10.8008
onymous	-10.8014
▁congressional	-10.8014
▁temp	-10.8014
▁exhibitions	-10.8019
▁watson	-10.8019
▁clu	-10.802
▁inscription	-10.802
▁welfare	-10.8021
onne	-10.8021
▁assembl	-10.8025
▁conve	-10.8027
▁parade	-10.803
▁mistake	-10.803
▁historically	-10.8033
▁cardi	-10.8036
▁absolute	-10.8039
▁artificial	-10.804
▁cardinal	-10.8042
tas	-10.8043
▁otto	-10.8044
ugu	-10.8048
▁advisor	-10.8052
lor	-10.8055
▁chorus	-10.8055
▁kas	-10.8063
rush	-10.8065
tles	-10.8066
uchi	-10.8069
tam	-10.8073
▁alleg	-10.8073
▁grammar	-10.8074
dle	-10.8076
llen	-10.8077
▁emotional	-10.8084
vier	-10.8084
pot	-10.8084
▁funeral	-10.8085
shore	-10.8088
▁trustee	-10.809
▁exists	-10.8091
pus	-10.8092
▁hau	-10.8094
▁manufacturers	-10.8095
▁pent	-10.8096
▁thre	-10.8096
▁recovery	-10.8097
▁immigration	-10.8097
tham	-10.8097
▁writes	-10.8099
▁sacred	-10.8101
▁boundaries	-10.8102
▁replac	-10.8105
pes	-10.8108
boat	-10.8109
▁rever	-10.8111
fusion	-10.8111
▁occasions	-10.8116
▁helicopter	-10.8117
▁rand	-10.8123
▁johann	-10.8124
▁ongoing	-10.8124
▁raymond	-10.8126
cession	-10.8127
wen	-10.8128
▁outbreak	-10.8129
▁mau	-10.8131
tin	-10.8134
▁alf	-10.8138
ust	-10.814
▁thereafter	-10.8141
▁eva	-10.8145
▁treasure	-10.8146
▁warsaw	-10.8147
bur	-10.8148
▁tiger	-10.8148
▁killer	-10.8148
aca	-10.815
▁enhance	-10.8152
▁embassy	-10.8153
▁partial	-10.8154
▁advis	-10.8155
lich	-10.8156
▁fift	-10.8156
▁lyric	-10.8164
▁rebuilt	-10.8165
kon	-10.8168
▁trac	-10.8169
▁sor	-10.817
▁nie	-10.8174
▁chancellor	-10.8175
▁advice	-10.818
▁indonesian	-10.8182
▁senators	-10.8183
horn	-10.8183
core	-10.8186
▁fourteen	-10.8186
achi	-10.819
▁consul	-10.8191
▁veterans	-10.8192
▁closer	-10.8193
▁latvia	-10.8197
nsky	-10.8198
▁curt	-10.8201
▁bis	-10.8204
▁makeup	-10.8209
▁johns	-10.8211
ela	-10.8215
lane	-10.8217
▁ble	-10.8217
▁fellowship	-10.8226
▁remember	-10.8228
cl	-10.823
▁waiting	-10.8231
▁tissue	-10.8231
▁synonym	-10.8233
▁barcelona	-10.8233
▁brewer	-10.824
▁kerala	-10.8242
▁ster	-10.8244
▁customers	-10.8244
▁infant	-10.8246
▁amb	-10.8246
▁unanimous	-10.8248
▁nikola	-10.8249
▁organised	-10.8249
▁emigrants	-10.825
▁voters	-10.825
▁exceed	-10.8252
▁lasted	-10.8253
▁supplies	-10.8253
ott	-10.8255
▁principle	-10.8255
▁costume	-10.826
▁declaration	-10.8261
▁purp	-10.8262
▁cott	-10.8264
▁emm	-10.8264
▁greatly	-10.8265
issa	-10.8269
▁brig	-10.8272
ove	-10.8272
ition	-10.8274
▁hammer	-10.8275
igan	-10.8277
▁rapper	-10.8281
spel	-10.8282
▁filipino	-10.8284
▁revol	-10.8286
▁rough	-10.8288
▁jav	-10.829
▁mathematical	-10.829
▁preserve	-10.8292
▁gentle	-10.8297
hya	-10.8298
yi	-10.8299
▁panama	-10.8302
▁florence	-10.8307
▁opportunities	-10.8308
▁behalf	-10.8308
anne	-10.8319
▁liberty	-10.832
ances	-10.8324
▁assert	-10.8324
self	-10.8326
cion	-10.8327
course	-10.8332
eath	-10.8333
aq	-10.8333
bai	-10.8338
alia	-10.8339
iba	-10.8343
▁napoleon	-10.8344
mphi	-10.8348
fford	-10.835
cylinder	-10.8352
▁couples	-10.8353
▁91	-10.8353
▁touchdown	-10.8355
▁regulation	-10.8357
▁releases	-10.8358
▁prussia	-10.8359
▁rela	-10.8362
▁athens	-10.8369
rian	-10.8372
neil	-10.8373
▁diploma	-10.8373
mill	-10.8373
▁garrison	-10.8373
▁nigerian	-10.8376
ui	-10.8376
tland	-10.8376
ague	-10.838
▁extent	-10.8381
▁madison	-10.8382
▁comfort	-10.8382
▁comprehensive	-10.8384
▁destroyer	-10.8387
▁collector	-10.8387
▁harvey	-10.8387
▁guilty	-10.8389
▁server	-10.839
tachment	-10.8393
▁saving	-10.8403
▁nathan	-10.8405
▁breath	-10.8408
aft	-10.8408
▁mixing	-10.8409
▁scra	-10.841
▁encourage	-10.841
▁consen	-10.8413
▁reverse	-10.8415
▁shanghai	-10.8415
xis	-10.8417
▁attending	-10.842
ored	-10.8422
▁danger	-10.8423
▁participating	-10.8425
▁relocated	-10.8427
▁paint	-10.8428
ios	-10.8433
▁investigat	-10.8434
▁prospect	-10.8439
▁enforcement	-10.844
▁phillips	-10.8442
▁traveled	-10.8443
iden	-10.8443
▁partially	-10.8443
▁mario	-10.8446
▁fortune	-10.8447
▁photos	-10.8448
tten	-10.845
2010	-10.8451
ships	-10.8451
▁manda	-10.8453
▁seeing	-10.8454
▁recipient	-10.8454
▁elliot	-10.846
▁alban	-10.846
▁traditionally	-10.8463
▁justin	-10.8463
front	-10.8464
▁immigrants	-10.8465
rest	-10.8466
▁rom	-10.8467
▁hospitals	-10.8468
length	-10.847
onym	-10.8472
▁statut	-10.8472
▁tee	-10.8472
sure	-10.8473
phor	-10.8475
▁breast	-10.8476
brook	-10.8477
▁sed	-10.8478
▁implement	-10.8479
▁societies	-10.8482
▁withdrew	-10.8484
▁screenplay	-10.8485
▁marsh	-10.8487
▁pursu	-10.8491
qi	-10.8492
kle	-10.8492
▁logic	-10.8493
compass	-10.8496
psi	-10.8497
▁dh	-10.8497
▁creator	-10.85
▁presidents	-10.85
▁radi	-10.8505
▁businesspeople	-10.8507
▁characterized	-10.8509
cles	-10.851
▁speakers	-10.851
hima	-10.851
▁recovered	-10.8516
mba	-10.8517
▁cano	-10.8517
▁missed	-10.8519
nah	-10.8522
▁battles	-10.8524
▁confiden	-10.8524
▁measurement	-10.8525
▁posted	-10.8528
itive	-10.8529
▁indicates	-10.8529
▁detail	-10.853
sight	-10.8533
▁monitor	-10.8534
▁terminus	-10.8534
ector	-10.8538
ndra	-10.8539
stan	-10.8539
opter	-10.8543
▁batter	-10.8543
itarian	-10.8544
▁gon	-10.8545
▁wors	-10.8545
nato	-10.8548
▁mate	-10.8549
▁moderate	-10.8549
▁closing	-10.8556
▁intens	-10.8561
ographic	-10.8562
▁teach	-10.8563
▁autonomous	-10.8569
▁friendship	-10.857
▁eur	-10.8573
▁assignment	-10.8574
▁runnerup	-10.8578
▁peters	-10.858
▁freestyle	-10.8582
▁surre	-10.8582
▁delaware	-10.8583
▁partly	-10.8585
saw	-10.8587
plicit	-10.859
▁slav	-10.8591
▁stanford	-10.8596
▁criteri	-10.8597
▁therapy	-10.8602
▁closure	-10.8602
▁tournaments	-10.8603
teau	-10.8603
▁seg	-10.8607
▁wound	-10.8608
▁aftermath	-10.861
▁bach	-10.8611
▁yugoslavia	-10.8612
logy	-10.8618
▁restaurants	-10.862
▁renaissance	-10.8621
brand	-10.8622
▁specta	-10.8623
▁algeria	-10.8624
▁concerning	-10.8624
▁ot	-10.8624
part	-10.8627
▁clinton	-10.8628
▁bour	-10.8629
▁capit	-10.8629
▁occasion	-10.8631
elia	-10.8632
▁excess	-10.8634
▁uncertain	-10.8636
▁nav	-10.8637
▁fighters	-10.8638
dler	-10.864
▁teen	-10.8644
avi	-10.8647
▁warriors	-10.8649
▁devi	-10.8651
▁coordinate	-10.8652
▁consort	-10.866
tage	-10.8661
▁belonged	-10.8661
▁variant	-10.8661
▁mansion	-10.8662
how	-10.8662
▁precis	-10.8663
jay	-10.8665
▁cann	-10.8665
wal	-10.867
yr	-10.8675
▁distinction	-10.8676
▁commons	-10.8681
▁hispanic	-10.8686
▁mathematician	-10.8686
▁monuments	-10.8688
thic	-10.8689
zing	-10.869
kara	-10.8691
▁trap	-10.8692
team	-10.8692
oda	-10.8695
▁surgeon	-10.8698
rew	-10.8699
card	-10.8699
▁quarterfinals	-10.8699
ders	-10.8707
het	-10.8707
rien	-10.8708
umn	-10.8709
▁rocks	-10.8709
ening	-10.8712
▁tab	-10.8713
som	-10.8716
▁calculat	-10.8717
▁dreams	-10.8717
may	-10.8719
ansk	-10.8719
▁wilhelm	-10.872
▁genes	-10.872
▁patterns	-10.8724
nis	-10.873
▁brisbane	-10.8733
▁ultimate	-10.8733
▁gramm	-10.8742
▁constituencies	-10.8745
▁settlements	-10.8747
▁delivery	-10.8748
inity	-10.875
▁commanded	-10.8752
▁respond	-10.8753
▁republicans	-10.8754
▁emphasis	-10.8754
minute	-10.8755
sche	-10.8755
holders	-10.8758
▁lawsuit	-10.8758
▁negotiations	-10.8759
▁universi	-10.8759
▁socorro	-10.8761
▁scen	-10.8763
▁sovereign	-10.8765
▁cit	-10.8766
▁colors	-10.8769
▁gregory	-10.8771
▁doctors	-10.8775
▁dri	-10.8775
tender	-10.8777
designated	-10.8779
▁connections	-10.8781
▁athlete	-10.8784
▁furthermore	-10.8784
▁dialogue	-10.8786
▁physi	-10.8791
chief	-10.8792
timate	-10.8797
activated	-10.8798
dock	-10.88
▁corresponding	-10.88
sper	-10.8802
▁define	-10.8802
media	-10.8802
▁exposed	-10.8803
▁lob	-10.8806
▁democrat	-10.8809
▁marathon	-10.8809
▁attendance	-10.881
▁mothers	-10.881
▁exposure	-10.8811
▁volunteers	-10.8821
▁enjoyed	-10.8822
▁spencer	-10.8823
▁muslims	-10.8823
rel	-10.8826
▁descend	-10.8827
▁sponsored	-10.8832
▁predat	-10.8835
ration	-10.8836
▁revised	-10.8839
building	-10.884
▁infection	-10.884
▁sali	-10.8843
ampa	-10.8846
▁hein	-10.8848
cres	-10.885
▁diverse	-10.885
▁bil	-10.8851
▁upgrade	-10.8852
▁nurs	-10.8856
group	-10.8857
▁reconstruction	-10.8862
▁stevens	-10.8862
▁hone	-10.8868
hai	-10.8873
▁nationalist	-10.8874
▁accurate	-10.8875
hp	-10.8876
rapped	-10.8877
tense	-10.8879
▁barne	-10.8883
▁theodor	-10.8886
▁attractions	-10.8886
▁publicly	-10.8887
▁memor	-10.889
▁compound	-10.8891
any	-10.8892
▁receiver	-10.8893
▁signature	-10.8893
▁intermediate	-10.8894
▁cultivat	-10.8894
▁exploit	-10.8897
▁diver	-10.8898
▁quartet	-10.8901
▁solv	-10.8902
▁permit	-10.8904
action	-10.8905
anza	-10.8906
magnetic	-10.8906
▁ecuador	-10.8909
rov	-10.8911
cd	-10.8911
▁hab	-10.8911
alph	-10.8912
▁commented	-10.8913
▁vent	-10.8914
▁qualifier	-10.8916
▁christianity	-10.8917
▁recover	-10.8917
▁clearly	-10.8921
ien	-10.8922
nar	-10.8925
▁shoulder	-10.8927
▁journalism	-10.8928
▁chang	-10.8928
▁intervention	-10.8932
▁pres	-10.8938
▁deployed	-10.8941
inary	-10.8941
▁qualify	-10.8942
▁bak	-10.8944
▁machines	-10.8946
▁preservation	-10.8953
▁certified	-10.8953
▁ceremoni	-10.8954
late	-10.896
▁angels	-10.8961
▁dominated	-10.8961
▁obe	-10.8962
▁secured	-10.8962
hem	-10.8964
▁compar	-10.8965
▁botan	-10.8968
▁murdered	-10.897
▁locally	-10.8971
▁establishing	-10.8972
▁neutral	-10.8973
leg	-10.8974
ards	-10.8975
carriage	-10.8976
▁welcome	-10.8978
▁rec	-10.8978
▁contributing	-10.8979
▁palestine	-10.898
face	-10.898
avan	-10.8981
▁editorial	-10.8982
▁displayed	-10.8983
makers	-10.8984
▁eighteen	-10.8984
▁cardinals	-10.8984
▁taxonomy	-10.8985
▁riders	-10.8989
▁fellows	-10.8995
▁morocco	-10.8997
▁firstclass	-10.8998
▁aug	-10.9001
▁cameron	-10.9002
▁compositions	-10.9004
▁connecting	-10.9006
▁commitment	-10.9006
ume	-10.9009
▁extract	-10.9013
▁interface	-10.9014
▁facebook	-10.9015
acht	-10.9015
▁ern	-10.9016
▁chal	-10.9017
▁tension	-10.9017
▁goth	-10.9019
▁circumstances	-10.9019
▁prototype	-10.9023
▁engagement	-10.9023
▁columbus	-10.9024
▁elsewhere	-10.9026
▁manuscript	-10.9027
torial	-10.903
▁vladimir	-10.9031
oga	-10.9032
▁bene	-10.9034
singersongwriter	-10.9036
uer	-10.9038
▁bennett	-10.9038
▁petition	-10.9039
▁friedrich	-10.904
▁libraries	-10.904
los	-10.9042
▁episcopal	-10.9043
ender	-10.9044
utt	-10.905
▁reveals	-10.9051
▁sever	-10.9051
▁telephone	-10.9053
gil	-10.9059
▁symptoms	-10.9059
lake	-10.9065
▁psychological	-10.9066
▁countrys	-10.9066
▁novelist	-10.9069
▁formations	-10.907
▁mora	-10.9073
▁exclusively	-10.9077
ain	-10.9079
rek	-10.908
▁automatic	-10.9084
cial	-10.9084
tone	-10.9085
▁possibility	-10.9087
▁franco	-10.9089
▁subsidiary	-10.909
erial	-10.9092
▁reelected	-10.9096
pass	-10.9107
▁intercept	-10.9107
▁vocalist	-10.911
▁migration	-10.9111
▁arche	-10.9111
▁beating	-10.9113
▁sem	-10.9116
▁evacuat	-10.912
▁observer	-10.9121
ledge	-10.9121
▁hydr	-10.9122
▁georgian	-10.9126
▁companys	-10.9128
▁filming	-10.913
lom	-10.9134
gle	-10.9135
read	-10.9135
volved	-10.9136
▁reserves	-10.9138
pop	-10.9138
inus	-10.9138
ritual	-10.914
▁besides	-10.914
▁generated	-10.914
▁olympi	-10.9141
▁wallace	-10.9141
ops	-10.9142
▁decoration	-10.9143
pha	-10.9143
▁civi	-10.9144
▁speculat	-10.9144
ob	-10.9146
ische	-10.9147
50000	-10.9147
▁midland	-10.9151
▁resignation	-10.9152
▁printing	-10.9152
▁preliminary	-10.9158
▁ancestr	-10.9159
qa	-10.916
▁sailing	-10.9163
ele	-10.9164
bone	-10.9164
onica	-10.9167
▁dominican	-10.917
▁palestinian	-10.917
▁indie	-10.9172
ssel	-10.9172
orn	-10.9173
ators	-10.9173
rrow	-10.9174
▁electron	-10.9177
▁linguistic	-10.9178
▁utilit	-10.918
▁promis	-10.9184
nada	-10.9188
▁wealthy	-10.9189
▁suppress	-10.9191
ware	-10.9194
cro	-10.9197
▁scho	-10.9198
free	-10.9198
▁decides	-10.9202
oko	-10.9202
ssa	-10.9203
mat	-10.9204
▁adapt	-10.9207
▁manufacturer	-10.9209
lux	-10.9211
series	-10.9215
▁corr	-10.9219
them	-10.9219
omi	-10.922
▁lords	-10.9221
▁proc	-10.9225
ech	-10.9226
▁feminist	-10.9232
sco	-10.9232
▁investigate	-10.9233
▁trumpet	-10.9233
rot	-10.9236
▁altitude	-10.9239
omar	-10.9239
▁contribute	-10.9243
▁keyboard	-10.9245
quir	-10.9247
▁airfield	-10.9252
▁typ	-10.9254
▁translator	-10.9258
▁judicial	-10.9258
▁lauren	-10.9259
closed	-10.9263
▁freight	-10.9263
lateral	-10.9264
▁terrorist	-10.9264
▁abraham	-10.9266
▁longterm	-10.9267
▁attitude	-10.9268
▁dome	-10.9269
ifying	-10.9271
ct	-10.9272
▁condemn	-10.9273
▁scandal	-10.9276
high	-10.928
▁permission	-10.928
▁outcome	-10.928
equality	-10.9281
▁implemented	-10.9285
▁assisted	-10.9287
▁strengthen	-10.9288
oming	-10.9295
grave	-10.9298
▁saskatchewan	-10.9298
▁veget	-10.9299
▁receptor	-10.93
▁francois	-10.93
esco	-10.9303
▁inde	-10.9304
▁methodist	-10.9305
▁procedure	-10.9306
▁discussed	-10.9306
rogen	-10.9307
▁ald	-10.9309
▁investor	-10.9312
tum	-10.9314
rmal	-10.9315
dian	-10.9318
lett	-10.9319
emia	-10.9319
ield	-10.9321
wait	-10.9322
▁traditions	-10.9323
▁focuses	-10.9323
oku	-10.9324
kas	-10.9325
▁molecular	-10.9326
▁sec	-10.9327
▁abolished	-10.9332
▁forwards	-10.9335
lation	-10.9337
▁kel	-10.9342
▁compiled	-10.9342
▁mohamm	-10.9345
▁decide	-10.9346
ttered	-10.9346
▁mali	-10.9347
▁dha	-10.9347
▁dominant	-10.9347
▁crosses	-10.935
▁pete	-10.9356
▁registration	-10.9358
gam	-10.9363
▁christians	-10.9363
▁interchange	-10.9365
▁ov	-10.9366
cla	-10.9369
▁northeastern	-10.9371
▁frontier	-10.9373
▁scores	-10.9374
ija	-10.9376
active	-10.938
nko	-10.9381
rene	-10.9384
2009	-10.9387
▁gard	-10.9389
▁conventional	-10.939
▁levi	-10.939
form	-10.9393
▁judg	-10.9395
▁reinforce	-10.9399
fort	-10.9404
▁filmmaker	-10.9406
yana	-10.9409
llan	-10.9411
une	-10.9411
▁promoting	-10.9411
▁victim	-10.9413
▁submitted	-10.9414
▁ordinary	-10.9416
▁guests	-10.9418
▁supervis	-10.9418
▁valuable	-10.942
▁negotiat	-10.9422
ured	-10.9424
▁reporting	-10.9426
▁wellknown	-10.9427
▁relegated	-10.943
▁embr	-10.9431
▁baro	-10.9433
ais	-10.9434
▁motorcycle	-10.9437
▁innocen	-10.9439
▁montgomery	-10.9439
rlington	-10.944
▁clinic	-10.9441
▁warfare	-10.9442
cr	-10.9444
▁stones	-10.9446
ilian	-10.9448
▁convince	-10.9448
▁achievements	-10.9448
▁initiated	-10.945
▁guarantee	-10.9451
▁fus	-10.9453
rising	-10.9455
▁occurr	-10.9459
ques	-10.9467
▁apparent	-10.947
piece	-10.9475
▁dim	-10.9476
laugh	-10.9477
▁thriller	-10.9479
▁nb	-10.948
clair	-10.9481
▁airline	-10.9482
▁dismissed	-10.9482
▁recreation	-10.9482
▁theatrical	-10.9483
▁convict	-10.9484
nacional	-10.9486
▁cuisine	-10.9488
▁argu	-10.9491
clusion	-10.9492
▁excellent	-10.9493
▁behaviour	-10.9493
lvin	-10.9498
▁trav	-10.9499
laus	-10.9499
▁crow	-10.9502
▁settlers	-10.9503
▁spaces	-10.951
▁internationally	-10.9515
▁completing	-10.9519
▁stol	-10.9519
umba	-10.952
▁conquer	-10.9521
▁economist	-10.9523
▁tau	-10.9524
das	-10.9526
▁wellington	-10.9527
rom	-10.9528
▁withdraw	-10.9528
▁breeding	-10.9529
▁shipping	-10.9531
▁novelists	-10.9531
▁arriving	-10.9532
▁sergeant	-10.9535
rand	-10.9538
uba	-10.954
▁nashville	-10.9541
▁nucle	-10.9543
kai	-10.9543
▁proteins	-10.9545
▁heavyweight	-10.9545
▁afternoon	-10.9546
rmo	-10.9547
▁gui	-10.9549
▁terror	-10.9549
iot	-10.955
▁bavaria	-10.9551
▁crossed	-10.9551
▁repeated	-10.9552
▁torpedo	-10.9552
▁atmosphere	-10.9552
ode	-10.9557
▁presenter	-10.9558
▁pirates	-10.9563
tc	-10.9564
boro	-10.9567
sie	-10.9569
dam	-10.9572
▁playstation	-10.9572
shot	-10.9574
▁departments	-10.9577
raj	-10.958
▁nearest	-10.9584
▁updated	-10.9584
▁eligible	-10.9585
▁bot	-10.9586
ending	-10.9591
▁ortho	-10.9594
sz	-10.9596
nit	-10.9599
▁simpl	-10.9601
▁farming	-10.9603
▁stal	-10.9607
▁lights	-10.9609
▁mechanic	-10.9609
▁wre	-10.961
▁invest	-10.9611
witch	-10.9617
▁instruction	-10.9623
▁jacques	-10.9623
xic	-10.9623
white	-10.9626
▁rect	-10.9626
roth	-10.9626
▁isolated	-10.9632
▁improvement	-10.9633
trom	-10.9633
▁strik	-10.9633
▁sociolog	-10.9639
▁feather	-10.9641
▁academics	-10.9646
pers	-10.9651
ws	-10.9654
lein	-10.9655
chel	-10.9655
▁midfielder	-10.9657
erman	-10.9658
cing	-10.966
sel	-10.966
cp	-10.9661
ellen	-10.9661
▁yar	-10.9662
▁describing	-10.9662
▁fortress	-10.9662
▁disse	-10.9664
▁consultant	-10.9669
cta	-10.9675
▁rene	-10.9676
▁removal	-10.9676
works	-10.9677
▁recognize	-10.9677
▁lancashire	-10.9677
2007	-10.9678
▁supports	-10.9682
vine	-10.9682
hur	-10.9684
▁fried	-10.9688
▁oakland	-10.9689
▁responded	-10.969
▁colonies	-10.9694
ith	-10.9696
▁undergraduate	-10.9698
▁writings	-10.9699
▁handball	-10.9702
released	-10.9705
av	-10.9705
iii	-10.9706
▁manufactured	-10.971
hop	-10.9714
▁lum	-10.9714
▁suitable	-10.9716
▁accelerat	-10.9719
▁anthropolog	-10.9722
scribed	-10.9724
▁organic	-10.9727
▁drafted	-10.9731
▁originated	-10.9732
▁exclusive	-10.9733
dine	-10.9734
▁corruption	-10.9736
nas	-10.9739
force	-10.974
▁wen	-10.974
▁treaties	-10.9741
▁explosion	-10.9742
arctic	-10.9742
gia	-10.9744
▁rid	-10.9744
sters	-10.9745
▁locomotive	-10.9746
court	-10.9747
lley	-10.9748
2011	-10.9749
▁confirm	-10.975
ost	-10.9751
▁kris	-10.9752
hes	-10.9753
▁creature	-10.9754
▁pos	-10.9758
▁grav	-10.9758
▁maurice	-10.9768
furt	-10.977
▁bgcolorff	-10.9771
▁referee	-10.9776
▁mainstream	-10.9778
▁faction	-10.9778
cycling	-10.9783
2008	-10.9786
▁decisions	-10.9788
▁automobile	-10.9789
ads	-10.9789
▁bankrupt	-10.9789
▁periods	-10.9793
▁ratings	-10.9796
▁citizenship	-10.9802
bis	-10.9804
pala	-10.9804
▁dil	-10.981
▁nottingham	-10.9814
escent	-10.9818
▁laure	-10.982
wl	-10.9824
▁subdivision	-10.9827
▁produces	-10.9837
ort	-10.9837
ril	-10.984
▁citys	-10.9843
▁oliv	-10.9845
▁saxophone	-10.9846
udi	-10.9847
▁virtu	-10.9847
inson	-10.9849
▁integration	-10.9849
hoe	-10.985
etary	-10.9853
▁davi	-10.9855
▁diversity	-10.9856
▁scha	-10.9857
isestablishments	-10.9858
▁respective	-10.9859
resumed	-10.9861
apa	-10.9864
uous	-10.9871
▁barrier	-10.9871
▁devot	-10.9872
▁editors	-10.9873
▁deriv	-10.9875
▁recurring	-10.9882
sse	-10.9885
mology	-10.9886
symmetr	-10.9886
days	-10.9886
▁identical	-10.9886
mph	-10.9887
▁provider	-10.9888
bay	-10.9891
moto	-10.9893
toba	-10.99
size	-10.9901
▁defender	-10.9908
▁thorough	-10.9911
bourne	-10.9911
▁lon	-10.9911
2013	-10.9917
▁recognised	-10.9917
▁unions	-10.9918
▁silv	-10.9918
lek	-10.9918
▁stockholm	-10.992
yam	-10.9922
▁invitation	-10.9924
isha	-10.9926
cated	-10.9929
▁govern	-10.993
get	-10.9934
asia	-10.9935
▁presentday	-10.9936
zio	-10.9936
uga	-10.9936
▁commentary	-10.994
cine	-10.994
▁usual	-10.9941
▁excellence	-10.9944
omic	-10.9946
▁milwaukee	-10.9948
amp	-10.9951
▁constitute	-10.9955
▁impossible	-10.9956
▁prepare	-10.9957
▁motivat	-10.9962
athy	-10.9965
uke	-10.9968
placing	-10.9969
rine	-10.9969
hat	-10.997
▁hardware	-10.9974
▁requested	-10.9975
▁plantation	-10.9979
note	-10.9979
ckey	-10.9988
▁swimmers	-10.9989
▁analys	-10.9991
▁suddenly	-10.9992
▁readers	-10.9995
olic	-10.9996
gra	-10.9997
utton	-11
sam	-11.0002
▁mona	-11.0006
pho	-11.0007
▁expensive	-11.0009
hon	-11.0016
pen	-11.0018
lang	-11.002
▁challenges	-11.0023
▁pointed	-11.0025
▁reduc	-11.0027
▁referendum	-11.0031
▁defended	-11.0032
comb	-11.0034
din	-11.0036
▁princeton	-11.0037
▁influences	-11.0037
emy	-11.0037
▁teammate	-11.004
▁preferred	-11.0042
▁cornel	-11.0044
▁midfielders	-11.0049
ld	-11.005
▁conven	-11.0055
▁populations	-11.0059
▁flowering	-11.0061
atra	-11.0061
▁quantit	-11.0064
▁renovation	-11.0066
▁somerset	-11.0067
gr	-11.0072
▁operators	-11.0072
ambo	-11.0075
▁specialized	-11.0075
▁nad	-11.0078
▁cooperative	-11.0078
uta	-11.0078
chair	-11.0084
▁presidency	-11.0086
▁demonstration	-11.0094
▁awareness	-11.0094
▁socalled	-11.0094
2012	-11.0095
cul	-11.0095
▁rai	-11.0096
family	-11.0098
▁brussels	-11.0099
▁ric	-11.0102
▁johnston	-11.0107
▁vulnerab	-11.0108
▁sheffield	-11.0108
▁fix	-11.011
▁profession	-11.011
▁quarterback	-11.0111
ulf	-11.0111
▁assists	-11.0112
▁shakespeare	-11.0114
bat	-11.0114
▁donation	-11.0115
▁catalogue	-11.0115
▁update	-11.0117
sm	-11.0119
gui	-11.0122
ivo	-11.0128
ail	-11.013
tain	-11.0131
▁healthcare	-11.0132
▁libert	-11.0136
▁bail	-11.0137
▁allocat	-11.0139
▁inducted	-11.014
▁inaugurat	-11.0142
ehr	-11.0142
tern	-11.0144
▁regulator	-11.0147
itis	-11.0147
▁gathering	-11.0147
lica	-11.015
▁signals	-11.015
vy	-11.0152
omy	-11.0156
revi	-11.0157
▁dol	-11.0158
▁physicist	-11.0158
▁citations	-11.0159
tained	-11.016
▁scor	-11.016
iss	-11.0161
▁leicester	-11.0163
▁complaint	-11.0164
▁gymnast	-11.0164
▁efficient	-11.0165
▁alm	-11.0166
cf	-11.017
▁literacy	-11.017
kee	-11.0172
▁conce	-11.0173
▁reviv	-11.0174
▁geographical	-11.0175
▁rhy	-11.0177
membran	-11.0179
▁identification	-11.018
▁syndrome	-11.0181
minated	-11.0182
idi	-11.0189
cking	-11.0189
▁travelled	-11.0191
▁kingston	-11.0193
not	-11.0194
eville	-11.0195
▁homo	-11.0196
▁colo	-11.02
▁mea	-11.0202
▁paralympics	-11.0203
▁distinctive	-11.0204
▁sai	-11.0208
fur	-11.0212
▁communes	-11.0212
▁transaction	-11.0213
ej	-11.0217
▁rus	-11.0219
▁assess	-11.0219
▁gul	-11.022
▁broadcaster	-11.0222
nne	-11.0223
iji	-11.0225
▁whe	-11.0228
▁decre	-11.0229
▁calc	-11.0234
▁stee	-11.024
itan	-11.0244
nton	-11.025
avia	-11.025
tine	-11.0252
▁aggregate	-11.0254
nc	-11.0257
▁transformation	-11.0257
▁descendants	-11.0259
▁doug	-11.0259
echo	-11.026
▁praise	-11.0263
▁substance	-11.0264
▁opt	-11.0265
▁associations	-11.0266
▁brunswick	-11.0268
backs	-11.0269
rise	-11.0278
▁thu	-11.028
ult	-11.028
▁conspir	-11.0287
▁emission	-11.0288
shes	-11.029
▁accessible	-11.0292
▁tasmania	-11.0292
sworth	-11.0294
mber	-11.0294
▁ancestor	-11.0301
▁heights	-11.0302
▁grandson	-11.0304
▁restricted	-11.0308
▁johannes	-11.0308
tsch	-11.0311
▁wit	-11.0314
▁analog	-11.0315
▁characteristic	-11.0316
▁choreograph	-11.0316
▁departed	-11.0328
ili	-11.0333
▁exploration	-11.0335
▁pup	-11.0336
▁interviews	-11.0336
tcher	-11.0338
▁succession	-11.0339
▁interaction	-11.0343
▁basi	-11.0344
eon	-11.0345
rate	-11.0347
own	-11.0349
rch	-11.0349
▁moor	-11.0349
▁entertain	-11.0357
rama	-11.0357
amine	-11.0358
▁sensitiv	-11.0359
▁impression	-11.0359
▁undergo	-11.0362
rone	-11.0363
hf	-11.0365
▁romanized	-11.0367
elo	-11.0373
▁demonstrated	-11.0374
lap	-11.0375
ifa	-11.0377
▁approaches	-11.0378
lene	-11.038
ples	-11.0381
cci	-11.0384
▁westminster	-11.0385
▁depicted	-11.0387
▁accus	-11.0388
yak	-11.0391
▁fantas	-11.0391
strate	-11.0391
▁emotion	-11.0392
▁aboriginal	-11.0395
tru	-11.0395
▁pharmac	-11.0396
▁celebrate	-11.0397
▁flan	-11.0398
▁regulat	-11.0405
▁emphasiz	-11.0407
citing	-11.041
▁enem	-11.041
illy	-11.0411
▁graduation	-11.0422
▁voluntar	-11.0423
▁sco	-11.0424
lando	-11.0424
▁veteran	-11.0428
▁interstate	-11.0429
hof	-11.0432
▁circ	-11.0434
hail	-11.0437
chus	-11.0438
▁vene	-11.044
▁rider	-11.0443
▁rodrigue	-11.0445
▁suppli	-11.0446
▁disbanded	-11.0446
▁exhibited	-11.0447
ained	-11.0453
nga	-11.0453
▁alphabet	-11.0454
▁flee	-11.0458
mis	-11.0459
▁dissolved	-11.0459
▁mod	-11.0461
▁feelings	-11.0462
▁lecturer	-11.0471
cut	-11.0472
oa	-11.0473
▁mainland	-11.0476
▁syno	-11.0477
▁difficulties	-11.0477
essa	-11.0478
▁relevant	-11.0478
▁buff	-11.0479
vert	-11.0482
tual	-11.0484
grav	-11.0485
lide	-11.0485
▁bgcolor	-11.0486
lf	-11.0486
hir	-11.0486
▁decorated	-11.0488
holder	-11.0489
▁thom	-11.0496
▁andrews	-11.0497
ots	-11.0499
▁submission	-11.05
▁academi	-11.05
▁manifest	-11.0501
▁weigh	-11.0502
▁testament	-11.0502
▁gha	-11.0506
abel	-11.0509
vers	-11.0509
▁patric	-11.0509
hampton	-11.0513
▁160	-11.0513
▁opponent	-11.0515
fill	-11.0515
▁rang	-11.0516
asian	-11.0516
▁organiz	-11.0519
lach	-11.052
▁simultaneously	-11.0529
▁tw	-11.053
ribb	-11.053
ibility	-11.0532
▁anthology	-11.0532
ground	-11.0532
yar	-11.0535
eppe	-11.0541
▁henderson	-11.0541
▁suspension	-11.0541
hus	-11.0542
mino	-11.0543
2006	-11.0543
lik	-11.0545
▁campaigns	-11.0546
ote	-11.0546
▁alge	-11.0548
ift	-11.0551
▁missionary	-11.0553
usa	-11.0554
▁dow	-11.0555
▁worker	-11.0556
umberland	-11.056
▁solutions	-11.0562
▁clemen	-11.0565
ord	-11.0565
rai	-11.0566
▁muse	-11.0568
emma	-11.057
atch	-11.0572
ony	-11.0572
▁survival	-11.0572
nus	-11.0573
cene	-11.0579
▁believes	-11.0579
▁elevated	-11.0581
opho	-11.0584
▁imm	-11.059
inding	-11.0591
evo	-11.0592
▁doctrine	-11.0598
cco	-11.0598
▁explorer	-11.0598
ghan	-11.06
▁knockout	-11.0603
▁distinguish	-11.0603
alis	-11.0604
▁measured	-11.0608
▁reformed	-11.0609
lder	-11.0609
▁shel	-11.061
▁mandate	-11.0611
rio	-11.0612
tious	-11.0614
▁zimbabwe	-11.0619
▁timeline	-11.0619
▁increases	-11.0621
▁oriental	-11.0622
▁finalist	-11.0622
▁presbyterian	-11.0622
kay	-11.0622
▁worcester	-11.0623
rre	-11.0628
rling	-11.0633
▁grad	-11.0634
scal	-11.0635
ean	-11.0637
▁enthusias	-11.0641
▁santiago	-11.0643
▁variations	-11.0644
lee	-11.0647
▁presents	-11.0647
▁guatemala	-11.065
ffin	-11.0651
vid	-11.0656
lli	-11.0657
▁violation	-11.0657
olin	-11.066
ppers	-11.0669
ride	-11.0672
▁familiar	-11.0675
▁introduce	-11.0678
▁variation	-11.0682
▁superintendent	-11.0683
▁mete	-11.0683
▁herb	-11.0685
▁restrictions	-11.069
▁inherited	-11.0692
▁gab	-11.0695
loo	-11.07
table	-11.07
▁strat	-11.0703
▁haw	-11.0704
▁graphics	-11.0705
oles	-11.0707
ernandez	-11.0707
▁arrangements	-11.0709
▁informed	-11.071
vel	-11.0711
uction	-11.0712
rgy	-11.0716
rne	-11.0719
ave	-11.072
otten	-11.0721
ures	-11.0721
ckle	-11.0722
▁observation	-11.0723
▁chambers	-11.0726
oro	-11.073
▁theoretical	-11.0732
▁vita	-11.0733
pon	-11.0738
keeper	-11.0741
mount	-11.0741
▁marshal	-11.0743
▁scan	-11.0744
viv	-11.0745
▁classroom	-11.075
▁molecule	-11.075
▁commu	-11.0752
▁sustainable	-11.0752
▁vil	-11.0753
▁telegraph	-11.0755
▁boulevard	-11.0764
▁relating	-11.0765
oven	-11.0765
2015	-11.0765
ality	-11.077
dr	-11.077
▁extensively	-11.0773
▁collaborated	-11.0775
▁storyline	-11.0777
▁discontinued	-11.0779
take	-11.0783
ctor	-11.0783
▁deputies	-11.0783
▁scal	-11.0789
▁engage	-11.0793
guard	-11.0794
vic	-11.0794
ously	-11.0795
went	-11.0797
owed	-11.0797
aust	-11.0798
zed	-11.0802
▁dict	-11.0803
▁announcement	-11.0804
▁sullivan	-11.0805
wide	-11.0806
▁175	-11.0806
▁farmer	-11.0808
oph	-11.0809
rture	-11.0814
▁refuse	-11.0814
iere	-11.0817
wf	-11.0818
▁enrolled	-11.0821
▁proceedings	-11.0825
▁conflicts	-11.0829
▁accredit	-11.083
▁178	-11.0834
geon	-11.0835
▁nichol	-11.0839
sion	-11.0839
reck	-11.0839
▁sag	-11.0839
▁canterbury	-11.0842
▁albania	-11.0844
▁lime	-11.0849
yre	-11.0852
▁electronics	-11.0854
▁clari	-11.0855
▁reelection	-11.0857
▁177	-11.0862
▁marian	-11.0862
▁mot	-11.0863
▁impli	-11.0864
books	-11.0867
▁gloucester	-11.0871
dha	-11.0871
num	-11.0873
▁enco	-11.0873
beat	-11.0876
2014	-11.0876
meters	-11.0878
hana	-11.0881
▁valen	-11.0887
new	-11.0888
▁emerging	-11.0888
▁sacrament	-11.0891
dore	-11.0891
ents	-11.0898
▁instructor	-11.0899
▁appreciat	-11.09
▁bac	-11.0901
▁philipp	-11.0902
oker	-11.0904
▁bacteria	-11.0905
isle	-11.0905
▁drinking	-11.0906
▁prepar	-11.0912
▁configuration	-11.0914
▁chin	-11.0915
omo	-11.0915
▁montenegr	-11.0916
cons	-11.0917
bird	-11.092
urst	-11.0921
▁conquest	-11.0921
▁olive	-11.0924
▁luxembourg	-11.0925
▁squa	-11.0928
wc	-11.093
rates	-11.0931
▁experiments	-11.0933
▁valentin	-11.0934
jin	-11.0937
yll	-11.0937
▁indianapolis	-11.0947
tention	-11.0949
guay	-11.0951
ales	-11.0951
▁richardson	-11.0953
gb	-11.0954
2017	-11.0956
▁travell	-11.0959
yp	-11.0961
cap	-11.0961
▁recalled	-11.0963
▁resemble	-11.0969
2018	-11.0972
▁andre	-11.0973
ners	-11.0977
orum	-11.0978
nal	-11.0978
bla	-11.0981
▁protagonist	-11.0981
▁moh	-11.0989
align	-11.0991
link	-11.0994
▁mauri	-11.0996
▁charit	-11.0998
▁accommodate	-11.1
▁retrieved	-11.1001
▁hypothes	-11.1002
▁dist	-11.1003
tech	-11.1004
hwa	-11.1006
mation	-11.1008
andro	-11.1012
▁sund	-11.1014
risto	-11.1016
▁handl	-11.1017
▁vari	-11.1018
▁resist	-11.1023
azi	-11.1026
▁tran	-11.1027
mmer	-11.1028
▁expect	-11.1032
rake	-11.1032
▁refugees	-11.1033
▁commanding	-11.1036
▁temperatures	-11.1036
sement	-11.1037
▁harve	-11.104
▁commenced	-11.1041
fil	-11.1043
mur	-11.1047
▁sou	-11.1051
▁provision	-11.1052
900	-11.1055
author	-11.106
▁variants	-11.1062
▁repeat	-11.1063
ivia	-11.107
▁stri	-11.1072
▁wie	-11.1074
market	-11.1074
▁centres	-11.1077
▁accompany	-11.1078
▁nur	-11.1079
equat	-11.108
▁chapters	-11.1085
▁varie	-11.1086
▁approached	-11.1086
▁consideration	-11.109
▁listings	-11.1091
▁rotat	-11.1091
hab	-11.1091
▁lov	-11.1093
▁copenhagen	-11.1093
▁corona	-11.1096
▁compress	-11.1097
▁shak	-11.1099
▁receives	-11.1099
▁lithuania	-11.1102
▁buddh	-11.1104
pal	-11.1104
▁concepts	-11.1104
▁casualties	-11.1105
▁runner	-11.1105
woman	-11.1109
now	-11.1109
▁divers	-11.111
▁cofounder	-11.111
▁admission	-11.1112
▁guitars	-11.1112
▁hyd	-11.1116
tive	-11.1117
▁literally	-11.1118
alism	-11.1121
▁cai	-11.1125
▁inspect	-11.1128
referring	-11.1129
wn	-11.1131
▁prisoner	-11.1135
friend	-11.1135
claimed	-11.1136
▁aspect	-11.1137
▁expens	-11.1137
▁parad	-11.1137
▁sei	-11.1145
▁chee	-11.1146
▁sebastian	-11.1155
▁dem	-11.1156
▁react	-11.1157
lung	-11.1161
▁prem	-11.1168
▁vu	-11.117
sby	-11.1176
ibal	-11.1176
mination	-11.118
cian	-11.1185
▁counterpart	-11.1189
▁survivors	-11.1189
month	-11.119
▁interactive	-11.119
▁sati	-11.1196
▁performers	-11.1197
nae	-11.1203
speaking	-11.1206
oj	-11.1206
▁arn	-11.1209
▁improvements	-11.1209
handed	-11.121
▁radiation	-11.121
▁sustain	-11.1211
▁rankings	-11.1211
vr	-11.1213
mine	-11.1215
▁germans	-11.1221
▁inform	-11.1223
▁founders	-11.1227
argo	-11.1228
▁saf	-11.1232
race	-11.1238
tford	-11.1239
▁ig	-11.124
▁cult	-11.1248
llon	-11.1249
raz	-11.1254
ush	-11.1257
andra	-11.126
amic	-11.1261
▁determin	-11.1263
▁prefer	-11.1264
▁programmes	-11.1265
aint	-11.1266
ael	-11.1267
▁elect	-11.1275
▁admir	-11.1275
▁compli	-11.1276
▁aesthetic	-11.1278
2004	-11.1285
▁interrupt	-11.1287
▁champ	-11.1288
witz	-11.129
▁commentator	-11.1291
hart	-11.1292
▁fis	-11.1292
▁kazakhstan	-11.1296
witt	-11.1297
▁jai	-11.13
eering	-11.1301
aul	-11.1307
2005	-11.1307
beck	-11.1307
▁sculptures	-11.1308
▁norm	-11.131
db	-11.1311
nov	-11.1311
▁explor	-11.1312
utter	-11.1314
2016	-11.1314
▁feat	-11.1317
fts	-11.1318
accompanied	-11.1318
▁willing	-11.1319
pr	-11.132
▁posthumous	-11.1321
▁mic	-11.1323
▁relegation	-11.1325
▁cabin	-11.1325
▁clau	-11.1325
▁disappoint	-11.1331
mile	-11.1334
▁serge	-11.1335
▁punishment	-11.1335
▁resolve	-11.1336
▁efficiency	-11.1337
bic	-11.1339
titude	-11.134
cm	-11.1341
▁collegiate	-11.1344
heart	-11.1347
▁computers	-11.1351
▁thro	-11.1354
quadr	-11.1356
▁blackandwhite	-11.1357
▁announc	-11.1362
anese	-11.1363
vern	-11.1363
was	-11.1364
lman	-11.137
▁mythology	-11.1372
lma	-11.1375
▁happ	-11.1381
▁spe	-11.1381
▁manipulat	-11.1383
▁neighbourhood	-11.1384
▁joa	-11.1384
kir	-11.1386
▁sop	-11.1386
▁lighthouse	-11.1388
entic	-11.1389
ube	-11.1389
scher	-11.1392
▁numberone	-11.1392
▁simp	-11.1393
▁commo	-11.1394
▁temporarily	-11.1398
mind	-11.1399
▁gram	-11.14
oba	-11.1401
▁consol	-11.1406
▁modification	-11.1416
200	-11.1418
▁copyright	-11.142
ulo	-11.1421
▁essentially	-11.1424
anni	-11.1425
▁geographic	-11.1428
vast	-11.1432
gna	-11.1433
▁ferdinand	-11.1434
▁explanation	-11.1447
ein	-11.1448
▁brac	-11.1451
▁consumption	-11.1453
▁triang	-11.1455
eman	-11.1458
sumption	-11.1459
▁chro	-11.1462
awn	-11.1463
iment	-11.1464
▁evaluation	-11.1467
used	-11.1467
▁seventeen	-11.1473
mach	-11.1475
player	-11.1477
▁recon	-11.1477
migrated	-11.1479
▁cancel	-11.1486
▁compa	-11.1488
rman	-11.1492
▁contributor	-11.1492
maha	-11.1497
▁coc	-11.1501
▁roosevelt	-11.1502
tex	-11.1506
▁endangered	-11.1508
four	-11.1508
nner	-11.1512
kat	-11.1517
▁navigation	-11.1519
▁render	-11.152
ively	-11.1529
▁mob	-11.153
into	-11.1531
▁preci	-11.1534
▁chron	-11.1535
ign	-11.1538
▁tributary	-11.1541
hik	-11.1542
▁reside	-11.1544
▁finn	-11.1545
▁considering	-11.1547
gang	-11.1548
speed	-11.1553
▁accumulat	-11.1555
corn	-11.1557
▁generals	-11.1563
▁interesting	-11.1565
rem	-11.1566
rist	-11.1566
▁mcca	-11.1568
▁stat	-11.1571
gma	-11.1571
jection	-11.1572
orf	-11.1575
atsu	-11.1577
reach	-11.158
▁doctorate	-11.158
▁enabl	-11.1583
▁trib	-11.1586
▁combine	-11.1588
▁motors	-11.1592
▁herzegovina	-11.1593
ital	-11.1595
▁quest	-11.1596
▁endo	-11.1597
▁align	-11.1599
▁habit	-11.16
asi	-11.16
▁performer	-11.16
child	-11.1602
▁discrimination	-11.1603
▁facilitate	-11.1604
pert	-11.1607
▁generate	-11.1607
code	-11.1608
dt	-11.1612
mony	-11.1615
▁bala	-11.1617
▁divide	-11.162
mplications	-11.1622
boys	-11.1624
▁imprisoned	-11.1626
ckers	-11.1629
xes	-11.163
curs	-11.1631
rance	-11.1631
▁harri	-11.1633
▁threaten	-11.1633
▁nationwide	-11.1634
▁abilities	-11.164
▁horizontal	-11.1641
tti	-11.1641
egal	-11.1643
1990	-11.1644
stic	-11.1646
▁permitted	-11.1648
▁generations	-11.1648
range	-11.1648
dimensional	-11.1651
▁manuscripts	-11.1653
▁libr	-11.1653
▁dent	-11.1653
break	-11.1658
inder	-11.1658
▁measur	-11.1658
▁inhibit	-11.1661
▁sacrifice	-11.1661
▁abandon	-11.1662
▁lithuanian	-11.1665
▁reader	-11.1666
▁lia	-11.1666
▁install	-11.1666
rton	-11.1669
▁bia	-11.167
ymn	-11.1672
imi	-11.1673
▁ala	-11.1674
▁continent	-11.1676
nata	-11.1676
▁arro	-11.1677
oye	-11.1678
mura	-11.168
taka	-11.1685
lit	-11.1688
abled	-11.1689
▁civilians	-11.1689
qua	-11.1692
▁spr	-11.1698
osi	-11.1698
nick	-11.1699
▁vid	-11.1699
ilia	-11.1701
▁examin	-11.1701
▁alba	-11.1702
tures	-11.1704
▁geological	-11.1706
titled	-11.1707
▁airports	-11.1707
▁evaluat	-11.1711
▁favourite	-11.1713
▁administered	-11.1715
rray	-11.1715
nts	-11.1715
▁generat	-11.1718
inos	-11.1718
▁prospe	-11.1725
ural	-11.1726
helm	-11.1727
▁bachelors	-11.1728
▁curriculum	-11.1729
hid	-11.1732
▁recall	-11.1737
ival	-11.1739
▁wrestlers	-11.174
▁deliberat	-11.1744
xed	-11.1745
▁budd	-11.1749
yat	-11.175
archive	-11.1751
lined	-11.1755
▁auth	-11.1755
olk	-11.1756
tak	-11.1758
green	-11.1758
odo	-11.1761
vens	-11.1764
kash	-11.1765
chard	-11.1768
▁correspond	-11.1769
▁demon	-11.1772
ctu	-11.178
▁psych	-11.1783
▁retir	-11.1783
▁compounds	-11.1785
▁aware	-11.1788
▁colleagues	-11.1789
▁fab	-11.1789
nji	-11.179
▁thr	-11.179
▁devo	-11.179
▁dependent	-11.1793
ller	-11.1793
▁lancaster	-11.1793
▁swee	-11.1794
▁20000	-11.1795
pg	-11.1797
ncy	-11.1798
has	-11.1798
pool	-11.1802
▁deb	-11.1803
▁repli	-11.1808
▁magi	-11.1809
▁provisions	-11.1812
▁enroll	-11.1812
▁schi	-11.1817
tr	-11.1819
▁deutsche	-11.1819
vented	-11.1823
ather	-11.1827
▁simulat	-11.1831
▁yugoslav	-11.1832
dall	-11.1832
▁wick	-11.1835
▁tub	-11.1836
lta	-11.1845
lid	-11.1848
driven	-11.185
hero	-11.1854
onso	-11.1854
tation	-11.1857
▁liber	-11.1862
▁malaysian	-11.1866
duction	-11.1867
▁depiction	-11.1869
nnes	-11.1874
eys	-11.1878
vant	-11.1886
appa	-11.1887
loss	-11.1889
▁armstrong	-11.1901
▁proto	-11.1902
▁prof	-11.1905
▁delegates	-11.1906
▁commanders	-11.1906
▁predominantly	-11.191
▁computing	-11.1911
ame	-11.1914
▁kee	-11.1916
▁rica	-11.1917
▁sustained	-11.1917
ailed	-11.1919
▁difficulty	-11.1922
itzer	-11.1928
▁commemorat	-11.1929
▁governing	-11.1929
ngle	-11.193
▁legi	-11.1932
▁auxiliary	-11.1933
tting	-11.1935
▁prob	-11.1935
ere	-11.1936
flow	-11.1937
track	-11.194
pole	-11.1943
▁patriarch	-11.1944
▁believ	-11.1944
▁fel	-11.1946
▁bet	-11.1948
▁carlo	-11.195
lew	-11.1951
lai	-11.1951
aste	-11.1952
rati	-11.1953
▁limestone	-11.1962
▁neur	-11.1962
▁twentieth	-11.1968
▁demonstrate	-11.1969
lena	-11.197
base	-11.1972
▁statements	-11.1973
qu	-11.1974
▁ana	-11.1977
▁dro	-11.1983
▁nint	-11.1984
raven	-11.1987
▁automat	-11.1987
▁wells	-11.1989
eter	-11.1989
tail	-11.1993
mers	-11.1993
cola	-11.1996
▁complement	-11.1998
▁confederation	-11.1999
ubi	-11.2002
▁rou	-11.2004
▁understood	-11.2005
eu	-11.2008
lades	-11.2009
▁carpenter	-11.201
▁transcript	-11.201
ppen	-11.2013
▁maintaining	-11.2014
kt	-11.2014
lade	-11.2015
lex	-11.2015
▁suffer	-11.2015
▁examine	-11.2019
▁undertake	-11.2022
nos	-11.2024
▁victories	-11.2027
heng	-11.2033
phr	-11.2033
sus	-11.2035
rix	-11.2036
▁ves	-11.2043
▁atom	-11.2046
uj	-11.205
hiro	-11.2052
▁nec	-11.2056
▁consequently	-11.2057
▁eng	-11.2059
thi	-11.2061
▁definit	-11.2062
▁systematic	-11.2062
▁carolin	-11.2063
▁ef	-11.2064
▁traveling	-11.2065
hit	-11.2082
sten	-11.2082
▁bund	-11.2083
▁cease	-11.2083
▁wer	-11.2089
▁exam	-11.2091
sport	-11.2093
▁http	-11.2094
▁jenni	-11.2095
▁extending	-11.2095
▁russ	-11.2098
week	-11.21
ondo	-11.2106
tie	-11.2106
▁attacking	-11.211
▁brigad	-11.2112
▁incorporate	-11.2113
▁confi	-11.2114
powered	-11.212
unning	-11.2123
dding	-11.2128
▁ecolog	-11.2128
▁prevention	-11.2132
▁stag	-11.2132
nee	-11.2132
ehouse	-11.2132
▁doll	-11.2133
gency	-11.2134
▁surpris	-11.2135
▁documented	-11.2136
ude	-11.2138
tions	-11.2139
▁neighboring	-11.214
ndi	-11.2141
agar	-11.2143
▁sci	-11.2145
isa	-11.2149
▁separation	-11.2153
athi	-11.2154
oked	-11.2159
ores	-11.2159
ampton	-11.216
ams	-11.2175
annon	-11.2177
▁disappear	-11.2181
para	-11.2185
bio	-11.2186
▁balla	-11.2193
leys	-11.2194
▁trou	-11.2194
▁georg	-11.2196
▁coordinat	-11.2199
lm	-11.2201
nham	-11.2203
lone	-11.2207
lian	-11.2208
▁designers	-11.2209
▁pronounce	-11.221
dah	-11.2216
eme	-11.2217
▁wrestler	-11.2218
▁winni	-11.222
tur	-11.2221
▁restore	-11.2222
thetic	-11.2226
courage	-11.2227
mortal	-11.2229
orious	-11.2231
▁vau	-11.2232
oca	-11.2233
scription	-11.2233
▁tract	-11.2241
ching	-11.2243
ckets	-11.2244
rape	-11.2251
▁ide	-11.2256
▁discharge	-11.2257
iler	-11.2258
hallow	-11.2259
▁comparative	-11.226
▁challeng	-11.226
rash	-11.2261
kistan	-11.2262
▁accidental	-11.2266
rap	-11.2266
site	-11.2266
2019	-11.227
agon	-11.227
itu	-11.2271
fr	-11.2276
dz	-11.2276
▁practitioner	-11.2277
▁affi	-11.228
▁bombardment	-11.2283
▁apprentice	-11.2284
iano	-11.2291
sylv	-11.2291
▁permanently	-11.2293
▁catalog	-11.2296
▁manufacture	-11.2296
oured	-11.2297
nake	-11.2303
▁cultures	-11.2304
church	-11.2304
anie	-11.2305
▁stro	-11.2307
▁johan	-11.2309
▁leban	-11.2315
▁edi	-11.2316
strian	-11.2319
▁liv	-11.2319
▁corp	-11.232
ovsk	-11.2321
azar	-11.2326
▁pis	-11.2329
▁miner	-11.2332
▁mysterious	-11.2333
▁gymnas	-11.2336
▁eth	-11.2339
productive	-11.234
roc	-11.2352
atom	-11.2354
school	-11.2361
▁numer	-11.2363
▁enc	-11.2369
tec	-11.237
▁cod	-11.2371
▁skate	-11.2375
arms	-11.2379
▁conferences	-11.238
wei	-11.238
onald	-11.2386
▁aggressive	-11.2388
▁subspecies	-11.239
nsw	-11.2393
bart	-11.2396
▁sax	-11.2406
▁remembered	-11.2406
bles	-11.2407
▁philosophical	-11.2409
aru	-11.2413
ional	-11.2414
▁dru	-11.2416
▁independently	-11.2421
▁hav	-11.2424
ref	-11.2428
vious	-11.2428
sfield	-11.2428
ador	-11.2429
▁introduc	-11.2439
orient	-11.2439
▁assume	-11.2441
▁alg	-11.2442
▁concurrent	-11.2445
fit	-11.2447
▁bry	-11.2448
licit	-11.2448
▁ax	-11.245
▁regardless	-11.2455
frey	-11.2459
▁fed	-11.2464
hin	-11.2465
idel	-11.2467
kw	-11.2467
▁mobil	-11.2471
▁pt	-11.2474
written	-11.2475
▁employee	-11.2475
acts	-11.2475
▁susp	-11.2478
▁hin	-11.248
▁coli	-11.2484
nami	-11.2485
▁strategi	-11.2487
come	-11.2488
▁tong	-11.2488
▁clif	-11.2488
rack	-11.2488
▁paralympic	-11.2488
kra	-11.2489
▁moo	-11.2491
amba	-11.2492
via	-11.2497
▁mei	-11.2497
▁cara	-11.2499
▁realis	-11.25
apolis	-11.2503
▁prestigious	-11.2505
hong	-11.2509
▁warrior	-11.251
ndy	-11.2511
eries	-11.2511
▁shad	-11.2511
▁vietnamese	-11.2513
▁renovat	-11.2513
▁assassination	-11.2515
▁nai	-11.2516
vu	-11.2518
▁complicat	-11.2519
▁girlfriend	-11.252
ruption	-11.2522
generation	-11.2523
idea	-11.2524
▁herman	-11.2526
▁requir	-11.2528
termination	-11.253
▁ethn	-11.253
arity	-11.253
two	-11.2532
▁reconnaissance	-11.2534
spor	-11.2536
▁188	-11.2537
▁pursui	-11.254
▁broadcasts	-11.254
▁reject	-11.2541
▁procedures	-11.2545
ppy	-11.2545
▁lith	-11.2551
oney	-11.2552
▁destin	-11.2553
▁committees	-11.2557
afe	-11.256
▁arma	-11.2562
▁kilometers	-11.258
phe	-11.2583
mac	-11.2584
▁pha	-11.2585
▁maharashtra	-11.2587
▁wai	-11.2589
park	-11.2589
nap	-11.2591
▁milli	-11.2591
▁conta	-11.2593
▁lore	-11.2595
icia	-11.26
screen	-11.2604
▁pitt	-11.2604
ager	-11.2604
dura	-11.2605
▁pru	-11.2606
lab	-11.2609
▁preference	-11.2611
hear	-11.2617
dwell	-11.2618
inda	-11.2619
▁commun	-11.262
uses	-11.262
▁localities	-11.262
chron	-11.2621
▁struggl	-11.2622
fordshire	-11.2625
trick	-11.2631
▁variet	-11.2632
bourg	-11.2645
exit	-11.2645
rius	-11.2648
▁delegation	-11.265
iq	-11.2652
opo	-11.2653
▁ammunition	-11.2655
cliff	-11.2657
wave	-11.2658
▁dum	-11.2659
▁specifi	-11.266
rys	-11.266
olia	-11.2661
▁homosexual	-11.2661
▁allamerican	-11.2665
holm	-11.2666
ayan	-11.2668
aught	-11.2668
lls	-11.2672
cb	-11.2679
▁comprising	-11.268
iner	-11.2681
2021	-11.2682
acted	-11.2684
ilo	-11.2689
lived	-11.269
▁spir	-11.269
▁bott	-11.2691
urt	-11.2694
stability	-11.2695
▁contracts	-11.2699
▁excavation	-11.2702
▁challenged	-11.2702
▁withdrawal	-11.2706
nnell	-11.2706
▁disco	-11.2707
▁hypo	-11.2712
through	-11.2713
▁armenia	-11.2719
wheel	-11.2721
shu	-11.2723
▁frei	-11.2727
▁convinc	-11.2733
nin	-11.2735
hari	-11.2739
yde	-11.2742
▁touchdowns	-11.2742
▁jos	-11.2744
▁refuge	-11.2744
▁quit	-11.275
▁observations	-11.2752
enz	-11.2756
▁advertisement	-11.2756
ortion	-11.2757
ako	-11.2764
▁arg	-11.2764
▁sac	-11.2766
illar	-11.2768
2020	-11.277
▁acquire	-11.2771
▁observatory	-11.2776
▁organize	-11.2779
▁kilomet	-11.2781
jian	-11.2781
tically	-11.2781
vad	-11.2784
▁capita	-11.2785
▁compensation	-11.2789
eda	-11.2791
▁surf	-11.2795
▁violat	-11.2796
bald	-11.2797
uring	-11.2798
▁monitoring	-11.2806
oise	-11.2807
▁holl	-11.2809
▁neighbor	-11.2811
hurs	-11.2812
rving	-11.2812
▁easi	-11.2814
lies	-11.2814
idden	-11.2819
jun	-11.2819
ddin	-11.2821
mbia	-11.2822
electric	-11.2824
manda	-11.2843
anche	-11.2846
2001	-11.2846
▁collaborat	-11.2846
regular	-11.2849
▁exp	-11.285
▁computation	-11.2853
lina	-11.2853
rr	-11.2856
pendi	-11.2857
toria	-11.2859
▁stor	-11.2859
▁contestants	-11.2866
urg	-11.2872
adow	-11.2876
uci	-11.288
unci	-11.288
▁depart	-11.2882
▁consequences	-11.2883
▁cond	-11.2888
wak	-11.2889
▁stre	-11.289
▁premiership	-11.2898
sports	-11.2902
odes	-11.2904
▁repeatedly	-11.2908
▁supervisor	-11.2911
▁mart	-11.2911
rut	-11.2914
wind	-11.2918
▁resign	-11.2918
▁hul	-11.2919
mare	-11.2919
gary	-11.2922
rn	-11.2923
usk	-11.2931
▁propaganda	-11.2938
▁sno	-11.2941
▁disappeared	-11.2946
▁troop	-11.2947
▁allegations	-11.295
ranging	-11.295
south	-11.295
▁criticis	-11.2955
gl	-11.2955
walk	-11.2956
ishi	-11.2959
anti	-11.296
istan	-11.2961
angle	-11.2965
▁distribut	-11.2966
evic	-11.2968
▁battalions	-11.297
united	-11.2973
▁correspondent	-11.2974
pie	-11.2975
fair	-11.2977
▁governance	-11.2979
forms	-11.298
▁steph	-11.2981
itary	-11.2981
arked	-11.2983
scot	-11.2984
▁galler	-11.2984
playing	-11.2985
sim	-11.2985
▁syr	-11.2985
isan	-11.2986
▁headquartered	-11.2987
▁inherit	-11.2997
nald	-11.2999
▁gener	-11.3
▁sche	-11.3007
▁trini	-11.3009
▁spon	-11.3013
▁automatically	-11.3015
▁minne	-11.3016
acco	-11.3021
▁testi	-11.3021
nberg	-11.3021
▁viola	-11.3023
otto	-11.3023
▁cinematograph	-11.3031
cover	-11.3032
lt	-11.3038
rbit	-11.3038
▁circulation	-11.3039
▁conducting	-11.304
ently	-11.3042
dles	-11.3044
▁rut	-11.3046
oes	-11.3047
amas	-11.3053
▁roma	-11.3055
isch	-11.3057
▁publish	-11.306
edict	-11.306
rust	-11.3063
rub	-11.3065
▁custo	-11.3065
span	-11.3069
ern	-11.3069
ires	-11.3072
▁insur	-11.3073
▁sie	-11.3074
inhabited	-11.3075
ont	-11.3077
rug	-11.3083
▁coordinator	-11.3084
▁acqu	-11.3088
▁intent	-11.3088
600	-11.309
▁physicians	-11.3091
▁universit	-11.3096
lad	-11.3096
▁announce	-11.3096
hor	-11.3105
▁pant	-11.3109
bh	-11.3111
▁magnet	-11.3113
logical	-11.3114
gical	-11.3116
▁associates	-11.3119
▁investigator	-11.3119
attle	-11.3121
▁releas	-11.313
▁bran	-11.313
ceived	-11.3131
illing	-11.3132
▁meth	-11.3134
2003	-11.3135
lga	-11.3137
ssen	-11.3139
▁vicepresident	-11.3141
300	-11.3143
gic	-11.3145
▁const	-11.3146
ounds	-11.3148
nance	-11.3154
ipped	-11.3155
▁foundations	-11.3157
▁elector	-11.316
▁complain	-11.316
ingen	-11.3162
distance	-11.3164
▁circu	-11.3168
jon	-11.3175
▁devote	-11.3177
▁bibl	-11.3177
▁recip	-11.3179
orge	-11.318
▁interact	-11.318
gues	-11.3181
▁mem	-11.3182
vil	-11.3182
▁conjunction	-11.3191
▁deca	-11.3196
cor	-11.3199
▁rei	-11.3204
▁situations	-11.3207
tac	-11.3209
bria	-11.3212
▁exceptional	-11.3213
▁telecommunicati	-11.3213
opened	-11.3216
iu	-11.3217
▁infl	-11.3218
thel	-11.3218
terre	-11.322
ink	-11.3222
▁communicat	-11.3224
▁ale	-11.3224
▁deco	-11.3225
oval	-11.3226
▁resembl	-11.3228
ades	-11.323
aji	-11.3231
▁liver	-11.3231
▁nicol	-11.3233
▁regiments	-11.3234
dford	-11.3235
▁ensu	-11.3241
py	-11.3241
▁opens	-11.3242
▁elimination	-11.3242
thus	-11.3243
sisted	-11.3247
fus	-11.3248
anu	-11.3249
rts	-11.3249
word	-11.325
rbi	-11.3254
sin	-11.3256
▁vert	-11.3259
ema	-11.3263
kur	-11.3264
ied	-11.3265
▁occasional	-11.3266
nds	-11.3272
mere	-11.3273
▁potentially	-11.3273
vocation	-11.3275
▁dre	-11.3276
eemed	-11.3281
thers	-11.3282
▁probabilit	-11.3288
▁dav	-11.3289
welling	-11.3291
hole	-11.3297
lord	-11.33
▁researcher	-11.3304
official	-11.3305
placement	-11.3307
gren	-11.3312
▁artif	-11.3317
nate	-11.332
▁indo	-11.3322
five	-11.3327
gain	-11.333
pest	-11.333
uber	-11.3331
▁vegeta	-11.3331
▁ner	-11.3331
▁182	-11.3334
icity	-11.3342
ided	-11.3343
▁presid	-11.3343
harma	-11.3349
gre	-11.3353
riot	-11.3355
▁interactions	-11.3356
▁requirement	-11.3357
enic	-11.3362
▁cope	-11.3363
mie	-11.3366
sized	-11.3366
▁prai	-11.3367
izes	-11.3373
gara	-11.3374
expected	-11.3376
stage	-11.3381
▁poi	-11.3381
▁dismiss	-11.3383
third	-11.3385
tos	-11.3385
▁encountered	-11.3385
fence	-11.3385
dna	-11.3385
▁settle	-11.3386
▁eventual	-11.3388
ond	-11.3389
▁northampton	-11.339
held	-11.3395
disciplinary	-11.3397
▁provisional	-11.3398
▁slovak	-11.3399
▁psychologist	-11.3399
▁investigations	-11.3399
kos	-11.3401
▁expectation	-11.3401
eve	-11.3401
▁personalities	-11.3402
sque	-11.3405
umar	-11.3407
▁nico	-11.3407
▁afghan	-11.3411
▁transformed	-11.3413
national	-11.3414
tron	-11.3414
▁cycl	-11.3417
mming	-11.3418
▁tent	-11.3421
▁illustrator	-11.3422
fred	-11.3432
nge	-11.3434
▁cri	-11.3437
rei	-11.3447
2002	-11.3448
▁attraction	-11.345
▁impe	-11.3452
▁metre	-11.3453
▁technological	-11.3456
▁explo	-11.3461
pound	-11.3463
▁curren	-11.3463
gated	-11.3464
▁observ	-11.3467
ered	-11.3468
mbled	-11.3469
urd	-11.3474
▁customer	-11.3477
inner	-11.3477
but	-11.3477
natural	-11.3478
▁hend	-11.3479
xia	-11.3481
▁decid	-11.3481
▁imprisonment	-11.3485
phon	-11.3493
▁prev	-11.3495
▁camero	-11.35
urling	-11.3501
▁plas	-11.3502
alo	-11.3503
▁inva	-11.3507
escu	-11.3507
bula	-11.3508
bill	-11.351
pas	-11.3511
▁guitarists	-11.3514
pad	-11.3515
graph	-11.3523
produced	-11.3523
elling	-11.3528
▁clem	-11.3529
country	-11.3532
▁resu	-11.3535
erce	-11.3537
▁gus	-11.354
dg	-11.354
uang	-11.3543
mah	-11.3544
nna	-11.3552
▁evangel	-11.3552
▁interfer	-11.3553
took	-11.3553
▁doc	-11.3555
130	-11.3556
▁dio	-11.3557
▁springfield	-11.3559
▁biographical	-11.356
rail	-11.3564
▁inf	-11.3567
zes	-11.3569
▁cere	-11.357
bos	-11.357
▁transmitter	-11.3574
▁explosi	-11.3578
oll	-11.3578
4000	-11.358
tches	-11.3584
dot	-11.3584
▁ami	-11.3588
▁circula	-11.3591
ndant	-11.3591
▁theological	-11.3596
mul	-11.3597
rical	-11.3598
400	-11.36
▁sus	-11.3603
▁nava	-11.3605
member	-11.3609
▁circum	-11.3615
▁missionaries	-11.3621
nard	-11.3625
▁archaeology	-11.3625
ste	-11.363
oco	-11.3636
uca	-11.3636
sexual	-11.3637
dic	-11.3639
cill	-11.3642
patch	-11.3649
▁brid	-11.3649
▁lowe	-11.3658
▁denomination	-11.3658
science	-11.3665
got	-11.3665
raged	-11.367
▁councils	-11.3672
erson	-11.3674
selling	-11.3677
▁176	-11.368
▁delegate	-11.3682
▁refus	-11.3682
hore	-11.3686
▁cata	-11.3697
rink	-11.37
▁barri	-11.3701
▁newfoundland	-11.3703
uver	-11.3704
▁exe	-11.3712
▁jesu	-11.3713
▁psychiatr	-11.3715
kam	-11.3716
ocket	-11.3719
due	-11.3721
▁householder	-11.3721
asha	-11.3722
ragon	-11.3726
proxim	-11.3727
bama	-11.3732
▁chemist	-11.3736
▁grandmother	-11.3737
tav	-11.3739
bil	-11.3739
verted	-11.3739
slovakia	-11.3741
dise	-11.3742
▁kenn	-11.3743
▁rab	-11.3744
unted	-11.3747
▁centr	-11.3749
elin	-11.3753
orted	-11.3759
hama	-11.376
▁essen	-11.3762
▁illu	-11.3762
rita	-11.377
pra	-11.3772
dges	-11.3776
big	-11.3781
veni	-11.3781
▁ira	-11.3781
ulated	-11.3787
ente	-11.3789
▁consec	-11.3795
▁consequence	-11.3798
▁170	-11.38
uen	-11.3802
dnes	-11.3807
▁affiliation	-11.3808
dou	-11.381
tok	-11.381
mani	-11.3811
▁evangeli	-11.3814
pta	-11.3817
▁remov	-11.3826
▁reuni	-11.3834
anus	-11.3836
▁wh	-11.3842
tang	-11.3844
aughter	-11.3847
▁hamp	-11.385
▁fut	-11.3853
▁promotional	-11.3853
▁constantinople	-11.3853
uns	-11.3854
uve	-11.3858
ility	-11.3861
iety	-11.3864
arra	-11.3871
▁hun	-11.3881
enny	-11.3884
mpact	-11.3885
▁enterprises	-11.3885
dina	-11.3893
shah	-11.3896
▁dom	-11.3897
rque	-11.3898
▁philharmoni	-11.3903
▁digit	-11.3905
thor	-11.3905
▁europ	-11.3908
▁expatriates	-11.391
ool	-11.3911
stern	-11.3911
▁guan	-11.3912
birds	-11.3913
name	-11.3916
erland	-11.3916
oya	-11.3917
illes	-11.3918
▁princes	-11.3918
1980	-11.392
zin	-11.3924
esty	-11.3924
▁capabilities	-11.3929
▁basket	-11.3932
nning	-11.3932
buch	-11.3932
▁edu	-11.3952
▁autobiography	-11.3952
▁mom	-11.3957
hov	-11.3958
▁entr	-11.396
central	-11.3961
gage	-11.3963
quer	-11.3966
▁medi	-11.3968
hemi	-11.3969
▁differentiat	-11.3973
ando	-11.3974
tom	-11.3979
istol	-11.3979
camp	-11.398
▁item	-11.3981
fest	-11.3986
▁correspondence	-11.3988
▁cin	-11.3988
rag	-11.399
forest	-11.3993
iser	-11.3994
cera	-11.4002
▁commemorate	-11.4005
too	-11.4007
wear	-11.4014
zam	-11.4014
aked	-11.4017
▁financ	-11.4017
gua	-11.4019
lsa	-11.4025
oria	-11.4027
app	-11.4032
rol	-11.4034
tility	-11.4035
alaya	-11.4038
▁maur	-11.4042
ears	-11.4045
kim	-11.4049
kind	-11.4052
anor	-11.4053
ference	-11.4053
nett	-11.4055
thorn	-11.4059
▁necess	-11.406
gro	-11.4068
▁camb	-11.4069
▁brew	-11.4071
igation	-11.4071
▁nash	-11.4074
▁avail	-11.4076
lated	-11.4084
▁lat	-11.4086
ups	-11.4094
▁nationally	-11.4094
chal	-11.4095
afa	-11.4098
odor	-11.4099
nary	-11.41
nya	-11.41
▁admit	-11.41
▁kell	-11.4104
▁swin	-11.4104
▁verd	-11.4107
▁extraordinary	-11.411
▁bgcolorccffcc	-11.4114
▁institutional	-11.4114
kho	-11.4116
uto	-11.412
fin	-11.4122
▁cour	-11.4125
olet	-11.4126
▁philanthropist	-11.4127
isen	-11.4128
isia	-11.4129
afford	-11.413
owel	-11.4134
evi	-11.4134
bir	-11.4136
store	-11.4136
irs	-11.4138
111	-11.4139
▁posts	-11.4139
▁histori	-11.4141
▁dell	-11.4143
cuse	-11.4144
▁anno	-11.4144
racks	-11.4147
tana	-11.415
ndon	-11.4153
ould	-11.4153
berna	-11.4158
ntry	-11.416
▁armi	-11.4173
aja	-11.4175
mous	-11.4178
▁ambassadors	-11.418
east	-11.4184
eros	-11.4184
cki	-11.4192
▁horizon	-11.4193
▁conservator	-11.4194
ireland	-11.4197
published	-11.4199
▁oli	-11.42
closure	-11.42
normal	-11.4204
drawn	-11.4204
gina	-11.4208
hark	-11.4212
rite	-11.4214
ook	-11.4219
printed	-11.4219
▁freed	-11.4222
iac	-11.4231
▁accommodation	-11.4232
seat	-11.4234
▁diff	-11.4235
ann	-11.4237
frame	-11.4237
ssy	-11.4238
igue	-11.4244
poly	-11.4245
▁concentrated	-11.4247
bing	-11.4249
mented	-11.4255
bee	-11.426
ountain	-11.4263
isse	-11.4264
duced	-11.4266
iza	-11.427
▁dens	-11.4274
demi	-11.4276
mali	-11.4278
igi	-11.4279
named	-11.4289
stable	-11.4293
chia	-11.4293
utc	-11.4296
gc	-11.4297
laborate	-11.4299
unes	-11.4303
▁scu	-11.4303
cure	-11.4305
▁illustrations	-11.4306
stle	-11.4309
▁gle	-11.4313
ppo	-11.4313
▁serb	-11.4313
lun	-11.4317
anny	-11.4317
▁gent	-11.432
▁mam	-11.4322
▁derive	-11.4323
▁esca	-11.4325
olation	-11.4326
▁recreational	-11.4327
▁electr	-11.4327
▁io	-11.4328
with	-11.433
▁pere	-11.4331
oi	-11.4341
rh	-11.4343
1945	-11.4345
▁environments	-11.4349
ilt	-11.4349
▁chronic	-11.4354
vir	-11.4355
▁advise	-11.4355
▁theologi	-11.4355
▁barre	-11.4356
▁disabilit	-11.4358
lous	-11.4358
landers	-11.436
iger	-11.436
lins	-11.4361
▁sudden	-11.4367
roof	-11.437
▁archiv	-11.4371
izer	-11.4374
ential	-11.4379
ogo	-11.4379
▁constituen	-11.438
nger	-11.438
▁pand	-11.438
thur	-11.438
vsky	-11.4383
iformesfamily	-11.4388
▁civilization	-11.439
▁chas	-11.4393
rational	-11.4397
gins	-11.4398
▁controll	-11.4398
telling	-11.4404
▁socio	-11.4408
bid	-11.4409
fro	-11.4411
imo	-11.4416
lding	-11.4417
▁ska	-11.442
▁indig	-11.442
▁energ	-11.4421
▁consolidated	-11.4424
nym	-11.4425
centr	-11.4427
nite	-11.4431
location	-11.4436
cute	-11.4441
enia	-11.4448
nife	-11.4449
▁nineteenth	-11.4453
itting	-11.4458
amma	-11.4459
▁rit	-11.446
match	-11.4465
▁attribute	-11.4465
ophi	-11.4468
▁executives	-11.4471
▁acknowledged	-11.4472
▁tac	-11.4473
see	-11.4474
system	-11.4475
▁rehabilitation	-11.4475
utin	-11.4477
erior	-11.4488
rath	-11.4489
district	-11.4493
▁consciousness	-11.4493
uria	-11.4498
kun	-11.45
▁supporter	-11.4506
pat	-11.451
lop	-11.4511
▁mast	-11.4514
caster	-11.4514
hak	-11.4516
▁summ	-11.4516
018	-11.4519
▁christi	-11.452
sko	-11.4525
▁saxo	-11.4526
918	-11.4526
▁nap	-11.4531
bas	-11.4535
order	-11.4537
▁differential	-11.454
▁thir	-11.4542
▁demonstrat	-11.4545
opy	-11.4552
uti	-11.4557
stop	-11.4559
▁oppos	-11.4559
ving	-11.4559
lith	-11.4565
authorized	-11.4565
eti	-11.4565
complete	-11.4568
▁archaeologist	-11.4572
families	-11.4573
pol	-11.4573
traits	-11.4573
aragua	-11.4576
tropical	-11.4577
▁translations	-11.4581
spot	-11.4582
▁lem	-11.4586
▁biograph	-11.4586
▁lig	-11.4588
▁autonom	-11.4589
entity	-11.4593
▁institutes	-11.4593
trust	-11.4594
▁coron	-11.4601
▁appar	-11.4601
▁swim	-11.4604
▁bei	-11.4605
▁cath	-11.4606
ction	-11.4611
ogg	-11.4619
gans	-11.4621
psy	-11.4623
tton	-11.4624
yout	-11.4624
otti	-11.4624
▁albe	-11.4625
▁dama	-11.4627
▁rebe	-11.4627
tai	-11.463
tree	-11.4638
rops	-11.4647
icide	-11.4647
bag	-11.4647
bru	-11.465
wski	-11.4652
▁achiev	-11.4652
erian	-11.4656
mped	-11.4658
oxi	-11.4658
lution	-11.4661
▁meri	-11.4662
rows	-11.4663
nel	-11.4664
▁hou	-11.4667
▁surve	-11.4669
ego	-11.467
vac	-11.4671
xa	-11.4671
▁nin	-11.4671
pora	-11.4671
▁witnesse	-11.4671
gol	-11.4673
▁abs	-11.4677
ulation	-11.4694
▁commissioners	-11.4695
crop	-11.4707
▁moti	-11.4711
built	-11.4714
▁transmitt	-11.4717
ewing	-11.4718
▁kei	-11.4718
tted	-11.4723
▁kri	-11.4724
erton	-11.4725
plan	-11.473
mini	-11.4733
hul	-11.4733
▁advent	-11.4734
▁conclude	-11.4735
etty	-11.4741
▁professionals	-11.4741
▁abor	-11.4746
▁dive	-11.4749
nja	-11.4749
zone	-11.4752
▁cons	-11.4752
bad	-11.4754
hoo	-11.4755
atta	-11.4755
fen	-11.4755
▁punish	-11.476
▁swimmer	-11.4762
vention	-11.4767
▁satur	-11.4767
▁intelligen	-11.4774
azz	-11.4776
▁registr	-11.4777
▁developments	-11.4778
acher	-11.4778
ried	-11.4778
cross	-11.4778
rice	-11.4783
cane	-11.4788
▁swe	-11.4789
▁intern	-11.479
▁intersect	-11.4797
▁advoca	-11.48
ployment	-11.4801
▁meg	-11.4802
▁jul	-11.4803
▁meter	-11.4805
▁prote	-11.4806
sign	-11.4811
▁easter	-11.4819
eca	-11.4822
▁realiz	-11.4825
▁richards	-11.4825
gender	-11.4826
▁plea	-11.4832
▁synthesiz	-11.4834
mption	-11.4834
human	-11.4837
bell	-11.4838
wings	-11.484
▁convent	-11.4842
nian	-11.4843
oons	-11.4845
▁pou	-11.4846
▁salv	-11.4849
▁barba	-11.4853
phis	-11.4854
▁eviden	-11.4857
wr	-11.4858
▁dip	-11.4859
▁rin	-11.4859
uh	-11.4862
loyd	-11.4864
ppa	-11.4871
▁memori	-11.4872
avor	-11.4873
▁fru	-11.4874
olen	-11.4876
1970	-11.4876
fense	-11.4877
itt	-11.4883
cultural	-11.4885
mens	-11.4892
ipe	-11.4893
laws	-11.4894
▁guil	-11.4896
bling	-11.4899
▁reache	-11.4902
under	-11.4904
▁pag	-11.4905
ones	-11.4914
▁accura	-11.4916
hun	-11.4916
tters	-11.4917
icht	-11.4917
ccompanied	-11.4918
▁categor	-11.4924
bear	-11.4926
▁gree	-11.4926
bile	-11.4931
inki	-11.4936
▁societ	-11.4942
empt	-11.4943
gly	-11.4944
▁fortification	-11.4944
▁unfortunately	-11.4951
logue	-11.4951
ree	-11.4951
dys	-11.4952
essed	-11.4957
eves	-11.4961
heat	-11.4961
party	-11.4967
▁czechoslovakia	-11.4968
▁gol	-11.497
won	-11.4973
nath	-11.4975
iso	-11.4983
▁ark	-11.4986
cord	-11.4987
xter	-11.4987
lav	-11.4992
lexi	-11.4994
1999	-11.4997
▁venu	-11.4999
▁instructions	-11.5003
dged	-11.5004
▁inhabit	-11.5006
iber	-11.5007
▁commit	-11.5008
iform	-11.501
rp	-11.5013
chs	-11.5014
usion	-11.5016
chrom	-11.5018
responsibilities	-11.5027
▁moham	-11.5035
tantly	-11.5038
lou	-11.5041
▁legislat	-11.5042
abe	-11.5042
diction	-11.5043
dul	-11.5043
eration	-11.5049
wu	-11.505
lau	-11.5054
▁depo	-11.5056
llow	-11.5059
umber	-11.5061
duct	-11.5062
rooms	-11.5064
grass	-11.5065
llard	-11.5066
lias	-11.5077
tality	-11.508
bby	-11.5082
▁escap	-11.509
▁beside	-11.509
letic	-11.5094
uss	-11.5094
pent	-11.5097
minent	-11.5098
rres	-11.5098
strial	-11.5099
term	-11.51
ordinate	-11.5101
▁pue	-11.5102
ife	-11.5102
solved	-11.5104
▁philli	-11.5111
ldest	-11.5113
aps	-11.5114
lva	-11.5114
lug	-11.5117
grove	-11.5117
nation	-11.5118
tified	-11.512
crete	-11.512
dens	-11.5121
▁retire	-11.5121
hc	-11.5127
▁repri	-11.5129
ational	-11.5131
jer	-11.5133
▁absen	-11.5134
▁neighborhoods	-11.5134
hil	-11.5135
▁ave	-11.5138
▁termin	-11.5139
storm	-11.5142
wat	-11.5144
luk	-11.5145
ngo	-11.5148
▁phi	-11.515
fined	-11.515
tov	-11.5152
ime	-11.5156
headed	-11.5156
plant	-11.5157
rrington	-11.5159
rac	-11.516
▁christin	-11.5161
▁bree	-11.5161
lib	-11.5161
▁collaborative	-11.5164
rva	-11.5165
opa	-11.5166
ogue	-11.5167
ket	-11.5168
lists	-11.5173
▁declare	-11.5174
▁aboli	-11.5175
▁phon	-11.5179
ndering	-11.518
agne	-11.5182
▁addi	-11.5182
▁marl	-11.5188
shin	-11.519
▁slight	-11.5193
estry	-11.5197
pto	-11.5201
▁comb	-11.5202
gur	-11.5204
iddle	-11.5204
hanna	-11.5207
▁terminat	-11.5209
▁sept	-11.521
organized	-11.5211
▁roch	-11.5215
▁regi	-11.5216
hydr	-11.5219
▁emerge	-11.522
ndis	-11.5228
▁femini	-11.5231
▁desp	-11.5233
volves	-11.5235
esis	-11.5237
▁innovat	-11.5239
ubb	-11.5246
rf	-11.5249
rally	-11.5249
endor	-11.5249
fected	-11.525
▁contestant	-11.5251
▁citation	-11.5252
igo	-11.5255
▁austr	-11.5259
tore	-11.526
▁hap	-11.5263
latin	-11.5267
fix	-11.5271
scount	-11.5272
ipper	-11.5276
▁valle	-11.5277
half	-11.528
▁boi	-11.5293
mpress	-11.5294
jury	-11.5297
rze	-11.5299
eka	-11.5299
ishes	-11.53
mw	-11.5306
▁popul	-11.531
bella	-11.531
▁juris	-11.5312
nson	-11.5313
tica	-11.5315
▁dau	-11.5315
▁mater	-11.5315
valent	-11.5319
sai	-11.5322
▁specifications	-11.5322
mons	-11.5327
dynamic	-11.5328
onda	-11.533
care	-11.5333
ledo	-11.5336
mia	-11.5338
poli	-11.534
hmi	-11.5342
▁cham	-11.5343
shing	-11.5346
ebra	-11.5347
fare	-11.5352
ionist	-11.5352
▁ling	-11.5353
▁pharmaceutical	-11.5355
bm	-11.5357
cup	-11.536
tique	-11.5362
edmon	-11.5362
▁scand	-11.5364
▁acro	-11.5365
stylebackgroundf	-11.5365
arf	-11.5367
▁qualit	-11.5368
posed	-11.5368
imer	-11.5368
cule	-11.5369
stress	-11.5371
▁stopp	-11.5371
odd	-11.5371
nova	-11.5371
utta	-11.5374
▁unre	-11.538
wed	-11.5382
wright	-11.5382
solution	-11.5383
erto	-11.5384
▁constantin	-11.5386
▁spl	-11.5393
rington	-11.5394
pac	-11.5398
▁advanc	-11.5398
nock	-11.5399
▁lak	-11.54
zha	-11.5405
commissioned	-11.5405
▁strea	-11.5408
▁impl	-11.5409
tari	-11.541
▁eliminate	-11.5418
▁caval	-11.5419
houses	-11.5421
ske	-11.5424
itable	-11.5427
diocese	-11.5429
sil	-11.5431
lair	-11.5434
▁composit	-11.5435
nj	-11.5437
formal	-11.5446
▁diag	-11.5447
▁judi	-11.5456
lves	-11.5457
▁tex	-11.5458
▁frederic	-11.5458
assi	-11.5464
ients	-11.5465
▁duc	-11.5471
mut	-11.5474
ises	-11.5477
historic	-11.5481
rkshire	-11.5482
▁interven	-11.5487
▁summar	-11.5488
▁hig	-11.549
rcul	-11.5492
▁relate	-11.5495
daughter	-11.5496
known	-11.5497
carp	-11.5502
▁contemp	-11.5502
ferred	-11.5504
door	-11.5506
▁librari	-11.5507
ylan	-11.5509
phyl	-11.5509
script	-11.5511
pounds	-11.5518
promise	-11.5519
▁patt	-11.5521
mega	-11.5524
acked	-11.5524
tact	-11.5528
oso	-11.5531
hel	-11.5532
bust	-11.5533
▁recommendations	-11.5535
ombard	-11.5539
pension	-11.5539
▁bomba	-11.5545
▁ecclesiastical	-11.5547
atches	-11.5549
▁info	-11.5552
plus	-11.5553
eks	-11.5553
lim	-11.5554
guar	-11.5554
stella	-11.5562
▁tec	-11.5562
abi	-11.5562
conscious	-11.5566
rz	-11.5566
alist	-11.5567
meth	-11.5568
burgh	-11.5572
onal	-11.5573
pati	-11.5573
uth	-11.558
about	-11.5585
looking	-11.5588
▁medalist	-11.5591
iest	-11.5591
▁fea	-11.5592
▁separat	-11.5598
mitt	-11.5608
stand	-11.561
eating	-11.5611
lute	-11.5611
▁institut	-11.5612
esa	-11.5612
▁beg	-11.5612
scent	-11.5613
nomi	-11.5614
ega	-11.562
▁ea	-11.5621
ryl	-11.5621
source	-11.5623
video	-11.5624
tino	-11.5626
nders	-11.5628
drama	-11.5629
build	-11.563
cide	-11.5634
cot	-11.5634
cies	-11.5639
▁brow	-11.5639
tailed	-11.564
boats	-11.5642
lius	-11.5645
russian	-11.5654
motive	-11.566
▁theology	-11.566
hip	-11.566
▁fest	-11.5663
uni	-11.5665
oline	-11.5665
▁sym	-11.5668
▁dynam	-11.5672
ggi	-11.5672
▁immigrant	-11.5682
ssi	-11.5682
▁revers	-11.5683
specific	-11.5684
ordination	-11.5685
date	-11.569
▁perceive	-11.5694
ushi	-11.5698
yna	-11.5706
▁semin	-11.5707
gill	-11.5713
lak	-11.5715
▁migrat	-11.5715
▁strang	-11.5716
▁holly	-11.5719
▁genu	-11.5721
nau	-11.5722
▁shap	-11.5727
odge	-11.5736
mper	-11.5737
width	-11.5738
kg	-11.5743
ophy	-11.5745
mese	-11.5746
eli	-11.5749
rity	-11.5752
▁leb	-11.5752
pell	-11.5755
wart	-11.5755
oud	-11.5762
eem	-11.5771
perate	-11.5771
▁threa	-11.5777
standing	-11.5778
▁grap	-11.5783
hay	-11.5784
gence	-11.5787
arts	-11.5793
anta	-11.5802
▁stad	-11.5807
horse	-11.5809
▁alexandri	-11.5809
▁roche	-11.5813
rig	-11.5819
scra	-11.582
dri	-11.5824
ariat	-11.5828
quit	-11.5831
inn	-11.5835
ivor	-11.5837
synthesis	-11.5839
sili	-11.5841
1997	-11.5846
▁consum	-11.5846
▁dres	-11.5852
cre	-11.5853
rent	-11.5855
itted	-11.5859
▁rui	-11.5859
uts	-11.586
fth	-11.5861
▁anto	-11.5862
olar	-11.5864
swa	-11.5866
acion	-11.5867
eaten	-11.587
▁hyp	-11.5871
will	-11.5872
▁athen	-11.5873
fri	-11.5879
bili	-11.5881
atherine	-11.5886
bei	-11.5893
▁demoli	-11.5897
▁chil	-11.5902
phin	-11.5902
▁sometime	-11.5903
ochi	-11.5905
pple	-11.5905
bsc	-11.5906
mad	-11.591
nde	-11.5922
aker	-11.5924
jet	-11.5926
▁desir	-11.5928
rani	-11.5928
tagonist	-11.5933
▁reconstruct	-11.5935
reb	-11.5939
asco	-11.5947
rang	-11.5958
pic	-11.596
ails	-11.5961
aran	-11.5969
▁cruis	-11.597
▁butter	-11.5971
tering	-11.5974
nets	-11.5975
clip	-11.5984
▁pip	-11.599
tm	-11.5992
▁164	-11.5996
stated	-11.5997
thon	-11.5998
112	-11.5999
▁warn	-11.6001
ieu	-11.6003
▁pray	-11.6008
▁ris	-11.6012
fried	-11.6013
tour	-11.6013
▁cofound	-11.6028
▁refu	-11.6028
ought	-11.603
common	-11.6031
aic	-11.6037
rami	-11.6041
▁prose	-11.6041
▁atmospher	-11.6044
reservation	-11.605
vey	-11.605
▁ore	-11.6052
ffer	-11.6052
reproduction	-11.6064
mati	-11.6069
▁appoint	-11.6071
▁stab	-11.6078
nen	-11.6082
chess	-11.6083
only	-11.6086
riz	-11.6089
lastic	-11.6091
▁gym	-11.6092
orist	-11.6092
rgen	-11.6093
olds	-11.6094
achel	-11.6099
stant	-11.6106
lles	-11.6108
issue	-11.6111
sci	-11.6118
mania	-11.6119
stal	-11.6121
▁twe	-11.6125
hib	-11.6126
▁decreas	-11.6126
oti	-11.6132
crew	-11.6133
▁mano	-11.6133
mmons	-11.6135
1996	-11.6136
cogniti	-11.6137
mun	-11.6138
▁ret	-11.6139
wel	-11.6143
tape	-11.6145
gn	-11.6146
club	-11.6148
cited	-11.6151
▁periodic	-11.6152
llian	-11.6156
traction	-11.6158
▁calli	-11.6159
oster	-11.6164
▁commence	-11.6165
axon	-11.6168
gee	-11.6169
▁erect	-11.6169
dun	-11.6169
▁174	-11.6173
▁phillip	-11.6173
edro	-11.6175
▁secur	-11.6175
reis	-11.6177
pre	-11.6179
▁acco	-11.6183
copy	-11.6194
rib	-11.6195
▁necessar	-11.62
▁twel	-11.6204
lisa	-11.6206
scul	-11.6209
rown	-11.621
direct	-11.6213
▁iris	-11.6213
ambi	-11.6215
uster	-11.6217
spring	-11.6218
aco	-11.6218
augh	-11.6219
▁tas	-11.6221
wie	-11.6221
yton	-11.6221
writer	-11.623
rome	-11.6239
▁propose	-11.6239
▁conver	-11.6244
▁shake	-11.6246
alga	-11.6248
▁rug	-11.6249
▁conserv	-11.625
▁assassinat	-11.6251
aper	-11.6251
umor	-11.6252
▁voca	-11.6252
kor	-11.6259
mack	-11.626
lank	-11.6261
▁vie	-11.6262
haven	-11.6266
izo	-11.6266
▁apol	-11.6273
▁imper	-11.6276
count	-11.6278
▁overse	-11.6285
▁nea	-11.6288
dl	-11.6291
anov	-11.6296
▁combin	-11.6296
tune	-11.6296
guis	-11.6298
rane	-11.6307
xu	-11.6308
▁marg	-11.6309
aged	-11.6309
▁restrict	-11.6311
spective	-11.6313
married	-11.6318
rab	-11.6319
1998	-11.632
oslav	-11.6321
▁mara	-11.6321
technic	-11.6325
model	-11.6326
llar	-11.6338
agi	-11.6341
acre	-11.6342
owner	-11.6344
kla	-11.635
union	-11.635
correct	-11.6354
immer	-11.6357
rope	-11.6361
yk	-11.6362
look	-11.6363
▁constr	-11.6363
▁loc	-11.6371
rup	-11.6371
tun	-11.6374
▁ensur	-11.6375
mise	-11.6378
▁pak	-11.638
▁emergenc	-11.6381
nat	-11.6382
gard	-11.6385
max	-11.6387
▁vet	-11.6388
1993	-11.6388
tara	-11.6388
▁slee	-11.6389
jack	-11.6395
employment	-11.6396
▁redesign	-11.6399
news	-11.64
rip	-11.641
oza	-11.6413
1994	-11.6414
ares	-11.6417
dir	-11.6418
vig	-11.6419
stones	-11.6424
secution	-11.6424
film	-11.6429
▁pirate	-11.643
▁applic	-11.6442
llis	-11.6448
hne	-11.6455
▁botani	-11.6457
rada	-11.6458
bara	-11.6461
fields	-11.6464
mpson	-11.6465
troph	-11.6469
imulation	-11.6474
▁agr	-11.6475
▁linguist	-11.6475
▁circulat	-11.648
eye	-11.6483
avour	-11.6495
▁stud	-11.6495
crosse	-11.6499
ylebackgroundcfc	-11.6499
asso	-11.65
▁lett	-11.6502
xin	-11.651
▁exh	-11.6514
scop	-11.6523
home	-11.653
▁resume	-11.6532
verage	-11.6535
neu	-11.6537
▁corre	-11.654
rop	-11.654
ohn	-11.6544
rner	-11.6545
tet	-11.6546
▁translate	-11.6549
efficient	-11.6551
▁incorporat	-11.6551
yes	-11.6552
sts	-11.6559
oys	-11.6561
utic	-11.6563
dcast	-11.6567
erted	-11.6568
▁morocc	-11.657
nb	-11.6571
assic	-11.6571
ilk	-11.6573
nex	-11.6577
▁edg	-11.6577
polis	-11.6578
stitution	-11.6583
score	-11.6583
▁goa	-11.6588
▁observe	-11.6593
pired	-11.6593
tration	-11.6595
oft	-11.6596
▁faste	-11.6599
dron	-11.6599
adia	-11.6601
uter	-11.6606
▁regen	-11.6606
insk	-11.6611
akes	-11.6615
▁bod	-11.6619
▁discipl	-11.6621
graphy	-11.6621
tings	-11.6628
esley	-11.6632
hav	-11.6632
▁swor	-11.6635
1995	-11.6638
egan	-11.6647
sibility	-11.6647
▁wir	-11.6649
arth	-11.6654
elong	-11.6654
iny	-11.6656
ulin	-11.6658
olves	-11.6659
kit	-11.6662
▁abe	-11.6662
▁naz	-11.6663
aded	-11.6666
▁thank	-11.6669
raction	-11.6672
phil	-11.6673
tested	-11.6673
▁feb	-11.6675
rico	-11.6679
ress	-11.6682
▁penalt	-11.6682
ogan	-11.6689
ended	-11.669
▁subs	-11.6696
▁pir	-11.6698
illi	-11.67
▁brea	-11.6705
▁sant	-11.6706
tensive	-11.6707
metry	-11.6711
ergy	-11.6712
▁excavat	-11.6714
▁controversi	-11.6714
lec	-11.672
ango	-11.6731
bris	-11.6732
bard	-11.6735
▁televis	-11.6737
▁dou	-11.6743
▁specialis	-11.6749
tp	-11.675
rtation	-11.6751
acks	-11.6754
development	-11.6754
aine	-11.6754
tly	-11.6755
sets	-11.6758
ebrate	-11.6759
clusive	-11.6761
lean	-11.6763
cky	-11.6768
▁pau	-11.6768
ppe	-11.6769
funded	-11.6771
osh	-11.6775
lington	-11.6775
bau	-11.6776
▁madr	-11.6781
lude	-11.6783
tending	-11.6783
▁pai	-11.6784
mone	-11.6786
cluded	-11.6788
alized	-11.6792
▁arrange	-11.6792
ables	-11.6793
tations	-11.6793
hre	-11.6794
▁perm	-11.6795
gni	-11.6796
rought	-11.68
ease	-11.68
hiv	-11.6801
ience	-11.6802
plication	-11.6803
ugg	-11.6807
ims	-11.6808
anca	-11.681
ishing	-11.6812
formation	-11.6817
▁enforce	-11.682
▁considerabl	-11.6822
seum	-11.6824
▁laborator	-11.6825
cod	-11.6831
info	-11.6833
sufficient	-11.6833
▁dropp	-11.6834
uit	-11.6835
trate	-11.6839
▁doo	-11.6848
pis	-11.6851
found	-11.6853
▁fai	-11.6853
1960	-11.6859
▁fres	-11.6859
▁corrupt	-11.6865
critic	-11.6865
colour	-11.687
rach	-11.6872
dig	-11.6872
aircraft	-11.6875
▁petit	-11.6879
zens	-11.6879
aris	-11.6883
graduate	-11.6887
minating	-11.6893
aid	-11.6895
large	-11.6895
visible	-11.6896
▁afri	-11.6899
runner	-11.6899
dney	-11.69
▁veter	-11.6901
lda	-11.6902
schu	-11.6905
tula	-11.6906
gents	-11.6907
aks	-11.6909
watch	-11.691
▁extrem	-11.6912
jor	-11.6912
vol	-11.6913
▁mach	-11.6914
▁prominen	-11.6914
▁aud	-11.6915
iance	-11.6916
joined	-11.6916
pack	-11.6917
mated	-11.6923
▁recogniz	-11.6931
jr	-11.6935
atched	-11.6936
covered	-11.6937
rove	-11.6939
cite	-11.6939
▁jona	-11.694
▁subsid	-11.6947
▁ell	-11.695
hei	-11.6954
▁engag	-11.6958
angel	-11.6959
hea	-11.6959
ames	-11.696
omen	-11.6965
roma	-11.6976
uld	-11.6984
gat	-11.6984
1991	-11.6989
cie	-11.6991
rv	-11.6992
omal	-11.6994
uls	-11.6996
wrote	-11.7004
▁cav	-11.7009
▁technic	-11.701
▁capacit	-11.7012
▁marath	-11.7012
▁elevat	-11.7013
utan	-11.7015
▁savi	-11.7016
sher	-11.7016
▁simul	-11.702
▁colomb	-11.7022
lph	-11.7024
sun	-11.7028
hala	-11.7035
hani	-11.7038
▁deci	-11.7042
▁survivor	-11.7043
▁originat	-11.7043
lect	-11.7045
gha	-11.7049
1992	-11.7049
obe	-11.7053
taining	-11.7057
▁ende	-11.7065
▁flori	-11.7065
▁practic	-11.7065
mell	-11.7066
upe	-11.707
sty	-11.7071
gov	-11.7075
▁ere	-11.7078
rado	-11.7085
soviet	-11.7086
cur	-11.7088
developed	-11.709
ules	-11.709
vili	-11.7091
dre	-11.7092
▁activis	-11.7094
tans	-11.7095
rican	-11.7095
▁frag	-11.7099
mounted	-11.71
scend	-11.7102
udo	-11.7105
ige	-11.7105
▁borde	-11.7108
▁cir	-11.7109
uche	-11.711
▁fern	-11.7113
ghton	-11.7113
alie	-11.7117
german	-11.7118
osti	-11.7124
▁sas	-11.7125
dur	-11.713
asis	-11.7131
rude	-11.7131
emi	-11.7132
▁boul	-11.7137
anto	-11.7138
center	-11.7143
erde	-11.7144
plex	-11.7154
undi	-11.7156
aires	-11.716
▁benefi	-11.716
three	-11.716
spear	-11.7161
▁barbar	-11.7161
text	-11.7165
▁wed	-11.7168
mass	-11.7168
sti	-11.717
▁heal	-11.7172
olate	-11.7174
▁intel	-11.7175
conn	-11.7177
ensor	-11.7177
therapy	-11.7179
china	-11.7185
flict	-11.7187
▁compos	-11.719
▁contin	-11.7198
▁feder	-11.7203
culture	-11.7204
rana	-11.7205
▁acr	-11.7209
jord	-11.7218
vie	-11.7224
lesia	-11.7229
uran	-11.723
▁nig	-11.7231
carn	-11.7232
▁heavi	-11.7233
det	-11.7243
paul	-11.7245
production	-11.7248
hk	-11.7249
por	-11.7251
▁berk	-11.7251
sely	-11.7254
sad	-11.7255
▁fig	-11.7256
turn	-11.7259
anas	-11.726
▁synth	-11.7263
urb	-11.7274
evolutionary	-11.7279
filled	-11.7283
▁navigat	-11.7286
▁vaca	-11.729
atu	-11.729
omb	-11.7294
▁displace	-11.7297
dem	-11.7297
diversity	-11.7299
claim	-11.7301
acade	-11.7302
ovi	-11.7304
oqu	-11.7307
tto	-11.7307
chemical	-11.7309
raid	-11.731
oche	-11.731
▁enr	-11.7311
oms	-11.7317
▁armo	-11.7318
▁roc	-11.732
abba	-11.7322
make	-11.7328
sub	-11.7329
▁recommend	-11.7329
tah	-11.733
▁horr	-11.733
dag	-11.733
raine	-11.7334
inia	-11.7338
kia	-11.7339
pression	-11.7341
▁compare	-11.7343
▁purchas	-11.7346
▁curv	-11.7348
wife	-11.7356
dai	-11.7359
systems	-11.736
rae	-11.7368
▁enhanc	-11.737
alla	-11.7372
lage	-11.7374
nker	-11.7378
dov	-11.738
rade	-11.7381
pd	-11.7382
heads	-11.7382
agu	-11.7382
rians	-11.7384
pse	-11.7385
istics	-11.7386
limited	-11.7389
kol	-11.7392
iveness	-11.7401
▁refugee	-11.7401
▁arb	-11.7406
sses	-11.7411
issued	-11.7414
rilli	-11.7415
cula	-11.7417
uad	-11.7422
▁173	-11.7424
▁songwrit	-11.7428
▁gian	-11.7428
yst	-11.743
bush	-11.7438
established	-11.7438
▁reve	-11.744
throw	-11.744
▁avi	-11.7443
1000	-11.7443
▁monaster	-11.7449
divided	-11.745
abeth	-11.7453
pul	-11.7457
xe	-11.7458
ibi	-11.7459
▁charg	-11.746
kot	-11.7461
▁descendant	-11.7464
uller	-11.7467
▁squ	-11.7473
▁curr	-11.7475
▁starr	-11.748
▁encourag	-11.7482
his	-11.7483
ssau	-11.7484
dental	-11.7485
children	-11.7491
▁flore	-11.7491
european	-11.7491
ced	-11.7492
jas	-11.7496
huan	-11.75
▁181	-11.7507
▁visitor	-11.7509
102	-11.7509
tribution	-11.7512
flu	-11.7512
▁terminate	-11.7515
cum	-11.7515
ork	-11.7516
wake	-11.7519
admin	-11.7521
alli	-11.7522
isi	-11.7522
uggl	-11.7526
inth	-11.7528
▁liberat	-11.753
▁equ	-11.7531
gust	-11.7536
pod	-11.754
▁nineteen	-11.7541
riel	-11.7542
▁competitor	-11.7545
dus	-11.7547
lease	-11.7547
erve	-11.7553
woo	-11.7555
oman	-11.7557
▁howe	-11.7559
nches	-11.7561
letter	-11.7566
▁chem	-11.7569
bore	-11.757
▁cine	-11.7576
ndel	-11.7576
▁originate	-11.7576
carbon	-11.758
genetic	-11.7584
chant	-11.7584
brown	-11.7587
ravi	-11.76
1918	-11.7603
▁sma	-11.7604
clean	-11.7606
guin	-11.7611
▁assassin	-11.7614
▁dramat	-11.7618
ctively	-11.7624
▁cree	-11.7625
ym	-11.7626
purpose	-11.7629
▁celebrat	-11.763
credi	-11.7631
aut	-11.7631
therland	-11.7631
▁merge	-11.7641
▁det	-11.7642
▁submit	-11.7643
xist	-11.7644
▁specification	-11.7647
advantage	-11.7649
lier	-11.7651
1989	-11.7652
▁defin	-11.7653
mela	-11.7658
▁hire	-11.7661
drome	-11.7666
tching	-11.7673
▁colleague	-11.7679
typic	-11.7682
ometer	-11.7687
ums	-11.769
arat	-11.7693
▁sof	-11.7693
▁forb	-11.7694
▁buddhis	-11.7694
mart	-11.7696
▁charle	-11.7699
scrib	-11.7702
1950	-11.7706
ndee	-11.7707
leading	-11.7713
akar	-11.7717
▁mia	-11.7723
▁adel	-11.7723
urban	-11.7724
▁milita	-11.7731
yas	-11.7733
▁hos	-11.7741
▁gav	-11.7742
til	-11.7742
▁prima	-11.7747
vent	-11.7753
▁publishe	-11.7754
pb	-11.7755
▁kep	-11.7759
sting	-11.7759
nted	-11.7764
writing	-11.7765
scus	-11.7766
kings	-11.7767
▁sq	-11.7767
together	-11.777
fore	-11.7774
stor	-11.7789
jewish	-11.7799
yman	-11.7805
icks	-11.7809
▁privat	-11.7809
glass	-11.781
nounced	-11.7811
sured	-11.7812
khan	-11.7812
neck	-11.7816
sale	-11.7819
nnon	-11.7819
lac	-11.7822
▁approximate	-11.7826
▁captur	-11.7829
plain	-11.783
sive	-11.783
mage	-11.7834
atar	-11.7835
▁172	-11.7836
▁austral	-11.7841
▁forg	-11.7843
▁deploy	-11.7844
alities	-11.7846
roo	-11.7847
▁choos	-11.7848
tb	-11.7853
mma	-11.7853
nsorship	-11.7855
▁gov	-11.7858
▁amend	-11.7858
wand	-11.7859
ately	-11.786
ols	-11.7862
arina	-11.7863
▁smi	-11.7863
caf	-11.7864
flower	-11.7868
iley	-11.7872
joining	-11.7873
mbu	-11.7877
▁reco	-11.7885
▁deutsch	-11.7886
iments	-11.7889
kul	-11.7892
breaking	-11.7894
ardi	-11.7896
icit	-11.79
▁sup	-11.7908
▁bett	-11.7909
tl	-11.7909
▁enl	-11.7909
▁vall	-11.791
loc	-11.7911
ruck	-11.7911
▁cancell	-11.7919
▁sect	-11.7921
▁wrestle	-11.7923
sol	-11.7926
quest	-11.7932
gau	-11.7936
test	-11.7938
lat	-11.7939
century	-11.7941
▁crim	-11.7946
hwar	-11.7946
hau	-11.7951
▁deli	-11.7952
rmor	-11.7955
▁shou	-11.7956
▁willi	-11.796
gold	-11.796
gul	-11.7969
▁carpe	-11.7972
eni	-11.7973
adh	-11.7974
engine	-11.7975
▁conso	-11.7978
▁jac	-11.7983
ege	-11.7984
gene	-11.7988
itor	-11.7992
▁heli	-11.7993
lea	-11.7993
▁lut	-11.7994
▁styletextalign	-11.7997
anth	-11.7999
trained	-11.8
joy	-11.8004
▁polit	-11.801
▁afterward	-11.8011
ardin	-11.8013
aye	-11.8013
▁reproduc	-11.802
▁hen	-11.8022
hydro	-11.8024
▁infra	-11.8027
uil	-11.8028
parent	-11.8031
▁symphon	-11.804
oki	-11.8041
▁recommendation	-11.8045
ope	-11.8049
▁lanc	-11.8055
flight	-11.8055
▁prec	-11.8058
▁evan	-11.8058
controlled	-11.8059
ird	-11.8069
gusta	-11.8075
▁declar	-11.8076
coat	-11.8077
derb	-11.8078
eater	-11.8082
▁parti	-11.8086
passed	-11.8086
quel	-11.8093
pton	-11.8097
▁ministr	-11.81
minate	-11.8102
erz	-11.8103
▁gregor	-11.8104
ibu	-11.8104
▁riv	-11.8108
ulia	-11.811
tyl	-11.8114
▁licens	-11.8117
arthur	-11.8122
▁rede	-11.8123
numbered	-11.8124
inster	-11.8129
love	-11.8129
ono	-11.813
▁aggregat	-11.8133
alone	-11.8139
▁baptis	-11.814
apo	-11.8141
structed	-11.8142
moor	-11.8142
asan	-11.8143
agg	-11.8143
blin	-11.8144
101	-11.8157
nesia	-11.8159
tate	-11.8161
▁tributar	-11.8167
leh	-11.8169
▁invite	-11.8172
press	-11.8173
ject	-11.8178
nig	-11.818
aza	-11.8185
tray	-11.8186
wells	-11.8188
etra	-11.8193
▁mang	-11.8196
aret	-11.8203
terdam	-11.8205
acio	-11.8207
oping	-11.8207
broke	-11.8207
bull	-11.821
alistic	-11.8214
milton	-11.8214
anning	-11.8214
reak	-11.8233
iter	-11.8233
olly	-11.8238
semi	-11.824
ndance	-11.8243
tman	-11.8246
rud	-11.8248
hru	-11.8249
lbert	-11.825
alm	-11.8251
lled	-11.8254
bbe	-11.8257
igen	-11.8258
laine	-11.8259
obo	-11.8262
▁settl	-11.8264
nab	-11.8266
▁ado	-11.8267
scape	-11.8269
hia	-11.8269
omer	-11.8274
lion	-11.8275
simil	-11.828
gregation	-11.8284
best	-11.8285
pay	-11.829
cepti	-11.8291
ering	-11.8298
aise	-11.8298
sity	-11.8299
fly	-11.8303
▁dynast	-11.8305
ows	-11.8307
atlantic	-11.8308
tagon	-11.8314
iliation	-11.8318
▁domini	-11.8324
atti	-11.8325
dance	-11.8333
▁gai	-11.8338
hora	-11.8342
▁pom	-11.8346
uy	-11.8348
show	-11.8348
mme	-11.8352
rrection	-11.8352
▁aga	-11.8354
ulla	-11.8355
▁judicia	-11.8357
economic	-11.8363
bration	-11.8365
satisf	-11.8371
rowing	-11.8374
▁integ	-11.838
kou	-11.8383
iman	-11.8385
esses	-11.8386
enda	-11.8395
▁securit	-11.8396
cko	-11.8397
▁patri	-11.8399
sho	-11.8402
▁plo	-11.8403
▁terroris	-11.8405
▁pia	-11.8409
istence	-11.8412
ibo	-11.8413
lini	-11.8422
▁figur	-11.8422
▁oppose	-11.8425
flat	-11.843
▁filip	-11.8432
mag	-11.8434
robi	-11.8436
ived	-11.8447
▁musi	-11.8449
fra	-11.8449
villa	-11.8451
vali	-11.8453
rais	-11.8454
▁liqu	-11.8455
▁cente	-11.8455
▁biblio	-11.8457
▁neutr	-11.8458
▁remi	-11.8459
911	-11.8467
gation	-11.8467
flam	-11.8476
▁gos	-11.8477
roller	-11.8481
ifi	-11.8481
armed	-11.8482
posal	-11.8487
first	-11.8489
▁flor	-11.8495
aff	-11.8496
▁una	-11.8496
▁pola	-11.8496
ported	-11.8497
ologies	-11.8498
around	-11.8503
technology	-11.8504
1988	-11.8504
isian	-11.8504
wels	-11.8509
▁terri	-11.8511
marie	-11.8514
dea	-11.8516
rqu	-11.8518
▁viole	-11.8521
eep	-11.8522
ched	-11.8525
leased	-11.8526
▁accompani	-11.8527
map	-11.8527
anj	-11.8529
▁frequenc	-11.8531
unge	-11.8534
classical	-11.8534
usc	-11.8551
hed	-11.8552
otes	-11.856
plas	-11.8561
▁perc	-11.8565
identified	-11.8569
etics	-11.8569
second	-11.8574
ited	-11.8576
▁dela	-11.8576
▁bacteri	-11.8577
▁sponsors	-11.8578
vag	-11.8578
mmed	-11.858
▁harmoni	-11.858
ricks	-11.8581
mitted	-11.8582
▁coh	-11.8585
▁declin	-11.8592
pending	-11.8598
▁alternat	-11.8599
arcel	-11.8607
guy	-11.8612
yers	-11.8615
erated	-11.8615
encies	-11.8618
emed	-11.8622
utch	-11.8624
tress	-11.8626
types	-11.8628
▁perceiv	-11.8635
ilation	-11.8635
lific	-11.8636
▁patter	-11.8641
running	-11.8643
▁cooperat	-11.8646
mr	-11.8646
hirt	-11.8647
olog	-11.8649
▁leas	-11.8651
mbi	-11.8655
wit	-11.8658
ollywood	-11.8669
demic	-11.8672
▁upgrad	-11.8676
yra	-11.8677
fel	-11.868
tima	-11.8682
▁suf	-11.8687
ffen	-11.8696
structur	-11.8696
chie	-11.87
rector	-11.8705
irk	-11.8705
llion	-11.8707
▁pho	-11.8708
nned	-11.8716
1985	-11.8716
akis	-11.8717
orm	-11.8717
continental	-11.8718
chat	-11.8722
cili	-11.8722
hael	-11.8723
ppon	-11.8724
rca	-11.8727
alt	-11.8728
▁acknowledge	-11.873
vale	-11.8733
▁antoni	-11.8734
▁activat	-11.8735
▁abra	-11.8735
valid	-11.8736
kis	-11.8737
earl	-11.8739
▁clin	-11.874
nese	-11.8744
gap	-11.8747
ordshire	-11.8747
ulate	-11.8748
lka	-11.875
drop	-11.8754
aints	-11.8756
minis	-11.8756
imul	-11.8762
spite	-11.8766
▁bloc	-11.8767
kens	-11.877
▁compensat	-11.877
▁consume	-11.8771
▁arrang	-11.8771
aware	-11.8773
▁criti	-11.8781
▁quarterfinal	-11.8783
▁voter	-11.8783
▁casual	-11.8783
deca	-11.8786
dicate	-11.8787
llus	-11.8791
esti	-11.8802
ption	-11.8805
▁appropriat	-11.8807
doc	-11.8807
▁facto	-11.8809
isto	-11.8814
ibly	-11.8817
▁illus	-11.8818
pierre	-11.8821
ald	-11.8828
rge	-11.8829
grand	-11.883
1983	-11.8832
▁vince	-11.8834
ssment	-11.8838
igne	-11.8841
coe	-11.8843
▁bb	-11.8844
solve	-11.8845
▁wid	-11.8846
giving	-11.8848
rode	-11.8852
yards	-11.8858
rau	-11.8862
liu	-11.8863
eady	-11.8864
tract	-11.8864
mada	-11.8868
ugar	-11.8869
rley	-11.8871
lavi	-11.8872
pts	-11.8874
▁dominic	-11.8874
start	-11.8875
bri	-11.8878
ills	-11.8879
open	-11.8881
▁voc	-11.8884
kr	-11.8886
rou	-11.8891
▁pron	-11.8891
▁reno	-11.8894
tner	-11.8897
▁practi	-11.8898
unting	-11.8898
egg	-11.8899
vs	-11.8899
tax	-11.89
ttery	-11.8901
▁techno	-11.8902
ndh	-11.8908
chon	-11.8912
sert	-11.8913
linear	-11.8915
asts	-11.892
colo	-11.8921
lome	-11.8921
famous	-11.8921
▁assign	-11.8926
even	-11.8929
bari	-11.893
keeping	-11.8931
ours	-11.8932
cluding	-11.8932
▁stabil	-11.8942
ollo	-11.8942
▁tay	-11.8946
ound	-11.8954
▁geolog	-11.8973
blanc	-11.8977
ponent	-11.8982
▁elde	-11.8982
hot	-11.8982
uire	-11.8983
timi	-11.8986
opes	-11.899
esta	-11.899
▁tem	-11.8992
▁packag	-11.8993
▁myst	-11.8993
ising	-11.8994
▁capabilit	-11.8994
1984	-11.8997
▁distribute	-11.8999
▁temper	-11.8999
▁tig	-11.9001
▁theore	-11.9002
alu	-11.9007
imp	-11.9008
iller	-11.9012
inian	-11.9013
▁ante	-11.902
evan	-11.9032
blast	-11.9033
▁mahara	-11.9035
garde	-11.9045
▁moto	-11.9047
rg	-11.9049
ailing	-11.9051
▁decorat	-11.9057
▁demons	-11.9058
hein	-11.9065
▁soph	-11.9065
jos	-11.9066
dev	-11.9066
1987	-11.9068
▁historia	-11.9071
▁administer	-11.9072
▁ott	-11.9072
sur	-11.9081
▁synthe	-11.9082
▁readi	-11.9089
bber	-11.909
tached	-11.909
ficiency	-11.9091
bey	-11.9093
▁medit	-11.9099
aring	-11.9101
ellan	-11.9105
itate	-11.9105
gates	-11.9106
ells	-11.9107
cens	-11.9107
scan	-11.9113
million	-11.9115
copa	-11.9118
▁appa	-11.9124
sum	-11.9124
▁lew	-11.9128
buck	-11.9135
naga	-11.9138
profile	-11.915
▁concentrate	-11.9152
▁viewer	-11.9153
▁averag	-11.9157
ahi	-11.9158
owners	-11.9162
agreement	-11.9164
▁mitch	-11.9169
volt	-11.918
jia	-11.9181
ined	-11.9184
sell	-11.9188
ksh	-11.9191
cham	-11.9194
dicated	-11.9196
loud	-11.9205
ticipated	-11.921
▁succ	-11.9221
bang	-11.9222
▁jew	-11.9234
▁spor	-11.9235
▁pseud	-11.9238
▁convers	-11.924
ervo	-11.9241
shift	-11.9245
▁alc	-11.9249
saur	-11.9249
black	-11.925
▁rath	-11.9253
layer	-11.9256
hair	-11.926
tini	-11.9267
pont	-11.9275
▁lai	-11.928
▁monta	-11.9281
▁appe	-11.9287
stick	-11.9287
▁acquir	-11.929
▁chari	-11.9292
ader	-11.9292
▁reb	-11.9296
cost	-11.9298
mentation	-11.9303
▁demographic	-11.9305
▁quo	-11.9306
gner	-11.9307
▁inning	-11.9308
duce	-11.9314
aving	-11.9319
empl	-11.9324
section	-11.9325
▁compil	-11.9325
▁pret	-11.9326
▁bli	-11.9327
antine	-11.9328
gained	-11.9332
sistent	-11.9332
sei	-11.9337
ific	-11.9342
tracted	-11.9352
ongs	-11.9353
▁identifie	-11.9354
rena	-11.9358
▁brin	-11.9359
mona	-11.9366
aton	-11.9366
hian	-11.9366
lal	-11.9368
▁participant	-11.937
▁adver	-11.9374
guil	-11.9376
lif	-11.9378
ograph	-11.9387
reason	-11.9388
committee	-11.9391
urge	-11.9391
ences	-11.9392
structure	-11.9393
▁poo	-11.9397
▁ranger	-11.9398
▁illustration	-11.9398
1939	-11.9399
pyr	-11.9401
girl	-11.9408
este	-11.9408
sday	-11.9409
rator	-11.9409
ues	-11.9409
suk	-11.9412
hma	-11.9414
dame	-11.9416
tional	-11.9421
▁soli	-11.9422
astic	-11.9427
ocal	-11.9428
esian	-11.9428
sandr	-11.9436
▁assum	-11.9437
▁transc	-11.9437
cars	-11.9437
amid	-11.9438
arged	-11.9442
tractor	-11.9456
ices	-11.9456
ahara	-11.9461
ldo	-11.9465
plicate	-11.9465
sham	-11.9466
001	-11.9467
encing	-11.9467
raf	-11.9468
acea	-11.9469
lev	-11.9471
cam	-11.9475
sto	-11.9476
iam	-11.9477
▁roug	-11.949
▁expo	-11.9495
cture	-11.9496
eto	-11.9497
ombi	-11.9499
▁audi	-11.9499
▁cultiva	-11.9501
tled	-11.9501
governmental	-11.9503
bind	-11.9503
icho	-11.9504
otr	-11.9505
birth	-11.9505
patrick	-11.9506
tank	-11.9513
▁defi	-11.9515
hog	-11.9516
licate	-11.9516
▁mada	-11.952
sent	-11.9522
mn	-11.9524
tif	-11.9525
anic	-11.9529
ady	-11.9529
hee	-11.9529
bak	-11.953
sain	-11.9533
▁chancel	-11.9537
brough	-11.9539
robe	-11.9549
ych	-11.9553
▁initiat	-11.9554
▁niger	-11.9557
neur	-11.956
250	-11.9561
▁manu	-11.9568
inter	-11.9571
roads	-11.9572
▁unc	-11.9573
taine	-11.9573
ipp	-11.9579
git	-11.9584
kill	-11.9586
osely	-11.9587
jective	-11.9587
▁manch	-11.9598
atives	-11.9601
▁merchan	-11.9604
▁fram	-11.9605
ews	-11.9605
jean	-11.9606
nine	-11.9608
yla	-11.961
cra	-11.9611
nr	-11.9615
▁stran	-11.9616
▁referr	-11.9616
hey	-11.9618
tuck	-11.9619
mbr	-11.9621
▁aviat	-11.9621
oper	-11.9622
▁surge	-11.9622
libr	-11.9626
▁equat	-11.963
▁clima	-11.963
aneous	-11.9634
tama	-11.9636
▁supplie	-11.964
▁adju	-11.9642
orate	-11.9644
physics	-11.9645
very	-11.9649
mbe	-11.965
1986	-11.9651
▁161	-11.9653
▁fac	-11.9656
chang	-11.9658
lanca	-11.9663
ioned	-11.9663
rini	-11.9665
lms	-11.9667
junct	-11.9675
dence	-11.9675
nico	-11.9675
▁fon	-11.9678
bba	-11.968
aging	-11.9685
fluent	-11.969
oir	-11.9691
▁oper	-11.9693
hum	-11.9695
1979	-11.9696
lv	-11.9702
▁tick	-11.9702
lander	-11.9706
lights	-11.9714
merged	-11.9718
wic	-11.9721
▁jea	-11.9722
cano	-11.9725
military	-11.9726
▁pronoun	-11.9726
quire	-11.9727
spar	-11.9728
tomi	-11.9728
mil	-11.9731
function	-11.9733
anz	-11.9734
▁gia	-11.9736
poor	-11.9741
bou	-11.9743
hale	-11.9743
1981	-11.9745
lave	-11.9746
doo	-11.9746
▁therap	-11.9748
version	-11.9748
inen	-11.9752
▁medica	-11.9753
▁philanthrop	-11.9754
▁consolidat	-11.9759
▁issu	-11.9767
▁cou	-11.9769
tigation	-11.977
▁saxophon	-11.9774
street	-11.9774
avo	-11.9777
ici	-11.9779
rri	-11.9779
string	-11.978
▁interv	-11.9782
uce	-11.9784
lite	-11.9785
▁chr	-11.9786
ild	-11.9787
▁aqu	-11.9788
▁eld	-11.9789
▁mond	-11.9793
▁coul	-11.9794
vat	-11.9801
▁pros	-11.9802
bras	-11.9808
ishment	-11.9809
endi	-11.9811
coni	-11.9814
rava	-11.9815
▁synthesi	-11.9818
▁imag	-11.9819
wh	-11.982
▁agg	-11.9822
host	-11.9824
iche	-11.9825
hort	-11.9827
tones	-11.9829
icated	-11.9829
suit	-11.9831
onde	-11.9832
▁dv	-11.9835
▁carb	-11.9841
▁candida	-11.9842
aha	-11.9845
▁aven	-11.9845
▁offici	-11.9847
earth	-11.985
finished	-11.9854
kb	-11.9854
dm	-11.9854
six	-11.9858
awi	-11.986
▁vill	-11.986
▁eliminat	-11.9861
history	-11.9863
▁occ	-11.9874
ood	-11.9877
hti	-11.9879
andy	-11.9884
▁applie	-11.9885
▁prestig	-11.989
▁advocat	-11.9892
ggle	-11.9894
320	-11.9895
try	-11.9897
polog	-11.9897
▁thrill	-11.9902
▁shipp	-11.9902
cades	-11.9903
eight	-11.9906
disc	-11.9911
paid	-11.9912
aders	-11.9919
▁conv	-11.9923
cello	-11.9924
esi	-11.9924
▁als	-11.9925
▁dominate	-11.9928
▁gros	-11.9929
▁sloven	-11.9929
▁expos	-11.9931
cis	-11.9932
▁futur	-11.9936
mala	-11.9936
uo	-11.9939
offe	-11.9943
nac	-11.9944
lysis	-11.9945
ento	-11.9947
▁samu	-11.9949
eber	-11.9957
ination	-11.9959
rica	-11.996
idan	-11.9961
ranking	-11.9963
turned	-11.9965
oil	-11.9967
sula	-11.9973
rank	-11.9984
salem	-11.9985
pacific	-11.9985
stell	-11.9986
mpton	-11.9987
▁shal	-11.9988
▁mayo	-11.999
▁supers	-11.9992
▁restor	-11.9994
ining	-11.9998
hut	-11.9999
migrants	-12.0006
adu	-12.0007
▁mich	-12.0008
toma	-12.001
channel	-12.0016
▁invent	-12.0016
defeated	-12.0017
ltr	-12.0018
wk	-12.0033
▁leve	-12.0035
▁foo	-12.0036
chai	-12.0042
sef	-12.0042
physical	-12.0044
asted	-12.0046
help	-12.0047
vity	-12.0049
tim	-12.0056
tell	-12.0058
rea	-12.0061
vari	-12.0061
ringe	-12.0062
mend	-12.0063
cabi	-12.0064
god	-12.0068
▁psychiatri	-12.0069
acan	-12.0076
ntities	-12.0081
lected	-12.0085
sala	-12.0094
▁matth	-12.0102
bac	-12.0103
pak	-12.0104
rgent	-12.0105
▁quan	-12.0107
oop	-12.0108
mentioned	-12.0109
eather	-12.0113
connected	-12.0114
ends	-12.0115
cology	-12.0116
ucc	-12.0117
being	-12.0128
1920	-12.0128
1974	-12.0128
residency	-12.0129
ncers	-12.0131
nea	-12.0136
okes	-12.0136
▁calcul	-12.0137
eco	-12.0138
chemistry	-12.0143
unders	-12.0159
▁albu	-12.0163
tali	-12.0164
httpwww	-12.0165
roman	-12.0171
017	-12.0172
rained	-12.0173
▁exclu	-12.0175
▁peni	-12.0184
government	-12.0188
going	-12.0196
hibi	-12.0197
tat	-12.0197
1976	-12.0198
tem	-12.0198
▁plac	-12.0203
nak	-12.0204
▁202	-12.0205
dox	-12.0207
inking	-12.0207
dro	-12.0207
last	-12.0209
▁repe	-12.0211
wor	-12.0216
judic	-12.0218
nad	-12.0219
rns	-12.0223
nched	-12.0224
sian	-12.0231
station	-12.0236
▁tens	-12.0239
lling	-12.0248
dent	-12.0248
▁dee	-12.0251
derm	-12.0252
raja	-12.0254
spira	-12.0257
efs	-12.0258
mari	-12.0259
▁specializ	-12.026
▁tempo	-12.0261
lent	-12.0264
forming	-12.0266
otta	-12.0271
▁rhod	-12.0273
mand	-12.0275
▁gat	-12.0275
ower	-12.0283
▁preserv	-12.0288
abh	-12.029
hungarian	-12.0292
mother	-12.0294
aze	-12.0295
rish	-12.0298
▁stru	-12.0301
gnos	-12.0301
▁undertak	-12.0301
▁kis	-12.0302
seven	-12.0305
anian	-12.0308
ogy	-12.031
▁femin	-12.0313
▁mist	-12.0313
lint	-12.0316
reviewed	-12.0319
wolf	-12.032
talk	-12.0321
tf	-12.0328
▁calculate	-12.0328
▁occupie	-12.0333
lana	-12.0333
ignment	-12.0333
igger	-12.0335
eak	-12.0337
novel	-12.0337
▁suprem	-12.0337
propri	-12.0339
cation	-12.034
▁mana	-12.034
vill	-12.0342
rigg	-12.0346
hag	-12.0351
teen	-12.0352
inas	-12.0352
▁guilt	-12.0354
▁rows	-12.0359
current	-12.0359
nf	-12.0361
hev	-12.0361
ophone	-12.0363
mins	-12.0367
velo	-12.0371
castle	-12.0374
orus	-12.0376
▁depr	-12.0379
owell	-12.0383
▁surg	-12.0384
asse	-12.0395
jing	-12.0397
pace	-12.0398
pri	-12.0398
gow	-12.0401
you	-12.0407
isso	-12.0416
▁promo	-12.0424
▁experienc	-12.0426
omin	-12.043
wes	-12.0431
surance	-12.0437
medical	-12.0438
▁jor	-12.0438
ipping	-12.0439
ggin	-12.044
ension	-12.0442
ongo	-12.0442
igh	-12.0445
rma	-12.0455
mulate	-12.0458
▁rover	-12.0459
mt	-12.0461
▁cite	-12.0463
staff	-12.0466
lace	-12.0469
japanese	-12.0469
▁empir	-12.0474
▁militar	-12.0477
aph	-12.048
charge	-12.0481
▁rif	-12.0487
▁sele	-12.049
nfluence	-12.0497
vall	-12.0499
▁penal	-12.0501
sari	-12.0503
lend	-12.0507
overs	-12.0508
estion	-12.0513
rav	-12.0517
atas	-12.0519
nded	-12.052
▁stam	-12.052
ffs	-12.0522
1962	-12.0526
iding	-12.0528
▁integrate	-12.053
utation	-12.0545
▁georgi	-12.0549
mai	-12.055
nl	-12.0552
director	-12.0552
tap	-12.0553
adel	-12.0555
conductor	-12.0555
fli	-12.0557
erti	-12.0558
train	-12.056
gai	-12.0564
lice	-12.0565
milla	-12.0565
opia	-12.0567
▁expose	-12.0569
gade	-12.0569
modern	-12.057
▁ari	-12.057
nav	-12.0572
1982	-12.0573
wice	-12.0575
▁identit	-12.0576
▁eas	-12.0576
nish	-12.0577
▁relie	-12.0578
▁hamm	-12.058
kuma	-12.0587
vard	-12.0592
▁relativ	-12.0598
▁vertic	-12.0601
main	-12.0602
▁nom	-12.0612
tains	-12.0613
andar	-12.0613
loren	-12.0614
▁conscious	-12.0615
block	-12.0617
tens	-12.0619
▁locate	-12.0625
erine	-12.0626
aternal	-12.0626
1975	-12.0634
banks	-12.0639
rges	-12.0641
actic	-12.0641
[...]
