<unk>	0
<s>	0
</s>	0
,▁	-3.17666
the▁	-3.27535
.▁	-3.27785
of▁	-3.84486
and▁	-3.95864
in▁	-4.09592
a▁	-4.15424
to▁	-4.23347
-▁	-4.78073
was▁	-4.81862
s▁	-4.85766
(▁	-4.88171
)▁	-4.88623
'	-4.97233
"▁	-5.10322
is▁	-5.16456
on▁	-5.17488
`▁	-5.1779
i▁	-5.19481
as▁	-5.19787
The▁	-5.20495
for▁	-5.25846
with▁	-5.37666
that▁	-5.42499
he▁	-5.44776
by▁	-5.46921
at▁	-5.5347
his▁	-5.55297
from▁	-5.65149
it▁	-5.67464
an▁	-5.82429
her▁	-5.85084
''▁	-5.87517
:▁	-5.99042
she▁	-6.06715
n	-6.06869
had▁	-6.12404
you▁	-6.15005
were▁	-6.18833
In▁	-6.24057
be▁	-6.25276
t▁	-6.26771
▁	-6.28274
are▁	-6.30865
but▁	-6.32594
or▁	-6.33209
||▁	-6.42662
'▁	-6.46628
which▁	-6.46721
not▁	-6.46859
also▁	-6.50271
–▁	-6.50396
one▁	-6.51916
S	-6.5224
have▁	-6.56079
?▁	-6.56311
my▁	-6.58027
.	-6.59293
s	-6.60149
this▁	-6.61796
He▁	-6.66118
him▁	-6.67308
me▁	-6.69525
has▁	-6.705
first▁	-6.70777
they▁	-6.71282
their▁	-6.73954
;▁	-6.74213
who▁	-6.74925
up▁	-6.78622
out▁	-6.81995
been▁	-6.83846
all▁	-6.84069
ed▁	-6.8413
its▁	-6.84334
re	-6.87136
|▁	-6.87673
d	-6.87897
References▁	-6.90116
into▁	-6.90877
A	-6.91069
would▁	-6.9307
do▁	-6.93113
th▁	-6.94186
C	-6.94197
It▁	-6.94811
two▁	-6.95616
time▁	-6.96797
when▁	-7.01299
ing▁	-7.03675
no▁	-7.04353
American▁	-7.04619
over▁	-7.06018
e▁	-7.06581
d▁	-7.07907
after▁	-7.08325
about▁	-7.09305
B	-7.11862
E	-7.11921
there▁	-7.13089
more▁	-7.1361
so▁	-7.13695
A▁	-7.13979
said▁	-7.14025
then▁	-7.14251
did▁	-7.14402
what▁	-7.15159
P	-7.15281
in	-7.15353
other▁	-7.16076
D	-7.16336
M	-7.21157
people▁	-7.2126
New▁	-7.22846
we▁	-7.23526
1▁	-7.23781
m▁	-7.2433
could▁	-7.2466
e	-7.24959
can▁	-7.2585
back▁	-7.25915
only▁	-7.29803
F	-7.29839
them▁	-7.30218
like▁	-7.30407
if▁	-7.32444
2▁	-7.33113
G	-7.33757
a	-7.35766
T	-7.35806
un	-7.36272
c	-7.36902
United▁	-7.36972
de▁	-7.37531
where▁	-7.38427
L	-7.40728
y▁	-7.43406
p	-7.43976
made▁	-7.44758
well▁	-7.44868
University▁	-7.45507
t	-7.45953
U	-7.46005
man▁	-7.46477
 ▁	-7.47342
us▁	-7.4762
W	-7.48098
than▁	-7.49067
before▁	-7.49264
years▁	-7.50031
some▁	-7.50099
R	-7.50919
re▁	-7.51021
just▁	-7.51049
g	-7.51119
through▁	-7.51401
b	-7.51412
H	-7.52126
%▁	-7.52866
links▁	-7.53409
es▁	-7.53976
new▁	-7.5436
born▁	-7.54363
f	-7.55596
External▁	-7.55752
between▁	-7.56329
K	-7.56905
players▁	-7.58743
On▁	-7.58751
/▁	-7.5896
now▁	-7.59281
3▁	-7.59835
N	-7.60562
during▁	-7.61124
three▁	-7.6143
year▁	-7.61747
most▁	-7.61982
down▁	-7.62139
used▁	-7.62659
!▁	-7.63711
This▁	-7.64329
er▁	-7.64715
I▁	-7.66736
O	-7.66933
al▁	-7.6701
States▁	-7.67048
later▁	-7.67048
being▁	-7.67892
m	-7.679
century▁	-7.68464
o▁	-7.68578
right▁	-7.68703
will▁	-7.69062
de	-7.69268
against▁	-7.70275
such▁	-7.70646
part▁	-7.70759
season▁	-7.71354
under▁	-7.71373
way▁	-7.72299
known▁	-7.74088
while▁	-7.74133
off▁	-7.74631
J	-7.74812
around▁	-7.74972
4▁	-7.75142
film▁	-7.78181
National▁	-7.78326
World▁	-7.79154
I	-7.80342
until▁	-7.80639
—▁	-7.80923
second▁	-7.82233
team▁	-7.82256
work▁	-7.83078
became▁	-7.8336
both▁	-7.84032
know▁	-7.85331
life▁	-7.85471
head▁	-7.85693
ers▁	-7.85876
5▁	-7.86678
County▁	-7.87309
6▁	-7.8756
many▁	-7.87635
l	-7.87888
o	-7.87952
She▁	-7.88567
including▁	-7.89156
&▁	-7.90058
2	-7.90551
series▁	-7.91
how▁	-7.91019
get▁	-7.91132
any▁	-7.91455
even▁	-7.91913
your▁	-7.92519
k	-7.92536
family▁	-7.92877
go▁	-7.9303
name▁	-7.93059
son▁	-7.95233
en	-7.95801
School▁	-7.96885
en▁	-7.97113
John▁	-7.97321
=▁	-7.97355
still▁	-7.97585
South▁	-7.97911
Re	-7.9792
nt▁	-7.98122
took▁	-7.98656
age▁	-7.98746
long▁	-7.9916
same▁	-7.9924
...▁	-7.99306
again▁	-7.99775
British▁	-8.00252
because▁	-8.01672
called▁	-8.0185
day▁	-8.02025
id	-8.02641
found▁	-8.02661
May▁	-8.02731
i	-8.02782
September▁	-8.02862
York▁	-8.03025
1	-8.0308
see▁	-8.03164
school▁	-8.03596
place▁	-8.03598
left▁	-8.03638
since▁	-8.03781
may▁	-8.04033
use▁	-8.04671
After▁	-8.05093
March▁	-8.05111
10▁	-8.05465
state▁	-8.05901
men▁	-8.06119
played▁	-8.06123
end▁	-8.06274
number▁	-8.06316
side▁	-8.06406
January▁	-8.0649
V	-8.07271
y	-8.07322
four▁	-8.07362
eyes▁	-8.07504
led▁	-8.08349
October▁	-8.08373
released▁	-8.08509
city▁	-8.08896
3	-8.09399
each▁	-8.09663
w	-8.09773
St	-8.10015
births▁	-8.10241
June▁	-8.10278
7▁	-8.10324
album▁	-8.10383
con	-8.10816
area▁	-8.10821
July▁	-8.10942
h	-8.11276
st▁	-8.11798
these▁	-8.11837
August▁	-8.11911
based▁	-8.11912
April▁	-8.12049
held▁	-8.12087
al	-8.12178
War▁	-8.12234
League▁	-8.12405
ly▁	-8.1274
December▁	-8.12851
game▁	-8.12867
er	-8.12907
English▁	-8.12978
away▁	-8.13091
9▁	-8.13441
much▁	-8.13714
-	-8.1444
November▁	-8.14939
line▁	-8.15381
See▁	-8.15596
began▁	-8.1646
make▁	-8.1672
2010▁	-8.16978
several▁	-8.17353
going▁	-8.17594
very▁	-8.17919
last▁	-8.18098
dis	-8.18144
home▁	-8.18439
State▁	-8.18676
set▁	-8.18688
won▁	-8.19343
take▁	-8.1951
City▁	-8.20187
8▁	-8.20354
able▁	-8.20441
films▁	-8.20464
early▁	-8.20582
="	-8.21292
football▁	-8.21357
9	-8.2156
De	-8.21825
As▁	-8.21925
ve▁	-8.22024
own▁	-8.22075
20	-8.23013
here▁	-8.23078
never▁	-8.23208
ll▁	-8.23471
high▁	-8.23826
align▁	-8.23934
hand▁	-8.23984
le▁	-8.24107
another▁	-8.24321
former▁	-8.24391
2011▁	-8.2468
women▁	-8.24903
following▁	-8.2501
house▁	-8.2521
17	-8.25358
|	-8.25554
music▁	-8.25763
2008▁	-8.25851
16	-8.26236
North▁	-8.26573
February▁	-8.26589
group▁	-8.26651
19	-8.26869
land▁	-8.27032
2012▁	-8.27181
st	-8.27413
too▁	-8.2778
named▁	-8.28365
ation▁	-8.28532
2009▁	-8.28683
career▁	-8.28939
those▁	-8.29072
old▁	-8.29234
world▁	-8.29381
am▁	-8.29587
face▁	-8.29898
co	-8.30024
ch	-8.30115
good▁	-8.30258
town▁	-8.30349
2014▁	-8.30607
le	-8.31249
2006▁	-8.31395
2007▁	-8.31555
History▁	-8.31842
el▁	-8.32
12▁	-8.32089
2013▁	-8.32254
u▁	-8.32814
They▁	-8.32837
came▁	-8.32849
member▁	-8.32894
20▁	-8.329
z	-8.33453
6	-8.33599
|-▁	-8.33949
v	-8.34029
went▁	-8.34073
French▁	-8.34081
2015▁	-8.34268
k▁	-8.34731
along▁	-8.34902
small▁	-8.34902
want▁	-8.35262
it	-8.35639
/	-8.35669
our▁	-8.35773
r	-8.3623
died▁	-8.3746
2016▁	-8.37564
His▁	-8.37671
People▁	-8.37822
established▁	-8.37878
government▁	-8.38055
think▁	-8.38645
water▁	-8.39016
located▁	-8.39659
$▁	-8.39946
father▁	-8.40262
15▁	-8.40308
th	-8.40749
field▁	-8.41555
30▁	-8.4179
looked▁	-8.41804
College▁	-8.41876
co▁	-8.42001
five▁	-8.42175
thought▁	-8.42263
few▁	-8.42372
2018▁	-8.42527
members▁	-8.42734
let▁	-8.42852
German▁	-8.43053
song▁	-8.43194
company▁	-8.43314
18▁	-8.43338
room▁	-8.43426
single▁	-8.43641
11▁	-8.43964
station▁	-8.44039
There▁	-8.44184
asked▁	-8.44215
built▁	-8.44292
j	-8.44544
London▁	-8.44665
2019▁	-8.44684
2017▁	-8.44878
something▁	-8.45114
published▁	-8.45422
little▁	-8.45483
se	-8.45521
At▁	-8.45706
served▁	-8.45955
large▁	-8.46845
ic▁	-8.46846
late▁	-8.46935
started▁	-8.47258
next▁	-8.47323
18	-8.47391
body▁	-8.47539
games▁	-8.47637
less▁	-8.47694
building▁	-8.47862
death▁	-8.48066
im	-8.48094
should▁	-8.48246
television▁	-8.4838
come▁	-8.4839
due▁	-8.48599
International▁	-8.4879
District▁	-8.48792
ad	-8.48889
n▁	-8.48911
2005▁	-8.48958
4	-8.49082
population▁	-8.49167
show▁	-8.49244
received▁	-8.49373
moved▁	-8.49627
system▁	-8.49658
II▁	-8.49908
within▁	-8.50213
u	-8.50472
got▁	-8.50568
In	-8.50649
15	-8.50955
best▁	-8.51296
Al	-8.5131
West▁	-8.5204
ar	-8.52216
public▁	-8.52318
does▁	-8.52462
ley▁	-8.52633
without▁	-8.5272
Living▁	-8.53031
However▁	-8.53362
band▁	-8.53507
di	-8.53827
book▁	-8.53984
final▁	-8.54202
per▁	-8.54255
species▁	-8.54261
history▁	-8.54328
look▁	-8.54685
Y	-8.54698
Co	-8.54728
local▁	-8.54777
25▁	-8.55194
For▁	-8.55436
2004▁	-8.55462
player▁	-8.55634
2000▁	-8.5569
play▁	-8.55893
16▁	-8.56032
children▁	-8.56133
2020▁	-8.56338
top▁	-8.56465
14▁	-8.56905
every▁	-8.56999
et▁	-8.57346
third▁	-8.58144
club▁	-8.59039
near▁	-8.59083
Cup▁	-8.59255
13▁	-8.59314
village▁	-8.59411
different▁	-8.59803
House▁	-8.60368
though▁	-8.60961
el	-8.61657
g▁	-8.61721
why▁	-8.61774
24▁	-8.61792
During▁	-8.62267
All▁	-8.62544
main▁	-8.63105
include▁	-8.63118
war▁	-8.63182
Australia▁	-8.63279
ie▁	-8.63716
described▁	-8.63758
’	-8.63911
once▁	-8.63937
at	-8.64083
2003▁	-8.64115
Z	-8.64342
turned▁	-8.64553
Mo	-8.64596
ton▁	-8.64719
say▁	-8.64727
national▁	-8.64778
need▁	-8.65303
ian▁	-8.65498
door▁	-8.65514
included▁	-8.65689
List▁	-8.65821
having▁	-8.66014
himself▁	-8.66196
River▁	-8.66437
form▁	-8.6654
power▁	-8.66542
wanted▁	-8.66571
ever▁	-8.66598
be	-8.66762
Association▁	-8.66769
ca▁	-8.66779
district▁	-8.66821
air▁	-8.67097
England▁	-8.67323
night▁	-8.67451
sh	-8.67733
17▁	-8.68178
km▁	-8.68295
knew▁	-8.6867
behind▁	-8.6867
os▁	-8.68882
law▁	-8.6892
together▁	-8.6895
service▁	-8.68958
male▁	-8.68981
order▁	-8.69141
felt▁	-8.69207
2002▁	-8.69414
saw▁	-8.69727
deaths▁	-8.69873
California▁	-8.69938
given▁	-8.6998
open▁	-8.70101
5	-8.70164
across▁	-8.70244
country▁	-8.70294
Ma	-8.70305
point▁	-8.70411
help▁	-8.70444
often▁	-8.70453
opened▁	-8.70896
days▁	-8.7099
2001▁	-8.71494
front▁	-8.7171
ab	-8.71973
put▁	-8.7206
language▁	-8.72171
record▁	-8.72422
making▁	-8.72427
William▁	-8.72508
election▁	-8.72538
red▁	-8.72858
pro	-8.72953
original▁	-8.73105
One▁	-8.73237
Australian▁	-8.73306
mother▁	-8.73353
million▁	-8.7342
Le	-8.73453
voice▁	-8.73498
bgcolor	-8.73613
living▁	-8.73722
half▁	-8.73753
ro	-8.73784
written▁	-8.73921
run▁	-8.73922
major▁	-8.74264
General▁	-8.74283
six▁	-8.74374
is	-8.74659
19▁	-8.74793
north▁	-8.75648
21▁	-8.76021
times▁	-8.76377
gave▁	-8.76398
East▁	-8.76491
king▁	-8.76557
22▁	-8.76817
ia▁	-8.76967
light▁	-8.77018
using▁	-8.7706
James▁	-8.77355
Party▁	-8.7736
told▁	-8.7739
to	-8.77593
2021▁	-8.77606
7	-8.77652
or	-8.77796
Park▁	-8.77817
produced▁	-8.77988
short▁	-8.78224
ate▁	-8.78381
When▁	-8.78412
Con	-8.78446
Army▁	-8.7848
site▁	-8.78686
ling▁	-8.78691
23▁	-8.78997
India▁	-8.79031
sure▁	-8.79142
No▁	-8.79278
full▁	-8.79298
lost▁	-8.79308
es	-8.79371
hands▁	-8.79371
south▁	-8.79373
France▁	-8.7962
Indian▁	-8.79825
become▁	-8.79859
High▁	-8.79906
worked▁	-8.79994
Award▁	-8.80036
George▁	-8.80093
married▁	-8.801
love▁	-8.80328
black▁	-8.80339
European▁	-8.80401
B▁	-8.80519
title▁	-8.8088
seen▁	-8.80973
car▁	-8.81159
Ar	-8.81163
Canada▁	-8.81349
am	-8.8154
role▁	-8.81579
really▁	-8.81795
round▁	-8.81965
Royal▁	-8.81989
find▁	-8.82068
white▁	-8.82304
created▁	-8.82606
woman▁	-8.82911
works▁	-8.8299
tell▁	-8.83008
non▁	-8.83253
ten▁	-8.83263
announced▁	-8.83428
mo	-8.83431
support▁	-8.83447
an	-8.83501
ex	-8.83951
enough▁	-8.84073
Canadian▁	-8.84109
1999▁	-8.84153
27▁	-8.84406
la▁	-8.84548
general▁	-8.84668
returned▁	-8.84806
continued▁	-8.84894
z▁	-8.85032
um▁	-8.85057
among▁	-8.85101
San▁	-8.85192
ac	-8.85256
]▁	-8.85422
ar▁	-8.85535
must▁	-8.8555
ated▁	-8.85623
14	-8.85699
US▁	-8.85752
26▁	-8.85827
version▁	-8.86007
pre	-8.8605
story▁	-8.86196
live▁	-8.86441
position▁	-8.86529
low▁	-8.86571
joined▁	-8.86861
ma	-8.86871
period▁	-8.8688
Church▁	-8.87156
might▁	-8.87265
present▁	-8.87355
ir	-8.87361
28▁	-8.87442
TV▁	-8.87515
ting▁	-8.87521
art▁	-8.87615
community▁	-8.87999
King▁	-8.8819
Division▁	-8.88368
case▁	-8.88525
close▁	-8.88544
La	-8.88687
First▁	-8.88791
[▁	-8.8886
8	-8.88916
America▁	-8.8906
ta	-8.89215
international▁	-8.89314
com	-8.89427
Bo	-8.89582
production▁	-8.89682
Music▁	-8.89783
ine▁	-8.89796
over	-8.89948
military▁	-8.90034
however▁	-8.90496
ted▁	-8.906
almost▁	-8.90605
video▁	-8.90612
political▁	-8.9077
no	-8.91077
ship▁	-8.91309
wife▁	-8.91698
Mar	-8.91854
President▁	-8.91901
X	-8.91923
others▁	-8.92028
c▁	-8.92281
win▁	-8.92313
bi	-8.92536
hard▁	-8.92813
David▁	-8.92825
class▁	-8.92871
per	-8.92927
li	-8.93009
der▁	-8.93163
vi	-8.93167
total▁	-8.93186
great▁	-8.93294
party▁	-8.93345
various▁	-8.93382
Council▁	-8.93428
level▁	-8.93501
From▁	-8.93502
100▁	-8.9353
et	-8.93756
1998▁	-8.93773
Di	-8.93872
always▁	-8.94032
west▁	-8.94115
as	-8.94135
Se	-8.94416
Germany▁	-8.94587
lo	-8.94674
office▁	-8.94885
si	-8.94891
better▁	-8.95084
Club▁	-8.95093
ler▁	-8.95095
church▁	-8.95165
1997▁	-8.95183
development▁	-8.95379
wrote▁	-8.95379
les▁	-8.95566
*▁	-8.9557
working▁	-8.95602
x	-8.95829
Be	-8.95914
la	-8.95977
things▁	-8.96103
ne	-8.96303
ran▁	-8.9638
Pa	-8.96572
center▁	-8.96602
control▁	-8.96608
least▁	-8.96623
thing▁	-8.96629
Championship▁	-8.96651
l▁	-8.96686
ver	-8.96812
appeared▁	-8.97011
13	-8.97038
50▁	-8.97056
ist▁	-8.97244
list▁	-8.97297
Po	-8.97404
1996▁	-8.97404
mar	-8.97405
Street▁	-8.97436
p▁	-8.97563
Japan▁	-8.97734
give▁	-8.97771
Union▁	-8.97845
far▁	-8.97897
east▁	-8.97951
ah▁	-8.98121
fire▁	-8.98237
business▁	-8.98283
students▁	-8.98409
lead▁	-8.98594
ur	-8.98605
reached▁	-8.98691
Me	-8.98876
songs▁	-8.98915
nothing▁	-8.98917
Best▁	-8.98922
taken▁	-8.99083
|-	-8.99226
29▁	-8.9925
events▁	-8.99358
elected▁	-8.99369
on	-8.99646
Japanese▁	-8.99665
12	-8.99737
already▁	-8.99768
These▁	-8.9987
b▁	-9.00105
young▁	-9.00436
10	-9.00459
Sa	-9.00508
Year▁	-9.00724
=#	-9.00792
1995▁	-9.00901
professional▁	-9.00904
China▁	-9.00973
free▁	-9.01009
brother▁	-9.01131
African▁	-9.0165
Women▁	-9.01675
track▁	-9.01739
By▁	-9.01799
ty▁	-9.01822
ice▁	-9.0187
Group▁	-9.01902
style	-9.01949
important▁	-9.0201
sub	-9.02032
match▁	-9.02439
either▁	-9.02464
anything▁	-9.02535
Air▁	-9.02556
Lo	-9.02563
course▁	-9.02614
inside▁	-9.02795
Italian▁	-9.02902
followed▁	-9.03129
te▁	-9.03285
An	-9.0329
me	-9.03403
road▁	-9.03648
founded▁	-9.03866
Ca	-9.04091
Robert▁	-9.04117
Russian▁	-9.04122
up	-9.04645
ner▁	-9.04731
1994▁	-9.04767
signed▁	-9.0488
do	-9.05086
further▁	-9.05182
ground▁	-9.05257
region▁	-9.05321
Washington▁	-9.05346
although▁	-9.05498
su	-9.05559
1992▁	-9.05564
Thomas▁	-9.05598
pe	-9.05689
taking▁	-9.05704
considered▁	-9.05828
recorded▁	-9.05875
feel▁	-9.05888
human▁	-9.05902
21	-9.05906
em	-9.05988
keep▁	-9.0608
playing▁	-9.06091
x▁	-9.06101
services▁	-9.06194
points▁	-9.06363
table▁	-9.06648
event▁	-9.06742
directed▁	-9.06752
footballers▁	-9.06764
Paul▁	-9.07217
Ha	-9.07449
da▁	-9.07666
car	-9.07818
teams▁	-9.07828
arms▁	-9.07899
director▁	-9.07972
Company▁	-9.08124
h▁	-9.08142
race▁	-9.08181
Games▁	-9.08183
Charles▁	-9.08245
”▁	-9.08398
daughter▁	-9.08673
albums▁	-9.08699
Football▁	-9.087
According▁	-9.08736
31▁	-9.0885
Society▁	-9.0887
release▁	-9.08915
program▁	-9.08957
1993▁	-9.08974
ts▁	-9.09029
mouth▁	-9.09058
Pro	-9.09114
“▁	-9.09175
education▁	-9.09201
formed▁	-9.0922
killed▁	-9.09297
ant▁	-9.09358
done▁	-9.09469
0▁	-9.09488
research▁	-9.0949
groups▁	-9.09516
words▁	-9.0957
rest▁	-9.096
Records▁	-9.09638
With▁	-9.09677
na▁	-9.09965
soon▁	-9.10099
Dr	-9.1016
ri	-9.10191
ion▁	-9.10207
looking▁	-9.10281
nd▁	-9.10421
Road▁	-9.10565
finished▁	-9.10574
D▁	-9.10719
areas▁	-9.10813
ak	-9.11084
Car	-9.11182
ism▁	-9.11329
UK▁	-9.11519
den▁	-9.1158
als▁	-9.11618
Ne	-9.11657
Central▁	-9.11658
ke▁	-9.11667
developed▁	-9.11743
mind▁	-9.1192
person▁	-9.12026
An▁	-9.12073
closed▁	-9.12109
months▁	-9.12207
league▁	-9.12216
40▁	-9.12263
Western▁	-9.12322
Kingdom▁	-9.12421
1990▁	-9.12562
Other▁	-9.12716
completed▁	-9.12939
ap	-9.13034
inter	-9.13095
official▁	-9.13131
ina▁	-9.13154
Europe▁	-9.13396
debut▁	-9.13561
rock▁	-9.13574
term▁	-9.13585
ho	-9.13587
yes▁	-9.13637
ions▁	-9.13671
Department▁	-9.13688
1991▁	-9.13797
ul	-9.13887
appointed▁	-9.13983
website▁	-9.14088
Ka	-9.14091
real▁	-9.14146
wood▁	-9.14204
heart▁	-9.14219
Summer▁	-9.14232
Ro	-9.14329
Academy▁	-9.1465
sent▁	-9.1466
Awards▁	-9.14891
Michael▁	-9.15034
change▁	-9.15085
hair▁	-9.15129
stop▁	-9.15131
alumni▁	-9.15192
man	-9.15205
outside▁	-9.15418
Ba	-9.15513
information▁	-9.15532
Art▁	-9.15679
past▁	-9.15747
Africa▁	-9.15769
Court▁	-9.15837
bo	-9.15952
Center▁	-9.15953
Olympics▁	-9.15973
mer	-9.16008
Spanish▁	-9.16234
met▁	-9.16344
start▁	-9.16373
out	-9.1667
Institute▁	-9.1668
common▁	-9.1676
text▁	-9.16851
il▁	-9.1686
(	-9.16882
ob	-9.16968
ies▁	-9.16991
coming▁	-9.17049
result▁	-9.17062
ch▁	-9.17246
character▁	-9.1735
instead▁	-9.17385
Early▁	-9.17422
moment▁	-9.17444
heard▁	-9.17565
stage▁	-9.17616
ous▁	-9.17618
someone▁	-9.17707
above▁	-9.1779
similar▁	-9.17817
ak▁	-9.17947
return▁	-9.18044
social▁	-9.18114
#▁	-9.18204
style▁	-9.18388
Press▁	-9.18517
Hall▁	-9.18574
data▁	-9.18626
Island▁	-9.18655
Mc	-9.1878
ana▁	-9.18889
mi	-9.18915
He	-9.19023
sc	-9.19188
design▁	-9.19393
president▁	-9.19448
toward▁	-9.19472
ness▁	-9.19564
Museum▁	-9.19614
1989▁	-9.19636
r▁	-9.19731
type▁	-9.19799
Chinese▁	-9.20035
No	-9.20262
har	-9.20321
call▁	-9.20407
ations▁	-9.20417
move▁	-9.20507
bed▁	-9.20527
buildings▁	-9.2058
ca	-9.20596
places▁	-9.20618
El	-9.20641
space▁	-9.20787
ni	-9.20855
oh▁	-9.21005
ed	-9.21058
il	-9.21074
tried▁	-9.21107
Republic▁	-9.21114
trying▁	-9.21124
1988▁	-9.21219
shot▁	-9.2122
ry▁	-9.21323
ne▁	-9.21428
des▁	-9.21516
ti	-9.21542
word▁	-9.21548
stone▁	-9.21581
Great▁	-9.21585
popular▁	-9.21626
added▁	-9.21672
yet▁	-9.219
brought▁	-9.22207
op	-9.22216
na	-9.22435
Texas▁	-9.22471
ating▁	-9.22582
books▁	-9.22817
project▁	-9.22869
While▁	-9.22893
ity▁	-9.22953
upon▁	-9.23008
):▁	-9.23171
female▁	-9.23208
schools▁	-9.23338
feet▁	-9.23476
leave▁	-9.2352
ge	-9.23575
sound▁	-9.23687
eight▁	-9.23881
board▁	-9.23947
addition▁	-9.24029
dark▁	-9.24067
seven▁	-9.24124
finally▁	-9.24131
ary▁	-9.24344
floor▁	-9.24349
maybe▁	-9.24397
companies▁	-9.24411
available▁	-9.24667
Do	-9.24822
Bar	-9.24987
he	-9.25003
coach▁	-9.25032
La▁	-9.25067
stations▁	-9.25307
ra	-9.25394
hit▁	-9.25491
average▁	-9.25539
week▁	-9.25547
Har	-9.25651
To	-9.25839
current▁	-9.25972
remained▁	-9.26058
1987▁	-9.2608
police▁	-9.26105
radio▁	-9.26205
sp	-9.26237
sold▁	-9.26274
ci	-9.26451
example▁	-9.26492
bar	-9.26509
blood▁	-9.26515
Roman▁	-9.26568
decided▁	-9.26608
usually▁	-9.26739
turn▁	-9.26766
ing	-9.26835
everything▁	-9.26855
episode▁	-9.26986
leading▁	-9.27045
doing▁	-9.27225
ter	-9.27301
training▁	-9.27425
Ko	-9.27447
ings▁	-9.27535
pa	-9.2757
special▁	-9.27612
girl▁	-9.27616
friend▁	-9.27775
and	-9.27853
Peter▁	-9.27942
par	-9.28018
1984▁	-9.28196
Zealand▁	-9.28247
care▁	-9.28324
placed▁	-9.28396
Minister▁	-9.28486
Ta	-9.28622
You▁	-9.28623
Black▁	-9.28627
force▁	-9.28885
under	-9.28894
FC▁	-9.28934
rather▁	-9.28994
running▁	-9.29004
seat▁	-9.29095
kind▁	-9.29103
Henry▁	-9.29154
br	-9.29277
En	-9.29336
birth▁	-9.29454
Lake▁	-9.29631
1986▁	-9.29683
Film▁	-9.29847
possible▁	-9.29952
action▁	-9.30016
features▁	-9.30064
designed▁	-9.30077
Some▁	-9.3011
sky▁	-9.30134
Grand▁	-9.30144
tu	-9.30274
ov▁	-9.30332
Catholic▁	-9.30339
Go	-9.30361
says▁	-9.3043
Paris▁	-9.30435
shows▁	-9.3047
Ireland▁	-9.30652
der	-9.30707
court▁	-9.30715
lot▁	-9.30775
White▁	-9.30884
originally▁	-9.30895
minutes▁	-9.30954
Act▁	-9.31005
needed▁	-9.31182
lu	-9.31201
probably▁	-9.31349
ly	-9.31376
process▁	-9.31395
ag	-9.31418
related▁	-9.31428
Or	-9.31429
ally▁	-9.31567
modern▁	-9.31575
child▁	-9.31603
sa	-9.3164
ga	-9.317
tri	-9.31703
money▁	-9.31733
fact▁	-9.31788
media▁	-9.31868
Ch	-9.31939
ut	-9.3202
ge▁	-9.32327
To▁	-9.32364
ists▁	-9.32402
Saint▁	-9.32471
range▁	-9.32474
idea▁	-9.32563
attack▁	-9.32622
construction▁	-9.32815
performed▁	-9.32838
end	-9.32855
stood▁	-9.32874
So	-9.329
study▁	-9.33011
singer▁	-9.33062
se▁	-9.33084
é	-9.33096
Na	-9.33193
Un	-9.33412
largest▁	-9.33737
1983▁	-9.33855
via▁	-9.33861
post▁	-9.33881
Education▁	-9.33893
ter▁	-9.339
Richard▁	-9.33911
V▁	-9.33997
Am	-9.34163
includes▁	-9.3419
rd▁	-9.34279
wide▁	-9.34315
listed▁	-9.34325
1985▁	-9.34358
hi	-9.34398
Du	-9.34403
eventually▁	-9.34425
artists▁	-9.34443
involved▁	-9.34457
reported▁	-9.34529
Soviet▁	-9.34598
1980▁	-9.3483
ba	-9.34952
politician▁	-9.35134
1982▁	-9.35225
Notes▁	-9.35738
od	-9.35792
establishments▁	-9.35798
C▁	-9.35812
Christian▁	-9.35878
performance▁	-9.35944
college▁	-9.36024
era▁	-9.36026
f▁	-9.36026
Ho	-9.36071
Life▁	-9.36115
try▁	-9.36351
currently▁	-9.36375
writer▁	-9.36471
private▁	-9.36559
Los▁	-9.3661
aircraft▁	-9.36681
missing▁	-9.3673
ill	-9.36802
Order▁	-9.36838
ey▁	-9.3697
Her▁	-9.36981
pulled▁	-9.37027
Su	-9.37117
di▁	-9.37254
11	-9.37288
changed▁	-9.37293
Olympic▁	-9.37374
Ad	-9.37375
river▁	-9.37497
ended▁	-9.37522
min	-9.37918
date▁	-9.38039
ma▁	-9.38079
ka▁	-9.38113
tr	-9.38245
Championships▁	-9.38282
ent	-9.38282
sometimes▁	-9.38283
herself▁	-9.3829
throughout▁	-9.38315
lines▁	-9.38342
hold▁	-9.3837
forward▁	-9.3853
Government▁	-9.3856
introduced▁	-9.38625
big▁	-9.38681
seemed▁	-9.38773
rights▁	-9.3878
forces▁	-9.38807
arm▁	-9.38815
te	-9.38906
Smith▁	-9.38963
Red▁	-9.38993
Pe	-9.39117
é▁	-9.39194
hours▁	-9.39339
Two▁	-9.39384
Virginia▁	-9.39414
winning▁	-9.39443
Te	-9.39617
wall▁	-9.3962
Man	-9.39624
Chicago▁	-9.39646
ment▁	-9.39663
dead▁	-9.39814
uses▁	-9.3983
towards▁	-9.39898
Arts▁	-9.39917
replaced▁	-9.4001
ish▁	-9.40094
che	-9.40158
po	-9.40327
active▁	-9.40329
central▁	-9.40418
strong▁	-9.4043
Historic▁	-9.40578
size▁	-9.40709
ve	-9.40886
X▁	-9.40923
so	-9.41168
awarded▁	-9.41246
scored▁	-9.41323
lived▁	-9.41398
deep▁	-9.41431
talk▁	-9.41564
self▁	-9.41617
ph	-9.41667
wing▁	-9.4172
states▁	-9.41728
Ver	-9.41779
ford▁	-9.41827
ya▁	-9.41864
St▁	-9.41912
featured▁	-9.41937
hu	-9.42005
key▁	-9.4206
quickly▁	-9.42176
Q	-9.42225
food▁	-9.42226
Per	-9.42229
un▁	-9.42389
especially▁	-9.42452
stated▁	-9.42477
Sp	-9.42517
sister▁	-9.42605
novel▁	-9.42626
qu	-9.42766
1979▁	-9.42797
io▁	-9.42936
ke	-9.42967
Navy▁	-9.42985
refer▁	-9.43028
mean▁	-9.43102
ships▁	-9.4314
idae▁	-9.43286
Mor	-9.43374
alone▁	-9.43379
Films▁	-9.43381
Mi	-9.43485
Railway▁	-9.43698
friends▁	-9.43702
artist▁	-9.43745
longer▁	-9.43762
getting▁	-9.43766
Italy▁	-9.43782
owned▁	-9.43785
ur▁	-9.43874
else▁	-9.43909
du	-9.43924
gold▁	-9.43974
1976▁	-9.4412
rate▁	-9.44149
com▁	-9.4419
leader▁	-9.44196
below▁	-9.4421
families▁	-9.44508
Force▁	-9.44597
today▁	-9.44678
ery▁	-9.44687
reading▁	-9.44724
provided▁	-9.44821
Mexico▁	-9.44841
Since▁	-9.45015
Irish▁	-9.45034
1972▁	-9.45059
previous▁	-9.45118
ier▁	-9.45148
ates▁	-9.45191
dy▁	-9.45228
ce	-9.45288
1981▁	-9.45407
ring▁	-9.45421
Although▁	-9.45619
phone▁	-9.4565
basketball▁	-9.45661
Career▁	-9.45663
Second▁	-9.45819
allowed▁	-9.45821
1978▁	-9.45865
Vi	-9.45942
model▁	-9.45942
countries▁	-9.45995
degree▁	-9.46083
gr	-9.46169
Province▁	-9.46171
fight▁	-9.46178
whose▁	-9.4626
means▁	-9.4635
parts▁	-9.46415
guitar▁	-9.46614
Florida▁	-9.46615
passed▁	-9.46875
spent▁	-9.47015
Its▁	-9.47031
1970▁	-9.47058
whole▁	-9.47062
writers▁	-9.47093
myself▁	-9.47133
Mary▁	-9.47238
Ni	-9.4736
competition▁	-9.47399
fourth▁	-9.47546
author▁	-9.47618
1974▁	-9.47658
Science▁	-9.47684
actor▁	-9.4779
60▁	-9.4792
section▁	-9.47929
ja	-9.47967
G▁	-9.47991
Lu	-9.48025
1968▁	-9.48037
á	-9.4811
Sal	-9.48113
ber	-9.48139
Par	-9.48162
gu	-9.48205
writing▁	-9.48277
ang▁	-9.48351
plan▁	-9.48374
results▁	-9.48475
ol	-9.486
cut▁	-9.4867
go	-9.48681
raised▁	-9.48783
Day▁	-9.48815
Wales▁	-9.48866
lower▁	-9.48919
1975▁	-9.49019
leaving▁	-9.49291
1945▁	-9.49393
kept▁	-9.49419
vocals▁	-9.4942
Sh	-9.49431
ry	-9.49455
ad▁	-9.49475
actually▁	-9.49492
Fa	-9.49504
science▁	-9.49712
movement▁	-9.49784
mine▁	-9.49823
cover▁	-9.49836
Festival▁	-9.49839
cast▁	-9.49927
Committee▁	-9.50224
Ra	-9.50376
1977▁	-9.50404
Russia▁	-9.50613
cor	-9.50657
ra▁	-9.50677
bridge▁	-9.50745
Mon	-9.5081
defeated▁	-9.50833
tor	-9.50838
Ja	-9.50872
interest▁	-9.50899
ir▁	-9.5091
bit▁	-9.50913
Northern▁	-9.50963
ability▁	-9.51021
Ti	-9.51114
ek▁	-9.51117
parents▁	-9.51133
Gu	-9.51138
units▁	-9.51138
Love▁	-9.51159
gar	-9.51223
itself▁	-9.51341
culture▁	-9.51404
Service▁	-9.51412
contract▁	-9.51412
older▁	-9.51556
entire▁	-9.51649
beginning▁	-9.51725
1969▁	-9.51812
Angeles▁	-9.51863
hear▁	-9.51929
ets▁	-9.51961
opening▁	-9.51971
gone▁	-9.52134
mis	-9.52157
future▁	-9.52287
ol▁	-9.52298
K▁	-9.5232
1971▁	-9.52337
boy▁	-9.52355
Pennsylvania▁	-9.52361
Carolina▁	-9.52513
smile▁	-9.5268
ans▁	-9.52698
fall▁	-9.52787
ud	-9.52966
Greek▁	-9.52967
morning▁	-9.52968
believe▁	-9.5304
island▁	-9.531
Bay▁	-9.53199
goal▁	-9.53337
lips▁	-9.5338
ins▁	-9.53395
base▁	-9.53414
ka	-9.5351
mon	-9.53593
Ab	-9.53676
market▁	-9.53689
saying▁	-9.53753
Ac	-9.53763
Com	-9.5391
takes▁	-9.54039
Sir▁	-9.54066
app	-9.54087
wa	-9.54192
summer▁	-9.5421
war	-9.54276
characters▁	-9.5436
deal▁	-9.54412
seasons▁	-9.54451
Mount▁	-9.54454
earlier▁	-9.54469
ha	-9.54497
ill▁	-9.54552
provide▁	-9.54622
Most▁	-9.54634
walked▁	-9.54682
Bi	-9.54682
bad▁	-9.54799
entered▁	-9.54818
Series▁	-9.54819
ta▁	-9.54825
1973▁	-9.54826
ung▁	-9.54896
drama▁	-9.54937
mat	-9.55051
runs▁	-9.55093
sea▁	-9.55175
Man▁	-9.55199
health▁	-9.55277
length▁	-9.55286
previously▁	-9.55296
plays▁	-9.55379
die▁	-9.55395
Spain▁	-9.55413
forced▁	-9.55451
act▁	-9.55511
ker▁	-9.55563
for	-9.55697
view▁	-9.55857
ong▁	-9.56047
da	-9.56282
80▁	-9.56404
Da	-9.56443
producer▁	-9.56522
ard▁	-9.56523
railway▁	-9.56547
ion	-9.56552
park▁	-9.56569
covered▁	-9.56607
attended▁	-9.56644
stay▁	-9.56647
moving▁	-9.56693
fell▁	-9.56729
Joseph▁	-9.56784
organization▁	-9.56818
tournament▁	-9.56954
Official▁	-9.56996
Asian▁	-9.57031
est▁	-9.57125
eg	-9.57142
ator▁	-9.57146
middle▁	-9.57173
ass	-9.57265
Min	-9.57377
E▁	-9.57482
Br	-9.57656
sports▁	-9.57681
okay▁	-9.57686
Research▁	-9.57723
studio▁	-9.57863
Law▁	-9.57916
success▁	-9.57922
certain▁	-9.57958
husband▁	-9.58021
whom▁	-9.58122
Star▁	-9.58199
Er	-9.58223
loss▁	-9.58347
ius▁	-9.58387
ru	-9.58397
str	-9.5843
blue▁	-9.58461
Hill▁	-9.58533
Public▁	-9.5856
Cha	-9.58582
Jo	-9.58596
happened▁	-9.58599
ive▁	-9.5863
45▁	-9.5863
campaign▁	-9.58639
systems▁	-9.58706
Team▁	-9.5883
bar▁	-9.58886
ella▁	-9.58925
edition▁	-9.58981
army▁	-9.59003
Empire▁	-9.5906
65▁	-9.59236
makes▁	-9.59251
Dutch▁	-9.59486
Martin▁	-9.59537
structure▁	-9.59648
standing▁	-9.59682
Sch	-9.59768
Radio▁	-9.59808
the	-9.5982
stopped▁	-9.59867
weeks▁	-9.59928
represented▁	-9.59947
onto▁	-9.59979
nine▁	-9.601
cases▁	-9.60195
M▁	-9.60253
battle▁	-9.60278
magazine▁	-9.60354
energy▁	-9.60395
As	-9.60403
Members▁	-9.60415
successful▁	-9.60474
collection▁	-9.60477
skin▁	-9.60502
can	-9.60539
fi	-9.60609
names▁	-9.60669
matter▁	-9.60689
cu	-9.60727
1967▁	-9.60735
ite▁	-9.6084
1964▁	-9.60845
mid	-9.60909
center	-9.60918
est	-9.61026
sat▁	-9.61144
Louis▁	-9.61187
officer▁	-9.61315
ell	-9.61338
ance▁	-9.61383
align	-9.61564
ones▁	-9.61578
Cor	-9.61599
Scottish▁	-9.61623
read▁	-9.61681
Ex	-9.61698
attention▁	-9.61727
division▁	-9.61745
||	-9.61888
location▁	-9.61912
Jewish▁	-9.61997
northern▁	-9.62016
southern▁	-9.62016
regular▁	-9.62108
ham▁	-9.6222
kill▁	-9.62306
launched▁	-9.62326
reason▁	-9.62333
ized▁	-9.62362
ha▁	-9.6237
fully▁	-9.62461
footballer▁	-9.62513
om	-9.627
nodded▁	-9.62763
singles▁	-9.62807
true▁	-9.62814
Al▁	-9.62839
Col	-9.62904
natural▁	-9.62904
month▁	-9.62977
decision▁	-9.63097
Mu	-9.6312
issues▁	-9.63207
significant▁	-9.63222
higher▁	-9.63314
industry▁	-9.63348
plant▁	-9.63362
Hu	-9.6337
Southern▁	-9.63495
Register▁	-9.63538
meeting▁	-9.63663
ons▁	-9.63676
av	-9.63688
complete▁	-9.63691
news▁	-9.63784
Lee▁	-9.63817
Parliament▁	-9.63831
Major▁	-9.6392
1966▁	-9.63952
sch	-9.63991
Mac	-9.64074
70▁	-9.64205
va	-9.64225
ney▁	-9.64307
chief▁	-9.64321
sta	-9.64436
meet▁	-9.64543
ology▁	-9.64585
capital▁	-9.64605
Sha	-9.6461
Ru	-9.64643
master▁	-9.64777
35▁	-9.64834
Si	-9.6485
ians▁	-9.64857
Ge	-9.6486
heavy▁	-9.64869
id▁	-9.64963
we	-9.64965
nearly▁	-9.64977
Assembly▁	-9.65022
pi	-9.6516
Battle▁	-9.65278
Later▁	-9.65281
highest▁	-9.65318
caused▁	-9.6532
sort▁	-9.65333
chi	-9.65342
1960▁	-9.65402
Ke	-9.65441
fine▁	-9.65519
issue▁	-9.65524
1965▁	-9.6556
thus▁	-9.65651
independent▁	-9.65652
+▁	-9.65701
personal▁	-9.65711
men	-9.65778
elections▁	-9.65875
Green▁	-9.65889
Old▁	-9.65942
studied▁	-9.6596
ago▁	-9.65962
Times▁	-9.6597
staff▁	-9.66027
Li	-9.66034
Edward▁	-9.66114
Pre	-9.66162
Mal	-9.6625
county▁	-9.66339
Democratic▁	-9.66348
houses▁	-9.66351
ium▁	-9.66361
holding▁	-9.66438
ach	-9.66443
job▁	-9.66469
studies▁	-9.66587
Board▁	-9.66601
ep	-9.66627
star▁	-9.66627
lies▁	-9.66637
forms▁	-9.66644
Military▁	-9.66651
cur	-9.66738
primary▁	-9.66763
Kar	-9.66945
vo	-9.66945
according▁	-9.66998
practice▁	-9.67088
ence▁	-9.67166
If▁	-9.67208
breath▁	-9.67213
gi	-9.67229
census▁	-9.6726
street▁	-9.67298
Places▁	-9.67352
anti▁	-9.67355
approximately▁	-9.67391
western▁	-9.67431
Chief▁	-9.67568
&	-9.67574
jo	-9.67596
noted▁	-9.67628
gun▁	-9.67681
musical▁	-9.67682
trade▁	-9.67726
actors▁	-9.67809
Michigan▁	-9.67828
medical▁	-9.6783
tour▁	-9.6783
chest▁	-9.67896
network▁	-9.67997
Following▁	-9.68113
student▁	-9.68136
Queen▁	-9.68276
Valley▁	-9.68444
god▁	-9.68466
ors▁	-9.68512
managed▁	-9.68584
Th	-9.68649
tur	-9.68657
green▁	-9.68873
ang	-9.68876
iz	-9.68879
appearance▁	-9.69035
mostly▁	-9.69063
ens▁	-9.69072
relationship▁	-9.69108
giving▁	-9.69174
Town▁	-9.69226
everyone▁	-9.69241
trans	-9.69243
Lord▁	-9.69245
Tri	-9.6935
90▁	-9.69429
van▁	-9.6957
Pacific▁	-9.69597
route▁	-9.69605
ask▁	-9.69648
anyone▁	-9.69679
additional▁	-9.69709
pp▁	-9.69755
My▁	-9.69927
offered▁	-9.69955
Television▁	-9.70046
traditional▁	-9.7009
Ohio▁	-9.70135
genus▁	-9.70164
required▁	-9.70269
Poland▁	-9.70284
1962▁	-9.70329
themselves▁	-9.70426
fingers▁	-9.70508
Civil▁	-9.70529
us	-9.70539
Brown▁	-9.70552
helped▁	-9.70607
becoming▁	-9.70658
Ga	-9.70683
ette▁	-9.70773
ways▁	-9.7078
CD▁	-9.70795
mor	-9.70853
Big▁	-9.70961
report▁	-9.70972
cross▁	-9.71252
operations▁	-9.71264
os	-9.71322
du▁	-9.71342
fe	-9.71347
yl	-9.7142
engine▁	-9.71454
au	-9.71488
ata▁	-9.71492
zi	-9.71543
Bur	-9.71556
couple▁	-9.71651
Ben	-9.71665
multiple▁	-9.71694
Dis	-9.71812
Men▁	-9.71824
changes▁	-9.71841
III▁	-9.71845
clear▁	-9.71875
manager▁	-9.71879
1963▁	-9.71914
property▁	-9.71968
H▁	-9.7197
generally▁	-9.72017
reach▁	-9.72023
matches▁	-9.72068
feeling▁	-9.72128
ment	-9.72207
wo▁	-9.72214
1944▁	-9.72344
Britain▁	-9.72404
Polish▁	-9.72411
Chi	-9.7247
del▁	-9.72489
background▁	-9.72578
score▁	-9.72611
sk	-9.72626
3:	-9.72756
ise▁	-9.72761
Massachusetts▁	-9.72771
limited▁	-9.72933
starting▁	-9.73076
her	-9.7309
ex▁	-9.73209
terms▁	-9.73287
response▁	-9.73326
Scotland▁	-9.73353
ic	-9.73373
union▁	-9.73375
Asia▁	-9.73463
oc	-9.73497
glass▁	-9.73639
access▁	-9.73721
despite▁	-9.73774
speed▁	-9.7386
direction▁	-9.73883
Bal	-9.73925
bl	-9.73944
surface▁	-9.74065
dr	-9.741
meant▁	-9.74153
Illinois▁	-9.74163
Mark▁	-9.74182
32▁	-9.74182
individual▁	-9.74186
distance▁	-9.7419
W▁	-9.74221
Ri	-9.74223
ping▁	-9.74241
je	-9.74259
Columbia▁	-9.74281
ville▁	-9.74288
tes▁	-9.74291
selected▁	-9.74292
goals▁	-9.74331
centre▁	-9.74339
Congress▁	-9.74373
lands▁	-9.74478
ai▁	-9.74521
management▁	-9.74561
hell▁	-9.74607
Gar	-9.74643
F▁	-9.74678
carried▁	-9.74726
ov	-9.74745
mer▁	-9.74781
smiled▁	-9.74796
tracks▁	-9.74808
Young▁	-9.74978
ball▁	-9.75005
operated▁	-9.7501
Georgia▁	-9.75023
paper▁	-9.75114
Line▁	-9.75194
believed▁	-9.75196
unit▁	-9.75313
Further▁	-9.75361
award▁	-9.75404
associated▁	-9.75408
Prince▁	-9.75473
question▁	-9.75481
1942▁	-9.75482
department▁	-9.75574
ig	-9.7563
particularly▁	-9.75645
Bu	-9.75727
Ber	-9.75757
break▁	-9.75779
serving▁	-9.75828
ot	-9.75829
edge▁	-9.75855
color▁	-9.75951
arrived▁	-9.75978
Conference▁	-9.76001
Eastern▁	-9.76026
That▁	-9.76045
Jersey▁	-9.7605
whether▁	-9.76073
figure▁	-9.76158
ze	-9.76176
lives▁	-9.76229
rose▁	-9.76273
test▁	-9.76285
sense▁	-9.76332
immediately▁	-9.76478
pass▁	-9.76509
ready▁	-9.76512
fer	-9.7654
Jones▁	-9.76544
twenty▁	-9.76646
all	-9.7669
claimed▁	-9.76746
contains▁	-9.76766
caught▁	-9.76814
completely▁	-9.76814
tree▁	-9.76876
1961▁	-9.76902
structures▁	-9.7696
Sports▁	-9.7706
increased▁	-9.77126
particular▁	-9.7715
standard▁	-9.77176
fish▁	-9.77212
ant	-9.77248
bri	-9.77297
famous▁	-9.77367
allow▁	-9.77425
mann▁	-9.77427
senior▁	-9.77439
subject▁	-9.77463
clubs▁	-9.77463
technology▁	-9.77487
au▁	-9.77513
yeah▁	-9.77516
’▁	-9.77518
evidence▁	-9.77632
victory▁	-9.77633
Library▁	-9.77633
box▁	-9.77731
ding▁	-9.77837
create▁	-9.77863
hall▁	-9.7792
col	-9.77965
page▁	-9.78017
Many▁	-9.7804
piece▁	-9.78045
1958▁	-9.78231
fa	-9.78239
activities▁	-9.78287
thinking▁	-9.78385
mission▁	-9.78389
eye▁	-9.7846
pen	-9.78497
ani▁	-9.78514
Time▁	-9.78571
legal▁	-9.78658
ini▁	-9.78723
left	-9.78759
sex▁	-9.78769
officers▁	-9.78824
theory▁	-9.78861
comes▁	-9.78871
except▁	-9.78922
1948▁	-9.78947
Tu	-9.78982
ist	-9.78996
Tour▁	-9.79142
Family▁	-9.79167
ee▁	-9.79174
economic▁	-9.79192
í	-9.79271
tt	-9.79373
dropped▁	-9.79389
ster	-9.79455
fiction▁	-9.79465
problem▁	-9.79512
ane▁	-9.79522
Inter	-9.79613
cul	-9.79645
annual▁	-9.79661
numerous▁	-9.79661
ste	-9.79671
Director▁	-9.79684
Final▁	-9.79693
neck▁	-9.79694
Boston▁	-9.79701
1959▁	-9.79703
Za	-9.79752
politicians▁	-9.79833
Che	-9.79848
U▁	-9.79879
Vo	-9.79894
wi	-9.79914
fl	-9.79929
income▁	-9.79949
port▁	-9.79981
slowly▁	-9.80006
ger▁	-9.80015
quite▁	-9.8002
64▁	-9.80073
Health▁	-9.80113
qui	-9.8015
1943▁	-9.80152
religious▁	-9.8018
silver▁	-9.80195
experience▁	-9.80229
remains▁	-9.80304
eastern▁	-9.80324
Development▁	-9.80328
minute▁	-9.80332
1956▁	-9.80372
commercial▁	-9.80385
likely▁	-9.8039
um	-9.8049
ash▁	-9.80554
Johnson▁	-9.80657
bank▁	-9.80671
tic▁	-9.80743
pl	-9.80753
Ram	-9.80822
retired▁	-9.80916
dance▁	-9.80948
failed▁	-9.81001
feature▁	-9.81001
directly▁	-9.81101
cha	-9.81103
grew▁	-9.81109
Commission▁	-9.81134
Gra	-9.81166
T▁	-9.81215
stand▁	-9.81251
comedy▁	-9.81277
appears▁	-9.81303
initially▁	-9.81304
bring▁	-9.81308
hour▁	-9.81327
shoulder▁	-9.81352
shook▁	-9.81454
Pi	-9.81734
step▁	-9.81762
acting▁	-9.81827
Me▁	-9.81854
Alexander▁	-9.81931
security▁	-9.81956
chair▁	-9.81959
Tar	-9.82026
1939▁	-9.8208
programs▁	-9.82085
pain▁	-9.82143
supported▁	-9.8226
professor▁	-9.82285
source▁	-9.82299
walk▁	-9.82401
ess	-9.82433
agreed▁	-9.82488
R▁	-9.82511
university▁	-9.82513
Little▁	-9.82529
N▁	-9.82554
cold▁	-9.82563
Jack▁	-9.82574
Francisco▁	-9.82592
marriage▁	-9.82615
train▁	-9.8262
ash	-9.8262
Theatre▁	-9.8264
mm▁	-9.82699
municipality▁	-9.82844
sen▁	-9.829
Fe	-9.83005
ko▁	-9.83021
talking▁	-9.83044
lie▁	-9.83121
row▁	-9.83128
shown▁	-9.83137
cost▁	-9.83142
1957▁	-9.83169
status▁	-9.83295
1980	-9.83304
majority▁	-9.83356
1941▁	-9.8336
oil▁	-9.83435
larger▁	-9.83435
material▁	-9.83454
ath	-9.83498
cause▁	-9.83526
ending▁	-9.83552
sorry▁	-9.83616
mu	-9.83653
girls▁	-9.83714
hal	-9.83716
metal▁	-9.83782
discovered▁	-9.83802
command▁	-9.83871
36▁	-9.83893
pay▁	-9.83927
ven	-9.83942
BC▁	-9.83984
ical▁	-9.83991
wrong▁	-9.84096
specific▁	-9.841
Foundation▁	-9.84126
ae▁	-9.84223
effect▁	-9.84264
Oxford▁	-9.84308
understand▁	-9.84369
S▁	-9.84373
hospital▁	-9.84442
movie▁	-9.84462
ser	-9.84463
anti	-9.84484
Senate▁	-9.84499
ber▁	-9.84547
1952▁	-9.84587
:#	-9.84592
1950▁	-9.8463
competed▁	-9.84643
Fi	-9.84679
hockey▁	-9.84695
Creek▁	-9.84701
und	-9.84753
hot▁	-9.84908
lay▁	-9.85121
Ph	-9.85212
)	-9.85338
bus▁	-9.85348
air	-9.85355
El▁	-9.85356
federal▁	-9.85372
ments▁	-9.8538
1955▁	-9.85422
berg▁	-9.85496
ev	-9.85551
presented▁	-9.85556
Governor▁	-9.85607
window▁	-9.85634
chapter▁	-9.85661
pp	-9.85815
double▁	-9.85818
1940▁	-9.85865
championship▁	-9.8587
Bill▁	-9.85917
44▁	-9.8598
0	-9.86036
**	-9.86107
computer▁	-9.86166
Frank▁	-9.86186
Williams▁	-9.86238
cal	-9.86252
ful▁	-9.86279
We▁	-9.86285
ko	-9.86331
Bank▁	-9.86364
ster▁	-9.86364
plans▁	-9.86418
33▁	-9.86475
worth▁	-9.86615
ger	-9.86664
1946▁	-9.86709
1947▁	-9.86818
von▁	-9.86898
civil▁	-9.86921
stories▁	-9.8693
ki▁	-9.86931
ul▁	-9.87023
Secretary▁	-9.87032
communities▁	-9.87032
Swedish▁	-9.87058
Biography▁	-9.87062
direct▁	-9.87085
200▁	-9.87149
foot▁	-9.87164
1953▁	-9.87267
We	-9.87298
super	-9.87307
attempt▁	-9.87378
Jean▁	-9.87445
val	-9.87486
scene▁	-9.87508
earned▁	-9.87547
Cross▁	-9.87588
recording▁	-9.87618
1954▁	-9.87691
weight▁	-9.877
Ku	-9.8771
press▁	-9.87712
historical▁	-9.87725
Their▁	-9.87797
Super▁	-9.87846
vote▁	-9.8787
cultural▁	-9.87891
expected▁	-9.87903
waiting▁	-9.87913
Can	-9.87914
ou▁	-9.87942
News▁	-9.87982
yard▁	-9.88032
cell▁	-9.88064
Book▁	-9.88072
Her	-9.88084
meaning▁	-9.88134
ard	-9.88219
Inc	-9.88228
pan	-9.88252
nearby▁	-9.88262
Cu	-9.88277
Centre▁	-9.8828
poor▁	-9.8832
Station▁	-9.8833
overall▁	-9.88332
continue▁	-9.8835
Victoria▁	-9.88356
Tom▁	-9.88547
personnel▁	-9.88558
gen	-9.88599
Ya	-9.88642
cities▁	-9.88706
Office▁	-9.88804
medal▁	-9.88848
appearances▁	-9.88936
Republican▁	-9.8899
sons▁	-9.89069
soldiers▁	-9.89125
ki	-9.89215
ering▁	-9.89244
records▁	-9.89261
ez▁	-9.89266
society▁	-9.89397
Open▁	-9.89416
Blue▁	-9.89422
Latin▁	-9.89431
nature▁	-9.89441
1949▁	-9.89474
issued▁	-9.89509
God▁	-9.89524
descent▁	-9.89581
Hong▁	-9.89592
ju	-9.89666
simply▁	-9.8968
referred▁	-9.8972
problems▁	-9.89724
38▁	-9.8976
guy▁	-9.89793
tra	-9.89794
ica▁	-9.89803
square▁	-9.89856
Hol	-9.89895
online▁	-9.89937
faculty▁	-9.89997
remaining▁	-9.89997
complex▁	-9.90026
bass▁	-9.90064
sha	-9.90086
lack▁	-9.90104
letter▁	-9.90113
policy▁	-9.90135
ancient▁	-9.90135
native▁	-9.90156
ordered▁	-9.90189
newspaper▁	-9.90191
straight▁	-9.9021
fast▁	-9.90221
ö	-9.90287
baseball▁	-9.903
ck	-9.90534
ization▁	-9.90583
financial▁	-9.90656
ana	-9.90666
Route▁	-9.90691
winner▁	-9.90706
sign▁	-9.90708
Rock▁	-9.90709
Middle▁	-9.90716
L▁	-9.90725
ale▁	-9.9073
Gi	-9.90776
75▁	-9.90899
Israel▁	-9.91171
ano▁	-9.91235
Islands▁	-9.91269
chance▁	-9.91271
class	-9.91436
legs▁	-9.91487
border▁	-9.91516
Gallery▁	-9.91601
://	-9.9168
Jr	-9.91712
1951▁	-9.91731
extended▁	-9.91878
ino▁	-9.92131
article▁	-9.92134
34▁	-9.92149
ro▁	-9.92169
serve▁	-9.92312
separate▁	-9.92357
Joe▁	-9.92358
editor▁	-9.92373
af	-9.92386
review▁	-9.9241
watch▁	-9.92415
Im	-9.9242
cr	-9.92433
Bra	-9.92434
1970	-9.9247
ys▁	-9.92486
planned▁	-9.92493
focus▁	-9.92548
remember▁	-9.92552
watched▁	-9.92564
tan	-9.92603
Kong▁	-9.9261
30	-9.92682
corner▁	-9.92716
Ag	-9.92793
net▁	-9.92808
em▁	-9.92816
ages▁	-9.92855
Personal▁	-9.92918
latter▁	-9.92949
operation▁	-9.92959
BBC▁	-9.93077
bu	-9.93148
stars▁	-9.93154
Berlin▁	-9.93172
join▁	-9.93205
foreign▁	-9.93225
perhaps▁	-9.93336
responsible▁	-9.93336
Sub	-9.93369
drive▁	-9.9347
miles▁	-9.93494
Tr	-9.93499
physical▁	-9.93534
ends▁	-9.9356
Track▁	-9.93587
council▁	-9.93602
broadcast▁	-9.93706
increase▁	-9.93733
Scott▁	-9.93741
Special▁	-9.9379
But▁	-9.93872
4:	-9.9389
featuring▁	-9.93932
ari	-9.93958
ik▁	-9.93964
Police▁	-9.93999
Of▁	-9.94017
actress▁	-9.94047
Three▁	-9.94049
composed▁	-9.94107
ib	-9.94329
rich▁	-9.94574
ck▁	-9.94587
aged▁	-9.9463
parties▁	-9.94696
cars▁	-9.94716
Ju	-9.94765
J▁	-9.94769
store▁	-9.94896
gate▁	-9.94924
appear▁	-9.94997
Home▁	-9.95021
1936▁	-9.9508
Korea▁	-9.95081
48▁	-9.95135
7–	-9.95164
Corps▁	-9.95202
O▁	-9.95218
subsequently▁	-9.95221
proposed▁	-9.95255
Sea▁	-9.95307
awards▁	-9.9538
37▁	-9.95422
Journal▁	-9.95423
note▁	-9.95496
broke▁	-9.95546
za	-9.95637
ines▁	-9.95641
removed▁	-9.95752
Coast▁	-9.9577
pur	-9.95781
Sam	-9.95782
shed▁	-9.95803
recent▁	-9.95827
variety▁	-9.95828
answer▁	-9.95828
dad▁	-9.95858
ington▁	-9.95872
acquired▁	-9.95915
Sydney▁	-9.95944
filled▁	-9.95959
hill▁	-9.96089
Top▁	-9.96159
suddenly▁	-9.96206
ze▁	-9.96264
eu	-9.9631
troops▁	-9.96311
promoted▁	-9.96323
umb	-9.9633
regional▁	-9.96334
els▁	-9.96344
nation▁	-9.96349
Le▁	-9.96513
rule▁	-9.96525
fighting▁	-9.96556
ically▁	-9.96624
fo	-9.96632
mainly▁	-9.96651
ec	-9.96691
42▁	-9.96698
ning▁	-9.96764
headed▁	-9.96798
Ministry▁	-9.96849
Toronto▁	-9.96856
ah	-9.9696
episodes▁	-9.96995
Gr	-9.97035
ks▁	-9.97047
Medal▁	-9.97051
US	-9.97075
looks▁	-9.97155
De▁	-9.9723
fifth▁	-9.97289
crew▁	-9.97295
Ontario▁	-9.97407
titled▁	-9.97409
Mr	-9.97424
influence▁	-9.97437
formerly▁	-9.97496
1990	-9.97554
upper▁	-9.97675
Char	-9.97706
wait▁	-9.97706
assistant▁	-9.97732
cl	-9.97754
sides▁	-9.97763
races▁	-9.97776
minor▁	-9.97853
ä	-9.97877
yo	-9.9789
Brazil▁	-9.9794
55▁	-9.97946
q	-9.97975
workers▁	-9.97984
paid▁	-9.97984
bo▁	-9.9799
tal	-9.98049
prior▁	-9.98092
Social▁	-9.98138
hope▁	-9.98186
Another▁	-9.98259
San	-9.98322
Je	-9.98336
function▁	-9.98355
dar	-9.98371
uk	-9.98377
elle▁	-9.98415
para	-9.98444
mixed▁	-9.98444
Korean▁	-9.98445
background	-9.98456
Justice▁	-9.98476
spread▁	-9.98517
Dar	-9.98546
cre	-9.98565
provides▁	-9.98623
Baseball▁	-9.98652
mark▁	-9.988
Bel	-9.98878
flight▁	-9.98887
1960	-9.98897
aff	-9.98919
lake▁	-9.98921
ants▁	-9.98927
youth▁	-9.99053
province▁	-9.99071
host▁	-9.99097
rules▁	-9.99149
value▁	-9.99164
Prize▁	-9.99166
leaves▁	-9.99177
USA▁	-9.99194
00▁	-9.9921
hurt▁	-9.99229
channel▁	-9.99231
Live▁	-9.99232
arch	-9.99254
Cambridge▁	-9.99287
wind▁	-9.99354
sitting▁	-9.99377
trees▁	-9.99384
showed▁	-9.99465
ix	-9.99527
og	-9.9953
conditions▁	-9.99552
expatriate▁	-9.99642
individuals▁	-9.99642
Ol	-9.99647
Despite▁	-9.99738
designated▁	-9.99793
van	-9.99851
amp	-9.99882
pop▁	-9.99909
closer▁	-9.99921
founder▁	-10.0002
Songs▁	-10.0003
que▁	-10.0003
v▁	-10.0009
Fort▁	-10.001
graduated▁	-10.0016
Professor▁	-10.002
our	-10.0024
normal▁	-10.0025
build▁	-10.0031
ü	-10.0039
Airport▁	-10.0043
1918▁	-10.0045
War	-10.0054
gh	-10.0055
please▁	-10.006
sur	-10.006
ye▁	-10.0062
goes▁	-10.0069
den	-10.0084
ny▁	-10.0084
presence▁	-10.0085
leaders▁	-10.0095
Tor	-10.0095
ms▁	-10.0096
slightly▁	-10.0101
organizations▁	-10.0104
sites▁	-10.0107
beautiful▁	-10.011
ett▁	-10.0121
follow▁	-10.0122
Bor	-10.0123
ce▁	-10.0129
serves▁	-10.0139
fore	-10.0139
1938▁	-10.0147
sing▁	-10.0157
captain▁	-10.0162
tar	-10.0175
charge▁	-10.0175
beyond▁	-10.0184
smaller▁	-10.0184
Men	-10.0185
Supreme▁	-10.0187
walls▁	-10.0189
situation▁	-10.019
Post▁	-10.0193
und▁	-10.0195
owner▁	-10.0198
Earth▁	-10.0201
code▁	-10.0201
Nations▁	-10.0201
1937▁	-10.0208
revealed▁	-10.0208
Dan	-10.0211
arts▁	-10.0212
sk▁	-10.0221
executive▁	-10.0224
Cal	-10.0232
growing▁	-10.0242
Song▁	-10.0243
ren	-10.0245
Sar	-10.025
officially▁	-10.0252
ten	-10.0254
Books▁	-10.026
positive▁	-10.0261
ek	-10.0264
twice▁	-10.0264
ski▁	-10.0265
offer▁	-10.0275
Hospital▁	-10.0286
teacher▁	-10.0286
}▁	-10.0286
Game▁	-10.029
exactly▁	-10.0298
500▁	-10.0303
Mer	-10.0304
Chris▁	-10.0308
Long▁	-10.0317
ised▁	-10.0317
intended▁	-10.0319
difficult▁	-10.0323
numbers▁	-10.0323
levels▁	-10.0323
0.	-10.0327
camp▁	-10.0342
Ki	-10.0346
pre▁	-10.0353
products▁	-10.0354
rugby▁	-10.0356
39▁	-10.0357
bur	-10.0358
candidate▁	-10.0361
Avenue▁	-10.0361
az	-10.0375
pur▁	-10.0377
ative▁	-10.0377
accepted▁	-10.0383
47▁	-10.0385
gas▁	-10.0385
Both▁	-10.0388
ely▁	-10.0388
Mike▁	-10.0389
yards▁	-10.0394
rise▁	-10.0395
rural▁	-10.0396
Pakistan▁	-10.0402
ji▁	-10.0404
baby▁	-10.0406
Ban	-10.0411
£▁	-10.0411
P▁	-10.0419
racing▁	-10.0422
Kan	-10.0423
architecture▁	-10.0424
nu	-10.0425
Santa▁	-10.0431
safe▁	-10.0433
Field▁	-10.0433
winners▁	-10.0436
Federal▁	-10.0437
bra	-10.0441
Minnesota▁	-10.0449
firm▁	-10.045
soft▁	-10.0456
transferred▁	-10.0458
Netherlands▁	-10.0462
Super	-10.0467
happy▁	-10.0468
brown▁	-10.0472
pretty▁	-10.0477
lock▁	-10.0481
mid▁	-10.0483
Val	-10.049
activity▁	-10.0493
amount▁	-10.0494
41▁	-10.0495
trial▁	-10.0495
Cre	-10.0496
mom▁	-10.0501
types▁	-10.0505
ham	-10.0506
quality▁	-10.0508
pressure▁	-10.0519
Wilson▁	-10.0522
Technology▁	-10.0528
mentioned▁	-10.0528
My	-10.0533
ara▁	-10.0538
memory▁	-10.0541
†	-10.0545
administrative▁	-10.0547
Regiment▁	-10.0557
expression▁	-10.056
easy▁	-10.0563
kh	-10.0564
produce▁	-10.0567
residents▁	-10.0569
consists▁	-10.057
ents▁	-10.0576
elements▁	-10.0577
constructed▁	-10.0582
ik	-10.0592
Cl	-10.0595
mal	-10.0595
alongside▁	-10.0595
Sur	-10.0596
mass▁	-10.0596
card▁	-10.06
int	-10.0603
purpose▁	-10.0615
ties▁	-10.0617
share▁	-10.062
buried▁	-10.0624
Prime▁	-10.0629
agreement▁	-10.064
piano▁	-10.0644
ese▁	-10.0645
pr	-10.0645
musicians▁	-10.0647
Notable▁	-10.0648
chart▁	-10.065
sal	-10.0653
risk▁	-10.0656
Wisconsin▁	-10.0657
coast▁	-10.0657
ked▁	-10.0661
ear	-10.0663
projects▁	-10.0665
sl	-10.0666
broken▁	-10.0667
Ze	-10.0678
1935▁	-10.068
seeing▁	-10.0681
settled▁	-10.0682
spoke▁	-10.0686
Mat	-10.069
watching▁	-10.0691
mountain▁	-10.0697
Works▁	-10.0698
plants▁	-10.07
ok	-10.0706
Ser	-10.0706
Mil	-10.0707
off	-10.0708
treatment▁	-10.0708
growth▁	-10.0708
han	-10.0716
lin	-10.0716
boat▁	-10.0725
Also▁	-10.0727
ub	-10.073
Lady▁	-10.0738
Au	-10.0742
ned▁	-10.075
mr▁	-10.0754
Philadelphia▁	-10.0754
losing▁	-10.0755
eng	-10.0767
recognized▁	-10.077
enti	-10.0771
52▁	-10.0775
touch▁	-10.0776
Premier▁	-10.0779
effects▁	-10.0785
head	-10.0797
1933▁	-10.0807
label▁	-10.0809
leg▁	-10.0809
ari▁	-10.0818
speak▁	-10.0823
defeat▁	-10.0824
Community▁	-10.0826
sleep▁	-10.0827
sources▁	-10.0832
basis▁	-10.0833
fellow▁	-10.0843
sport▁	-10.0844
draw▁	-10.0857
seconds▁	-10.0859
forest▁	-10.0865
bor	-10.0869
46▁	-10.0872
languages▁	-10.0872
ward▁	-10.0876
56▁	-10.0878
don	-10.0886
notes▁	-10.0887
organized▁	-10.0888
ja▁	-10.0889
1928▁	-10.0891
Bre	-10.0898
stepped▁	-10.0902
guard▁	-10.0906
ent▁	-10.091
finish▁	-10.0916
divided▁	-10.092
1920▁	-10.0933
Norwegian▁	-10.0945
Elizabeth▁	-10.0963
assigned▁	-10.0965
pt	-10.0968
kar	-10.0969
Medical▁	-10.0969
positions▁	-10.0971
image▁	-10.0978
dedicated▁	-10.0978
captured▁	-10.0982
primarily▁	-10.0982
fear▁	-10.0986
visit▁	-10.0988
prison▁	-10.0991
travel▁	-10.0992
pushed▁	-10.0992
stared▁	-10.0993
ran	-10.1006
Jackson▁	-10.1006
49▁	-10.1013
museum▁	-10.1015
Steve▁	-10.1015
Ed	-10.1016
becomes▁	-10.1021
pair▁	-10.1021
gives▁	-10.1023
Hi	-10.1027
2.	-10.1032
AC▁	-10.1033
throat▁	-10.104
murder▁	-10.1042
Media▁	-10.1044
realized▁	-10.1045
Arthur▁	-10.1048
destroyed▁	-10.1052
Business▁	-10.1053
beat▁	-10.1055
Iran▁	-10.1058
1930▁	-10.1062
sey▁	-10.1067
hosted▁	-10.107
renamed▁	-10.1075
follows▁	-10.1079
Township▁	-10.1079
port	-10.1087
Bob▁	-10.109
The	-10.1091
Under▁	-10.1097
Corporation▁	-10.1099
Night▁	-10.1102
equipment▁	-10.1106
Gold▁	-10.1112
relations▁	-10.112
boys▁	-10.1123
listing▁	-10.1125
potential▁	-10.1126
serious▁	-10.113
ahead▁	-10.1131
electric▁	-10.1133
medalists▁	-10.1133
Duke▁	-10.1135
Stadium▁	-10.1136
Taylor▁	-10.1137
initial▁	-10.1137
51▁	-10.1139
nes▁	-10.114
simple▁	-10.1143
connected▁	-10.1146
gets▁	-10.1151
highly▁	-10.1154
conference▁	-10.1157
occurred▁	-10.1157
nice▁	-10.1163
ev▁	-10.1174
software▁	-10.1177
effort▁	-10.1187
parish▁	-10.1192
poet▁	-10.1198
Sweden▁	-10.1201
ok▁	-10.1203
1914▁	-10.1209
Peak▁	-10.1227
que	-10.1228
approach▁	-10.1228
split▁	-10.1229
hr	-10.123
unknown▁	-10.1235
Dor	-10.1237
1934▁	-10.1238
Oregon▁	-10.1238
Daniel▁	-10.1244
Andrew▁	-10.1246
choice▁	-10.126
yn	-10.1261
scale▁	-10.1269
knowledge▁	-10.1271
Atlantic▁	-10.1276
percent▁	-10.128
1932▁	-10.1284
ann	-10.1293
towns▁	-10.1295
don▁	-10.1297
Wal	-10.1299
Ash	-10.1305
gaze▁	-10.1307
Is	-10.1311
screen▁	-10.1312
43▁	-10.1315
Show▁	-10.1324
Missouri▁	-10.1328
ear▁	-10.1336
shirt▁	-10.1341
West	-10.1344
54▁	-10.1347
ou	-10.1348
titles▁	-10.1349
ken▁	-10.1351
administration▁	-10.1352
composer▁	-10.1352
branch▁	-10.1353
territory▁	-10.1359
powerful▁	-10.1359
1919▁	-10.1359
Golden▁	-10.1361
1931▁	-10.1365
declared▁	-10.1366
operating▁	-10.137
horse▁	-10.1374
1917▁	-10.1374
articles▁	-10.138
sexual▁	-10.1388
ton	-10.1393
Sciences▁	-10.1397
Mad	-10.1398
yn▁	-10.1401
Indiana▁	-10.1404
picked▁	-10.1407
participated▁	-10.1411
Bishop▁	-10.1412
ast	-10.1413
1.	-10.1414
notable▁	-10.1421
turning▁	-10.1422
Pol	-10.1422
champion▁	-10.1425
younger▁	-10.1425
Video▁	-10.1427
Ham	-10.143
tax▁	-10.1431
prominent▁	-10.1439
Mountain▁	-10.144
66▁	-10.1444
whatever▁	-10.1446
Eu	-10.145
1929▁	-10.1451
Member▁	-10.1456
academic▁	-10.1463
sets▁	-10.1465
purchased▁	-10.1467
truth▁	-10.1471
aw	-10.1478
taught▁	-10.1484
settlement▁	-10.1488
Nor	-10.149
commonly▁	-10.1492
lying▁	-10.1493
Yu	-10.1496
ili	-10.1499
remain▁	-10.1502
FM▁	-10.1503
crime▁	-10.1506
ities▁	-10.1509
conducted▁	-10.1512
formation▁	-10.1515
Captain▁	-10.1516
efforts▁	-10.1516
tower▁	-10.1517
53▁	-10.1523
Region▁	-10.1524
ong	-10.1526
needs▁	-10.1527
females▁	-10.1531
districts▁	-10.1534
Studies▁	-10.1534
Far	-10.1534
Mexican▁	-10.1536
micro	-10.1539
ban	-10.1546
shut▁	-10.1548
Bibliography▁	-10.1548
Ly	-10.155
content▁	-10.1551
tells▁	-10.1552
entry▁	-10.1567
literature▁	-10.1569
perfect▁	-10.1571
capacity▁	-10.1572
Hal	-10.1581
pu	-10.1582
ust	-10.1583
kiss▁	-10.1583
suffered▁	-10.1587
iv	-10.1588
mile▁	-10.1594
ens	-10.1596
Van▁	-10.16
account▁	-10.1605
bodies▁	-10.1609
leg	-10.1612
painting▁	-10.1615
Colorado▁	-10.1619
estate▁	-10.1621
seems▁	-10.1622
ern	-10.1627
damage▁	-10.1628
Pan	-10.1628
reaching▁	-10.1632
Political▁	-10.1636
compared▁	-10.1647
Wa	-10.1649
interview▁	-10.1653
Junior▁	-10.1654
contact▁	-10.1658
loved▁	-10.1659
ky▁	-10.1662
disease▁	-10.1663
sy▁	-10.1668
Rome▁	-10.167
brothers▁	-10.1672
hy	-10.1673
ix▁	-10.1676
laid▁	-10.1677
analysis▁	-10.1679
digital▁	-10.168
historic▁	-10.1681
laughed▁	-10.1683
spot▁	-10.1686
focused▁	-10.169
hand	-10.1692
bul	-10.1699
Pu	-10.1704
eb	-10.1708
pal	-10.1708
Kansas▁	-10.1708
ā	-10.1709
Bon	-10.171
Gor	-10.1711
urban▁	-10.1714
Jim▁	-10.1717
recently▁	-10.1719
begin▁	-10.1719
40	-10.1724
dry▁	-10.1725
walking▁	-10.1727
Representatives▁	-10.1729
heat▁	-10.1732
actions▁	-10.1735
zh	-10.1741
orders▁	-10.1748
block▁	-10.1748
For	-10.1753
www	-10.1759
search▁	-10.1762
Maria▁	-10.1764
engineer▁	-10.1765
strength▁	-10.1765
Os	-10.1768
slow▁	-10.1768
Geography▁	-10.1777
land	-10.1779
claim▁	-10.1779
association▁	-10.178
semi▁	-10.1783
minister▁	-10.1788
5–	-10.1788
Tennessee▁	-10.1794
campus▁	-10.1797
hundred▁	-10.1798
dor	-10.18
son	-10.18
95▁	-10.1801
fefefe▁	-10.1802
Highway▁	-10.1803
ew▁	-10.1805
1922▁	-10.1805
platform▁	-10.1806
om▁	-10.181
ish	-10.1816
1924▁	-10.1816
Winter▁	-10.1834
Davis▁	-10.1834
suggested▁	-10.1841
calling▁	-10.1854
Shi	-10.1856
vel	-10.1863
lin▁	-10.1863
kitchen▁	-10.1867
confirmed▁	-10.1871
Fin	-10.1872
1927▁	-10.1874
trust▁	-10.1887
pet	-10.189
59▁	-10.1891
Engineering▁	-10.1893
ade▁	-10.1898
Wi	-10.1899
aid▁	-10.1899
therefore▁	-10.19
fought▁	-10.1901
programming▁	-10.1903
25	-10.1904
marked▁	-10.1904
adopted▁	-10.1908
Results▁	-10.1911
households▁	-10.1915
begins▁	-10.1918
Project▁	-10.1925
bottom▁	-10.1926
ston▁	-10.1927
Cap	-10.1932
mel	-10.194
ena▁	-10.1942
fr	-10.1944
Moscow▁	-10.1948
Sun▁	-10.1955
facilities▁	-10.1959
Before▁	-10.1962
drums▁	-10.1963
Ste	-10.1966
armed▁	-10.1966
wal	-10.197
ators▁	-10.1971
protect▁	-10.1971
ram	-10.1972
57▁	-10.1973
easily▁	-10.1973
ranked▁	-10.1974
Pen	-10.1977
ian	-10.1984
85▁	-10.1984
ura▁	-10.1984
secret▁	-10.1985
50	-10.1995
roles▁	-10.2002
Class▁	-10.2003
laws▁	-10.2005
Francis▁	-10.2006
And▁	-10.201
ba▁	-10.2011
yellow▁	-10.2015
istic▁	-10.2017
votes▁	-10.2019
median▁	-10.2019
unable▁	-10.2023
warm▁	-10.2026
ser▁	-10.2036
:	-10.2036
acts▁	-10.2038
holds▁	-10.2042
reviews▁	-10.2042
sun▁	-10.2042
my	-10.2043
faced▁	-10.2045
han▁	-10.2045
supposed▁	-10.2047
Gen	-10.206
ug	-10.206
educated▁	-10.2066
Place▁	-10.2069
spring▁	-10.2071
shared▁	-10.2072
save▁	-10.2083
Norway▁	-10.2085
tz▁	-10.2086
whispered▁	-10.2088
Ci	-10.209
Populated▁	-10.2099
killing▁	-10.2103
tion	-10.2107
ola▁	-10.2108
politics▁	-10.2122
questions▁	-10.2126
She	-10.2127
product▁	-10.2129
transport▁	-10.213
lets▁	-10.2133
del	-10.2134
Tra	-10.2136
distribution▁	-10.2137
traffic▁	-10.2137
safety▁	-10.2137
ial▁	-10.2143
Melbourne▁	-10.2144
Country▁	-10.2148
classical▁	-10.2149
Master▁	-10.2149
Fo	-10.2151
pieces▁	-10.2152
critical▁	-10.2155
replied▁	-10.2155
kin▁	-10.2156
Va	-10.2162
bio	-10.2163
estimated▁	-10.2163
ku	-10.2163
respectively▁	-10.2167
Power▁	-10.2167
combined▁	-10.217
Philippines▁	-10.2171
ves▁	-10.2171
1926▁	-10.2177
fields▁	-10.218
Season▁	-10.218
beside▁	-10.2185
wearing▁	-10.2187
tie▁	-10.2189
ics▁	-10.2189
eh▁	-10.219
pick▁	-10.2194
mental▁	-10.2198
Turkish▁	-10.2205
ensis▁	-10.2205
seats▁	-10.221
agent▁	-10.2211
refused▁	-10.2217
documentary▁	-10.2223
gained▁	-10.2224
journalist▁	-10.2231
Born▁	-10.2236
ey	-10.2237
Trans	-10.2239
setting▁	-10.2254
1925▁	-10.2256
mes▁	-10.2258
engineering▁	-10.2261
rot	-10.2261
Forest▁	-10.2264
Over▁	-10.2266
Mag	-10.2271
Jan	-10.2279
bronze▁	-10.2288
models▁	-10.2288
library▁	-10.2292
institutions▁	-10.2295
dog▁	-10.23
Each▁	-10.2306
Nu	-10.2307
animals▁	-10.2307
ses▁	-10.2307
ene▁	-10.2309
bb	-10.231
Beach▁	-10.2316
ological▁	-10.2316
hi▁	-10.2317
typically▁	-10.2318
continues▁	-10.2323
dress▁	-10.233
concept▁	-10.2333
offers▁	-10.2334
Turkey▁	-10.2334
uss	-10.2335
speaking▁	-10.234
io	-10.2349
path▁	-10.235
j▁	-10.2358
driver▁	-10.2363
ids▁	-10.2367
finals▁	-10.2372
gg	-10.2373
Ye	-10.2375
2:	-10.2378
Four▁	-10.2383
avi	-10.2384
Lewis▁	-10.2384
ious▁	-10.2384
generation▁	-10.2391
greater▁	-10.2395
Death▁	-10.2396
EP▁	-10.2398
surrounding▁	-10.2402
telling▁	-10.2405
passing▁	-10.2406
necessary▁	-10.2407
format▁	-10.2409
ich	-10.2409
peace▁	-10.2413
attacks▁	-10.2414
method▁	-10.2418
identified▁	-10.2419
cancer▁	-10.2422
thank▁	-10.2423
Area▁	-10.2427
Network▁	-10.2427
bought▁	-10.2427
castle▁	-10.243
solo▁	-10.2436
Cam	-10.2437
returning▁	-10.2437
novels▁	-10.2441
Qu	-10.2445
receive▁	-10.2449
escape▁	-10.2449
ng▁	-10.2453
seem▁	-10.2454
ign	-10.2457
za▁	-10.2457
Jews▁	-10.2457
System▁	-10.2466
Ger	-10.2469
Like▁	-10.2471
Cur	-10.2475
ó	-10.2478
versions▁	-10.248
cks▁	-10.2483
claims▁	-10.2484
tic	-10.2489
Queensland▁	-10.2495
tion▁	-10.2498
fin	-10.2499
Foreign▁	-10.2499
Win	-10.2502
ass▁	-10.2505
largely▁	-10.2507
Sources▁	-10.2511
glanced▁	-10.2511
machine▁	-10.2512
calls▁	-10.2513
68▁	-10.2518
commander▁	-10.2522
mil	-10.2524
eau▁	-10.2525
guess▁	-10.2527
emb	-10.2534
inch▁	-10.2537
Arizona▁	-10.2538
Federation▁	-10.2538
imp	-10.2539
Do▁	-10.2542
58▁	-10.2542
uk▁	-10.2545
anger▁	-10.2546
FA▁	-10.2548
Bridge▁	-10.2551
dic	-10.2552
ters▁	-10.2553
Lan	-10.2554
Stephen▁	-10.2557
allowing▁	-10.2563
Sand	-10.2564
nominated▁	-10.2565
cer	-10.2581
1923▁	-10.2584
possibly▁	-10.2589
plane▁	-10.2591
Brazilian▁	-10.2596
secondary▁	-10.2596
chosen▁	-10.2601
Sta	-10.2602
drew▁	-10.2602
ble	-10.2607
Dun	-10.2615
Cho	-10.2616
bal	-10.262
Maryland▁	-10.2624
gen▁	-10.2628
leaned▁	-10.2631
Wil	-10.2637
rank▁	-10.2639
scoring▁	-10.264
defined▁	-10.264
Port▁	-10.2642
pointed▁	-10.2642
Rugby▁	-10.2644
1921▁	-10.2644
determined▁	-10.2646
ray▁	-10.2646
wave▁	-10.2647
uff	-10.2649
ros	-10.2651
Kal	-10.2653
ti▁	-10.2658
contemporary▁	-10.2665
guns▁	-10.2666
weapons▁	-10.2667
99▁	-10.2668
oo▁	-10.2671
starring▁	-10.2672
committee▁	-10.2675
ow	-10.2676
lar	-10.2681
Hor	-10.2683
im▁	-10.2688
Human▁	-10.2695
theatre▁	-10.2695
Av	-10.2702
cho	-10.2726
mi▁	-10.273
partner▁	-10.2731
core▁	-10.2733
Sri▁	-10.2734
thr	-10.2736
tro	-10.2739
Harry▁	-10.2741
reports▁	-10.2746
Albert▁	-10.2747
Y▁	-10.2747
Mari	-10.2747
eli	-10.2751
hotel▁	-10.2752
males▁	-10.2752
none▁	-10.2753
Background▁	-10.2759
keeping▁	-10.2766
quarter▁	-10.2772
lat	-10.2775
allows▁	-10.2775
Sc	-10.2777
housing▁	-10.2787
earth▁	-10.2791
zo	-10.2799
What▁	-10.2802
painter▁	-10.2803
sen	-10.281
reduced▁	-10.2814
vis	-10.2815
gor	-10.2822
tele	-10.2824
pressed▁	-10.2825
resulted▁	-10.2826
ri▁	-10.2829
expanded▁	-10.283
rooms▁	-10.2834
powers▁	-10.2836
temple▁	-10.2836
ps▁	-10.2845
1916▁	-10.2846
Gal	-10.2851
Castle▁	-10.2852
right	-10.2853
form	-10.2853
1950	-10.2854
pin	-10.2854
Tur	-10.2858
silent▁	-10.2867
ij	-10.2868
attacked▁	-10.2871
doors▁	-10.2872
back	-10.2873
Sho	-10.2875
judge▁	-10.2875
ches▁	-10.2881
Lar	-10.2882
inspired▁	-10.2883
ures▁	-10.2886
entrance▁	-10.2887
Tony▁	-10.2894
birds▁	-10.2899
occupied▁	-10.2903
lights▁	-10.2905
huge▁	-10.2907
Ak	-10.2908
61▁	-10.2911
leadership▁	-10.2911
1912▁	-10.2915
sea	-10.2916
Sportspeople▁	-10.2917
tone▁	-10.2918
impact▁	-10.2924
festival▁	-10.2927
teeth▁	-10.293
musician▁	-10.2936
covers▁	-10.294
62▁	-10.2941
DC▁	-10.2942
stock▁	-10.2945
Austria▁	-10.2948
izing▁	-10.2948
enemy▁	-10.2949
advanced▁	-10.2952
grabbed▁	-10.2952
Round▁	-10.2952
profile▁	-10.2957
Vietnam▁	-10.296
regions▁	-10.2961
iff	-10.2964
ality▁	-10.2967
picture▁	-10.2968
write▁	-10.2969
‘▁	-10.2986
guest▁	-10.2987
CA▁	-10.299
ump	-10.2992
1915▁	-10.3
Vol	-10.3003
Management▁	-10.3005
evening▁	-10.301
Black	-10.3016
ita▁	-10.3017
cap	-10.3019
granted▁	-10.3021
storm▁	-10.3022
Es	-10.3024
op▁	-10.3025
-19▁	-10.3025
rail▁	-10.3025
existing▁	-10.3033
oldest▁	-10.3033
2022▁	-10.3034
rates▁	-10.3035
aria▁	-10.3041
Czech▁	-10.3045
Swiss▁	-10.3046
77▁	-10.3048
,	-10.3048
cells▁	-10.3051
authorities▁	-10.3054
ac▁	-10.3057
gro	-10.3058
exchange▁	-10.3062
surname▁	-10.3071
Anderson▁	-10.3074
Miss▁	-10.3082
Ur	-10.3085
map▁	-10.3086
Israeli▁	-10.3086
Mur	-10.3086
performances▁	-10.3087
thanks▁	-10.3087
heads▁	-10.3087
nic	-10.309
vision▁	-10.3093
trip▁	-10.3095
Tournament▁	-10.3095
officials▁	-10.3095
injury▁	-10.3103
67▁	-10.3106
71▁	-10.3106
widely▁	-10.3111
steps▁	-10.3113
sight▁	-10.3114
°▁	-10.3115
ga▁	-10.3117
tall▁	-10.3118
crowd▁	-10.312
villages▁	-10.312
non	-10.312
Don	-10.3124
disambiguation▁	-10.3124
vehicles▁	-10.3124
Kin	-10.3129
creation▁	-10.313
78▁	-10.3131
ig▁	-10.3131
happen▁	-10.3136
ming▁	-10.3136
Memorial▁	-10.3137
vice▁	-10.3139
turns▁	-10.3145
Head▁	-10.3147
carry▁	-10.3148
vehicle▁	-10.3153
ali	-10.3154
rolled▁	-10.3155
Modern▁	-10.3161
protection▁	-10.3161
thi	-10.3164
bill▁	-10.3164
newly▁	-10.3166
69▁	-10.3172
MA▁	-10.3176
Fox▁	-10.3177
lo▁	-10.3181
Mus	-10.3184
humans▁	-10.3185
lifted▁	-10.3198
chairman▁	-10.32
lap▁	-10.321
Basketball▁	-10.3211
Is▁	-10.3212
1900▁	-10.3214
lic	-10.3218
anna▁	-10.3221
billion▁	-10.3224
illa▁	-10.3226
è	-10.3227
multi	-10.3227
tive▁	-10.3228
hol	-10.3229
trains▁	-10.3229
rag	-10.3229
NCAA▁	-10.3232
Free▁	-10.3233
pat	-10.3239
Third▁	-10.3241
Cat	-10.3244
http	-10.3246
facility▁	-10.3248
handed▁	-10.3253
ia	-10.3255
pull▁	-10.3257
ris	-10.3257
Point▁	-10.3261
Christmas▁	-10.3265
00	-10.3266
ya	-10.3272
squad▁	-10.3283
88▁	-10.3283
volume▁	-10.3285
ts	-10.3285
SC▁	-10.3289
ther	-10.3291
unique▁	-10.3294
dia	-10.3303
Production▁	-10.3303
mo▁	-10.3305
stayed▁	-10.3308
sales▁	-10.3313
bol	-10.3314
Space▁	-10.3314
Out▁	-10.3316
effective▁	-10.3316
honor▁	-10.3319
mayor▁	-10.3319
nie▁	-10.3321
tears▁	-10.3324
ears▁	-10.3327
hole▁	-10.3328
Sol	-10.333
č	-10.333
authority▁	-10.3337
Cas	-10.334
Professional▁	-10.3341
shit▁	-10.3345
gre	-10.3345
providing▁	-10.3349
Greece▁	-10.335
metres▁	-10.3351
_	-10.3352
Walter▁	-10.3352
oss	-10.3354
wants▁	-10.3355
ero▁	-10.3356
Emperor▁	-10.3358
ory▁	-10.336
Star	-10.3364
ón▁	-10.3368
classes▁	-10.3375
Ir	-10.3378
72▁	-10.3388
mm	-10.3388
Mont	-10.339
Kentucky▁	-10.3392
Cape▁	-10.3394
jack▁	-10.3396
Cast▁	-10.3396
Louisiana▁	-10.3396
Light▁	-10.3401
yr	-10.3404
IV▁	-10.3404
ji	-10.3408
governor▁	-10.3409
audience▁	-10.3409
pri	-10.342
brain▁	-10.3427
teaching▁	-10.343
Howard▁	-10.3431
steel▁	-10.3432
Switzerland▁	-10.3434
reasons▁	-10.3434
ab▁	-10.3439
damn▁	-10.344
Tokyo▁	-10.3443
1911▁	-10.3444
Wood	-10.3444
drop▁	-10.3444
san	-10.3445
uc	-10.3455
shoulders▁	-10.3456
Hungarian▁	-10.346
tor▁	-10.3464
Fu	-10.3466
NFL▁	-10.3467
sixth▁	-10.3469
1913▁	-10.3469
winter▁	-10.3471
SA▁	-10.3473
Danish▁	-10.3474
dale▁	-10.3476
Pur	-10.3479
pilot▁	-10.3479
1910▁	-10.3482
arrested▁	-10.3486
visited▁	-10.349
resulting▁	-10.3494
Entertainment▁	-10.3494
roll▁	-10.3495
shape▁	-10.3503
86▁	-10.351
Regional▁	-10.3524
Billboard▁	-10.3525
Portuguese▁	-10.3533
environment▁	-10.3533
Iowa▁	-10.3533
Mel	-10.3534
li▁	-10.3538
MP▁	-10.3542
wish▁	-10.3545
coffee▁	-10.355
develop▁	-10.355
scientific▁	-10.355
medi	-10.3551
figures▁	-10.3552
Lemmon▁	-10.3559
flat▁	-10.3561
ying▁	-10.3565
nose▁	-10.3571
burn▁	-10.3582
avoid▁	-10.3582
cas	-10.3588
7.	-10.3588
73▁	-10.3589
ell▁	-10.3589
animal▁	-10.3592
w▁	-10.3593
lers▁	-10.3594
Commonwealth▁	-10.3598
nor▁	-10.3599
ride▁	-10.36
ici	-10.36
New	-10.3601
Pra	-10.3604
commissioned▁	-10.3606
basic▁	-10.3608
ple	-10.361
Sim	-10.361
Singapore▁	-10.3611
ridge▁	-10.3611
ides▁	-10.3613
Han	-10.362
creating▁	-10.3621
headquarters▁	-10.3624
wine▁	-10.3624
sounds▁	-10.3625
Ros	-10.3626
learned▁	-10.3627
ft▁	-10.3631
63▁	-10.3632
motion▁	-10.3638
thick▁	-10.3639
Z▁	-10.3639
not	-10.3643
Affairs▁	-10.3645
connection▁	-10.365
finger▁	-10.3655
tre	-10.3662
Between▁	-10.3663
uni	-10.3665
Prix▁	-10.3669
drawn▁	-10.3672
miss▁	-10.3674
Main▁	-10.3679
applied▁	-10.3681
planning▁	-10.3685
peri	-10.3689
daily▁	-10.369
ugh	-10.3695
res▁	-10.3695
prevent▁	-10.3696
Squadron▁	-10.3698
rear▁	-10.3705
rec	-10.3705
Buildings▁	-10.3711
approved▁	-10.3712
Senior▁	-10.3715
lect	-10.372
ron	-10.3724
Simon▁	-10.3725
Ce	-10.3729
ins	-10.3729
ada▁	-10.3739
ine	-10.374
letters▁	-10.3741
Infantry▁	-10.3742
Brian▁	-10.3742
supply▁	-10.3743
entirely▁	-10.3751
Tre	-10.3759
tradition▁	-10.3759
etc▁	-10.3761
Americans▁	-10.3763
Anthony▁	-10.3764
enter▁	-10.3764
flying▁	-10.3773
opposed▁	-10.3773
Oklahoma▁	-10.3777
Former▁	-10.378
lists▁	-10.3784
flow▁	-10.3789
noticed▁	-10.379
Cro	-10.3801
frequently▁	-10.3803
Para	-10.3804
ach▁	-10.3807
Spacewatch▁	-10.3808
empty▁	-10.3809
Up▁	-10.3809
char	-10.381
ars▁	-10.3813
tter	-10.3818
ez	-10.3822
Review▁	-10.3825
More▁	-10.3829
starts▁	-10.3832
drink▁	-10.3833
vs	-10.3834
critics▁	-10.3835
alive▁	-10.3835
Lieutenant▁	-10.3843
Ten	-10.3849
Water▁	-10.3857
Today▁	-10.3858
ites▁	-10.3859
76▁	-10.3865
conflict▁	-10.3866
lan	-10.3867
tonight▁	-10.387
23	-10.3873
obtained▁	-10.3874
sell▁	-10.3876
Earl▁	-10.3879
theme▁	-10.388
bro	-10.3881
lord▁	-10.3882
Connecticut▁	-10.3883
clothes▁	-10.3883
Alabama▁	-10.3888
Services▁	-10.3888
airport▁	-10.3889
ique▁	-10.3889
iron▁	-10.389
drug▁	-10.3892
attempted▁	-10.3893
fu	-10.3894
1–	-10.3896
Miller▁	-10.3896
explained▁	-10.3897
84▁	-10.3898
band	-10.3899
Revolution▁	-10.39
Mas	-10.3902
Mountains▁	-10.3903
lor	-10.3916
ile▁	-10.3922
joint▁	-10.3924
stomach▁	-10.3928
vol	-10.3933
Ve	-10.3934
brand▁	-10.3937
learning▁	-10.394
cla	-10.394
portion▁	-10.3946
colspan	-10.3947
silence▁	-10.3951
bird▁	-10.3955
details▁	-10.3956
Among▁	-10.3957
ively▁	-10.396
reality▁	-10.3963
cra	-10.3963
concert▁	-10.3963
Kitt▁	-10.3965
knowing▁	-10.3965
tight▁	-10.3966
ip	-10.397
attempts▁	-10.3973
defense▁	-10.3978
--▁	-10.398
interested▁	-10.3982
flu	-10.3985
reference▁	-10.3985
Design▁	-10.3986
82▁	-10.4
Sunday▁	-10.4003
Houston▁	-10.4005
ize▁	-10.4005
coaches▁	-10.4005
but	-10.401
ny	-10.4012
400▁	-10.4018
Liberal▁	-10.4019
rating▁	-10.4021
aired▁	-10.4022
by	-10.4024
condition▁	-10.4025
containing▁	-10.4027
invited▁	-10.4027
Manchester▁	-10.4027
Because▁	-10.4029
if	-10.4031
windows▁	-10.4032
Historical▁	-10.4036
onia▁	-10.4039
len	-10.4039
statistics▁	-10.4041
succeeded▁	-10.4041
26	-10.4042
ingly▁	-10.4043
Pal	-10.4049
suit▁	-10.4054
competitions▁	-10.4054
ric	-10.4055
Hot▁	-10.4057
centuries▁	-10.4059
Land	-10.4059
achieved▁	-10.4063
density▁	-10.4063
perform▁	-10.4065
74▁	-10.4069
3–	-10.4071
sum	-10.4071
May	-10.4072
Austrian▁	-10.4072
climate▁	-10.4073
Independent▁	-10.4073
post	-10.4076
Harvard▁	-10.4077
employed▁	-10.4077
Channel▁	-10.4077
driving▁	-10.4091
lyrics▁	-10.4091
cat	-10.4091
97▁	-10.4097
Pr	-10.41
Tan	-10.4103
royal▁	-10.4103
Vice▁	-10.4103
lady▁	-10.4104
grade▁	-10.4104
wins▁	-10.4104
89▁	-10.4108
Champions▁	-10.4109
dates▁	-10.4118
bound▁	-10.412
selling▁	-10.412
trained▁	-10.412
tied▁	-10.4125
Fame▁	-10.4126
lose▁	-10.4127
Islamic▁	-10.4128
sson▁	-10.413
sti	-10.4137
Labour▁	-10.4137
83▁	-10.4143
comp	-10.4144
Native▁	-10.4145
tennis▁	-10.415
1908▁	-10.4157
publication▁	-10.416
rated▁	-10.4164
tom	-10.4167
Tele	-10.417
Gro	-10.4178
All	-10.4182
shop▁	-10.4184
Egypt▁	-10.4185
transfer▁	-10.4187
hers▁	-10.419
Officer▁	-10.4191
charts▁	-10.4196
Village▁	-10.4196
opera▁	-10.4198
Your▁	-10.4198
Mah	-10.42
Argentina▁	-10.4215
98▁	-10.4215
opposite▁	-10.4224
household▁	-10.4224
96▁	-10.4225
speech▁	-10.4237
log	-10.4238
materials▁	-10.4241
92▁	-10.4242
79▁	-10.4246
farm▁	-10.4247
Pan▁	-10.4247
24	-10.4247
aries▁	-10.4253
knows▁	-10.4254
situated▁	-10.4256
Internet▁	-10.4257
qua	-10.4259
abandoned▁	-10.4261
Patrick▁	-10.4261
sit▁	-10.4269
heavily▁	-10.427
Singles▁	-10.427
scheduled▁	-10.4274
Kam	-10.4278
(;▁	-10.4279
Brigade▁	-10.4279
fair▁	-10.428
Ben▁	-10.4283
SS▁	-10.4284
Az	-10.4287
Fl	-10.4288
iya▁	-10.4297
Dev	-10.43
ges▁	-10.4301
sed▁	-10.4302
origin▁	-10.4304
300▁	-10.4304
ala▁	-10.4305
Anne▁	-10.4307
passenger▁	-10.4307
opposition▁	-10.4307
dan	-10.431
sol	-10.4312
Ukraine▁	-10.4312
Holy▁	-10.4312
81▁	-10.4325
Pope▁	-10.4329
existence▁	-10.433
injured▁	-10.433
managers▁	-10.4335
ders▁	-10.4336
sor	-10.4337
singers▁	-10.4337
thirty▁	-10.4344
Ali▁	-10.4349
methods▁	-10.4354
anyway▁	-10.4356
crossed▁	-10.4357
doctor▁	-10.4358
relief▁	-10.4363
Hockey▁	-10.4368
architect▁	-10.4372
water	-10.4379
poly	-10.4379
AD▁	-10.4379
citizens▁	-10.4382
height▁	-10.4383
zone▁	-10.4384
representing▁	-10.4384
Rural▁	-10.4388
causing▁	-10.4389
display▁	-10.4391
hor	-10.4391
locations▁	-10.4391
highway▁	-10.4393
ō▁	-10.4393
Allen▁	-10.4401
des	-10.4415
ym	-10.4417
value	-10.4418
Sun	-10.4421
Naval▁	-10.4422
Gun	-10.4423
Khan▁	-10.4427
Marine▁	-10.4427
fans▁	-10.4428
quick▁	-10.443
promotion▁	-10.443
inger▁	-10.4435
ore▁	-10.4441
gun	-10.4443
bright▁	-10.4443
27	-10.4445
Port	-10.4447
apartment▁	-10.4448
Tro	-10.445
stands▁	-10.4451
Mississippi▁	-10.4452
magic▁	-10.4459
controlled▁	-10.4462
quiet▁	-10.4463
Fire▁	-10.4463
oy	-10.4464
ture▁	-10.4468
weather▁	-10.4469
passes▁	-10.4471
Survey▁	-10.4471
Gordon▁	-10.4472
kar▁	-10.4472
opportunity▁	-10.4476
Ford▁	-10.4479
Magazine▁	-10.4485
dra	-10.4486
Red	-10.4488
iss	-10.4489
Children▁	-10.449
beneath▁	-10.449
violence▁	-10.449
Information▁	-10.4493
receiving▁	-10.4495
finding▁	-10.45
sn	-10.4503
actual▁	-10.4504
Belgium▁	-10.4504
properties▁	-10.4504
ika▁	-10.4505
80	-10.4505
Youth▁	-10.4507
lawyer▁	-10.4509
copies▁	-10.4515
aj	-10.4517
frame▁	-10.4518
Security▁	-10.4523
87▁	-10.4526
Don▁	-10.4528
eo▁	-10.4528
At	-10.4531
Ap	-10.4532
relatively▁	-10.4533
clearly▁	-10.4533
industrial▁	-10.4533
ao▁	-10.4541
performing▁	-10.4544
án▁	-10.4545
+	-10.4547
price▁	-10.4548
res	-10.455
Socorro▁	-10.4557
principal▁	-10.4557
Fre	-10.4558
ll	-10.4562
inc	-10.4565
exhibition▁	-10.4566
thoughts▁	-10.4566
twelve▁	-10.4576
Bas	-10.4577
LINEAR▁	-10.4581
link▁	-10.4582
exist▁	-10.4583
bel	-10.4583
COVID	-10.459
refers▁	-10.4593
Several▁	-10.4601
Tom	-10.4602
AA▁	-10.4604
Luc	-10.4605
wild▁	-10.4605
identity▁	-10.4605
Building▁	-10.4609
4–	-10.4615
Green	-10.462
combat▁	-10.4621
historian▁	-10.4631
Zo	-10.4637
afraid▁	-10.4643
cro	-10.4649
conversation▁	-10.4652
permanent▁	-10.4657
Culture▁	-10.4662
Bat	-10.4664
Arab▁	-10.4665
Fri	-10.4665
amb	-10.4665
Bri	-10.4666
breaking▁	-10.4666
represent▁	-10.467
lip▁	-10.4671
dev	-10.4672
expansion▁	-10.4672
Temple▁	-10.4674
Sel	-10.4676
Ang	-10.4677
art	-10.4682
ø	-10.4686
roof▁	-10.4689
paintings▁	-10.4691
Diego▁	-10.4692
global▁	-10.4692
Mun	-10.4703
reaction▁	-10.4703
wings▁	-10.4705
sto	-10.4706
resources▁	-10.4706
About▁	-10.4707
converted▁	-10.4708
sought▁	-10.471
tin	-10.4711
osa▁	-10.4712
Ray▁	-10.4712
send▁	-10.4719
mir	-10.472
bringing▁	-10.4721
Executive▁	-10.4725
8–	-10.4731
Plot▁	-10.4731
images▁	-10.4733
bag▁	-10.4734
Local▁	-10.4737
Heritage▁	-10.474
Quebec▁	-10.474
Ukrainian▁	-10.474
Cr	-10.474
bert▁	-10.4741
domestic▁	-10.4742
til	-10.4743
loan▁	-10.4745
alternative▁	-10.4749
Description▁	-10.4754
Hamilton▁	-10.4754
ologist▁	-10.4755
entitled▁	-10.4755
target▁	-10.4755
bat	-10.4755
shall▁	-10.476
и	-10.4761
mono	-10.4761
learn▁	-10.4762
Battalion▁	-10.4764
statement▁	-10.4764
soul▁	-10.4765
PA▁	-10.4768
Bol	-10.4769
Detroit▁	-10.4769
briefly▁	-10.477
nuclear▁	-10.477
ind	-10.4771
trouble▁	-10.4774
draft▁	-10.4775
founding▁	-10.4778
liked▁	-10.4779
asks▁	-10.478
wa▁	-10.4781
ate	-10.4783
bury▁	-10.4785
tries▁	-10.4787
contained▁	-10.4788
Frederick▁	-10.4789
burg▁	-10.4791
aki▁	-10.4793
ff	-10.4796
Portugal▁	-10.4798
duc	-10.4798
syn	-10.4799
si▁	-10.4803
Due▁	-10.4807
Sam▁	-10.481
shortly▁	-10.4814
clean▁	-10.4817
guys▁	-10.4819
sel	-10.482
Yo	-10.4821
Albums▁	-10.4823
kids▁	-10.4825
med▁	-10.4827
Lev	-10.4827
Alan▁	-10.4828
05▁	-10.483
ice	-10.483
Douglas▁	-10.4832
shaped▁	-10.4832
Sk	-10.4832
strike▁	-10.4832
showing▁	-10.4833
Ji	-10.4834
ax▁	-10.4837
cycle▁	-10.4843
fuel▁	-10.4845
temperature▁	-10.4847
Forces▁	-10.4847
Str	-10.485
tiny▁	-10.485
gon▁	-10.4851
she	-10.4851
och	-10.4852
Barr	-10.4853
mate▁	-10.4853
ox	-10.4862
qualified▁	-10.4864
mut	-10.4868
Part▁	-10.4871
answered▁	-10.4872
Mos	-10.4873
rap	-10.4884
lan▁	-10.4886
Last▁	-10.4889
Denmark▁	-10.4892
black	-10.4893
ay	-10.4894
1905▁	-10.4894
struck▁	-10.4903
counter▁	-10.4905
Doctor▁	-10.4906
Not▁	-10.4908
ho▁	-10.491
ue▁	-10.4912
extra▁	-10.4917
recognition▁	-10.4917
Lin	-10.4921
waited▁	-10.4921
Story▁	-10.4922
8.	-10.4925
roads▁	-10.4927
Kim▁	-10.493
consisted▁	-10.4931
remembered▁	-10.4931
technical▁	-10.4931
ski	-10.4933
Max▁	-10.4935
literary▁	-10.4936
jazz▁	-10.4936
ot▁	-10.494
difference▁	-10.4941
org	-10.4942
Census▁	-10.4946
Welsh▁	-10.4951
Stone▁	-10.4953
-1▁	-10.4962
Hotel▁	-10.4962
Anna▁	-10.4963
Ter	-10.4964
Vol▁	-10.4965
surprise▁	-10.4966
threw▁	-10.4966
apparently▁	-10.4975
offices▁	-10.4975
retirement▁	-10.4975
message▁	-10.4975
missed▁	-10.4979
Indonesia▁	-10.4985
churches▁	-10.4985
tongue▁	-10.4986
otherwise▁	-10.499
Puerto▁	-10.499
gon	-10.4993
tz	-10.4994
closely▁	-10.4995
economy▁	-10.5
gray▁	-10.5003
investigation▁	-10.5005
educational▁	-10.5006
ceremony▁	-10.501
Ay	-10.5013
ultimately▁	-10.502
yer▁	-10.5023
fly▁	-10.5024
maximum▁	-10.5026
Legislative▁	-10.503
launch▁	-10.503
shore▁	-10.5032
wear▁	-10.5033
elli▁	-10.5034
Philip▁	-10.5035
Mill	-10.5036
Player▁	-10.504
dar▁	-10.504
cept	-10.5042
sweet▁	-10.5043
60	-10.5049
rising▁	-10.5049
fit▁	-10.5058
07▁	-10.5061
proved▁	-10.5072
gal	-10.5077
sil	-10.5078
>▁	-10.5083
patients▁	-10.5086
supporting▁	-10.5086
Bell	-10.5089
sportspeople▁	-10.5093
rare▁	-10.5093
pol	-10.5096
check▁	-10.5096
Samuel▁	-10.5097
oid▁	-10.5097
sm	-10.5102
barely▁	-10.5102
neither▁	-10.5108
tail▁	-10.5108
Gre	-10.5109
occurs▁	-10.5111
finds▁	-10.5116
dated▁	-10.512
cricket▁	-10.5121
subsequent▁	-10.5121
hired▁	-10.5121
incident▁	-10.5126
Kon	-10.5132
Tam	-10.5135
increasing▁	-10.5136
missions▁	-10.5137
Il	-10.5138
Pri	-10.5144
hey▁	-10.5146
spoken▁	-10.5146
Only▁	-10.5154
collected▁	-10.5154
pages▁	-10.516
presidential▁	-10.5161
prepared▁	-10.5166
ified▁	-10.5167
fleet▁	-10.5168
application▁	-10.5171
finishing▁	-10.5171
chose▁	-10.5175
session▁	-10.5176
uri	-10.5177
top	-10.5181
Week▁	-10.5181
morph	-10.5183
admitted▁	-10.5192
failure▁	-10.5192
functions▁	-10.5192
Villages▁	-10.5192
address▁	-10.5193
ç	-10.5195
ken	-10.5197
Administration▁	-10.5197
soccer▁	-10.5197
Reception▁	-10.5198
kin	-10.52
pool▁	-10.5203
affected▁	-10.5207
Adam▁	-10.5207
Juan▁	-10.5208
94▁	-10.5209
Q▁	-10.521
views▁	-10.5211
capable▁	-10.5216
bre	-10.5221
Eric▁	-10.5224
Clark▁	-10.5227
1909▁	-10.523
Arkansas▁	-10.5232
vers	-10.5241
regarding▁	-10.5243
pe▁	-10.5248
candidates▁	-10.5248
ef▁	-10.5253
brief▁	-10.5259
{▁	-10.526
ec▁	-10.5262
painted▁	-10.5263
derived▁	-10.5263
nov	-10.5269
edited▁	-10.5269
asking▁	-10.5275
duty▁	-10.5282
verse▁	-10.5283
user▁	-10.5284
hl	-10.5285
01▁	-10.5287
yourself▁	-10.5289
Marie▁	-10.5289
91▁	-10.5293
9.	-10.5294
Trust▁	-10.5296
22	-10.5302
Len	-10.5303
Ocean▁	-10.5303
streets▁	-10.5304
So▁	-10.5305
ification▁	-10.5307
mar▁	-10.5308
eat▁	-10.5309
Pla	-10.531
Bureau▁	-10.531
spect	-10.5314
respect▁	-10.5314
Antonio▁	-10.5315
grown▁	-10.5317
gli	-10.532
catch▁	-10.5322
"	-10.5322
ick	-10.533
registered▁	-10.533
down	-10.533
Pro▁	-10.5331
ect	-10.5334
Hungary▁	-10.5335
ut▁	-10.5336
Ran	-10.5345
chi▁	-10.5347
count▁	-10.5349
Muslim▁	-10.5356
yl▁	-10.5356
phase▁	-10.5357
1907▁	-10.5358
Atlanta▁	-10.5361
Expatriate▁	-10.5361
adult▁	-10.5361
chain▁	-10.5365
representative▁	-10.5366
peak▁	-10.5369
rick▁	-10.5371
IS▁	-10.5373
bands▁	-10.5374
wooden▁	-10.5374
luc	-10.5374
Op	-10.5375
Schools▁	-10.5377
ner	-10.538
Em	-10.538
Chairman▁	-10.5382
directors▁	-10.5383
lau	-10.5384
Orchestra▁	-10.5387
forming▁	-10.5391
gl	-10.5395
win	-10.54
joining▁	-10.54
graduate▁	-10.5401
93▁	-10.5401
ben▁	-10.5405
extensive▁	-10.5407
Commander▁	-10.5408
AS▁	-10.5409
Carl▁	-10.5412
funding▁	-10.5413
alism▁	-10.5413
fla	-10.5415
Good▁	-10.5417
Bab	-10.542
observed▁	-10.5421
poetry▁	-10.5423
rain▁	-10.5424
gain▁	-10.5428
divisions▁	-10.5429
engines▁	-10.5429
AM▁	-10.5431
apart▁	-10.5432
merged▁	-10.5433
cup▁	-10.5437
Who▁	-10.5438
Tamil▁	-10.544
carrying▁	-10.5444
acc	-10.5447
rain	-10.5453
kers▁	-10.5453
category▁	-10.5454
iana▁	-10.5455
Bro	-10.546
1906▁	-10.5462
staring▁	-10.5468
tam	-10.5469
low	-10.5471
ight	-10.5476
fixed▁	-10.5476
advantage▁	-10.5486
inner▁	-10.5489
dating▁	-10.5491
va▁	-10.5492
Cultural▁	-10.5501
Pittsburgh▁	-10.5501
translated▁	-10.5501
pul	-10.5502
ef	-10.5507
decades▁	-10.5507
por	-10.5508
har▁	-10.5508
lam	-10.551
ert	-10.5511
accident▁	-10.5512
surprised▁	-10.5512
tons▁	-10.5518
tics▁	-10.5518
alist▁	-10.5525
shooting▁	-10.5528
arian▁	-10.5534
truck▁	-10.5537
falls▁	-10.5539
1904▁	-10.5541
contributed▁	-10.5543
jo▁	-10.5545
km	-10.5546
Cemetery▁	-10.5549
tch▁	-10.5554
thousand▁	-10.5554
engaged▁	-10.5555
ren▁	-10.5561
covering▁	-10.5562
stream▁	-10.5566
uch	-10.5571
grounds▁	-10.5574
dict	-10.5575
independence▁	-10.5576
borough▁	-10.5576
1903▁	-10.5578
ideas▁	-10.558
consecutive▁	-10.558
vampire▁	-10.558
ille▁	-10.558
multi▁	-10.5583
leads▁	-10.5585
28	-10.5585
Lincoln▁	-10.5586
Des	-10.5586
dinner▁	-10.5587
wh	-10.5587
ay▁	-10.559
Bla	-10.559
Miami▁	-10.5591
Rose▁	-10.5596
charged▁	-10.5599
Upon▁	-10.5602
Transport▁	-10.5602
red	-10.5603
Nov	-10.5616
successfully▁	-10.5616
Moore▁	-10.5618
1930	-10.5622
junior▁	-10.5623
Nan	-10.5626
establishment▁	-10.5631
scenes▁	-10.5635
vir	-10.5635
29	-10.5637
sign	-10.5637
actresses▁	-10.5639
flowers▁	-10.5639
doubt▁	-10.5639
Iraq▁	-10.5639
Age▁	-10.5642
Pat	-10.5642
Kevin▁	-10.5655
ee	-10.5658
hung▁	-10.5666
06▁	-10.5666
falling▁	-10.5668
uck	-10.5668
etta▁	-10.5671
uncle▁	-10.5676
Rock	-10.5678
meters▁	-10.5679
dy	-10.5681
objects▁	-10.5681
marine▁	-10.5684
understanding▁	-10.5685
Reserve▁	-10.5688
sector▁	-10.569
stein▁	-10.5693
Dublin▁	-10.5697
Bell▁	-10.5705
cards▁	-10.5707
experienced▁	-10.5708
sam▁	-10.5708
1:	-10.5712
Uni	-10.5714
Walker▁	-10.5715
tropical▁	-10.5718
champions▁	-10.5719
08▁	-10.5722
intelligence▁	-10.5729
Utah▁	-10.573
Finland▁	-10.573
CO	-10.5733
folk▁	-10.5734
Dave▁	-10.5741
Zi	-10.5744
secretary▁	-10.5746
ula▁	-10.5751
Colonel▁	-10.5752
ries▁	-10.5753
Edinburgh▁	-10.5756
vin	-10.5759
sir▁	-10.5766
employees▁	-10.5767
Land▁	-10.5776
fashion▁	-10.5783
wo	-10.5786
ock▁	-10.5786
of	-10.579
fun▁	-10.579
hearing▁	-10.5791
developing▁	-10.5794
ft	-10.5796
northeast▁	-10.58
@▁	-10.5802
Dance▁	-10.5804
desire▁	-10.5805
dec	-10.5805
ett	-10.5809
mad	-10.5812
ives▁	-10.5813
script▁	-10.5815
challenge▁	-10.5816
DVD▁	-10.5816
Raj	-10.5819
Now▁	-10.582
influenced▁	-10.5821
negative▁	-10.5826
valley▁	-10.5827
ruled▁	-10.5829
pon	-10.5832
On	-10.5835
solid▁	-10.5838
Sea	-10.5839
Rad	-10.5843
kan	-10.5844
ić▁	-10.5845
object▁	-10.5847
Girls▁	-10.5848
expressed▁	-10.5848
animated▁	-10.5849
Square▁	-10.5856
Imperial▁	-10.5859
assumed▁	-10.5859
residence▁	-10.5859
Long	-10.586
operate▁	-10.586
Musical▁	-10.5861
je▁	-10.5862
sale▁	-10.5864
maintained▁	-10.5864
Whit	-10.5866
Five▁	-10.5867
Under	-10.5868
unt	-10.5869
grow▁	-10.587
Bowl▁	-10.5874
pulling▁	-10.5877
Del	-10.588
argued▁	-10.5881
Air	-10.5883
ase▁	-10.5886
Operation▁	-10.5887
Ryan▁	-10.589
Por	-10.5892
ick▁	-10.5897
о	-10.5897
ty	-10.5904
Dam	-10.5905
runner▁	-10.5905
fired▁	-10.5908
thin▁	-10.591
composition▁	-10.591
cher▁	-10.5913
worse▁	-10.5914
helping▁	-10.5914
Dal	-10.5917
reg	-10.5917
Hen	-10.5917
Alumni▁	-10.5924
Belgian▁	-10.5924
arranged▁	-10.5925
priest▁	-10.5925
narrow▁	-10.5929
Montreal▁	-10.5931
Est	-10.5934
Kur	-10.5937
Then▁	-10.5939
lip	-10.594
dream▁	-10.594
mes	-10.594
Heart▁	-10.5941
rav	-10.5941
hip▁	-10.5942
advance▁	-10.5946
ax	-10.5946
strange▁	-10.5948
ud▁	-10.5951
factory▁	-10.5952
internal▁	-10.5953
installed▁	-10.5953
restaurant▁	-10.5957
attached▁	-10.5957
epi	-10.5958
1901▁	-10.596
tors▁	-10.5968
Studios▁	-10.5968
protein▁	-10.5968
09▁	-10.5969
Program▁	-10.5975
explain▁	-10.5975
items▁	-10.5979
9–	-10.598
Sin	-10.5982
oli	-10.5986
Gil	-10.5988
interior▁	-10.599
typical▁	-10.599
skills▁	-10.5992
touched▁	-10.5992
testing▁	-10.5993
capture▁	-10.5996
sid	-10.5997
emp	-10.6001
MS▁	-10.6004
Mayor▁	-10.6006
rowspan	-10.6007
raise▁	-10.6008
Serbian▁	-10.6012
songwriter▁	-10.6018
Communist▁	-10.6029
"|	-10.6031
standards▁	-10.6034
tra▁	-10.6035
mit	-10.6036
Lawrence▁	-10.604
ure▁	-10.604
Pin	-10.6045
concerned▁	-10.6045
sville▁	-10.6046
Jesus▁	-10.6047
Hel	-10.6047
producing▁	-10.6051
regarded▁	-10.6051
communication▁	-10.6051
print▁	-10.6063
Real▁	-10.6067
izz	-10.607
ram▁	-10.6071
equal▁	-10.6071
ér	-10.6078
Finnish▁	-10.6079
specifically▁	-10.6079
rit	-10.6079
faces▁	-10.608
Water	-10.6089
Lim	-10.6093
singing▁	-10.6095
Kat	-10.6098
Blo	-10.6099
6–	-10.6104
survived▁	-10.6112
laugh▁	-10.6114
Sport▁	-10.6116
plus▁	-10.6116
ker	-10.6118
ional▁	-10.6121
ers	-10.6122
onic▁	-10.6123
Deputy▁	-10.6123
grass▁	-10.6123
theater▁	-10.6124
2000	-10.6127
constituency▁	-10.6129
wheel▁	-10.6131
backing▁	-10.6135
ost	-10.6142
Ken	-10.6143
Var	-10.6148
chemical▁	-10.6151
funds▁	-10.6157
selection▁	-10.6165
Transportation▁	-10.6168
introduction▁	-10.6168
programme▁	-10.6168
1902▁	-10.6171
–	-10.6174
islands▁	-10.6177
bishop▁	-10.618
protected▁	-10.6189
gar▁	-10.6192
Christ▁	-10.6192
Boys▁	-10.6193
04▁	-10.6195
Ferr	-10.6197
reserve▁	-10.6199
religion▁	-10.6201
Players▁	-10.6202
Girl▁	-10.6202
Jan▁	-10.6202
PC▁	-10.6204
Go▁	-10.6208
homes▁	-10.6211
Natural▁	-10.6217
electronic▁	-10.6219
Digital▁	-10.6219
ona▁	-10.622
José▁	-10.6224
zer▁	-10.6228
3.	-10.6229
Malaysia▁	-10.623
consisting▁	-10.623
familiar▁	-10.623
signal▁	-10.6235
charges▁	-10.6236
q▁	-10.6238
Tim▁	-10.6238
Kelly▁	-10.6241
Comics▁	-10.6242
tank▁	-10.6243
hen	-10.6245
stairs▁	-10.6246
tal▁	-10.625
ert▁	-10.6254
translation▁	-10.6258
signs▁	-10.6258
Ren	-10.6261
Command▁	-10.6261
desk▁	-10.6264
1898▁	-10.6266
voted▁	-10.6268
sighed▁	-10.6269
facing▁	-10.627
agency▁	-10.627
praised▁	-10.627
Grant▁	-10.6272
ably▁	-10.6279
worldwide▁	-10.6281
Bay	-10.6286
Cleveland▁	-10.6286
dressed▁	-10.6291
к	-10.6292
alized▁	-10.6292
demand▁	-10.6297
resigned▁	-10.6302
Ottoman▁	-10.6303
nor	-10.6306
wan▁	-10.6306
Kra	-10.6306
chan	-10.6308
Roger▁	-10.6311
bone▁	-10.6316
Boy▁	-10.6322
rum	-10.6327
sa▁	-10.6329
Vis	-10.633
Romania▁	-10.6333
Global▁	-10.6333
ova▁	-10.6333
Pierre▁	-10.6334
garden▁	-10.6335
ances▁	-10.6338
kir	-10.634
grave▁	-10.634
Hollywood▁	-10.6343
occur▁	-10.6344
Guard▁	-10.6344
Shar	-10.6347
rivers▁	-10.6349
accused▁	-10.6349
Ob	-10.6349
threat▁	-10.635
org▁	-10.6354
freedom▁	-10.6355
Silver▁	-10.6362
Conservative▁	-10.6366
promote▁	-10.6372
Thailand▁	-10.6372
Hay	-10.6375
Donald▁	-10.6376
Vienna▁	-10.6378
gently▁	-10.6378
request▁	-10.6399
eng▁	-10.64
criminal▁	-10.6408
SR▁	-10.6409
oul	-10.6409
justice▁	-10.6412
Kh	-10.6416
bear▁	-10.642
Garden▁	-10.6423
consider▁	-10.6423
cricketers▁	-10.6423
Margaret▁	-10.6425
cool▁	-10.6429
stadium▁	-10.6429
cli	-10.6431
venues▁	-10.6436
causes▁	-10.644
resistance▁	-10.6441
Harris▁	-10.6441
device▁	-10.6443
sword▁	-10.6443
cker▁	-10.6445
accept▁	-10.6452
papers▁	-10.6453
hur	-10.6455
mounted▁	-10.6457
web▁	-10.6459
arm	-10.6459
Morgan▁	-10.646
sw	-10.6461
Prior▁	-10.6461
hard	-10.6462
involving▁	-10.6464
gra	-10.6465
kes▁	-10.6468
compete▁	-10.6475
mac	-10.6479
vent	-10.648
worry▁	-10.6481
Out	-10.6482
comic▁	-10.6483
blo	-10.6485
handle▁	-10.6485
yan	-10.6486
formal▁	-10.6486
improve▁	-10.6488
incorporated▁	-10.6491
anymore▁	-10.6492
neighborhood▁	-10.6493
courses▁	-10.6493
OS▁	-10.6495
PS▁	-10.6498
che▁	-10.6502
stones▁	-10.6502
combination▁	-10.6504
net	-10.6506
boats▁	-10.6508
spir	-10.651
behavior▁	-10.651
concluded▁	-10.651
unless▁	-10.6512
bon	-10.6513
concern▁	-10.6516
ABC▁	-10.6516
stating▁	-10.652
mobile▁	-10.6521
establish▁	-10.6522
yan▁	-10.6526
usual▁	-10.6527
esh▁	-10.6528
Cra	-10.653
promise▁	-10.6532
landing▁	-10.6532
oni▁	-10.6532
ali▁	-10.6534
cy	-10.6534
hum	-10.6536
credited▁	-10.6539
omb	-10.6543
visible▁	-10.6543
dam	-10.6545
importance▁	-10.6545
pel	-10.6551
02▁	-10.6552
Athletics▁	-10.6556
inhabitants▁	-10.6556
su▁	-10.6557
ible▁	-10.6557
rig	-10.6557
prize▁	-10.6558
Saturday▁	-10.6562
environmental▁	-10.6562
mag	-10.6564
techniques▁	-10.6568
Metropolitan▁	-10.6574
visual▁	-10.6574
credit▁	-10.6577
gul	-10.6579
Champion▁	-10.6586
Once▁	-10.6586
sharp▁	-10.6586
ele	-10.6587
brick▁	-10.6591
Volume▁	-10.6591
web	-10.6599
locked▁	-10.6603
Argentine▁	-10.6604
gri	-10.6607
Way▁	-10.6609
fort▁	-10.6609
Alex▁	-10.6612
afternoon▁	-10.6615
shrugged▁	-10.6621
ement▁	-10.6626
journal▁	-10.6627
Knight▁	-10.6629
gers▁	-10.663
tiv	-10.663
book	-10.6631
graphic▁	-10.6637
Sab	-10.6637
ography▁	-10.6642
-1	-10.6644
AP▁	-10.6648
Publishing▁	-10.665
users▁	-10.665
enberg▁	-10.6654
03▁	-10.6658
ching▁	-10.6661
horror▁	-10.6662
surrounded▁	-10.6662
dam▁	-10.6663
northwest▁	-10.6668
angry▁	-10.6671
dangerous▁	-10.6674
extension▁	-10.6675
tier▁	-10.6679
bil	-10.668
Christopher▁	-10.668
EC▁	-10.6684
grant▁	-10.6689
camera▁	-10.6692
Jane▁	-10.6695
Publications▁	-10.6697
greatest▁	-10.6697
Jimmy▁	-10.6697
fresh▁	-10.6698
eth	-10.6699
gan▁	-10.6701
49	-10.6702
Kor	-10.6703
sman▁	-10.6706
ida▁	-10.6707
az▁	-10.6707
documents▁	-10.6709
End▁	-10.671
AR	-10.6719
ae	-10.6719
Wright▁	-10.6719
kissed▁	-10.6721
ico▁	-10.6724
aka▁	-10.6725
Defense▁	-10.6727
Romanian▁	-10.6734
sounded▁	-10.6735
1896▁	-10.6735
nick▁	-10.6736
ades▁	-10.6737
plot▁	-10.6738
wore▁	-10.6739
recordings▁	-10.6739
à▁	-10.6739
sha▁	-10.6739
notice▁	-10.674
mill▁	-10.6742
wounded▁	-10.6745
beach▁	-10.6748
owners▁	-10.6749
Rights▁	-10.6751
Bruce▁	-10.6751
rac	-10.6754
1895▁	-10.6754
cad	-10.676
eh	-10.6769
ards▁	-10.677
hits▁	-10.6771
Our▁	-10.6773
nar	-10.678
slid▁	-10.6781
wards▁	-10.6788
adapted▁	-10.6789
committed▁	-10.6792
Medicine▁	-10.6793
changing▁	-10.6793
ni▁	-10.6796
sts▁	-10.6797
biggest▁	-10.6798
dynasty▁	-10.6798
seventh▁	-10.6804
Ice▁	-10.6804
Hy	-10.6804
MPs▁	-10.6805
values▁	-10.6807
Bio	-10.6807
lev	-10.6809
Fal	-10.681
certainly▁	-10.681
foundation▁	-10.681
coat▁	-10.6819
medicine▁	-10.6822
Seattle▁	-10.6822
Rev	-10.6822
publications▁	-10.6823
drawing▁	-10.6823
sees▁	-10.6824
Honours▁	-10.6828
Cy	-10.6835
hat	-10.6835
bru	-10.6837
fil	-10.6838
Liga▁	-10.6838
temp	-10.6839
ank	-10.684
Cer	-10.6844
wet▁	-10.6849
vit	-10.6851
ald	-10.6851
Ross▁	-10.6851
Energy▁	-10.6858
describes▁	-10.6858
purchase▁	-10.6858
Alfred▁	-10.6859
stages▁	-10.686
teachers▁	-10.6864
Matt▁	-10.6865
oph	-10.6866
sul	-10.6873
long	-10.6873
fer▁	-10.6879
ō	-10.6886
Short▁	-10.6888
spi	-10.6895
Mark	-10.6899
ú	-10.6899
sburg▁	-10.6901
Has	-10.6902
sub▁	-10.6903
far	-10.6906
victims▁	-10.6912
1890▁	-10.6917
arc	-10.6923
nia▁	-10.6924
spend▁	-10.6926
delivered▁	-10.693
extremely▁	-10.693
wrapped▁	-10.693
circle▁	-10.6931
eur▁	-10.6933
gy▁	-10.6936
ologists▁	-10.6936
patient▁	-10.6936
Den	-10.694
queen▁	-10.6943
Kent▁	-10.6946
Jordan▁	-10.6948
33	-10.6948
contain▁	-10.6949
hide▁	-10.6949
bedroom▁	-10.695
sley▁	-10.6952
distributed▁	-10.6955
LA▁	-10.6955
municipal▁	-10.6961
regularly▁	-10.6961
Pas	-10.6962
xi	-10.6963
crossing▁	-10.6965
cin	-10.6965
gan	-10.697
Dean▁	-10.6972
Dur	-10.6977
ened▁	-10.6977
mont▁	-10.698
duct	-10.698
ello▁	-10.6981
horses▁	-10.6985
Though▁	-10.6985
Sound▁	-10.699
aya▁	-10.699
Victor▁	-10.6997
Section▁	-10.6998
Trade▁	-10.7002
evil▁	-10.7002
semi	-10.7004
offering▁	-10.7004
improved▁	-10.7006
ath▁	-10.7006
drivers▁	-10.7009
cri	-10.7012
dies▁	-10.702
App	-10.7023
aud	-10.7024
Wood▁	-10.7026
interests▁	-10.7028
Hampshire▁	-10.7034
philosophy▁	-10.7034
1899▁	-10.7037
understood▁	-10.7037
uz	-10.704
Camp▁	-10.7041
guards▁	-10.7043
Economic▁	-10.7046
rejected▁	-10.7046
rep	-10.7052
hoped▁	-10.7052
atory▁	-10.7054
eds▁	-10.7057
athletes▁	-10.7058
burned▁	-10.7059
string▁	-10.7059
Palace▁	-10.7065
putting▁	-10.7065
Gold	-10.7066
Lor	-10.7068
mp	-10.7069
Dallas▁	-10.7071
Mid	-10.7072
1,000▁	-10.7077
Tim	-10.7082
Gall	-10.7084
din	-10.7084
ify▁	-10.7087
southwest▁	-10.7089
genera▁	-10.7089
separated▁	-10.7091
Shu	-10.7097
aut	-10.7098
agricultural▁	-10.7101
Rio▁	-10.7102
goods▁	-10.7103
painters▁	-10.7107
pattern▁	-10.7107
reception▁	-10.7111
pack▁	-10.7112
passengers▁	-10.7113
darkness▁	-10.7114
ational▁	-10.7118
Billy▁	-10.7119
Spring▁	-10.712
rich	-10.7123
uff▁	-10.7124
composers▁	-10.7126
NBA▁	-10.7131
Taiwan▁	-10.7132
broad▁	-10.7134
aware▁	-10.7139
rid	-10.7139
color	-10.7144
applications▁	-10.7144
measures▁	-10.7144
Gl	-10.7145
ST▁	-10.7145
1897▁	-10.7147
plate▁	-10.7147
kl	-10.7152
somewhere▁	-10.7153
Note▁	-10.7153
Personnel▁	-10.7157
bas	-10.7162
cru	-10.7165
Training▁	-10.7166
proper▁	-10.7169
Gulf▁	-10.717
lift▁	-10.717
af▁	-10.717
Nar	-10.7178
ble▁	-10.7179
friendly▁	-10.7182
wick▁	-10.7183
nations▁	-10.7186
invasion▁	-10.7188
references▁	-10.7188
Ball	-10.7188
kk	-10.7188
sections▁	-10.7189
LP▁	-10.719
stuff▁	-10.719
Ry	-10.7192
ening▁	-10.7194
5,000▁	-10.7196
len▁	-10.7203
ung	-10.7209
NA	-10.7209
35	-10.7211
70	-10.7214
closing▁	-10.7217
Baltimore▁	-10.7219
damaged▁	-10.7219
stores▁	-10.722
medium▁	-10.7221
ora▁	-10.7225
wondered▁	-10.7225
Jeff▁	-10.7226
Stewart▁	-10.7231
knees▁	-10.7231
Senator▁	-10.7232
fan▁	-10.7238
cher	-10.7238
Kil	-10.724
Van	-10.7241
Stage▁	-10.7242
stor	-10.7249
fur	-10.725
ow▁	-10.7254
tus▁	-10.7255
gy	-10.7256
wan	-10.7256
Railroad▁	-10.7256
gene▁	-10.7259
listen▁	-10.726
thousands▁	-10.7262
Studio▁	-10.7263
dal	-10.7266
reduce▁	-10.7269
persons▁	-10.7269
tru	-10.729
aside▁	-10.7291
sequence▁	-10.7291
Reg	-10.7292
sick▁	-10.7293
ap▁	-10.7294
lig	-10.7299
Robinson▁	-10.73
colonial▁	-10.73
arrival▁	-10.7302
cited▁	-10.7305
Wars▁	-10.7305
uv	-10.7311
powered▁	-10.7312
weapon▁	-10.7313
oll	-10.7319
throw▁	-10.7322
lar▁	-10.7323
soldier▁	-10.7325
iso	-10.7327
ii▁	-10.7332
printed▁	-10.7335
Century▁	-10.7338
Johnny▁	-10.7338
crazy▁	-10.7338
IN	-10.7342
Neu	-10.7343
loud▁	-10.7347
Sarah▁	-10.7348
designs▁	-10.7349
Russell▁	-10.7351
Austin▁	-10.7351
Ed▁	-10.7355
universities▁	-10.7357
wedding▁	-10.7357
Singh▁	-10.7357
drove▁	-10.7359
ily▁	-10.736
Mrs	-10.7361
willing▁	-10.7361
Ward▁	-10.7362
š	-10.7362
Murray▁	-10.7363
forth▁	-10.7364
Hills▁	-10.7367
Writers▁	-10.7369
equivalent▁	-10.7369
Mol	-10.7374
premiered▁	-10.7376
oz	-10.7378
prisoners▁	-10.7382
tim	-10.7382
cousin▁	-10.7382
grey▁	-10.7385
acted▁	-10.7385
Dan▁	-10.7388
attend▁	-10.7388
Up	-10.7388
odd▁	-10.7388
pleasure▁	-10.7388
ute▁	-10.739
wer	-10.7393
buy▁	-10.7395
deputy▁	-10.7401
Maine▁	-10.7403
pale▁	-10.7407
cia▁	-10.7408
coal▁	-10.741
scholars▁	-10.742
threatened▁	-10.742
Cla	-10.7425
adjacent▁	-10.7426
FIFA▁	-10.7427
sters▁	-10.7427
cam	-10.7429
lit▁	-10.743
ink	-10.7432
approached▁	-10.7433
atus▁	-10.7434
aire▁	-10.7434
Constitution▁	-10.7439
shoot▁	-10.7439
counter	-10.7439
Tal	-10.744
í▁	-10.7441
sim	-10.7443
scientists▁	-10.7445
dro	-10.7451
Will▁	-10.7451
с	-10.7452
maintain▁	-10.7452
publishing▁	-10.7458
Adams▁	-10.746
labor▁	-10.7465
roughly▁	-10.7466
formally▁	-10.7466
Post	-10.7471
Roy▁	-10.7474
mountains▁	-10.7476
pandemic▁	-10.7477
mention▁	-10.7482
ess▁	-10.7483
age	-10.7486
distinct▁	-10.749
favor▁	-10.749
clock▁	-10.7493
ball	-10.7494
fra	-10.7495
Male▁	-10.7495
SA	-10.7496
Shin	-10.7498
5:	-10.7501
anniversary▁	-10.7503
starred▁	-10.7504
pro▁	-10.7505
acid▁	-10.7505
1894▁	-10.7512
measure▁	-10.7516
file▁	-10.752
err	-10.752
Baker▁	-10.7522
feelings▁	-10.7528
Kennedy▁	-10.7529
feed▁	-10.7533
earliest▁	-10.7535
task▁	-10.7535
Att	-10.7536
dal▁	-10.7538
Franklin▁	-10.7542
organ▁	-10.7543
Ven	-10.7544
examples▁	-10.7554
pen▁	-10.7556
Co▁	-10.7557
cut	-10.7558
collaboration▁	-10.7561
Collection▁	-10.7561
Carlos▁	-10.7563
Art	-10.7563
CE▁	-10.7569
offensive▁	-10.7574
hoping▁	-10.7577
Lower▁	-10.7577
producers▁	-10.758
Stanley▁	-10.7581
37	-10.7582
decade▁	-10.7584
opinion▁	-10.7586
les	-10.7588
linked▁	-10.7591
tired▁	-10.7595
accompanied▁	-10.7599
sar	-10.7599
adding▁	-10.7599
purposes▁	-10.76
Back▁	-10.76
sho	-10.76
itions▁	-10.7602
wr	-10.7605
Nelson▁	-10.7606
classified▁	-10.7606
Mir	-10.7608
contributions▁	-10.7612
partnership▁	-10.7612
responsibility▁	-10.7612
ethnic▁	-10.7612
eck	-10.7616
defensive▁	-10.7619
prime▁	-10.7624
movements▁	-10.7625
rounds▁	-10.7626
Years▁	-10.7629
Glasgow▁	-10.7632
description▁	-10.7632
costs▁	-10.7633
ranking▁	-10.7633
cel	-10.7636
90	-10.7637
hidden▁	-10.7638
parking▁	-10.764
Ker	-10.7644
Alliance▁	-10.7645
communications▁	-10.7645
Just▁	-10.7645
factor▁	-10.7647
Arm	-10.7655
fishing▁	-10.7656
franchise▁	-10.7658
concrete▁	-10.7658
responded▁	-10.7658
Staff▁	-10.7658
Les▁	-10.766
mun	-10.7662
;"|▁	-10.7668
Chart▁	-10.7671
Upper▁	-10.7673
Princess▁	-10.7677
duties▁	-10.7679
flag▁	-10.7681
foot	-10.7683
investment▁	-10.7684
Micro	-10.7685
budget▁	-10.7686
push▁	-10.7687
How▁	-10.7693
1893▁	-10.7693
Nick▁	-10.7693
residential▁	-10.7696
Base▁	-10.7696
concerns▁	-10.7703
promised▁	-10.7703
Primary▁	-10.7704
Camp	-10.7705
contest▁	-10.7705
Sil	-10.7705
squ	-10.7706
hang▁	-10.7707
rolling▁	-10.7709
Liverpool▁	-10.771
Thompson▁	-10.771
tu▁	-10.7714
Son	-10.7715
commission▁	-10.772
replace▁	-10.7722
participate▁	-10.7723
Campbell▁	-10.7723
softly▁	-10.7724
sting▁	-10.7726
constant▁	-10.773
Dol	-10.773
Lang	-10.7732
returns▁	-10.7733
ami	-10.7733
CEO▁	-10.7736
profit▁	-10.7738
lus	-10.774
Flora▁	-10.7741
Agency▁	-10.7743
Website▁	-10.7743
classification▁	-10.7743
Sen	-10.7745
oo	-10.7745
ör	-10.7746
row	-10.7747
repeated▁	-10.7749
filed▁	-10.7751
mining▁	-10.7753
Here▁	-10.7754
gender▁	-10.7755
ara	-10.7755
cheek▁	-10.7759
Municipality▁	-10.7762
correct▁	-10.7762
crisis▁	-10.7763
Bru	-10.7767
phon	-10.7768
Birmingham▁	-10.7769
emma▁	-10.777
shock▁	-10.7771
Race▁	-10.7775
path	-10.7775
worried▁	-10.7776
manner▁	-10.7778
hil	-10.7782
Wayne▁	-10.7785
fill▁	-10.7787
represents▁	-10.7788
ł	-10.7788
designer▁	-10.7795
southeast▁	-10.7796
star	-10.7797
beauty▁	-10.7802
degrees▁	-10.7802
wonder▁	-10.7802
massive▁	-10.7802
waters▁	-10.7803
sz	-10.7805
Moon▁	-10.7805
var	-10.7808
-2▁	-10.7808
Wrestling▁	-10.7808
Norman▁	-10.7809
talked▁	-10.781
Fr	-10.7811
36	-10.7811
craft▁	-10.7811
banks▁	-10.7812
Metro▁	-10.7812
hanging▁	-10.7815
ency▁	-10.7816
1891▁	-10.7818
Med	-10.782
spirit▁	-10.7821
businessman▁	-10.7823
Wall	-10.7823
Daily▁	-10.7824
Portland▁	-10.7825
newspapers▁	-10.7828
Test▁	-10.783
serv	-10.783
factors▁	-10.7831
hel	-10.7835
definitely▁	-10.7835
tan▁	-10.7837
somehow▁	-10.7843
lane▁	-10.7843
branches▁	-10.7843
pole▁	-10.7846
ras	-10.7846
scent▁	-10.7849
Alt	-10.7851
ska▁	-10.7851
Sy	-10.7853
maker▁	-10.7856
moves▁	-10.7857
Band	-10.7858
ose▁	-10.7861
pocket▁	-10.7861
routes▁	-10.7862
Fer	-10.7862
Broadway▁	-10.7863
Judge▁	-10.7863
hin	-10.7864
determine▁	-10.7865
shing▁	-10.7865
Prefecture▁	-10.7868
Down▁	-10.7869
Andy▁	-10.7871
rush▁	-10.7876
Gary▁	-10.7878
RC▁	-10.788
studying▁	-10.7881
=3	-10.7883
geo	-10.7885
150▁	-10.7885
compilation▁	-10.7888
notably▁	-10.7888
seriously▁	-10.7888
somewhat▁	-10.7897
lee▁	-10.7898
noise▁	-10.7899
endemic▁	-10.7901
romantic▁	-10.7902
ama▁	-10.7903
Rat	-10.7903
AT	-10.7903
riv	-10.7905
ben	-10.791
Matthew▁	-10.7915
tomorrow▁	-10.7915
quietly▁	-10.7915
plain▁	-10.7916
ai	-10.7923
ister▁	-10.7928
ane	-10.7928
journey▁	-10.7928
Graham▁	-10.793
38	-10.793
camp	-10.7932
sted▁	-10.7935
Ann▁	-10.7936
treated▁	-10.7937
Crown▁	-10.794
Windows▁	-10.7941
tests▁	-10.7942
kal	-10.7944
TA▁	-10.7946
lac	-10.7949
Lost▁	-10.7952
UEFA▁	-10.7955
Stars▁	-10.7962
Rivers▁	-10.7965
bay▁	-10.7966
Die▁	-10.797
giant▁	-10.7972
Karl▁	-10.7972
option▁	-10.7974
Trophy▁	-10.7975
provincial▁	-10.7975
signing▁	-10.7976
ye	-10.7976
Will	-10.7977
Dakota▁	-10.7982
existed▁	-10.7982
secure▁	-10.7983
copy▁	-10.7984
weak▁	-10.7985
Woman▁	-10.7987
locality▁	-10.7989
impossible▁	-10.7991
classic▁	-10.7993
Serbia▁	-10.7995
snow▁	-10.7996
entering▁	-10.7997
1888▁	-10.7998
era	-10.8
driven▁	-10.8002
Chile▁	-10.8003
Sor	-10.8004
contrast▁	-10.8011
bla	-10.8014
aceae▁	-10.8014
Over	-10.8015
Sav	-10.8018
press	-10.8021
kick▁	-10.8024
mol	-10.8024
iti	-10.8028
Be▁	-10.803
limit▁	-10.8034
CC▁	-10.8036
illi	-10.8037
Medalists▁	-10.8042
emergency▁	-10.8042
shifted▁	-10.8042
weekly▁	-10.8042
Dra	-10.8044
Trump▁	-10.8046
ises▁	-10.8047
Orthodox▁	-10.8049
progress▁	-10.8049
Thus▁	-10.8052
Jason▁	-10.8053
home	-10.8054
knife▁	-10.8056
wel	-10.8056
1885▁	-10.806
Brothers▁	-10.806
carefully▁	-10.8063
assistance▁	-10.8063
Baron▁	-10.8067
ward	-10.8068
racial▁	-10.807
operates▁	-10.807
stitu	-10.8072
39	-10.8074
ban▁	-10.8076
Authority▁	-10.8076
normally▁	-10.8077
ide▁	-10.8078
Challenge▁	-10.8083
Soccer▁	-10.8083
Richmond▁	-10.809
Construction▁	-10.809
Qui	-10.8091
riding▁	-10.8093
Mand	-10.8093
Oblast▁	-10.8095
NBC▁	-10.8096
Madrid▁	-10.8097
hate▁	-10.8097
Arch	-10.8097
ST	-10.8099
1892▁	-10.81
wake▁	-10.81
oni	-10.8101
depth▁	-10.8102
Moths▁	-10.8103
Marshall▁	-10.8105
Grade▁	-10.8108
BA▁	-10.8114
ace▁	-10.8115
one	-10.8119
angle▁	-10.8128
flows▁	-10.8129
daughters▁	-10.8131
enjoyed▁	-10.8131
temporary▁	-10.8133
severe▁	-10.8137
shift▁	-10.8138
É	-10.8144
decide▁	-10.8144
videos▁	-10.8145
ani	-10.8149
faster▁	-10.815
ads▁	-10.8151
agree▁	-10.8152
Wy	-10.8154
Peace▁	-10.8154
asc	-10.8155
Ky	-10.8155
Bun	-10.8156
Express▁	-10.8156
clan▁	-10.8159
Opera▁	-10.8159
storage▁	-10.8162
grand▁	-10.8167
yo▁	-10.8169
organisation▁	-10.8172
ensure▁	-10.8172
flew▁	-10.8173
marks▁	-10.8173
approval▁	-10.8178
indicated▁	-10.8178
require▁	-10.8178
Current▁	-10.8179
parks▁	-10.8182
oral▁	-10.8183
Ell	-10.8189
rad	-10.8193
etti▁	-10.8194
poem▁	-10.8194
Capital▁	-10.82
solution▁	-10.8203
Play	-10.8204
Through▁	-10.8207
bell▁	-10.8207
Athletic▁	-10.8213
guitarist▁	-10.8213
cell	-10.8217
hom	-10.8219
childhood▁	-10.822
CS▁	-10.8223
quir	-10.8225
devices▁	-10.8226
mail▁	-10.8227
een▁	-10.8227
fallen▁	-10.8228
erson▁	-10.8229
backs▁	-10.823
spending▁	-10.8233
swimming▁	-10.8233
debuted▁	-10.8233
defeating▁	-10.8234
chin▁	-10.8236
Pictures▁	-10.824
Technical▁	-10.824
taste▁	-10.824
Guide▁	-10.824
township▁	-10.8241
favorite▁	-10.8247
qualifying▁	-10.8247
grandfather▁	-10.8249
MC▁	-10.8249
replacement▁	-10.8251
inae▁	-10.8251
Wor	-10.8253
chamber▁	-10.8256
boo	-10.8256
Ny	-10.8257
add▁	-10.8258
Ul	-10.8258
aro	-10.8261
Organization▁	-10.8261
worst▁	-10.8263
ric▁	-10.8266
Artists▁	-10.8269
mas	-10.8275
moth▁	-10.8278
mix▁	-10.828
hu▁	-10.828
DNA▁	-10.828
AS	-10.8281
subjects▁	-10.8282
Brooklyn▁	-10.8282
Mission▁	-10.8282
edi	-10.8285
ie	-10.8286
clo	-10.8292
Qua	-10.8294
collections▁	-10.8296
saved▁	-10.8298
load▁	-10.8299
log▁	-10.8302
Elementary▁	-10.8302
edly▁	-10.8305
stick▁	-10.8307
10.	-10.8308
"|▁	-10.831
Carter▁	-10.831
chase▁	-10.8315
forget▁	-10.8316
Pet	-10.8318
dh	-10.8319
shell▁	-10.8323
affairs▁	-10.8323
radi	-10.8324
Literature▁	-10.8324
reign▁	-10.8329
bling▁	-10.8336
Hur	-10.8337
nik▁	-10.8339
eira▁	-10.834
disappeared▁	-10.8341
ups▁	-10.8344
Warren▁	-10.8345
Rob	-10.8361
eating▁	-10.8363
Bos	-10.8363
dan▁	-10.8364
Iron▁	-10.8365
LGBT▁	-10.8365
Defence▁	-10.8366
Nova▁	-10.8367
inf	-10.8367
Thi	-10.8368
stupid▁	-10.8372
physics▁	-10.8372
genre▁	-10.8372
Theater▁	-10.8372
Charlie▁	-10.8373
Disney▁	-10.8374
ew	-10.8379
markets▁	-10.8379
Lanka▁	-10.8381
1887▁	-10.8382
1889▁	-10.8382
commune▁	-10.8386
Yorkshire▁	-10.8386
Iranian▁	-10.8386
relative▁	-10.8386
CBS▁	-10.8388
act	-10.8389
realize▁	-10.839
Six▁	-10.8391
chin	-10.8391
Hil	-10.8393
critic▁	-10.8394
sum▁	-10.8394
nat	-10.8395
vocal▁	-10.8395
eleven▁	-10.8398
Alberta▁	-10.8398
grace▁	-10.8398
protest▁	-10.8399
Free	-10.8399
graph▁	-10.8402
habitat▁	-10.8403
Ass	-10.8405
lasted▁	-10.8408
estr	-10.8409
ownership▁	-10.8414
Discography▁	-10.8414
balance▁	-10.8416
Nigeria▁	-10.8421
choose▁	-10.8428
ei	-10.8432
arr	-10.8438
rell▁	-10.8438
ante▁	-10.8442
rest	-10.8442
judges▁	-10.8442
night	-10.8449
MA	-10.8449
Convention▁	-10.8449
="#	-10.845
Nazi▁	-10.8452
meets▁	-10.8454
anne▁	-10.8455
aro▁	-10.8455
pink▁	-10.8458
executed▁	-10.8463
Album▁	-10.8465
naval▁	-10.8468
Caribbean▁	-10.847
criticized▁	-10.847
Bou	-10.8473
White	-10.8474
ron▁	-10.8474
formations▁	-10.8479
prop	-10.848
Parish▁	-10.8481
Dark▁	-10.8483
Even▁	-10.8484
Arabic▁	-10.8484
confused▁	-10.8485
businesses▁	-10.8485
pot	-10.8487
texts▁	-10.8494
Lane▁	-10.8496
Ty	-10.8496
ously▁	-10.8497
ail	-10.8497
Nevada▁	-10.8499
rat	-10.8501
Temp	-10.8504
hat▁	-10.8505
suicide▁	-10.8506
Mis	-10.851
eff	-10.8518
Kir	-10.8522
ech	-10.8525
Mart	-10.8525
landed▁	-10.8527
magazines▁	-10.8527
sin	-10.8528
def	-10.8528
Seven▁	-10.8534
Fair	-10.8536
wolf▁	-10.8537
equipped▁	-10.8541
medieval▁	-10.8541
soundtrack▁	-10.8541
Weekly▁	-10.8542
stable▁	-10.8544
domin	-10.8547
heritage▁	-10.8548
courts▁	-10.8552
planet▁	-10.8558
Warner▁	-10.8558
Online▁	-10.8559
appointment▁	-10.856
Gui	-10.856
hundreds▁	-10.8563
poverty▁	-10.8563
Delhi▁	-10.8563
SP	-10.8568
burning▁	-10.8571
sch▁	-10.8573
gotten▁	-10.8576
demanded▁	-10.8577
drugs▁	-10.8577
dow	-10.8581
rough▁	-10.8583
emerged▁	-10.859
Rico▁	-10.8592
gged▁	-10.8595
Front▁	-10.8598
erman▁	-10.8601
paused▁	-10.8607
McC	-10.8608
34	-10.861
Cul	-10.8615
lyn▁	-10.8617
rin	-10.8619
lou	-10.8619
Ten▁	-10.8625
azz	-10.8625
cess	-10.8625
Faculty▁	-10.8627
guilty▁	-10.8627
Selected▁	-10.8629
6.	-10.8631
Urban▁	-10.8633
faith▁	-10.8634
exposed▁	-10.8635
Vin	-10.8635
tar▁	-10.864
restored▁	-10.8647
eo	-10.8648
instruments▁	-10.8648
Syn	-10.8651
aw▁	-10.8654
acy▁	-10.8655
Cricket▁	-10.8656
Nicholas▁	-10.8656
portrayed▁	-10.8656
=	-10.8657
Lind	-10.8657
trail▁	-10.8658
ier	-10.8659
atic▁	-10.866
Mitchell▁	-10.8663
colleges▁	-10.8663
significantly▁	-10.8663
Gri	-10.8667
Blues▁	-10.8669
strategy▁	-10.867
suggests▁	-10.867
Morris▁	-10.867
gram▁	-10.8671
enc	-10.8671
danger▁	-10.8672
nomination▁	-10.8673
requirements▁	-10.8677
Orleans▁	-10.8677
eva▁	-10.8679
deck▁	-10.868
Euro	-10.868
Ant	-10.8687
mode▁	-10.8689
fruit▁	-10.869
Bangladesh▁	-10.8691
Jazz▁	-10.8692
ough▁	-10.8694
erg	-10.8697
boundary▁	-10.8699
lit	-10.8701
steam▁	-10.8702
authors▁	-10.8703
begun▁	-10.8704
RS▁	-10.8708
tip▁	-10.8709
downtown▁	-10.8709
Franc	-10.871
sy	-10.8711
Mediterranean▁	-10.8713
smell▁	-10.8714
virus▁	-10.8719
assault▁	-10.8721
RI	-10.8722
47	-10.8726
fighter▁	-10.8728
Stra	-10.8728
moments▁	-10.8732
1880▁	-10.8735
ular▁	-10.8736
fund▁	-10.8738
appearing▁	-10.8739
Companies▁	-10.8742
nate▁	-10.8744
mot	-10.8745
ern▁	-10.8748
interesting▁	-10.8749
journalists▁	-10.8749
ori	-10.8753
cash▁	-10.8755
marry▁	-10.8756
ré	-10.8757
lad	-10.8759
Movement▁	-10.8764
vessels▁	-10.8764
Politics▁	-10.8764
membership▁	-10.8764
1.5▁	-10.8765
ket	-10.8766
calm▁	-10.8769
lay	-10.8771
Saints▁	-10.8771
Racing▁	-10.8777
Bachelor▁	-10.8778
schedule▁	-10.8778
technique▁	-10.8778
po▁	-10.878
golden▁	-10.878
max▁	-10.878
cop	-10.8784
run	-10.8784
legislation▁	-10.8786
Benjamin▁	-10.8786
á▁	-10.8786
innings▁	-10.8787
scar	-10.8789
NY▁	-10.879
Work▁	-10.8791
breathing▁	-10.8792
Egyptian▁	-10.8793
soil▁	-10.8794
ores▁	-10.88
aunt▁	-10.88
belt▁	-10.8801
bra▁	-10.8802
ack▁	-10.8803
retained▁	-10.8808
hosts▁	-10.8808
Systems▁	-10.8809
truly▁	-10.8811
God	-10.8811
Bow	-10.8812
assi	-10.8813
activist▁	-10.8815
fifteen▁	-10.8815
keys▁	-10.8817
scheme▁	-10.882
fre	-10.8822
Jonathan▁	-10.8822
artistic▁	-10.8823
busy▁	-10.8826
besides▁	-10.8826
colour▁	-10.8829
Demographics▁	-10.883
context▁	-10.8832
Pradesh▁	-10.8837
filmed▁	-10.8837
regiment▁	-10.8837
etic▁	-10.8839
1/	-10.8842
jumped▁	-10.8844
strongly▁	-10.8844
Philippine▁	-10.8845
nal▁	-10.8846
letting▁	-10.8855
layer▁	-10.8856
45	-10.8856
Islam▁	-10.8859
sar▁	-10.8859
Poly	-10.8859
meter▁	-10.8861
horn▁	-10.8861
sit	-10.8864
possibility▁	-10.8866
historians▁	-10.8866
warning▁	-10.8868
voting▁	-10.8871
itz▁	-10.8871
Cathedral▁	-10.8873
obviously▁	-10.8873
policies▁	-10.8873
forests▁	-10.8874
Record▁	-10.8876
swa	-10.8878
Kha	-10.8879
ž	-10.8881
kid▁	-10.8884
clothing▁	-10.889
sun	-10.8893
heading▁	-10.8893
dent	-10.8894
Assistant▁	-10.8896
electoral▁	-10.8896
suspended▁	-10.8896
rapidly▁	-10.8896
CA	-10.8896
oned▁	-10.8902
Additionally▁	-10.8903
cat▁	-10.8903
ado▁	-10.8903
aur	-10.8905
hydro	-10.8909
beating▁	-10.8913
Mam	-10.8915
ous	-10.8916
1865▁	-10.8918
Cle	-10.8924
ministers▁	-10.8925
cleared▁	-10.8928
front	-10.8929
abilities▁	-10.8929
electro	-10.893
Language▁	-10.8932
scholar▁	-10.8932
Guinea▁	-10.8932
prove▁	-10.8934
1882▁	-10.8936
ison▁	-10.8941
Fred▁	-10.8944
ich▁	-10.8945
aci	-10.8945
Tigers▁	-10.8948
eve▁	-10.8948
beer▁	-10.8953
listening▁	-10.8955
alis▁	-10.8955
Bir	-10.8956
contra	-10.8958
parallel▁	-10.8962
Lou	-10.8963
ă	-10.8964
crash▁	-10.8966
Victorian▁	-10.8967
hood▁	-10.897
plan	-10.897
ved▁	-10.8973
Parker▁	-10.8974
Limited▁	-10.8977
sentence▁	-10.8977
agents▁	-10.898
Dem	-10.8981
Wo	-10.8982
sisters▁	-10.8983
indicate▁	-10.8984
Gla	-10.8984
chen▁	-10.8988
kg▁	-10.8989
coastal▁	-10.8992
fle	-10.8992
shaking▁	-10.8998
Alaska▁	-10.8999
Borough▁	-10.9001
motor▁	-10.9005
AR▁	-10.9006
feels▁	-10.9008
1886▁	-10.901
lav	-10.901
experiences▁	-10.9014
bathroom▁	-10.9014
Pac	-10.9015
Species▁	-10.9015
channels▁	-10.9016
ack	-10.9016
lieutenant▁	-10.9021
suffering▁	-10.9022
1864▁	-10.9028
reputation▁	-10.9029
appeal▁	-10.9036
replacing▁	-10.9038
rick	-10.9038
Pil	-10.904
2–	-10.9043
assembly▁	-10.9044
surgery▁	-10.9044
Classic▁	-10.9045
agencies▁	-10.9045
ation	-10.9045
prince▁	-10.9051
survive▁	-10.9051
hoo	-10.9051
counties▁	-10.9052
og▁	-10.9052
illegal▁	-10.9054
Plat	-10.9057
IS	-10.9059
ense▁	-10.9059
vessel▁	-10.9059
element▁	-10.9062
Hunter▁	-10.9062
Dec	-10.9064
Jerusalem▁	-10.9066
popularity▁	-10.9066
1881▁	-10.907
Pap	-10.907
Educational▁	-10.9074
landscape▁	-10.9074
Freedom▁	-10.9074
los▁	-10.9077
kr	-10.9082
1863▁	-10.9085
instance▁	-10.9086
reform▁	-10.9089
Collins▁	-10.9089
phil	-10.9091
hop▁	-10.9094
jump▁	-10.9096
sized▁	-10.9098
roots▁	-10.9099
Peru▁	-10.9108
oma▁	-10.9108
arrest▁	-10.9109
ours▁	-10.9111
injuries▁	-10.9111
Tower▁	-10.9112
Sat	-10.9112
continuing▁	-10.9114
ander▁	-10.9119
bid▁	-10.9121
ils▁	-10.9123
occasionally▁	-10.9126
Milan▁	-10.9129
denied▁	-10.913
vi▁	-10.913
Vit	-10.9133
rescue▁	-10.9134
weekend▁	-10.9141
1884▁	-10.9145
audio▁	-10.9145
Od	-10.9147
column▁	-10.9149
Fellow▁	-10.915
lined▁	-10.9152
john▁	-10.9154
mad▁	-10.9155
Kol	-10.9155
Alice▁	-10.9155
att	-10.9159
Tha	-10.916
components▁	-10.9164
Good	-10.9165
lim	-10.9166
matic▁	-10.9167
Turner▁	-10.9169
successor▁	-10.9172
Rail▁	-10.9174
moon▁	-10.9175
blocks▁	-10.9179
aim▁	-10.918
closure▁	-10.9181
scope▁	-10.9186
entertainment▁	-10.9194
Food▁	-10.9195
1920	-10.9195
ñ	-10.92
fire	-10.9205
TC▁	-10.9208
differences▁	-10.921
Orange▁	-10.921
ling	-10.9215
gathered▁	-10.9217
coverage▁	-10.9217
stroke▁	-10.9218
mrs▁	-10.9218
bin	-10.9223
Barbara▁	-10.9225
spo	-10.9226
wanting▁	-10.9227
Action▁	-10.9227
Ara	-10.9229
vas	-10.923
sal▁	-10.9232
tel▁	-10.9233
shares▁	-10.9235
kov▁	-10.9236
poets▁	-10.9243
Rub	-10.9245
Croatian▁	-10.9248
personality▁	-10.9248
aspects▁	-10.9255
Ana	-10.9255
jobs▁	-10.9256
bomb▁	-10.9256
1862▁	-10.9259
sym	-10.926
smooth▁	-10.9261
Paul	-10.9262
criticism▁	-10.9263
satellite▁	-10.9263
chu	-10.9266
Mass	-10.927
proposal▁	-10.9271
Mak	-10.9271
pit	-10.9272
Barry▁	-10.9277
hunter▁	-10.9279
sh▁	-10.9281
Dead▁	-10.9281
Comp	-10.9282
2010	-10.9285
Private▁	-10.9286
YouTube▁	-10.9286
chy▁	-10.9289
underground▁	-10.929
hunting▁	-10.9295
chemistry▁	-10.9301
processes▁	-10.9301
exp	-10.9303
mus▁	-10.9305
Phoenix▁	-10.9309
snapped▁	-10.9309
publisher▁	-10.9309
sudden▁	-10.9309
Muhammad▁	-10.9316
Count▁	-10.9321
cry▁	-10.9321
stan	-10.9323
describe▁	-10.9325
sive▁	-10.9328
anda▁	-10.9335
ami▁	-10.9339
Mul	-10.9341
part	-10.9348
matters▁	-10.9349
Jun	-10.935
Chu	-10.935
jaw▁	-10.9351
ender▁	-10.9352
Bul	-10.9355
mirror▁	-10.9355
tools▁	-10.9356
Computer▁	-10.9356
Cooper▁	-10.9356
hang	-10.9359
tribe▁	-10.9361
add	-10.9361
bi▁	-10.9362
traveled▁	-10.9363
bet▁	-10.9364
glad▁	-10.9364
insul	-10.9366
Bible▁	-10.9367
ys	-10.9367
Late▁	-10.9368
Voivodeship▁	-10.937
mul	-10.9372
IP▁	-10.9374
Bl	-10.938
CH	-10.9382
cip	-10.9382
Recipients▁	-10.9386
municipalities▁	-10.9386
processing▁	-10.9386
unusual▁	-10.9386
Territory▁	-10.9394
smiling▁	-10.9394
Zone▁	-10.9395
boards▁	-10.9399
SE	-10.94
sang▁	-10.94
wood	-10.94
roo	-10.94
ê	-10.9401
cable▁	-10.9403
cave▁	-10.9406
pictures▁	-10.9409
accounts▁	-10.941
rob	-10.9413
Hans▁	-10.9419
Hei	-10.9426
dr▁	-10.9431
surviving▁	-10.9432
Critical▁	-10.944
manufacturing▁	-10.944
requires▁	-10.944
е	-10.9441
Dy	-10.9442
backed▁	-10.9445
work	-10.9445
tea▁	-10.9445
institution▁	-10.9448
Father▁	-10.9453
ttle▁	-10.9455
Standard▁	-10.9456
mur	-10.9458
ony▁	-10.9461
Part	-10.9462
declined▁	-10.9464
kel	-10.9466
Bern	-10.947
Democrats▁	-10.9471
Nebraska▁	-10.9471
insurance▁	-10.9471
Jerry▁	-10.9472
cabinet▁	-10.9479
involvement▁	-10.9479
fitted▁	-10.9479
medals▁	-10.948
ising▁	-10.948
Fine▁	-10.9483
gay▁	-10.9483
bones▁	-10.9483
tens	-10.9484
Original▁	-10.9487
championships▁	-10.9487
increasingly▁	-10.9487
ée▁	-10.9491
UN▁	-10.9498
iz▁	-10.9501
Zu	-10.9502
visitors▁	-10.9502
1861▁	-10.9507
jec	-10.9508
RE	-10.9509
Colombia▁	-10.951
Vancouver▁	-10.951
occupation▁	-10.951
benefit▁	-10.951
Saudi▁	-10.9511
var▁	-10.9517
belonged▁	-10.9518
Bad	-10.9519
practices▁	-10.9519
gift▁	-10.9519
obvious▁	-10.9526
modified▁	-10.9526
56	-10.9532
Virgin▁	-10.9534
rom	-10.9534
Indians▁	-10.9535
Wing▁	-10.9535
Chamber▁	-10.9536
Release▁	-10.9536
alization▁	-10.9538
frequency▁	-10.9542
rent	-10.9543
dul	-10.9546
rub	-10.9547
territories▁	-10.9549
achieve▁	-10.955
rab	-10.955
Universal▁	-10.9551
1000▁	-10.9558
gla	-10.9561
awa	-10.9563
pm▁	-10.9564
symbol▁	-10.9565
Wild▁	-10.957
rel	-10.957
Kings▁	-10.9572
manga▁	-10.9572
forever▁	-10.9573
owns▁	-10.9573
ingham▁	-10.9576
ori▁	-10.9576
Spi	-10.9584
Cuba▁	-10.9585
Vir	-10.9586
https	-10.9586
shi▁	-10.9588
document▁	-10.9589
youngest▁	-10.9589
Rangers▁	-10.9591
Fund▁	-10.9594
alleged▁	-10.9597
10,000▁	-10.9597
Around▁	-10.9603
parliament▁	-10.9605
slipped▁	-10.9605
movies▁	-10.9605
throne▁	-10.9605
reaches▁	-10.9606
outer▁	-10.961
Armenian▁	-10.9613
infrastructure▁	-10.9613
tunnel▁	-10.9613
Profile▁	-10.9614
Contemporary▁	-10.9614
Phil▁	-10.9617
rows▁	-10.9618
ont	-10.9619
discovery▁	-10.962
uncredited▁	-10.9621
adaptation▁	-10.9621
mon▁	-10.9623
ı	-10.9624
div	-10.9627
parliamentary▁	-10.9628
seed▁	-10.9634
Cities▁	-10.9635
carbon▁	-10.9636
statue▁	-10.9637
ei▁	-10.9641
Charlotte▁	-10.9644
peaked▁	-10.9644
claiming▁	-10.9644
Ian▁	-10.965
ratio▁	-10.9651
ero	-10.9651
ranks▁	-10.9654
Bush▁	-10.9655
Rav	-10.9657
fictional▁	-10.966
indigenous▁	-10.966
chapel▁	-10.9661
nearest▁	-10.9668
Edition▁	-10.9668
Side▁	-10.9669
gue▁	-10.9674
eyed▁	-10.9676
Communications▁	-10.9676
seeking▁	-10.9677
longest▁	-10.9677
And	-10.9677
alo	-10.9679
Yale▁	-10.9681
losses▁	-10.9684
mond▁	-10.9684
Marvel▁	-10.9685
0–	-10.9685
advice▁	-10.9688
short	-10.9691
considerable▁	-10.9692
squadron▁	-10.9692
Labor▁	-10.9695
Munich▁	-10.97
.1▁	-10.9703
1940	-10.9704
ū	-10.9705
jan	-10.9707
Vincent▁	-10.9708
dying▁	-10.971
dol	-10.9712
exc	-10.9714
expect▁	-10.9716
=1	-10.9718
Cook▁	-10.9719
Keith▁	-10.972
waist▁	-10.9721
Wei	-10.9723
poems▁	-10.9724
palace▁	-10.9725
lots▁	-10.9725
ces▁	-10.9729
2.5▁	-10.973
DJ▁	-10.9731
supplies▁	-10.9732
dem	-10.9738
Originally▁	-10.974
celebrated▁	-10.974
debate▁	-10.9741
oy▁	-10.9743
imagine▁	-10.9744
waves▁	-10.9744
Oliver▁	-10.9744
convinced▁	-10.9748
immediate▁	-10.9748
eighth▁	-10.9749
meta	-10.9752
orchestra▁	-10.9752
preserved▁	-10.9753
organ	-10.9753
Charts▁	-10.9753
1870▁	-10.9754
cz	-10.9754
nar▁	-10.9755
volumes▁	-10.9756
SD▁	-10.9757
Site▁	-10.9758
32	-10.9758
600▁	-10.9761
Christ	-10.9761
ease▁	-10.9765
Let▁	-10.9766
1878▁	-10.9768
fri	-10.9771
eliminated▁	-10.9772
penalty▁	-10.9772
voiced▁	-10.9772
vest	-10.9775
hips▁	-10.9777
smoke▁	-10.9779
naked▁	-10.978
license▁	-10.978
twin▁	-10.9784
Afghanistan▁	-10.9788
Municipal▁	-10.9788
Trinity▁	-10.9788
ub▁	-10.9791
light	-10.9792
Sky▁	-10.9792
alli	-10.9793
worn▁	-10.9794
ting	-10.9794
ifying▁	-10.9797
oj	-10.9798
ith	-10.9799
colors▁	-10.9803
Greater▁	-10.9804
gang▁	-10.9805
Terr	-10.9807
demo	-10.981
graduating▁	-10.9812
influential▁	-10.9812
Bernard▁	-10.9813
aimed▁	-10.9815
dou	-10.9815
fled▁	-10.9818
ira▁	-10.9821
talent▁	-10.9821
aj▁	-10.9827
stuck▁	-10.9831
Form	-10.9833
NHL▁	-10.9834
junction▁	-10.9834
AN▁	-10.9837
isation▁	-10.9844
Azerbaijan▁	-10.9845
fifty▁	-10.9845
une▁	-10.9845
Ann	-10.9852
gi▁	-10.9852
tation▁	-10.9856
By	-10.9858
Type▁	-10.9861
Socialist▁	-10.9861
Pad	-10.9863
VI▁	-10.9865
tap	-10.9866
life	-10.9867
Vil	-10.9867
violent▁	-10.9869
mand	-10.9872
rival▁	-10.9873
resolution▁	-10.9874
ano	-10.9874
unlike▁	-10.9877
rod	-10.9877
tically▁	-10.988
eta▁	-10.988
sending▁	-10.9881
destroy▁	-10.9885
forcing▁	-10.9885
Draft▁	-10.9888
ret	-10.9892
struggle▁	-10.9893
therapy▁	-10.9893
plastic▁	-10.9902
releases▁	-10.9903
Hand	-10.9905
å	-10.9905
Non▁	-10.9906
Play▁	-10.9909
dig	-10.9913
Vas	-10.9916
Costa▁	-10.9917
Architecture▁	-10.9918
segment▁	-10.9918
Houses▁	-10.9918
Clo	-10.9921
Cru	-10.9922
Fel	-10.9923
flower▁	-10.9926
amateur▁	-10.9926
sponsored▁	-10.9926
Hudson▁	-10.9926
indeed▁	-10.9926
martial▁	-10.9926
cm▁	-10.9927
viewers▁	-10.9928
Not	-10.9929
ush	-10.993
ide	-10.9934
Control▁	-10.9934
wished▁	-10.9936
knee▁	-10.9938
Jay▁	-10.994
grin▁	-10.9941
rocks▁	-10.9942
clar	-10.995
Artillery▁	-10.995
bottle▁	-10.9951
Gray▁	-10.9953
nam	-10.9953
thy▁	-10.9956
Population▁	-10.9959
nell▁	-10.9961
guide▁	-10.9964
Defunct▁	-10.9967
couples▁	-10.9967
crimes▁	-10.9967
med	-10.9972
Persian▁	-10.9973
drafted▁	-10.9975
stress▁	-10.9976
née▁	-10.9981
artillery▁	-10.9983
ô	-10.9983
Meanwhile▁	-10.9983
Les	-10.9983
eric▁	-10.9984
waste▁	-10.9984
Herbert▁	-10.9984
terminal▁	-10.9986
Ancient▁	-10.9991
Industry▁	-10.9991
laughing▁	-10.9991
licensed▁	-10.9991
Common▁	-10.9993
domain▁	-10.9996
ele▁	-10.9996
Hawaii▁	-10.9999
anth	-10.9999
appropriate▁	-11
stat	-11.0002
Qa	-11.0009
memories▁	-11.0009
Mai	-11.001
seek▁	-11.001
capit	-11.0011
helps▁	-11.0017
flesh▁	-11.0017
Arena▁	-11.0025
North	-11.0026
ela▁	-11.0028
Bristol▁	-11.0032
ES▁	-11.0036
raising▁	-11.0037
Page▁	-11.0037
Nat	-11.004
wind	-11.0041
1883▁	-11.0044
Eli	-11.0047
Div	-11.0047
commanded▁	-11.0049
Š	-11.0049
eri	-11.0053
manage▁	-11.0054
ati	-11.0055
ole▁	-11.0055
tl	-11.0058
arch▁	-11.0063
utter▁	-11.0065
Manhattan▁	-11.0066
Model▁	-11.0066
Evans▁	-11.0066
minimum▁	-11.0066
sand	-11.0067
strip▁	-11.007
spar	-11.0071
uzz	-11.0073
Denver▁	-11.0074
HL▁	-11.008
representation▁	-11.0082
IC	-11.0083
expedition▁	-11.0083
recovered▁	-11.0084
ray	-11.0089
news	-11.0089
59	-11.0091
Nas	-11.0091
Met	-11.0093
1876▁	-11.0094
Petr	-11.0094
Friday▁	-11.0096
ache▁	-11.0098
ocean▁	-11.0098
ien▁	-11.0098
д	-11.0099
lon▁	-11.0099
dominated▁	-11.01
а	-11.0102
orange▁	-11.0102
1868▁	-11.0103
Terry▁	-11.0106
meetings▁	-11.0115
Report▁	-11.0119
Luci	-11.0119
Nature▁	-11.0119
Mod	-11.012
Trail▁	-11.0122
â	-11.0124
Mala	-11.0125
output▁	-11.0126
Dia	-11.0128
photo▁	-11.0129
absence▁	-11.0132
competing▁	-11.0132
Whi	-11.0136
drinking▁	-11.014
effectively▁	-11.014
pedi	-11.0143
auto	-11.0144
affiliated▁	-11.0149
visiting▁	-11.0149
sole▁	-11.015
pay	-11.0152
Flight▁	-11.0154
elli	-11.0155
passage▁	-11.016
scientist▁	-11.0165
railroad▁	-11.0166
Right▁	-11.0168
spell▁	-11.0169
hav	-11.017
South	-11.0172
Epi	-11.0172
stru	-11.0173
identify▁	-11.0174
participation▁	-11.0174
whilst▁	-11.0174
forty▁	-11.0174
searching▁	-11.0176
enjoy▁	-11.0176
Branch▁	-11.0178
bow▁	-11.018
Leg	-11.0181
Fra	-11.0182
RA	-11.0183
Sant	-11.0184
Alb	-11.0187
AT▁	-11.0191
Auto	-11.0192
anywhere▁	-11.0196
Cos	-11.0198
circuit▁	-11.0199
sleeping▁	-11.0203
ff▁	-11.0203
fantasy▁	-11.0207
Unit▁	-11.0207
remove▁	-11.0212
ences▁	-11.0214
mic▁	-11.0215
logic▁	-11.0215
relationships▁	-11.0216
vampires▁	-11.0216
Theo	-11.0216
Election▁	-11.0216
sheet▁	-11.0219
800▁	-11.022
panel▁	-11.0224
Treaty▁	-11.0224
controversy▁	-11.0224
Filmography▁	-11.0224
Key▁	-11.0224
ER▁	-11.0225
credits▁	-11.0226
Bobby▁	-11.0228
Bulgarian▁	-11.0232
definition▁	-11.0232
equ	-11.0234
Pass	-11.0237
gil	-11.0237
jake▁	-11.0238
1875▁	-11.0239
infantry▁	-11.0241
August	-11.0241
plo	-11.0243
ements▁	-11.0244
ati▁	-11.0247
Cons	-11.0248
Performance▁	-11.0249
makeup▁	-11.0249
Call	-11.0249
mani	-11.0257
expensive▁	-11.0258
deeply▁	-11.0258
Electric▁	-11.0258
Neil▁	-11.0259
dogs▁	-11.0262
Knights▁	-11.0262
58	-11.0264
attorney▁	-11.0266
attracted▁	-11.0266
rice▁	-11.0266
burst▁	-11.0268
alex▁	-11.0269
loaded▁	-11.0271
Mik	-11.0272
Child▁	-11.0273
behalf▁	-11.0275
woods▁	-11.0275
Falls▁	-11.0277
Days▁	-11.0279
sentenced▁	-11.0283
ür	-11.0284
bishops▁	-11.0284
mini▁	-11.0288
Li▁	-11.0289
convicted▁	-11.0291
time	-11.0293
ums▁	-11.0294
feld▁	-11.0295
Anti	-11.0296
AC	-11.0296
Xi	-11.0296
figured▁	-11.0298
Ltd	-11.0298
whereas▁	-11.03
Aviation▁	-11.0301
dominant▁	-11.0301
useful▁	-11.0307
harder▁	-11.0307
amongst▁	-11.0308
voices▁	-11.0308
Episode▁	-11.0317
doubles▁	-11.0317
posted▁	-11.0322
Bet	-11.0322
demolished▁	-11.0325
departure▁	-11.0325
grinned▁	-11.0325
occasions▁	-11.0325
Gol	-11.0326
Der	-11.0327
31	-11.0327
tch	-11.0331
ult	-11.0333
pure▁	-11.0334
birthday▁	-11.0335
Giants▁	-11.0335
distinguished▁	-11.0342
maintenance▁	-11.0342
kingdom▁	-11.0342
organised▁	-11.0343
•▁	-11.0344
Phil	-11.0345
1867▁	-11.0347
Ot	-11.0347
Exp	-11.0348
Tech▁	-11.035
exists▁	-11.035
cricketer▁	-11.0351
conductor▁	-11.0351
guests▁	-11.0351
smith▁	-11.0353
networks▁	-11.0353
disc▁	-11.0354
eri▁	-11.0354
lessly▁	-11.0354
decline▁	-11.0356
disestablished▁	-11.0357
Had	-11.0357
tale▁	-11.0358
cheeks▁	-11.0359
transmission▁	-11.0362
rus	-11.0362
upset▁	-11.0364
Guy▁	-11.0366
afterwards▁	-11.0368
Vel	-11.037
akh	-11.0371
pun	-11.0372
Farm▁	-11.0376
Commissioner▁	-11.0376
FI	-11.0379
Boo	-11.0381
elder▁	-11.0381
activists▁	-11.0385
alcohol▁	-11.0385
Harrison▁	-11.0386
Hugh▁	-11.0388
AL▁	-11.0388
shake▁	-11.039
mic	-11.0392
gger▁	-11.0393
eligible▁	-11.0394
Larry▁	-11.0396
Artist▁	-11.0396
Anti▁	-11.0397
comics▁	-11.04
laughter▁	-11.0404
creative▁	-11.0412
Finals▁	-11.0413
ship	-11.0413
earn▁	-11.0416
ruling▁	-11.0417
amo	-11.0418
conduct▁	-11.0419
exception▁	-11.042
Pul	-11.0422
Pala	-11.0423
Burn	-11.0425
Springs▁	-11.0425
Catherine▁	-11.0428
annually▁	-11.0428
bridges▁	-11.043
och▁	-11.0434
palm▁	-11.0437
Hindu▁	-11.0438
Cincinnati▁	-11.0445
considering▁	-11.0445
lawyers▁	-11.0445
survey▁	-11.0445
boss▁	-11.0446
contested▁	-11.0448
illness▁	-11.0452
Canal▁	-11.0453
Hebrew▁	-11.0454
arrangement▁	-11.0454
completion▁	-11.0454
runners▁	-11.0454
destruction▁	-11.0454
3,000▁	-11.0454
Dennis▁	-11.0454
Operations▁	-11.0454
Vermont▁	-11.0455
linear▁	-11.0457
cy▁	-11.0457
tro▁	-11.0461
wrestling▁	-11.0462
generated▁	-11.0463
Nik	-11.0464
employment▁	-11.0464
Hun	-11.0465
oli▁	-11.0467
photo	-11.047
eries▁	-11.0472
jan▁	-11.0473
Sky	-11.0476
inches▁	-11.0476
Storm▁	-11.0478
Lloyd▁	-11.0479
photography▁	-11.0479
sad▁	-11.0482
4.	-11.0486
1–0▁	-11.0487
blade▁	-11.0489
memorial▁	-11.0489
met	-11.0491
informed▁	-11.0491
Unlike▁	-11.0492
Dick▁	-11.0496
Legacy▁	-11.0497
Athens▁	-11.0497
250▁	-11.0498
charity▁	-11.05
inter▁	-11.0505
associate▁	-11.0505
Kas	-11.0506
totally▁	-11.0506
lucky▁	-11.0506
knocked▁	-11.0508
val▁	-11.0514
Attorney▁	-11.0514
ago	-11.0516
SP▁	-11.0517
tho	-11.0518
cata	-11.0519
customers▁	-11.0523
leather▁	-11.0525
nominations▁	-11.0527
exit▁	-11.0529
Head	-11.053
Pon	-11.0531
Diocese▁	-11.0531
Industrial▁	-11.0532
Robin▁	-11.0533
biography▁	-11.0533
rup	-11.0534
ów▁	-11.0535
6:	-11.0537
gradually▁	-11.054
Fall▁	-11.0546
assist▁	-11.0548
Beijing▁	-11.0549
folded▁	-11.0549
Distribution▁	-11.0549
rapid▁	-11.055
Stanford▁	-11.0558
ão▁	-11.056
mos	-11.0562
hero▁	-11.0562
Perry▁	-11.0565
abuse▁	-11.0565
cc	-11.0566
terr	-11.0566
electricity▁	-11.0566
extreme▁	-11.0566
grad	-11.0571
uh▁	-11.0573
Bac	-11.0574
cargo▁	-11.0575
cemetery▁	-11.0575
Masters▁	-11.0575
Craig▁	-11.0575
Norfolk▁	-11.0575
cutting▁	-11.0577
Frank	-11.0577
Hope▁	-11.058
set	-11.0583
experimental▁	-11.0583
frowned▁	-11.0585
ín▁	-11.0587
illy▁	-11.0587
leaf▁	-11.059
Bulgaria▁	-11.0592
funded▁	-11.0592
Policy▁	-11.0592
Google▁	-11.0601
integrated▁	-11.0601
SI▁	-11.0601
fed▁	-11.0604
drum▁	-11.0605
Financial▁	-11.061
transition▁	-11.061
Madison▁	-11.061
scal	-11.0611
Tat	-11.0612
ales▁	-11.0613
mans▁	-11.0613
scared▁	-11.0614
viewed▁	-11.0615
Tru	-11.0615
stops▁	-11.0616
easier▁	-11.0619
cap▁	-11.0622
cancelled▁	-11.0627
escaped▁	-11.0627
locomotives▁	-11.0627
Band▁	-11.0628
Hoo	-11.0629
ctions▁	-11.0629
sharing▁	-11.063
Sto	-11.0632
Buddhist▁	-11.0636
Clinton▁	-11.0636
Fleet▁	-11.0638
trading▁	-11.0638
muttered▁	-11.0638
iers▁	-11.0643
1860▁	-11.0643
tax	-11.0644
pos	-11.0645
advertising▁	-11.0645
Deaths▁	-11.0645
1879▁	-11.0649
zero▁	-11.0649
elevation▁	-11.0653
Chal	-11.0657
mod	-11.0657
Harold▁	-11.066
girlfriend▁	-11.0662
instrument▁	-11.0662
rarely▁	-11.0663
thrown▁	-11.0668
tag▁	-11.067
Representative▁	-11.0671
suggest▁	-11.0671
nervous▁	-11.0671
2,000▁	-11.0675
tom▁	-11.0678
Viol	-11.068
attributed▁	-11.068
Syria▁	-11.068
Pop▁	-11.0681
touchdown▁	-11.0681
ox▁	-11.0686
shoes▁	-11.0687
lur	-11.0688
57	-11.0688
greatly▁	-11.0689
participants▁	-11.0689
Environmental▁	-11.0689
false▁	-11.0689
1877▁	-11.0693
clay▁	-11.0694
Jam	-11.0697
witch▁	-11.0697
writes▁	-11.0699
viv	-11.0699
put	-11.0699
zar	-11.0702
pit▁	-11.0704
illo▁	-11.0704
Code▁	-11.0705
numbered▁	-11.0706
Future▁	-11.0707
centers▁	-11.0708
badly▁	-11.0709
chor	-11.0709
merely▁	-11.071
UN	-11.0714
mathematics▁	-11.0715
lowered▁	-11.0715
photographs▁	-11.0715
ring	-11.0717
Rap	-11.0721
festivals▁	-11.0724
Anglo▁	-11.0724
variant▁	-11.0725
2–1▁	-11.0726
SE▁	-11.0726
1874▁	-11.0728
IC▁	-11.073
bach▁	-11.073
raz	-11.073
izes▁	-11.0731
architectural▁	-11.0733
indicates▁	-11.0733
monument▁	-11.0733
murdered▁	-11.0733
till▁	-11.0733
sky	-11.0734
gent▁	-11.0734
jack	-11.0734
forehead▁	-11.0735
donated▁	-11.0737
resident▁	-11.0737
ral▁	-11.0738
BS▁	-11.074
remainder▁	-11.0742
partially▁	-11.0742
eville▁	-11.0742
Kun	-11.0743
adventure▁	-11.0743
intense▁	-11.0748
mari	-11.0748
ony	-11.0753
ru▁	-11.0753
Fire	-11.0754
permission▁	-11.0755
circumstances▁	-11.0759
competitive▁	-11.0759
controversial▁	-11.0759
prim	-11.076
shots▁	-11.0762
Ken▁	-11.0763
Bran	-11.0763
MP	-11.0765
AP	-11.0766
discussion▁	-11.0768
hiding▁	-11.0769
Minor▁	-11.077
centr	-11.0771
Montana▁	-11.0771
Mess	-11.0774
gods▁	-11.0775
ver▁	-11.0775
yt	-11.0776
characteristics▁	-11.0777
michael▁	-11.0777
versus▁	-11.078
defence▁	-11.0781
Gir	-11.0782
sie▁	-11.0782
kicked▁	-11.0784
mini	-11.0784
44	-11.0786
Symphony▁	-11.0786
discuss▁	-11.0786
Hispanic▁	-11.0786
tribute▁	-11.079
Overall▁	-11.0791
Ray	-11.0794
demon▁	-11.0794
transportation▁	-11.0795
Roman	-11.0799
Thr	-11.0802
law	-11.0802
keyboards▁	-11.0804
uck▁	-11.0805
any	-11.0805
1871▁	-11.0808
stand	-11.081
electrical▁	-11.0813
happening▁	-11.0813
thro	-11.0813
43	-11.0814
placing▁	-11.0815
ht	-11.0816
vin▁	-11.0818
Luis▁	-11.082
aging▁	-11.0821
Buffalo▁	-11.0822
agriculture▁	-11.0822
Petersburg▁	-11.0822
shopping▁	-11.0824
ord	-11.0827
amm	-11.083
Data▁	-11.083
Barcelona▁	-11.083
careful▁	-11.0831
arrow▁	-11.0831
wound▁	-11.0831
TS▁	-11.0833
Stor	-11.0835
bent▁	-11.0837
ink▁	-11.0838
inn▁	-11.0838
benefits▁	-11.0839
erected▁	-11.0839
mixing▁	-11.0839
mechanical▁	-11.084
withdrew▁	-11.084
parent▁	-11.0841
tables▁	-11.0843
dismissed▁	-11.0844
São▁	-11.0846
dom▁	-11.0848
loose▁	-11.0848
vor	-11.0852
Nam	-11.0853
nap	-11.0855
Jefferson▁	-11.0857
significance▁	-11.0857
suitable▁	-11.0857
lut	-11.0858
Som	-11.0861
Mother▁	-11.0861
iness▁	-11.0861
apply▁	-11.0862
blow▁	-11.0863
15–	-11.0864
Sid	-11.0866
periods▁	-11.0866
substantial▁	-11.0866
Fun	-11.0867
lag	-11.0867
Ah	-11.0868
reads▁	-11.0869
glance▁	-11.087
ler	-11.0874
Ari	-11.0876
Jacob▁	-11.088
eria▁	-11.088
tyr	-11.0881
т	-11.0882
recommended▁	-11.0886
raced▁	-11.0888
DS▁	-11.0891
ima▁	-11.0892
marketing▁	-11.0893
shouted▁	-11.0893
broadcasting▁	-11.0893
½▁	-11.0895
displayed▁	-11.0897
1873▁	-11.0898
ancy▁	-11.09
contribution▁	-11.0902
Adelaide▁	-11.0902
lab▁	-11.0902
tw	-11.0903
Kenya▁	-11.0904
sphere▁	-11.0908
lys	-11.091
shield▁	-11.0911
cinema▁	-11.0911
imb	-11.0912
Baptist▁	-11.092
belonging▁	-11.0921
extent▁	-11.0921
bell	-11.0921
tape▁	-11.0924
Nation▁	-11.0924
Taxa▁	-11.0929
adults▁	-11.0929
zi▁	-11.0931
Roo	-11.0936
Ton	-11.0936
dell▁	-11.0938
ignored▁	-11.0938
physician▁	-11.0938
funny▁	-11.0939
ninth▁	-11.094
aux▁	-11.0942
Jud	-11.0943
mines▁	-11.0944
Martin	-11.0945
Honor▁	-11.0946
Bengal▁	-11.0948
Hard	-11.0949
colony▁	-11.0951
Gy	-11.0951
limits▁	-11.0952
rie▁	-11.0954
side	-11.0955
representatives▁	-11.0956
mal▁	-11.0957
AF▁	-11.0961
gie▁	-11.0963
edges▁	-11.0965
Indonesian▁	-11.0965
decisions▁	-11.0965
emotional▁	-11.0965
depending▁	-11.0967
ovich▁	-11.0968
gat	-11.0969
1872▁	-11.097
aud▁	-11.0972
ava▁	-11.0973
component▁	-11.0974
incidents▁	-11.0974
suspected▁	-11.0974
Broadcasting▁	-11.0975
kat	-11.0975
styles▁	-11.0976
IT▁	-11.0976
partly▁	-11.0978
osis▁	-11.0978
Ali	-11.0979
liber	-11.0979
Roberts▁	-11.098
Grace▁	-11.098
slave▁	-11.0982
Brisbane▁	-11.0984
populations▁	-11.0984
Yama	-11.0985
ī	-11.0992
balls▁	-11.0993
Muslims▁	-11.0993
dollars▁	-11.0993
fighters▁	-11.0993
icus▁	-11.0996
Comm	-11.0997
zy	-11.0997
external▁	-11.1002
Writing▁	-11.1002
Southeast▁	-11.1003
Rogers▁	-11.1003
sav	-11.1006
fault▁	-11.1008
ppers▁	-11.1013
ila▁	-11.1013
bun	-11.1016
regime▁	-11.1018
earning▁	-11.1019
discussed▁	-11.102
46	-11.102
Cri	-11.1021
Fan	-11.1024
ku▁	-11.1027
ár	-11.1028
merchant▁	-11.1029
NC▁	-11.103
protests▁	-11.1031
Bill	-11.1037
concentration▁	-11.1038
Croatia▁	-11.1038
ceiling▁	-11.1038
Conservation▁	-11.1038
Pedro▁	-11.1038
Geo	-11.1039
uniform▁	-11.1042
dreams▁	-11.1044
cried▁	-11.1047
tend▁	-11.105
kn	-11.1056
grand	-11.1056
Statistics▁	-11.1056
Bomb	-11.1064
Amsterdam▁	-11.1065
encouraged▁	-11.1065
Within▁	-11.107
sur▁	-11.107
tribes▁	-11.1075
Maurice▁	-11.1076
120▁	-11.1079
grip▁	-11.108
Key	-11.108
spec	-11.1081
fuck▁	-11.1087
Helen▁	-11.1091
Stuart▁	-11.1093
Lions▁	-11.1093
themes▁	-11.1095
outs▁	-11.1095
muscle▁	-11.1102
esh	-11.1102
Et	-11.1103
Delaware▁	-11.1103
zy▁	-11.1105
Lam	-11.1107
meat▁	-11.1108
rak	-11.111
Cher	-11.1111
Article▁	-11.1111
Bad▁	-11.1114
Auckland▁	-11.1121
free	-11.1124
solar▁	-11.1126
Fair▁	-11.1126
researchers▁	-11.113
struggled▁	-11.113
widespread▁	-11.113
possession▁	-11.113
diameter▁	-11.113
spaces▁	-11.1132
evolution▁	-11.1133
pace▁	-11.1134
intersection▁	-11.1135
acres▁	-11.1136
percussion▁	-11.1139
honour▁	-11.1141
ith▁	-11.1141
abroad▁	-11.1143
Number▁	-11.1148
platforms▁	-11.1158
Stre	-11.1158
hills▁	-11.116
CC	-11.1161
agu	-11.1162
Pl	-11.1164
rid▁	-11.1165
line	-11.1166
Source▁	-11.1167
Exchange▁	-11.1171
enters▁	-11.1171
Venezuela▁	-11.1176
restoration▁	-11.1176
nod▁	-11.1179
ović▁	-11.1181
ees▁	-11.1183
athlete▁	-11.1185
stronger▁	-11.1185
bot	-11.1185
jam	-11.1185
FF▁	-11.1186
Single▁	-11.1187
ome	-11.1189
spin▁	-11.1189
cole▁	-11.1192
ovi	-11.1194
reportedly▁	-11.1194
read	-11.1196
corporate▁	-11.1196
zo▁	-11.1196
atta	-11.1198
Leo▁	-11.12
Bus	-11.12
heim▁	-11.1201
crown▁	-11.1203
traded▁	-11.1204
nit	-11.1204
defend▁	-11.1208
magn	-11.1209
Pakistani▁	-11.1213
happens▁	-11.1213
jury▁	-11.1213
Horn	-11.1214
defending▁	-11.1214
gress	-11.1214
venue▁	-11.1221
Apple▁	-11.1224
Gan	-11.1226
tel	-11.1229
Together▁	-11.1231
alle	-11.1232
Lun	-11.1234
adam▁	-11.1236
Lei	-11.1238
logical▁	-11.1241
admit▁	-11.1241
killer▁	-11.1247
cent	-11.1248
Rod	-11.1248
East	-11.1249
Fen	-11.1255
dean▁	-11.1255
spiritual▁	-11.1255
hyper	-11.1255
ania▁	-11.1256
duo▁	-11.1257
gallery▁	-11.126
apparent▁	-11.1261
enna▁	-11.1266
nica▁	-11.1266
Stan	-11.1266
mere▁	-11.1268
andra▁	-11.1268
vol▁	-11.1268
supports▁	-11.1269
Vegas▁	-11.127
hot	-11.127
emigrants▁	-11.1274
48	-11.1274
itch	-11.1278
jar	-11.1278
las	-11.1284
fal	-11.1287
occasion▁	-11.1287
Bar▁	-11.1289
serial▁	-11.1292
honors▁	-11.1293
assets▁	-11.1294
excellent▁	-11.1297
governments▁	-11.1297
Climate▁	-11.1297
Hau	-11.1299
pitch▁	-11.1306
Economics▁	-11.1306
Small▁	-11.1307
sam	-11.1313
55	-11.1313
EU▁	-11.1314
Mass▁	-11.1314
är	-11.1315
argument▁	-11.1315
dancing▁	-11.1316
secured▁	-11.1316
agh▁	-11.1317
spin	-11.1319
Productions▁	-11.1325
Commons▁	-11.1326
lings▁	-11.1331
Kr	-11.1332
indi	-11.1334
rises▁	-11.1334
Secondary▁	-11.1334
journals▁	-11.1334
Secret▁	-11.1334
summary▁	-11.1335
rifle▁	-11.1335
brook▁	-11.1336
Sul	-11.1338
ann▁	-11.1338
Market▁	-11.1338
viol	-11.134
venture▁	-11.1342
funeral▁	-11.1344
corn▁	-11.1344
obtain▁	-11.1344
Pun	-11.1348
Dragon▁	-11.1353
att▁	-11.1353
pushing▁	-11.1354
Instead▁	-11.1354
borders▁	-11.1357
cond	-11.136
liner▁	-11.1363
throwing▁	-11.1366
vast▁	-11.1372
volleyball▁	-11.1372
expert▁	-11.1372
editions▁	-11.1373
relation▁	-11.1374
detailed▁	-11.1375
Pop	-11.1379
Lyn	-11.138
ugg	-11.1381
script	-11.1382
Formula▁	-11.1382
fan	-11.1382
sing	-11.1385
settlements▁	-11.1391
FK▁	-11.1393
Tun	-11.1394
bond▁	-11.1395
bud	-11.1395
Parti	-11.1396
Gur	-11.1399
Murphy▁	-11.14
Ralph▁	-11.14
pants▁	-11.1401
ceased▁	-11.1402
Hall	-11.1404
Mega	-11.1409
frequent▁	-11.141
literally▁	-11.141
Peninsula▁	-11.141
emperor▁	-11.141
sailed▁	-11.141
bare▁	-11.141
preferred▁	-11.1411
hated▁	-11.1411
jacket▁	-11.1412
puts▁	-11.1412
rebuilt▁	-11.1413
10–	-11.1419
у	-11.1419
acoustic▁	-11.1419
engineers▁	-11.1419
play	-11.142
civilian▁	-11.142
Finance▁	-11.1421
Las▁	-11.1422
Jar	-11.1423
pa▁	-11.1427
wondering▁	-11.1429
toured▁	-11.1429
drummer▁	-11.1429
machines▁	-11.1429
CR▁	-11.1431
couch▁	-11.1433
bow	-11.1434
*	-11.1438
Syrian▁	-11.1439
tested▁	-11.1442
Sz	-11.1442
Germans▁	-11.1445
chro	-11.1446
Florence▁	-11.1448
staying▁	-11.1449
1866▁	-11.1453
lateral▁	-11.1456
tension▁	-11.1456
may	-11.1457
Bis	-11.1458
past	-11.1459
shower▁	-11.1461
slaves▁	-11.1462
lowest▁	-11.1463
Berkeley▁	-11.1467
activated▁	-11.1467
connecting▁	-11.1467
has	-11.1471
ction▁	-11.1474
Communes▁	-11.1476
conclusion▁	-11.1476
FL▁	-11.1479
Tin	-11.148
Ottawa▁	-11.1486
Christianity▁	-11.1486
concerts▁	-11.1488
Leeds▁	-11.1488
bite▁	-11.1492
Intelligence▁	-11.1495
eldest▁	-11.1495
dozen▁	-11.1496
Horse▁	-11.1497
Pic	-11.1497
Thai▁	-11.1498
Cli	-11.1503
Agriculture▁	-11.1505
defenders▁	-11.1505
Hum	-11.1506
Plan	-11.1508
beaten▁	-11.151
Magic▁	-11.151
ivity▁	-11.1512
gal▁	-11.1513
commented▁	-11.1514
jun	-11.1517
constitutional▁	-11.1518
ista▁	-11.1518
anime▁	-11.152
exact▁	-11.1522
Web▁	-11.1523
shadow▁	-11.1524
Drive▁	-11.1529
referring▁	-11.1534
forgotten▁	-11.1534
esses▁	-11.1536
mir▁	-11.1537
itch▁	-11.1541
FF	-11.1542
rem	-11.1543
dust▁	-11.1545
Kre	-11.1549
bit	-11.1551
conservative▁	-11.1553
opponents▁	-11.1553
bay	-11.1553
liquid▁	-11.1553
Tyr	-11.1554
RA▁	-11.1558
buck	-11.1558
Jacques▁	-11.1562
sculpture▁	-11.1562
stra	-11.1565
Buck	-11.1571
premiere▁	-11.1572
intention▁	-11.1572
Dream▁	-11.1574
icul	-11.1577
belief▁	-11.1579
posed▁	-11.158
inus▁	-11.1581
Clarke▁	-11.1586
tract	-11.1587
Krist	-11.1589
Protection▁	-11.1591
standings▁	-11.1592
Wang▁	-11.1595
miss	-11.1595
loop▁	-11.1598
hr▁	-11.1601
oh	-11.1602
Watson▁	-11.1603
repair▁	-11.1604
convention▁	-11.1611
sp▁	-11.1611
Barb	-11.1611
SL▁	-11.1612
tenure▁	-11.1613
comfortable▁	-11.1614
pag	-11.1615
eva	-11.1616
nik	-11.1616
battalion▁	-11.162
Nepal▁	-11.162
buses▁	-11.162
ques▁	-11.1622
ault▁	-11.1623
eck▁	-11.1623
Carr	-11.1624
rol	-11.1624
rog	-11.1624
interrupted▁	-11.1627
clu	-11.1628
qualify▁	-11.163
Movie▁	-11.163
Students▁	-11.163
fun	-11.163
poll	-11.1632
1869▁	-11.1635
kins▁	-11.1636
geni	-11.1638
Fish▁	-11.1639
attending▁	-11.164
ono	-11.1641
pyr	-11.1643
crack	-11.1645
ped	-11.1648
jeans▁	-11.1652
pic	-11.1654
bars▁	-11.1655
1850▁	-11.1655
Aircraft▁	-11.1659
[	-11.1659
Sad	-11.1661
rai	-11.1662
instrumental▁	-11.1664
leaning▁	-11.1665
rings▁	-11.1667
Campaign▁	-11.1669
forwards▁	-11.167
Shortly▁	-11.167
RAF▁	-11.1676
Hart	-11.1676
CO▁	-11.1677
lot	-11.1677
supporters▁	-11.1678
his	-11.1679
Eddie▁	-11.168
Gru	-11.1685
regard▁	-11.1687
recognize▁	-11.1688
Kn	-11.169
Rag	-11.169
reporter▁	-11.1692
Bag	-11.1695
2.0▁	-11.1695
playoffs▁	-11.1698
Student▁	-11.1698
Luke▁	-11.1699
bases▁	-11.1699
leton▁	-11.1703
<▁	-11.1703
root▁	-11.1705
Ö	-11.1708
partners▁	-11.1708
stretched▁	-11.1708
gio▁	-11.1708
Mut	-11.1708
Butler▁	-11.1708
master	-11.1709
publicly▁	-11.171
Kee	-11.171
rod▁	-11.1713
eggs▁	-11.1713
TV	-11.1714
sung▁	-11.1715
voters▁	-11.1719
lem	-11.172
Ron	-11.1722
×▁	-11.1726
ş	-11.1727
Engineers▁	-11.1727
categories▁	-11.1727
opportunities▁	-11.1727
percentage▁	-11.1727
principles▁	-11.1727
cock▁	-11.1733
Jose▁	-11.1733
ordin	-11.1736
Lebanon▁	-11.1737
comfort▁	-11.1739
Cel	-11.174
vic	-11.1741
makers▁	-11.1742
creature▁	-11.1747
opponent▁	-11.1747
Phillips▁	-11.1747
sugar▁	-11.1749
iy	-11.1751
occ	-11.1753
lied▁	-11.1753
Swa	-11.1753
ition▁	-11.1753
17–	-11.1753
teach▁	-11.1755
Mr▁	-11.1755
quar	-11.1756
Dav	-11.1756
conservation▁	-11.1756
Winners▁	-11.1756
initiative▁	-11.1757
Friends▁	-11.1757
Pel	-11.176
internet▁	-11.176
Cop	-11.1761
enemies▁	-11.1766
museums▁	-11.1766
provinces▁	-11.1766
universe▁	-11.1767
Fur	-11.177
Dame▁	-11.1775
Berg	-11.1776
keeper▁	-11.1776
Events▁	-11.1776
Venice▁	-11.1779
punk▁	-11.1779
ale	-11.1783
james▁	-11.1784
Angel▁	-11.1786
Scientific▁	-11.1786
scholarship▁	-11.1786
CE	-11.1786
operator▁	-11.1786
Andre	-11.1787
trem	-11.1791
holy▁	-11.1792
motor	-11.1792
iron	-11.1794
accessible▁	-11.1796
confidence▁	-11.1796
implemented▁	-11.1796
vertical▁	-11.1796
1.2▁	-11.1799
let	-11.18
200	-11.1801
ichi▁	-11.1807
coaching▁	-11.1807
=7	-11.1807
cer▁	-11.1809
tube▁	-11.1809
Fourth▁	-11.1811
Susan▁	-11.1813
88	-11.1814
jer	-11.1814
tender▁	-11.1815
Sierra▁	-11.1815
arrive▁	-11.1816
Unincorporated▁	-11.1817
locally▁	-11.1817
Top	-11.1818
Anglican▁	-11.1818
Glen	-11.182
gin	-11.1823
ria▁	-11.1825
ë	-11.1826
submarine▁	-11.1827
ares▁	-11.1831
breaks▁	-11.1832
Organ	-11.1833
ott	-11.1835
tournaments▁	-11.1835
distant▁	-11.1835
remote▁	-11.1835
Coach▁	-11.1839
Bea	-11.1843
Nav	-11.1844
connect▁	-11.1845
trapped▁	-11.1846
Que	-11.1851
latest▁	-11.1854
flav	-11.1854
Additional▁	-11.1855
Until▁	-11.1855
speaker▁	-11.1855
delivery▁	-11.1855
Microsoft▁	-11.1856
wy	-11.1857
Bh	-11.1858
pitched▁	-11.1865
Steven▁	-11.1866
iel▁	-11.1866
bench▁	-11.1866
Wall▁	-11.187
Economy▁	-11.1875
steady▁	-11.1876
Maj	-11.1878
Female▁	-11.1881
emotions▁	-11.1882
asleep▁	-11.1884
conventional▁	-11.1885
organisations▁	-11.1885
produces▁	-11.1885
cream▁	-11.1889
Having▁	-11.1889
lean▁	-11.1893
believes▁	-11.1895
Edwards▁	-11.1895
angel▁	-11.1898
Parks▁	-11.1903
nom	-11.1903
ep▁	-11.1903
establishing▁	-11.1904
gam	-11.1907
bu▁	-11.191
MD▁	-11.1911
colored▁	-11.1912
Chair▁	-11.1914
farmers▁	-11.1914
honorary▁	-11.1915
lunch▁	-11.1915
bat▁	-11.1917
Flying▁	-11.1918
raw▁	-11.1919
mistake▁	-11.192
respond▁	-11.1924
Ax	-11.1924
Leonard▁	-11.1925
Ever	-11.1925
debt▁	-11.1928
ongoing▁	-11.193
roy▁	-11.193
rect	-11.1932
yama▁	-11.1934
Newcastle▁	-11.1935
alliance▁	-11.1935
lap	-11.1936
Arnold▁	-11.1937
Baby▁	-11.1939
luck▁	-11.194
rushed▁	-11.1942
Pont	-11.1942
Gregory▁	-11.1944
ía▁	-11.1944
victim▁	-11.1945
assisted▁	-11.1945
dock▁	-11.1945
ps	-11.1945
ranges▁	-11.1946
AN	-11.1947
flat	-11.195
leagues▁	-11.1952
moral▁	-11.1953
essential▁	-11.1954
isolated▁	-11.1954
Danny▁	-11.1956
rays▁	-11.1961
OC▁	-11.1961
hir	-11.1962
Prim	-11.1963
haz	-11.1964
gaining▁	-11.1964
patterns▁	-11.1964
opens▁	-11.1969
stock	-11.197
lick▁	-11.197
Ober	-11.1973
instantly▁	-11.1974
pregnant▁	-11.1974
salt▁	-11.1975
wire▁	-11.1975
automatic▁	-11.1975
Ful	-11.1976
cle	-11.1977
mc	-11.1977
welcome▁	-11.1977
gle	-11.1983
Run▁	-11.1983
Admiral▁	-11.1984
Revival▁	-11.1984
restricted▁	-11.1984
puls	-11.1987
Joan▁	-11.1992
Spec	-11.1992
Roll	-11.1993
climbed▁	-11.1994
legislative▁	-11.1994
topics▁	-11.1995
CP▁	-11.1997
nes	-11.1998
Christians▁	-11.2003
Circuit▁	-11.2004
tun	-11.2011
neuro	-11.2012
42	-11.2015
psycho	-11.2019
1859▁	-11.202
raid▁	-11.2023
deeper▁	-11.2025
sigh▁	-11.2025
Wellington▁	-11.2025
sensitive▁	-11.2025
rud	-11.2026
new	-11.2028
tha▁	-11.203
Such▁	-11.2031
Tit	-11.2033
Holland▁	-11.2034
mann	-11.2034
muscles▁	-11.2035
beth▁	-11.2038
AM	-11.204
pressing▁	-11.2041
yu▁	-11.2045
stolen▁	-11.2046
fate▁	-11.2051
aye▁	-11.2051
biology▁	-11.2051
rope▁	-11.2052
cio▁	-11.2053
Tommy▁	-11.2054
Tennis▁	-11.2055
perfectly▁	-11.2055
Bot	-11.2057
trials▁	-11.2057
cost	-11.206
Price▁	-11.2068
bowl▁	-11.2073
VII▁	-11.2074
Get▁	-11.2074
ree▁	-11.2075
Kerala▁	-11.2076
Id	-11.2076
Greg▁	-11.2079
Kl	-11.2079
peter▁	-11.2079
ME	-11.2079
break	-11.2079
genetic▁	-11.208
Esp	-11.2081
violin▁	-11.2082
Bak	-11.2083
cosm	-11.2084
sab	-11.2085
aero	-11.2086
igh	-11.2087
abad▁	-11.2089
biological▁	-11.2089
iah▁	-11.209
bed	-11.2094
detail▁	-11.2094
atmosphere▁	-11.2095
operational▁	-11.2095
2/	-11.2097
gap▁	-11.2098
jet▁	-11.2098
outbreak▁	-11.21
Wolf▁	-11.21
eller▁	-11.21
servant▁	-11.21
Mario▁	-11.2101
Tsu	-11.2102
enko▁	-11.2103
CD	-11.2105
nos	-11.2105
Poetry▁	-11.2105
paint▁	-11.2106
locks▁	-11.2107
rie	-11.2107
count	-11.2109
Carl	-11.2111
rhythm▁	-11.2111
wider▁	-11.2111
worker▁	-11.2112
sessions▁	-11.2115
5.	-11.2115
golf▁	-11.2116
Din	-11.2116
Airlines▁	-11.2117
Are▁	-11.2118
sufficient▁	-11.2118
Drama▁	-11.2119
typ	-11.2119
allies▁	-11.212
=6	-11.2124
-2	-11.2126
Cross	-11.2126
Sullivan▁	-11.2126
Scor	-11.2126
CF▁	-11.2126
Leader▁	-11.2127
Oakland▁	-11.2128
ama	-11.2129
chess▁	-11.2133
rowing▁	-11.2134
boundaries▁	-11.2136
photos▁	-11.2136
beam▁	-11.2137
paying▁	-11.2139
dual▁	-11.214
fee▁	-11.214
peoples▁	-11.2146
photographer▁	-11.2146
portrait▁	-11.2146
usage▁	-11.2146
scope	-11.2147
thinks▁	-11.215
DA▁	-11.215
eda▁	-11.2151
counts▁	-11.2151
Laura▁	-11.2152
desert▁	-11.2152
Along▁	-11.2152
quo	-11.2155
alt	-11.2155
attempting▁	-11.2156
gauge▁	-11.2156
gardens▁	-11.2157
options▁	-11.2157
grab▁	-11.216
м	-11.2166
Initially▁	-11.2166
coalition▁	-11.2166
decorated▁	-11.2166
regulations▁	-11.2166
Independence▁	-11.2167
decides▁	-11.2167
turn	-11.2172
=0	-11.2172
relocated▁	-11.2176
−	-11.2178
Maz	-11.2181
=4	-11.2181
extra	-11.2182
Tab	-11.2183
fe▁	-11.2183
Slav	-11.2183
pointing▁	-11.2184
erton▁	-11.2184
relevant▁	-11.2187
Bosnia▁	-11.2187
Ind	-11.2188
Prof	-11.2189
teen▁	-11.219
gel	-11.2192
ene	-11.2195
som	-11.2199
ethan▁	-11.22
styl	-11.2202
phones▁	-11.2203
Hill	-11.2204
1855▁	-11.2204
gu▁	-11.2208
Deb	-11.2211
god	-11.2214
hau	-11.2214
Cold▁	-11.2215
visits▁	-11.2215
requested▁	-11.2218
bearing▁	-11.2218
Next▁	-11.2218
solutions▁	-11.2218
LA	-11.2218
bonus▁	-11.2219
Golf▁	-11.2219
Scotia▁	-11.2219
outstanding▁	-11.2223
lakes▁	-11.2224
Burg	-11.2224
wealth▁	-11.2228
characterized▁	-11.2228
practical▁	-11.2229
alia▁	-11.2235
prints▁	-11.2236
battery▁	-11.2238
focuses▁	-11.2238
Abbey▁	-11.2239
ej	-11.224
reminded▁	-11.2242
mood▁	-11.2245
ag▁	-11.2246
ente▁	-11.2246
shan▁	-11.2247
kills▁	-11.2247
switched▁	-11.2248
Regular▁	-11.2249
Harvey▁	-11.2249
Manuel▁	-11.225
curve▁	-11.2251
sworth▁	-11.2252
stare▁	-11.2254
Schedule▁	-11.2259
Gilbert▁	-11.2259
Fiction▁	-11.2259
Outstanding▁	-11.226
partial▁	-11.2262
spon	-11.2263
Ivan▁	-11.2265
legend▁	-11.2268
Rick▁	-11.2269
efficient▁	-11.2269
Chapter▁	-11.227
plic	-11.227
revenue▁	-11.227
enburg▁	-11.2271
confusion▁	-11.2272
SM▁	-11.2273
Wind	-11.2275
Shah▁	-11.2275
Bha	-11.2277
scrib	-11.2277
Punjab▁	-11.2279
concerning▁	-11.2279
conversion▁	-11.2281
nights▁	-11.2281
fus	-11.2282
winds▁	-11.2284
7:	-11.2286
Down	-11.2286
Break	-11.2286
fel	-11.2289
awareness▁	-11.229
manufacturer▁	-11.229
Plan▁	-11.229
breakfast▁	-11.229
rat▁	-11.2294
Rac	-11.2298
identical▁	-11.23
initiated▁	-11.2301
54	-11.2303
special	-11.2305
Kot	-11.2306
Cast	-11.2307
mates▁	-11.2309
clinical▁	-11.231
mechanism▁	-11.2311
Bene	-11.2312
esc	-11.2316
human	-11.2319
grows▁	-11.2319
Shel	-11.232
issa▁	-11.2321
Allied▁	-11.2323
Formation▁	-11.2324
50,000▁	-11.2325
rip	-11.2325
treat▁	-11.2327
milk▁	-11.2327
Ou	-11.2327
PA	-11.2328
tak	-11.2328
iano▁	-11.2329
carp	-11.2329
Brunswick▁	-11.2331
Democrat▁	-11.2331
CB	-11.2331
Teams▁	-11.2331
bits▁	-11.2334
checked▁	-11.2337
mess▁	-11.2341
constitution▁	-11.2342
Fellows▁	-11.2342
alternate▁	-11.2342
és▁	-11.2342
1854▁	-11.2348
sia▁	-11.2349
в	-11.235
cuts▁	-11.235
holes▁	-11.235
slav	-11.235
rage▁	-11.2351
cub	-11.2351
Raymond▁	-11.2352
Slo	-11.2357
Grove▁	-11.2358
breath	-11.2359
twisted▁	-11.2362
pet▁	-11.2362
Guardian▁	-11.2363
audi	-11.2369
Cour	-11.2371
substitute▁	-11.2373
egg▁	-11.2373
pose▁	-11.2374
ota▁	-11.2376
=8	-11.2377
Wel	-11.2382
Bud	-11.2384
ferr	-11.2386
ador	-11.2391
reveals▁	-11.2394
till	-11.2395
NE	-11.2395
choir▁	-11.2396
Fort	-11.2397
tool▁	-11.2398
mary▁	-11.2402
recognised▁	-11.2404
merger▁	-11.2409
Range▁	-11.2412
subsidiary▁	-11.2415
Hughes▁	-11.2415
Fle	-11.2415
continuous▁	-11.2415
Rai	-11.2416
maps▁	-11.2419
camps▁	-11.242
ref	-11.2422
Provincial▁	-11.2425
Congo▁	-11.2425
evolved▁	-11.2426
tanks▁	-11.2427
11–	-11.2429
court	-11.243
Warsaw▁	-11.2431
pil	-11.2435
connections▁	-11.2435
Joint▁	-11.2436
viewing▁	-11.244
Off	-11.2441
PM▁	-11.2442
alis	-11.2442
azi	-11.2442
cker	-11.2443
Confederate▁	-11.2446
answers▁	-11.2446
enforcement▁	-11.2446
involves▁	-11.2446
compound▁	-11.2447
scores▁	-11.2449
eman▁	-11.2449
ava	-11.245
jail▁	-11.2452
1848▁	-11.2454
Pay	-11.2454
barr	-11.2455
arrangements▁	-11.2456
deployed▁	-11.2456
fold▁	-11.2457
Ltd▁	-11.2459
gna	-11.2461
lover▁	-11.2461
reviewed▁	-11.2466
Nag	-11.2466
Republicans▁	-11.2467
traditions▁	-11.2467
Competition▁	-11.2468
End	-11.2474
inaugural▁	-11.2478
manufacturers▁	-11.2478
Fil	-11.2478
Ghana▁	-11.2479
residing▁	-11.2479
Home	-11.2483
1857▁	-11.2484
dragon▁	-11.2489
bel▁	-11.2491
files▁	-11.2493
hara▁	-11.2496
panic▁	-11.2497
Delta▁	-11.25
Gran	-11.2502
Mason▁	-11.2509
Somerset▁	-11.2509
holiday▁	-11.2509
Rep	-11.2512
Mau	-11.2512
Study▁	-11.2512
Shan	-11.2514
Ridge▁	-11.2515
1858▁	-11.2515
printing▁	-11.2515
economics▁	-11.252
Light	-11.2521
stown▁	-11.2523
Miss	-11.2524
dear▁	-11.2527
gates▁	-11.2529
shocked▁	-11.253
Arabia▁	-11.253
Grand	-11.2534
omp	-11.2534
ino	-11.2537
Sheffield▁	-11.2541
Environment▁	-11.2541
Sony▁	-11.2542
finance▁	-11.2543
Cruz▁	-11.2543
ó▁	-11.2547
1852▁	-11.2548
ante	-11.255
perspective▁	-11.2552
grandmother▁	-11.2553
11.	-11.2554
Johann▁	-11.2557
tha	-11.2558
affair▁	-11.2559
lab	-11.2559
completing▁	-11.2562
exclusive▁	-11.2562
terrible▁	-11.2562
Grey▁	-11.2563
disaster▁	-11.2564
eye	-11.2565
itt▁	-11.2567
Dou	-11.2569
Much▁	-11.2573
touring▁	-11.2573
database▁	-11.2573
isa▁	-11.2574
della▁	-11.2577
Arn	-11.2579
Milwaukee▁	-11.2583
Serie▁	-11.2584
timber▁	-11.2584
rik	-11.2585
Vladimir▁	-11.2585
Kel	-11.2588
aga	-11.2588
Fictional▁	-11.2594
phrase▁	-11.2594
Filipino▁	-11.2594
ticket▁	-11.2594
Chil	-11.2596
origins▁	-11.2597
grass	-11.2597
button▁	-11.2598
ashi▁	-11.2602
overseas▁	-11.2605
shops▁	-11.2605
Archbishop▁	-11.2605
Room▁	-11.2606
vet	-11.2606
Box▁	-11.2606
shi	-11.2607
Rhode▁	-11.2607
dealing▁	-11.261
CI	-11.2611
citing▁	-11.2614
lock	-11.2615
dur	-11.262
bold▁	-11.2624
ware▁	-11.2625
tours▁	-11.2625
NA▁	-11.2626
Stat	-11.2626
valuable▁	-11.2626
Philosophy▁	-11.2628
margin▁	-11.263
rum▁	-11.2633
walks▁	-11.2638
=9	-11.2644
screamed▁	-11.2647
gel▁	-11.265
Voice▁	-11.2653
enci	-11.2655
yne▁	-11.2656
Abraham▁	-11.2658
Nashville▁	-11.2658
productions▁	-11.2658
recipient▁	-11.2658
traveling▁	-11.2658
RD	-11.2658
See	-11.2659
tag	-11.2662
Total▁	-11.2662
erie▁	-11.2668
Religion▁	-11.2669
doctors▁	-11.2669
talks▁	-11.2671
slo	-11.2672
ulu▁	-11.2674
fires▁	-11.2674
Ross	-11.2676
berry▁	-11.2676
ket▁	-11.2677
express▁	-11.2677
SF▁	-11.2677
Mé	-11.2678
Commercial▁	-11.268
Throughout▁	-11.268
swept▁	-11.268
principle▁	-11.2681
payment▁	-11.2681
carries▁	-11.2682
vid	-11.2683
rang▁	-11.2685
modern	-11.2686
dine▁	-11.2687
Maha	-11.2688
MI	-11.2688
Gabriel▁	-11.2689
mus	-11.2689
Byzantine▁	-11.269
diseases▁	-11.269
delayed▁	-11.2691
ordinary▁	-11.2691
Kara	-11.2692
Soul▁	-11.2694
crosses▁	-11.2695
100	-11.2695
eer▁	-11.2699
mike▁	-11.2699
attractions▁	-11.2701
suburb▁	-11.2701
thesis▁	-11.2703
ley	-11.2703
Essex▁	-11.2703
Sign	-11.2704
organic▁	-11.2704
Wan	-11.2705
adi	-11.2705
а▁	-11.2708
Lis	-11.2709
Blood▁	-11.271
national	-11.2712
Prague▁	-11.2712
kate▁	-11.2714
eux▁	-11.2714
lia▁	-11.272
plates▁	-11.272
reduction▁	-11.272
increases▁	-11.2723
atr	-11.2723
originated▁	-11.2724
Gau	-11.2727
Semi	-11.2729
Viv	-11.273
River	-11.2731
counted▁	-11.2733
Sag	-11.2733
aboard▁	-11.2733
retail▁	-11.2733
mia▁	-11.2733
priests▁	-11.2734
Morning▁	-11.2737
belong▁	-11.2737
Individual▁	-11.2738
dispute▁	-11.2744
jurisdiction▁	-11.2744
lob	-11.2747
spots▁	-11.2747
cord	-11.275
owski▁	-11.2752
Af	-11.2752
División▁	-11.2755
Nigerian▁	-11.2755
settlers▁	-11.2755
respective▁	-11.2755
jason▁	-11.2755
fec	-11.2755
Fol	-11.2758
ops▁	-11.2758
hitting▁	-11.2759
boots▁	-11.2762
ole	-11.2763
submitted▁	-11.2766
Annual▁	-11.2766
52	-11.2766
boyfriend▁	-11.2767
4,000▁	-11.2767
Cole▁	-11.2772
Coll	-11.2774
breast▁	-11.2775
Gothic▁	-11.2777
utter	-11.2778
gear▁	-11.2779
jur	-11.2787
incumbent▁	-11.2788
qualification▁	-11.2788
Machine▁	-11.2789
smart▁	-11.2791
lott	-11.2791
Multi	-11.2794
yd	-11.2794
1.3▁	-11.2796
devoted▁	-11.2796
Eng	-11.2798
exclusively▁	-11.2799
rev	-11.2802
tab	-11.2804
Ok	-11.2807
=5	-11.2811
Hat	-11.2813
playoff▁	-11.2814
Actor▁	-11.2815
Lit	-11.2816
Fat	-11.2817
ks	-11.2819
Um	-11.282
ios▁	-11.2822
ala	-11.283
opi	-11.283
Soon▁	-11.2831
Friedrich▁	-11.2832
ases▁	-11.2832
Derby▁	-11.2832
snow	-11.2832
interviews▁	-11.2834
warned▁	-11.2834
index▁	-11.2837
grades▁	-11.284
Where▁	-11.2841
arriving▁	-11.2842
debuts▁	-11.2842
Motor▁	-11.2845
hon	-11.2846
boarding▁	-11.2847
Higher▁	-11.2847
Ala	-11.2849
gall	-11.285
DE	-11.2852
orum▁	-11.2852
patrol▁	-11.2853
Reading▁	-11.2853
Hon	-11.2855
nobody▁	-11.2858
prices▁	-11.2858
SC	-11.2858
grid▁	-11.2859
recalled▁	-11.286
Ai	-11.2861
planted▁	-11.2861
Commerce▁	-11.2864
speakers▁	-11.2864
pairs▁	-11.2866
Jer	-11.2869
ssen▁	-11.2872
ever	-11.2874
Renaissance▁	-11.2875
dropping▁	-11.2875
manufactured▁	-11.2875
minority▁	-11.2875
Abb	-11.2876
Churches▁	-11.2876
Shaw▁	-11.2878
had	-11.2878
Lat	-11.2881
cloud▁	-11.2884
bachelor▁	-11.2886
recovery▁	-11.2886
pitcher▁	-11.2886
david▁	-11.2887
dramatic▁	-11.2887
flights▁	-11.2889
east	-11.289
assists▁	-11.2892
Ted▁	-11.2893
acquisition▁	-11.2897
illustrated▁	-11.2897
pursue▁	-11.2897
Eagles▁	-11.2897
reporting▁	-11.2897
Rom	-11.2898
Bour	-11.29
pig	-11.2902
housed▁	-11.2902
diverse▁	-11.2906
Moh	-11.2907
Taxonomy▁	-11.2908
Chan	-11.2911
hack	-11.2911
portions▁	-11.2911
reserves▁	-11.2913
tile▁	-11.2918
travelled▁	-11.2919
elsewhere▁	-11.2919
Flo	-11.2923
Sox▁	-11.2924
hardly▁	-11.2925
Pot	-11.2925
suff	-11.2926
1.1▁	-11.2928
omi	-11.2929
influences▁	-11.293
sequel▁	-11.293
witness▁	-11.2931
Princeton▁	-11.2931
sat	-11.2933
Workers▁	-11.2934
Lock	-11.2934
yours▁	-11.2935
2–0▁	-11.2935
Villa▁	-11.2936
zu	-11.2939
Kom	-11.294
olo▁	-11.2941
kings▁	-11.2941
employee▁	-11.2941
novelist▁	-11.2941
sixteen▁	-11.2941
Mani	-11.2941
lighting▁	-11.2942
ott▁	-11.2943
computers▁	-11.2943
ovo▁	-11.2944
elite▁	-11.2945
High	-11.2948
cali	-11.295
Yugoslavia▁	-11.2952
constituencies▁	-11.2952
strategic▁	-11.2952
midfielder▁	-11.2952
revised▁	-11.2952
cattle▁	-11.2953
16–	-11.2954
pes▁	-11.2955
crying▁	-11.2956
Jay	-11.2957
Dr▁	-11.2957
Rob▁	-11.2959
slight▁	-11.296
vary▁	-11.296
Monday▁	-11.2961
Facebook▁	-11.2963
implementation▁	-11.2963
managing▁	-11.2964
doorway▁	-11.2966
tran	-11.2967
cooperation▁	-11.2973
53	-11.2974
presentation▁	-11.2975
pulse▁	-11.2975
banned▁	-11.2976
raw	-11.2982
adh	-11.2984
axi	-11.2985
drunk▁	-11.2985
Grammy▁	-11.2987
metric▁	-11.2987
Latino▁	-11.2988
Archive▁	-11.299
school	-11.2991
Wells▁	-11.2992
seth▁	-11.2992
ruler▁	-11.2994
affect▁	-11.2996
midfielders▁	-11.2996
preparation▁	-11.2996
thirteen▁	-11.2996
Mobile▁	-11.2996
eats▁	-11.2997
Hunt▁	-11.3
Emp	-11.3
spl	-11.3001
zane▁	-11.3001
Based▁	-11.3002
1851▁	-11.3003
Love	-11.3006
sect	-11.3007
Idaho▁	-11.3007
Magn	-11.3007
PlayStation▁	-11.3008
Towns▁	-11.3008
binding▁	-11.3008
franc	-11.3009
lifetime▁	-11.3009
Sum	-11.301
yle▁	-11.3011
white	-11.3011
vul	-11.3013
resumed▁	-11.3013
Jamaica▁	-11.3018
academy▁	-11.3018
treaty▁	-11.3018
package▁	-11.3018
Rec	-11.3029
Neo	-11.3029
columns▁	-11.303
demonstrated▁	-11.303
demands▁	-11.303
Manager▁	-11.303
util	-11.3031
Marc▁	-11.3031
Those▁	-11.3031
gentle▁	-11.3031
Chapel▁	-11.3032
α	-11.3033
Sean▁	-11.3038
show	-11.304
dom	-11.3041
spotted▁	-11.3041
OR▁	-11.3043
hallway▁	-11.3045
ranging▁	-11.3047
stability▁	-11.3047
1849▁	-11.3048
waved▁	-11.3048
SI	-11.3048
closest▁	-11.3052
lifting▁	-11.3052
cha▁	-11.3057
pass	-11.3058
mask▁	-11.3059
1856▁	-11.3059
accurate▁	-11.3063
consistent▁	-11.3063
Academic▁	-11.3063
imperial▁	-11.3063
fairly▁	-11.3066
zen▁	-11.3067
holder▁	-11.3071
Mang	-11.3072
expand▁	-11.3073
exercise▁	-11.3074
Elections▁	-11.3075
noble▁	-11.3078
Brand	-11.3078
elling▁	-11.308
bloody▁	-11.308
west	-11.308
topic▁	-11.308
phe	-11.308
norm	-11.3083
pan▁	-11.3083
usi	-11.3084
Distinguished▁	-11.3085
competitors▁	-11.3085
Stockholm▁	-11.3085
certified▁	-11.3086
Run	-11.3086
Hamburg▁	-11.3086
Panama▁	-11.3087
Wol	-11.3088
Every▁	-11.3088
settle▁	-11.3088
;	-11.3089
terminus▁	-11.309
Merit▁	-11.3091
12–	-11.3095
shadows▁	-11.3097
Draw▁	-11.3097
mort	-11.3101
PhD▁	-11.3101
width▁	-11.3102
ulation▁	-11.3103
bak	-11.3105
hence▁	-11.3106
hunt▁	-11.3107
vers▁	-11.3109
Salt▁	-11.311
nickname▁	-11.311
monster▁	-11.3111
3.5▁	-11.3116
switch▁	-11.3116
Olympi	-11.3118
contributing▁	-11.3119
Fighter▁	-11.3119
unincorporated▁	-11.312
inherited▁	-11.3122
brings▁	-11.3123
firing▁	-11.3123
posts▁	-11.3124
kie▁	-11.3125
Low▁	-11.3127
05	-11.3128
eth▁	-11.313
anch	-11.313
elo	-11.313
Encyclopedia▁	-11.313
absolutely▁	-11.313
earthquake▁	-11.313
indicating▁	-11.313
Lav	-11.3132
interpretation▁	-11.3132
Columbus▁	-11.3133
Leon	-11.3134
ghost▁	-11.3134
uri▁	-11.3136
comments▁	-11.3136
....▁	-11.3139
designation▁	-11.3142
Step	-11.3142
spor	-11.3144
л	-11.3146
Wilhelm▁	-11.3147
FA	-11.315
craft	-11.315
Palestine▁	-11.3153
proteins▁	-11.3153
pas	-11.3155
hydr	-11.3162
stem▁	-11.3163
Bull	-11.3164
Uganda▁	-11.3164
execution▁	-11.3164
reveal▁	-11.3164
Desert▁	-11.3165
Stories▁	-11.3166
Sig	-11.3166
cen	-11.3167
VA▁	-11.3168
astic▁	-11.3172
flash▁	-11.3173
Ow	-11.3173
lows▁	-11.3173
TE	-11.3175
100,000▁	-11.3175
exposure▁	-11.3175
yelled▁	-11.3175
Forum▁	-11.3176
ars	-11.3177
climb▁	-11.3178
Wildlife▁	-11.3179
Net	-11.3181
unions▁	-11.3182
joy▁	-11.3183
chat	-11.3185
Shakespeare▁	-11.3187
borg▁	-11.3187
Vic	-11.3187
deemed▁	-11.3187
Cont	-11.3189
heart	-11.3193
tia▁	-11.3195
Mot	-11.3197
rape▁	-11.3197
Piano▁	-11.3198
Saskatchewan▁	-11.3198
challenged▁	-11.3198
suppose▁	-11.3198
inducted▁	-11.3198
Support▁	-11.3198
populated▁	-11.3199
san▁	-11.3201
gui	-11.3205
elly▁	-11.3206
Op▁	-11.3208
Northwest▁	-11.3211
inning▁	-11.3211
departed▁	-11.3212
proud▁	-11.3213
discover▁	-11.3215
exhibited▁	-11.3221
Wallace▁	-11.3221
SU▁	-11.3224
pleased▁	-11.3224
compositions▁	-11.3225
Josh▁	-11.3226
rode▁	-11.3226
rent▁	-11.3226
Corn	-11.323
murmured▁	-11.3232
belongs▁	-11.3232
Harbor▁	-11.3232
graphics▁	-11.3232
Row	-11.3235
boxing▁	-11.3235
Was	-11.3236
Oscar▁	-11.3239
Car▁	-11.3239
Cabinet▁	-11.3243
Literary▁	-11.3243
ech▁	-11.3244
kam	-11.3245
boxes▁	-11.3245
industries▁	-11.3245
Scar	-11.3245
chel	-11.3246
Hindi▁	-11.3249
chen	-11.325
Ron▁	-11.3252
Scho	-11.3255
compiled▁	-11.3255
mystery▁	-11.3255
fastest▁	-11.3255
Michel▁	-11.3257
Sher	-11.3257
Ath	-11.3259
ór	-11.3259
asi	-11.326
ports▁	-11.326
ryan▁	-11.326
argue▁	-11.3261
RT▁	-11.3261
Ple	-11.3262
aph	-11.3263
trick▁	-11.3265
targets▁	-11.3268
Saf	-11.3268
gru	-11.3271
Gene	-11.3272
cabin▁	-11.3276
depicted▁	-11.3278
feeding▁	-11.3278
writings▁	-11.3278
76	-11.3278
unsuccessful▁	-11.3279
Dam▁	-11.328
Ships▁	-11.3281
sample▁	-11.3282
resting▁	-11.3283
zu▁	-11.3284
ald▁	-11.3284
Rein	-11.3285
Sultan▁	-11.3289
fid	-11.329
extend▁	-11.3291
proof▁	-11.3293
Arc	-11.3293
crops▁	-11.3295
Never▁	-11.3296
hab	-11.3296
bad	-11.3297
Gul	-11.3297
13–	-11.3297
detective▁	-11.33
elementary▁	-11.33
Methodist▁	-11.3301
defended▁	-11.3302
rubbed▁	-11.3302
ual▁	-11.3306
Mull	-11.3311
Railways▁	-11.3312
Musicians▁	-11.3312
66	-11.3313
harm▁	-11.3315
aul	-11.3316
ility▁	-11.3317
canal▁	-11.3319
uma▁	-11.3322
Pir	-11.3323
Cardinals▁	-11.3323
dynamic▁	-11.3323
resignation▁	-11.3323
sberg▁	-11.3323
Justin▁	-11.3325
magnetic▁	-11.3325
span▁	-11.3327
tends▁	-11.3328
tham▁	-11.3329
tac	-11.333
iously▁	-11.333
Copenhagen▁	-11.3335
amazing▁	-11.3335
crashed▁	-11.3336
Cork▁	-11.3336
77	-11.3337
uli	-11.3343
Pand	-11.3344
firms▁	-11.3345
wealthy▁	-11.3346
Sus	-11.3346
Foster▁	-11.3348
Bil	-11.3349
vent▁	-11.335
Left▁	-11.3351
soci	-11.3352
anim	-11.3354
meal▁	-11.3356
Armed▁	-11.3357
collapsed▁	-11.3358
explosion▁	-11.3358
Junction▁	-11.3358
immigrants▁	-11.3359
riders▁	-11.336
eas	-11.336
Interstate▁	-11.3361
hall	-11.3365
oriented▁	-11.3365
Fitz	-11.3366
furniture▁	-11.3369
temperatures▁	-11.3369
relegated▁	-11.3369
corresponding▁	-11.337
arrives▁	-11.337
internationally▁	-11.337
Hann	-11.337
roster▁	-11.3376
pac	-11.3378
lash▁	-11.3379
anus▁	-11.3379
breathe▁	-11.3379
oides▁	-11.338
Ambassador▁	-11.3381
Spirit▁	-11.3381
prepare▁	-11.3381
properly▁	-11.3381
onne▁	-11.3382
surely▁	-11.3383
ols▁	-11.3387
mass	-11.3388
migration▁	-11.339
Amendment▁	-11.3392
Iraqi▁	-11.3392
promoting▁	-11.3392
simultaneously▁	-11.3392
bigger▁	-11.3394
Sak	-11.3397
prey▁	-11.34
Seg	-11.3401
sbury▁	-11.3403
woke▁	-11.3407
likes▁	-11.3414
afford▁	-11.3415
Lithuanian▁	-11.3415
pot▁	-11.3416
Ernest▁	-11.3416
ario▁	-11.3416
Jur	-11.3419
ib▁	-11.3422
Mix▁	-11.3422
Histori	-11.3426
Name▁	-11.3426
ED▁	-11.3426
gathering▁	-11.3427
revenge▁	-11.3427
casting▁	-11.3428
soap▁	-11.3428
dependent▁	-11.3429
Oak	-11.3431
scream▁	-11.3433
ș	-11.3439
Cyprus▁	-11.3439
Miguel▁	-11.3439
€▁	-11.3439
Mac▁	-11.3442
itz	-11.3443
dra▁	-11.3444
Fro	-11.3445
Paulo▁	-11.3446
herb	-11.3447
belly▁	-11.3448
MO	-11.3449
punishment▁	-11.345
symptoms▁	-11.345
dirt▁	-11.345
Franz▁	-11.3451
was	-11.3453
Deep▁	-11.3455
angu	-11.3458
kon	-11.3461
inspiration▁	-11.3462
technologies▁	-11.3462
carrier▁	-11.3462
colonel▁	-11.3463
zer	-11.3465
stin	-11.3466
grandson▁	-11.3466
Nancy▁	-11.3469
elia▁	-11.3471
Spencer▁	-11.3473
explanation▁	-11.3473
narrative▁	-11.3473
empire▁	-11.3473
ripped▁	-11.348
Ground▁	-11.348
onder	-11.3482
Full▁	-11.3482
onian▁	-11.3483
Shanghai▁	-11.3485
Fuji	-11.3485
loves▁	-11.3487
Shak	-11.3491
Mill▁	-11.3492
Ei	-11.3494
Athletes▁	-11.3497
Religious▁	-11.3497
corporation▁	-11.3497
creatures▁	-11.3497
healthy▁	-11.3497
diplomatic▁	-11.3497
sciences▁	-11.3497
explains▁	-11.3498
Revolutionary▁	-11.3499
wat	-11.3499
Sing	-11.3504
Ball▁	-11.3506
Ev	-11.3508
permitted▁	-11.3508
monthly▁	-11.3508
purple▁	-11.3508
Todd▁	-11.3509
listings▁	-11.3509
farming▁	-11.3509
Kai	-11.3509
presents▁	-11.351
dissolved▁	-11.351
ovsky▁	-11.3513
Kirk	-11.3513
iko▁	-11.3517
attacking▁	-11.352
restaurants▁	-11.352
traditionally▁	-11.352
whisper▁	-11.352
insisted▁	-11.352
instant▁	-11.352
collapse▁	-11.352
thriller▁	-11.352
psychology▁	-11.352
Curtis▁	-11.352
Spider▁	-11.3522
weird▁	-11.3522
charter▁	-11.3522
coins▁	-11.3525
Daniel	-11.3527
vert▁	-11.3527
Dictionary▁	-11.3532
receives▁	-11.3532
surrender▁	-11.3532
dancer▁	-11.3532
updated▁	-11.3534
æ	-11.3535
Nine▁	-11.3538
XI▁	-11.3538
Palm	-11.354
garage▁	-11.3543
installation▁	-11.3543
measured▁	-11.3543
aspect▁	-11.3543
ophil	-11.3544
lumin	-11.3548
stopping▁	-11.3548
mature▁	-11.355
cal▁	-11.3553
Furthermore▁	-11.3555
stretch▁	-11.3555
rh	-11.3556
%	-11.356
Oil▁	-11.3561
ci▁	-11.3562
battles▁	-11.3565
tig	-11.3566
shy▁	-11.3566
floors▁	-11.3567
negotiations▁	-11.3567
founders▁	-11.3567
brand	-11.3568
urge▁	-11.3569
ét	-11.3569
equi	-11.3569
urged▁	-11.3572
liberal▁	-11.3573
person	-11.3573
authored▁	-11.3576
approaches▁	-11.3579
flex	-11.3579
honey▁	-11.3579
honest▁	-11.358
animation▁	-11.3581
Archives▁	-11.3581
loc	-11.3582
Jon▁	-11.3582
eb▁	-11.3583
ppy▁	-11.3585
Otto▁	-11.3585
Blan	-11.3589
laps▁	-11.359
breeding▁	-11.359
virtual▁	-11.359
register▁	-11.3591
cephal	-11.3592
AL	-11.3597
shorter▁	-11.3597
chal	-11.3598
editors▁	-11.3599
HC▁	-11.36
error▁	-11.3601
WA	-11.3602
François▁	-11.3602
participating▁	-11.3602
Comedy▁	-11.3602
project	-11.3603
rested▁	-11.3605
shire▁	-11.3608
pho	-11.3608
Ard	-11.3608
comparison▁	-11.3614
dirty▁	-11.3614
blind▁	-11.3614
vocalist▁	-11.3614
oka▁	-11.3614
slip▁	-11.3616
Iv	-11.3618
89	-11.3619
VIII▁	-11.362
challenges▁	-11.3626
reflected▁	-11.3626
Diamond▁	-11.3626
porch▁	-11.3628
Eth	-11.3632
brands▁	-11.3633
Meh	-11.3634
NS▁	-11.3634
Bus▁	-11.3635
Patt	-11.3636
ET▁	-11.3636
Actress▁	-11.3638
characteristic▁	-11.3638
owed▁	-11.3638
stored▁	-11.364
SO	-11.364
failing▁	-11.364
functional▁	-11.364
Lisa▁	-11.3641
bike▁	-11.3646
fix▁	-11.3647
12.	-11.3648
Decision▁	-11.3649
Therefore▁	-11.3649
calendar▁	-11.3649
communist▁	-11.3649
regulation▁	-11.365
missile▁	-11.365
Kate▁	-11.3652
Ep	-11.3655
Tol	-11.3656
oper	-11.3659
Indianapolis▁	-11.3661
Montgomery▁	-11.3661
graduation▁	-11.3661
temporarily▁	-11.3661
superior▁	-11.3661
101▁	-11.3662
Cinema▁	-11.3662
NO	-11.3663
Lakes▁	-11.3666
Sang	-11.3667
Cow	-11.3671
Antarctic▁	-11.3673
citizen▁	-11.3673
describing▁	-11.3673
documented▁	-11.3673
favour▁	-11.3673
…▁	-11.3673
Meta	-11.3674
shu	-11.3675
;"|	-11.3678
public	-11.3681
Dru	-11.3682
basin▁	-11.3683
Lithuania▁	-11.3685
inhabited▁	-11.3685
Holmes▁	-11.3687
erly▁	-11.3688
ven▁	-11.3688
oats▁	-11.3689
yg	-11.3691
Case▁	-11.3691
spun▁	-11.3692
tant	-11.3692
tol	-11.3696
difficulty▁	-11.3697
procedure▁	-11.3697
laying▁	-11.3698
blood	-11.3699
valid▁	-11.37
swallowed▁	-11.3702
impressed▁	-11.3703
worship▁	-11.3704
phy	-11.3705
saving▁	-11.3708
Mumbai▁	-11.3709
Palestinian▁	-11.3709
Vietnamese▁	-11.3709
desperate▁	-11.3709
pilots▁	-11.371
Chester▁	-11.3712
toll▁	-11.3712
Winner▁	-11.3713
naming▁	-11.3716
51	-11.3717
Sir	-11.3717
super▁	-11.3717
Roch	-11.3718
Kill	-11.3719
fourteen▁	-11.3721
formula▁	-11.3722
glasses▁	-11.3722
Batman▁	-11.3723
itis▁	-11.3724
coup▁	-11.3726
bee▁	-11.3726
Reed▁	-11.3727
1853▁	-11.3728
eight	-11.3728
Rem	-11.373
kel▁	-11.3731
aug	-11.3732
connects▁	-11.3733
Universe▁	-11.3733
Ing	-11.3734
anci	-11.3735
Math	-11.3735
lung▁	-11.3737
Maritime▁	-11.3737
Alex	-11.3738
-3▁	-11.3738
rally▁	-11.3741
bio▁	-11.3744
Sara	-11.3744
campaigns▁	-11.3745
monastery▁	-11.3745
nurse▁	-11.3745
Armenia▁	-11.3745
listened▁	-11.3745
touching▁	-11.3748
aims▁	-11.3751
fur▁	-11.3754
iro▁	-11.3755
Politicians▁	-11.3757
depression▁	-11.3757
everywhere▁	-11.3757
metropolitan▁	-11.3757
Pod	-11.3757
random▁	-11.3757
Bird▁	-11.3759
just	-11.376
nus▁	-11.376
Marcus▁	-11.3763
thereafter▁	-11.3763
Manitoba▁	-11.3769
commenced▁	-11.3769
extinct▁	-11.3769
theories▁	-11.3769
78	-11.3772
1.4▁	-11.3777
RO	-11.378
ambassador▁	-11.3781
impressive▁	-11.3781
Sabha▁	-11.3782
temples▁	-11.3783
Liberty▁	-11.3784
LC▁	-11.3785
bir	-11.379
Cant	-11.379
Tw	-11.3793
yu	-11.3796
gue	-11.3797
110▁	-11.38
Villa	-11.3801
Sw	-11.3801
1,1	-11.3802
pill	-11.3802
170	-11.3803
fair	-11.3804
Finally▁	-11.3808
ID▁	-11.381
fusion▁	-11.3811
insky▁	-11.3811
call	-11.3812
Legal▁	-11.3813
Beau	-11.3816
extensively▁	-11.3817
skull▁	-11.3817
Ronald▁	-11.3817
Estonian▁	-11.3817
eus▁	-11.3818
75	-11.382
con▁	-11.3823
main	-11.3824
ote▁	-11.3826
pounds▁	-11.3827
lu▁	-11.3828
Footballers▁	-11.3829
cavalry▁	-11.3829
supplied▁	-11.3829
corruption▁	-11.3829
Bradley▁	-11.383
taxes▁	-11.3835
altered▁	-11.384
novelists▁	-11.3841
Eagle▁	-11.3841
aga▁	-11.3841
Durham▁	-11.3842
silk▁	-11.3847
bombing▁	-11.3847
planes▁	-11.3849
olog	-11.385
Riv	-11.3852
Lancashire▁	-11.3853
tightly▁	-11.3853
wonderful▁	-11.3853
mont	-11.3853
ische▁	-11.3855
Jacob	-11.3859
sion	-11.3861
Owen▁	-11.3861
teri	-11.3861
leigh▁	-11.3864
oxygen▁	-11.3865
cran	-11.3866
Cou	-11.3866
Bert	-11.3868
copper▁	-11.3868
sacred▁	-11.3871
Astro	-11.3874
engagement▁	-11.3877
intellectual▁	-11.3877
nephew▁	-11.3877
prisoner▁	-11.3877
icing▁	-11.3877
Gmina▁	-11.3878
án	-11.388
fist▁	-11.3881
hul	-11.3882
amy▁	-11.3885
warrior▁	-11.3889
manuscript▁	-11.3889
objective▁	-11.3889
Bod	-11.389
iff▁	-11.389
telephone▁	-11.3891
bour	-11.3892
Abu▁	-11.3892
cord▁	-11.3893
intent▁	-11.3898
cent▁	-11.3899
scattered▁	-11.3901
samples▁	-11.3901
Classical▁	-11.3902
filming▁	-11.3902
Lau	-11.3902
Albanian▁	-11.3902
Overview▁	-11.3903
collect▁	-11.3903
logo▁	-11.3906
ı▁	-11.3906
bin▁	-11.3906
Grande▁	-11.3906
Ear	-11.3907
Mars▁	-11.3907
ME▁	-11.3909
glu	-11.391
Card	-11.3911
Disc	-11.3912
Sr▁	-11.3913
Protestant▁	-11.3913
tric	-11.3914
IP	-11.3916
Fisher▁	-11.3916
Mixed▁	-11.3919
opter	-11.3923
sculptor▁	-11.3923
Morocco▁	-11.3926
Software▁	-11.3926
focusing▁	-11.3926
Cuban▁	-11.3929
tribu	-11.393
Bog	-11.3933
rot▁	-11.3934
Bryan▁	-11.3934
Nintendo▁	-11.3938
ere▁	-11.3938
Obama▁	-11.3938
cant	-11.3939
yll	-11.3939
tenth▁	-11.394
Kenneth▁	-11.3941
owl▁	-11.3941
Malta▁	-11.3942
polit	-11.3943
AB	-11.3945
bie▁	-11.3946
Brit	-11.3946
Isle▁	-11.3947
Rid	-11.3947
yr▁	-11.3948
Westminster▁	-11.395
Celtic▁	-11.3951
cotton▁	-11.3951
wrist▁	-11.3952
posit	-11.3953
quarters▁	-11.3954
gol	-11.3955
march▁	-11.3955
wer▁	-11.396
ament	-11.3963
revolution▁	-11.3963
hello▁	-11.3964
Night	-11.3965
cc▁	-11.3967
brush▁	-11.3967
wise▁	-11.3968
molecular▁	-11.3974
tourist▁	-11.3974
client▁	-11.3975
alter	-11.3976
ky	-11.3976
tense▁	-11.3977
radiation▁	-11.3979
Gardens▁	-11.3983
Change▁	-11.3983
eno	-11.3984
enrolled▁	-11.3985
Hag	-11.3986
intensity▁	-11.3987
Articles▁	-11.3987
Bennett▁	-11.3987
ien	-11.399
Yan	-11.3992
well	-11.3994
survival▁	-11.3999
Fernando▁	-11.3999
eighteen▁	-11.3999
Pick	-11.3999
collective▁	-11.3999
Self▁	-11.4001
LI	-11.4004
Guards▁	-11.4004
kit	-11.4004
crap▁	-11.4005
Cad	-11.4006
oro▁	-11.4006
emphasis▁	-11.4011
beetle▁	-11.4011
hospitals▁	-11.4011
studios▁	-11.4011
solve▁	-11.4013
green	-11.4017
Palmer▁	-11.4018
Tul	-11.4022
Giovanni▁	-11.4023
nah▁	-11.4026
Bros	-11.4031
Genus▁	-11.4031
strict▁	-11.4035
od▁	-11.4036
archaeological▁	-11.4036
Ig	-11.4039
Cab	-11.404
Powell▁	-11.404
resort▁	-11.4041
Steel▁	-11.4044
Dominican▁	-11.4046
lum▁	-11.4048
uj	-11.4049
än	-11.4052
brac	-11.4055
squeezed▁	-11.406
Bronze▁	-11.4061
rivals▁	-11.4063
Principal▁	-11.4063
ration▁	-11.4064
Bah	-11.4065
ju▁	-11.4071
berg	-11.4071
Laboratory▁	-11.4073
exhibit▁	-11.4073
mixture▁	-11.4073
mainstream▁	-11.4073
legacy▁	-11.4073
AFC▁	-11.4074
Law	-11.4076
Tai	-11.4079
Lip	-11.4082
lug	-11.4085
Buenos▁	-11.4085
laboratory▁	-11.4085
ifi	-11.4089
MTV▁	-11.4092
Gaz	-11.4093
1847▁	-11.4093
ière▁	-11.4094
Rou	-11.4095
99	-11.4097
Advanced▁	-11.4097
imprisoned▁	-11.4097
slammed▁	-11.4097
fat	-11.4097
cod	-11.4099
ingen▁	-11.4099
undergraduate▁	-11.41
Ill	-11.4101
sank▁	-11.4105
mart	-11.4105
cey▁	-11.4106
andy▁	-11.4106
house	-11.4108
Roosevelt▁	-11.411
corridor▁	-11.411
departments▁	-11.411
experiment▁	-11.411
vat	-11.4111
reply▁	-11.4116
EC	-11.412
Cameron▁	-11.4122
Aaron▁	-11.4123
Brahm	-11.4124
sorts▁	-11.4126
cler	-11.4126
IN▁	-11.4133
uy	-11.4133
Rolling▁	-11.4134
slide▁	-11.4135
shelter▁	-11.4135
IA▁	-11.4136
fish	-11.4137
Pres	-11.4139
hun	-11.4141
Mach	-11.4143
rust	-11.4144
blinked▁	-11.4145
Wyoming▁	-11.4147
altitude▁	-11.4147
controls▁	-11.4147
arena▁	-11.4147
nas	-11.4149
power	-11.415
Circ	-11.4153
skill▁	-11.4154
Rovers▁	-11.4154
liv	-11.4154
rang	-11.4157
athletics▁	-11.416
casualties▁	-11.416
Aires▁	-11.416
AD	-11.416
MG▁	-11.4162
Legend▁	-11.4164
sham▁	-11.4165
1,2	-11.4166
Again▁	-11.4166
metr	-11.4168
blame▁	-11.417
distinction▁	-11.4172
exhibitions▁	-11.4172
messages▁	-11.4172
Rud	-11.4173
Leslie▁	-11.4173
zan	-11.4174
vig	-11.4175
SB▁	-11.4175
step	-11.4175
poo	-11.4176
Off▁	-11.4176
Say	-11.4177
apo	-11.418
metre▁	-11.4181
sailing▁	-11.4182
reducing▁	-11.4185
Fifth▁	-11.4185
AFL▁	-11.4185
tica▁	-11.4185
igan▁	-11.4186
Hus	-11.4186
Cart	-11.4189
Ther	-11.419
Liu▁	-11.419
burg	-11.4191
knock▁	-11.4192
bread▁	-11.4195
select▁	-11.4196
assessment▁	-11.4197
difficulties▁	-11.4197
pioneer▁	-11.4197
Emily▁	-11.4198
Come▁	-11.4198
mainland▁	-11.4201
uster▁	-11.4201
Ent	-11.4202
coll	-11.4202
iest▁	-11.4205
eve	-11.4205
patri	-11.4206
dimensional▁	-11.421
repeatedly▁	-11.421
siege▁	-11.421
circular▁	-11.421
hay	-11.421
tit	-11.4212
tune▁	-11.4213
Wen	-11.4215
athletic▁	-11.4222
Gam	-11.4223
neu	-11.4224
excited▁	-11.4225
cus▁	-11.4227
addressed▁	-11.4227
Hart▁	-11.423
Angels▁	-11.4231
corn	-11.4232
Vid	-11.4233
abolished▁	-11.4235
brigade▁	-11.4235
framework▁	-11.4235
tributary▁	-11.4235
retreat▁	-11.4235
Double▁	-11.4235
point	-11.4239
NT▁	-11.424
DE▁	-11.4241
pod	-11.4243
Isaac▁	-11.4247
Physics▁	-11.4247
Sussex▁	-11.4248
specialized▁	-11.4248
Louise▁	-11.4248
aft▁	-11.426
wheels▁	-11.426
Herzegovina▁	-11.426
essentially▁	-11.426
20,000▁	-11.426
cano	-11.4261
NI	-11.4261
aq▁	-11.4265
Ald	-11.4266
700▁	-11.4269
passion▁	-11.4274
Turk	-11.4278
Penn▁	-11.4279
Mills▁	-11.428
ß	-11.4285
Indigenous▁	-11.4285
automatically▁	-11.4285
Chilean▁	-11.4286
dent▁	-11.4286
Chap	-11.4287
Rum	-11.429
cycling▁	-11.4291
Henri▁	-11.4293
Sai	-11.4293
princess▁	-11.4298
satisfied▁	-11.4298
disbanded▁	-11.4298
Gang	-11.4298
clients▁	-11.4299
AF	-11.4299
Theory▁	-11.43
Indies▁	-11.4307
Safety▁	-11.431
Treaties▁	-11.431
whenever▁	-11.431
summit▁	-11.431
thomas▁	-11.4311
friendship▁	-11.4311
rapper▁	-11.4311
lib	-11.4311
oria▁	-11.4312
pride▁	-11.4313
radar▁	-11.4315
searched▁	-11.4316
Campus▁	-11.4322
Show	-11.4322
collaborated▁	-11.4323
directions▁	-11.4323
legislature▁	-11.4323
predecessor▁	-11.4323
snake▁	-11.4323
institute▁	-11.4324
odor	-11.4325
outdoor▁	-11.4327
inian▁	-11.4327
tear▁	-11.4328
Manu	-11.4329
key	-11.4329
pter	-11.4331
adia▁	-11.4332
dé	-11.4335
Santiago▁	-11.4336
Claude▁	-11.4336
Imp	-11.4336
→▁	-11.4337
stake▁	-11.4338
Bears▁	-11.4339
1.8▁	-11.4341
]	-11.4342
vil	-11.4343
Tel	-11.4343
tailed▁	-11.4344
McG	-11.4345
artwork▁	-11.4346
cylinder▁	-11.4348
efficiency▁	-11.4348
tossed▁	-11.4348
anga▁	-11.4351
luke▁	-11.4351
urg	-11.4352
Kaz	-11.4352
noting▁	-11.4355
quadr	-11.4355
él	-11.4356
Pep	-11.4356
peer▁	-11.4357
quet▁	-11.4358
Far▁	-11.4359
otic▁	-11.436
programmes▁	-11.4361
Woods▁	-11.4363
IX▁	-11.4364
quin	-11.4366
Matt	-11.4368
gir	-11.4373
spe	-11.4375
Pis	-11.4375
ables▁	-11.4375
sent	-11.4375
conce	-11.4379
centres▁	-11.4382
Ut	-11.4386
ministry▁	-11.4386
Andrews▁	-11.4387
NC	-11.4387
oons▁	-11.4388
namely▁	-11.4389
equally▁	-11.439
andr	-11.439
Rose	-11.4392
USS▁	-11.4392
quarterback▁	-11.4393
ote	-11.4393
sweet	-11.4394
Calv	-11.4397
imo▁	-11.4398
destination▁	-11.4399
helicopter▁	-11.4399
innocent▁	-11.4399
cham	-11.4403
rug	-11.4404
fort	-11.4404
cloth▁	-11.4404
pla	-11.4405
Pete▁	-11.4406
Ghost▁	-11.4408
guitars▁	-11.4412
Beginning▁	-11.4412
Cardiff▁	-11.4412
anza▁	-11.4415
rounded▁	-11.4416
cken	-11.4417
Crow	-11.4419
iki▁	-11.442
TE▁	-11.4421
strings▁	-11.4421
genes▁	-11.4423
generals▁	-11.4423
1.6▁	-11.4424
HMS▁	-11.4425
Honorary▁	-11.4425
Popular▁	-11.4425
sustained▁	-11.4426
añ	-11.4426
interpret	-11.443
stance▁	-11.4431
Rice▁	-11.4432
Without▁	-11.4432
Mono	-11.4432
input▁	-11.4433
hair	-11.4433
bing▁	-11.4435
umi▁	-11.4435
blues▁	-11.4437
patch▁	-11.4437
comprises▁	-11.4438
Manila▁	-11.4441
handling▁	-11.4443
hawk▁	-11.4444
mouth	-11.4445
owing▁	-11.4445
colonies▁	-11.4451
Tampa▁	-11.4451
flowing▁	-11.4452
Dai	-11.4452
labour▁	-11.4453
actively▁	-11.4458
Ib	-11.4459
phor	-11.446
comment▁	-11.4461
Pre▁	-11.4462
vulnerable▁	-11.4463
17.	-11.4464
Catholics▁	-11.4464
Ages▁	-11.4466
gang	-11.4471
orn▁	-11.4473
Elect	-11.4474
Combat▁	-11.4476
ON▁	-11.4477
bourne▁	-11.4477
spr	-11.4477
sporting▁	-11.4478
iri▁	-11.4478
wild	-11.448
pause▁	-11.448
bled▁	-11.4483
~	-11.4483
width	-11.4483
CP	-11.4486
It	-11.4486
Simpson▁	-11.4489
liver▁	-11.449
variable▁	-11.4491
lind	-11.4494
provision▁	-11.4494
Julian▁	-11.4497
Raz	-11.4497
1846▁	-11.4497
cult▁	-11.4501
Currently▁	-11.4502
architects▁	-11.4502
iva▁	-11.4502
authorized▁	-11.4502
naturally▁	-11.4504
Pearl▁	-11.4504
Circle▁	-11.4505
Dog▁	-11.4506
Stein	-11.4506
Scot	-11.4507
flood▁	-11.4507
excuse▁	-11.4507
ün	-11.4507
disorder▁	-11.4507
87	-11.4508
Naga	-11.4508
ERA▁	-11.4513
administered▁	-11.4515
instruction▁	-11.4515
limbs▁	-11.4517
app▁	-11.4517
eared▁	-11.4517
allo	-11.452
Sau	-11.4521
tect	-11.4522
Ruth▁	-11.4523
aviation▁	-11.4523
relieved▁	-11.4528
wiped▁	-11.4528
Location▁	-11.453
carved▁	-11.453
trace▁	-11.4533
hal▁	-11.4536
Lucas▁	-11.4538
layout▁	-11.4541
Amateur▁	-11.4541
climbing▁	-11.4541
Surrey▁	-11.4541
defender▁	-11.4541
Guitar▁	-11.4541
Low	-11.4541
Maur	-11.4548
flor	-11.4548
1.0▁	-11.4548
1837▁	-11.455
Lud	-11.4551
Fighting▁	-11.4554
ifer	-11.4554
Plant▁	-11.4557
Gamb	-11.4564
Yar	-11.4565
physically▁	-11.4566
underneath▁	-11.4566
suspect▁	-11.4566
seized▁	-11.4567
Resources▁	-11.4567
personally▁	-11.4567
torn▁	-11.4568
ahn▁	-11.457
ego▁	-11.4571
lett▁	-11.4571
Perth▁	-11.4576
oak▁	-11.4576
dos▁	-11.4576
wrestler▁	-11.4579
householder▁	-11.458
xe	-11.458
ideal▁	-11.458
hungry▁	-11.458
radical▁	-11.4581
swung▁	-11.4581
servants▁	-11.4581
ogue▁	-11.4582
hart▁	-11.4584
Newton▁	-11.4585
bet	-11.4588
Wild	-11.459
Chang	-11.4591
Yang▁	-11.4592
divorce▁	-11.4592
survivors▁	-11.4592
volunteers▁	-11.4592
trap▁	-11.4593
claire▁	-11.4593
cho▁	-11.4596
Georgian▁	-11.4596
dragged▁	-11.4597
Contr	-11.4597
tent▁	-11.46
Sli	-11.4601
1840▁	-11.4601
chorus▁	-11.4601
Allan▁	-11.4604
Eg	-11.4604
assembled▁	-11.4605
celebration▁	-11.4605
constantly▁	-11.4605
restrictions▁	-11.4605
gus▁	-11.4606
generate▁	-11.4607
dining▁	-11.4608
renowned▁	-11.4609
Inf	-11.4609
Return▁	-11.461
Put	-11.4614
hipp	-11.4618
convince▁	-11.4619
Colonial▁	-11.4619
loy	-11.4619
day	-11.462
ør	-11.462
Jon	-11.4623
Pass▁	-11.4623
footage▁	-11.4625
Notre▁	-11.4628
pile▁	-11.4628
Males▁	-11.4631
Orlando▁	-11.4632
distinctive▁	-11.4632
struggling▁	-11.4632
plum	-11.4635
rushing▁	-11.4636
road	-11.4638
Maharashtra▁	-11.4645
Progressive▁	-11.4645
pianist▁	-11.4645
sculptures▁	-11.4645
CB▁	-11.4646
6,000▁	-11.4648
Bin	-11.4649
anchor▁	-11.4653
egan▁	-11.4654
hag	-11.4656
attendance▁	-11.4658
statements▁	-11.4658
Hunt	-11.466
Taka	-11.466
quit▁	-11.4661
daniel▁	-11.4661
Birds▁	-11.4662
sink▁	-11.4664
Take▁	-11.4667
Hell	-11.4667
Ble	-11.467
Planet▁	-11.467
Recording▁	-11.4671
extending▁	-11.4671
improvements▁	-11.4671
travels▁	-11.4671
Bug	-11.4671
hap	-11.4672
gaz	-11.4672
coached▁	-11.4673
flies▁	-11.4674
Lab	-11.4675
Wind▁	-11.4676
Gill	-11.4676
Ori	-11.4677
Sas	-11.468
bull▁	-11.4681
radio	-11.4681
exile▁	-11.4682
Playing▁	-11.4684
historically▁	-11.4684
refugees▁	-11.4684
Electoral▁	-11.4684
dish▁	-11.4686
spy▁	-11.4687
Rosen	-11.4688
01	-11.4689
ratt	-11.4691
last	-11.4693
omy	-11.4695
ettes▁	-11.4696
Engineer▁	-11.4697
Frankfurt▁	-11.4697
Parliamentary▁	-11.4697
frozen▁	-11.4697
towers▁	-11.4697
AB▁	-11.4698
astr	-11.4698
André▁	-11.4698
8:	-11.4699
41	-11.4699
Paralympics▁	-11.471
carriage▁	-11.471
Jennifer▁	-11.471
shoved▁	-11.4711
acu	-11.4712
Dub	-11.4713
Rhe	-11.4718
amounts▁	-11.472
experiments▁	-11.4723
Ministers▁	-11.4724
fewer▁	-11.4724
ave	-11.4731
celebrate▁	-11.4737
societies▁	-11.4737
nu▁	-11.4739
CT▁	-11.4742
_▁	-11.4743
usa▁	-11.4743
Sup	-11.4744
HD▁	-11.4748
п	-11.475
announcement▁	-11.475
homo	-11.475
PS	-11.475
Jack	-11.4757
with	-11.4757
Sound	-11.476
ige▁	-11.4761
Beyond▁	-11.4763
Davies▁	-11.4765
variation▁	-11.4765
Boy	-11.4768
Queens▁	-11.4769
emotion▁	-11.4769
iv▁	-11.477
kol	-11.477
uro▁	-11.4774
ا	-11.4776
Cardinal▁	-11.4776
pulls▁	-11.4776
releasing▁	-11.4776
Hitler▁	-11.4777
dorf▁	-11.478
ots▁	-11.4782
IF▁	-11.4783
Shah	-11.4789
armor▁	-11.4792
tore▁	-11.4792
dep	-11.4795
flora▁	-11.4796
ete▁	-11.4797
Hawk	-11.4799
beck▁	-11.4801
manu	-11.4801
thrust▁	-11.4803
Twitter▁	-11.4803
structural▁	-11.4804
airline▁	-11.4805
escu▁	-11.4806
Ellis▁	-11.4806
Devon▁	-11.4806
filling▁	-11.4806
-3	-11.4808
mud▁	-11.4812
num▁	-11.4812
Franco▁	-11.4813
widow▁	-11.4816
phi	-11.4817
Physical▁	-11.4817
Albania▁	-11.4817
relating▁	-11.4818
But	-11.482
kor	-11.4821
Wie	-11.4823
67	-11.4824
bull	-11.4824
wor	-11.4827
Duncan▁	-11.4827
absolute▁	-11.4829
syndrome▁	-11.4829
reverse▁	-11.483
63	-11.483
Relations▁	-11.483
Eugene▁	-11.483
Porter▁	-11.4832
tori	-11.4834
Poll	-11.4834
Aero	-11.4835
drag▁	-11.4836
kinds▁	-11.4837
Sweet▁	-11.4838
Tour	-11.4839
receiver▁	-11.4843
warfare▁	-11.4843
Exhibition▁	-11.4843
Nord	-11.4843
Disc▁	-11.4845
lun	-11.4846
lightly▁	-11.4847
Bear▁	-11.4849
ress▁	-11.485
heir▁	-11.4851
thereby▁	-11.4854
descendants▁	-11.4856
infection▁	-11.4856
permanently▁	-11.4856
neo	-11.4856
contracts▁	-11.4857
circles▁	-11.4857
integration▁	-11.4857
orbit▁	-11.4861
hug▁	-11.4867
paul▁	-11.4868
maintaining▁	-11.487
invented▁	-11.487
civilians▁	-11.487
colleagues▁	-11.487
philosopher▁	-11.4871
ionist▁	-11.4871
hopes▁	-11.4871
cultures▁	-11.4873
69	-11.4874
uffy▁	-11.4876
hai▁	-11.4878
comedian▁	-11.4878
Wolf	-11.488
Tree▁	-11.4881
artificial▁	-11.4883
expecting▁	-11.4883
touchdowns▁	-11.4883
Solomon▁	-11.4883
EPs▁	-11.4885
labor	-11.4891
swing▁	-11.4891
1–1▁	-11.4893
18.	-11.4896
removal▁	-11.4896
pupils▁	-11.4896
kilometers▁	-11.4896
NASA▁	-11.4897
quit	-11.4897
initi	-11.4899
mount▁	-11.4904
Nathan▁	-11.4905
Kad	-11.4906
duction▁	-11.4907
investigate▁	-11.491
dav	-11.4912
Presidential▁	-11.4912
engage▁	-11.4913
tissue▁	-11.4915
Regi	-11.4916
Julia▁	-11.4917
Back	-11.4923
trio▁	-11.4923
slept▁	-11.4923
assured▁	-11.4923
Complete▁	-11.4924
fauna▁	-11.4924
Act	-11.4924
Transit▁	-11.4924
Happy▁	-11.4924
Hull▁	-11.4928
Metro	-11.493
Block▁	-11.4932
seeds▁	-11.4933
scr	-11.4933
Heaven▁	-11.4937
kov	-11.4939
Tak	-11.4944
wen▁	-11.4945
Gab	-11.4945
isi	-11.4946
recruited▁	-11.495
relatives▁	-11.495
threatening▁	-11.495
mansion▁	-11.495
tv▁	-11.4951
honored▁	-11.4957
eni	-11.4958
Stakes▁	-11.496
quer	-11.4961
Yoshi	-11.4961
ifies▁	-11.4963
polo▁	-11.4964
labels▁	-11.4964
lease▁	-11.4965
Gon	-11.4965
blocked▁	-11.4969
oti	-11.497
pick	-11.4971
DF▁	-11.4971
ples▁	-11.4971
encounter▁	-11.4973
Chen▁	-11.4974
Pier	-11.4975
centered▁	-11.4976
Pant	-11.4977
ratings▁	-11.4977
ę	-11.4977
tourism▁	-11.4977
Gerald▁	-11.4978
wars▁	-11.498
kick	-11.4982
Rain	-11.4983
chester▁	-11.4985
-21▁	-11.4987
get	-11.4989
ional	-11.499
cameras▁	-11.4991
Mich	-11.4991
Rig	-11.4994
brushed▁	-11.4999
Ecuador▁	-11.5004
regardless▁	-11.5004
striking▁	-11.5004
Heights▁	-11.5004
Adventures▁	-11.5005
Jen	-11.5006
than	-11.5006
dri	-11.501
1841▁	-11.5013
cross	-11.5016
progressive▁	-11.5018
kissing▁	-11.5018
Hai	-11.5019
plat	-11.502
encourage▁	-11.5021
Denis▁	-11.5027
nis	-11.5027
tai	-11.5029
loading▁	-11.503
aqu	-11.503
par▁	-11.503
zen	-11.5031
developments▁	-11.5031
observation▁	-11.5031
attitude▁	-11.5032
ruins▁	-11.5032
4/	-11.5033
=2	-11.5033
fluid▁	-11.5033
imposed▁	-11.5034
fabric▁	-11.5042
Ey	-11.5042
guided▁	-11.5045
revealing▁	-11.5045
Chemical▁	-11.5045
strat	-11.5047
washed▁	-11.5048
shaw▁	-11.5053
Stock	-11.5055
Linda▁	-11.5055
roll	-11.5056
−▁	-11.5056
consumption▁	-11.5059
elevator▁	-11.5059
identification▁	-11.5059
succession▁	-11.5059
Rot	-11.5059
Geneva▁	-11.506
burial▁	-11.506
torture▁	-11.5061
Table▁	-11.5061
marble▁	-11.5061
1.7▁	-11.5062
ruth	-11.5062
streaming▁	-11.5063
Work	-11.5064
ema▁	-11.5068
bears▁	-11.5068
sequences▁	-11.5069
alien▁	-11.5069
sten▁	-11.507
Stevens▁	-11.5072
retiring▁	-11.5072
Others▁	-11.5073
tony▁	-11.5073
1,0	-11.5075
worthy▁	-11.5076
160	-11.5076
Thor	-11.5077
ies	-11.5078
inder▁	-11.5079
Marc	-11.5082
contents▁	-11.5084
consciousness▁	-11.5086
suspension▁	-11.5086
literacy▁	-11.5086
IBM▁	-11.5086
topped▁	-11.5086
Oslo▁	-11.5087
rachel▁	-11.5088
immigration▁	-11.5088
creator▁	-11.5089
shaft▁	-11.509
equation▁	-11.509
Fight▁	-11.5092
pop	-11.5093
Yellow▁	-11.5093
asp	-11.5093
Tiger▁	-11.5094
marking▁	-11.5099
locomotive▁	-11.51
honours▁	-11.51
hardware▁	-11.51
Bradford▁	-11.51
test	-11.5107
DP▁	-11.511
crypt	-11.5112
Bath▁	-11.5113
veteran▁	-11.5113
concepts▁	-11.5113
Organizations▁	-11.5113
р	-11.5115
cour	-11.5117
deliver▁	-11.5118
Cole	-11.5119
fat▁	-11.5119
layers▁	-11.512
Hin	-11.5122
Bart	-11.5122
1838▁	-11.5124
commitment▁	-11.5127
keeps▁	-11.5127
Thur	-11.5127
Continental▁	-11.5128
3–1▁	-11.5128
lessons▁	-11.5129
capita▁	-11.5129
Gate▁	-11.513
tomb▁	-11.5131
Starting▁	-11.5132
1800▁	-11.5133
Han▁	-11.5134
Oct	-11.5134
Beg	-11.5134
haven▁	-11.5135
pine▁	-11.5136
anta▁	-11.5136
Semi▁	-11.5137
Serv	-11.5138
wil	-11.5139
Tropical▁	-11.5141
Ferdinand▁	-11.5141
drinks▁	-11.5141
ini	-11.5141
Herald▁	-11.5141
Sudan▁	-11.5142
holders▁	-11.5142
tough▁	-11.5146
Gha	-11.5146
pens	-11.5146
pipe▁	-11.5149
News	-11.5153
2.3▁	-11.5154
pleasant▁	-11.5154
rebellion▁	-11.5154
terrorist▁	-11.5154
Ahmed▁	-11.5155
hurst▁	-11.5156
ney	-11.5158
ris▁	-11.5159
oxy	-11.5159
joins▁	-11.5159
lon	-11.5162
nut▁	-11.5163
item▁	-11.5163
Got▁	-11.5165
Hell▁	-11.5167
Stock▁	-11.5168
perceived▁	-11.5168
Headquarters▁	-11.5168
threats▁	-11.5169
Heat▁	-11.5169
Wat	-11.5171
ś	-11.5172
Zen	-11.5172
Las	-11.5175
eti	-11.5175
Milton▁	-11.5176
wet	-11.5176
Albany▁	-11.5178
Blake▁	-11.5181
Malaysian▁	-11.5182
affiliate▁	-11.5182
situations▁	-11.5182
plenty▁	-11.5182
basement▁	-11.5183
Sham	-11.5185
Still▁	-11.5186
oku▁	-11.5186
Gross	-11.5188
Pyr	-11.5189
will	-11.519
pra	-11.5191
cardi	-11.5192
nett▁	-11.5194
field	-11.5195
View▁	-11.5195
Brussels▁	-11.5196
Edmonton▁	-11.5196
Warriors▁	-11.5196
neighboring▁	-11.5196
experts▁	-11.5196
98	-11.5196
feat▁	-11.5197
Armstrong▁	-11.5198
Legion▁	-11.5198
spite▁	-11.5198
patent▁	-11.5198
Pat▁	-11.5199
Money▁	-11.52
86	-11.5202
wen	-11.5202
1844▁	-11.5207
dense▁	-11.5209
Ski	-11.5209
Canterbury▁	-11.521
instructions▁	-11.521
questioned▁	-11.521
Index▁	-11.5211
sten	-11.5221
Against▁	-11.5224
assume▁	-11.5224
Oak▁	-11.5225
lov	-11.5229
Chase▁	-11.5232
angel	-11.5233
Monte	-11.5234
Wool	-11.5234
picking▁	-11.5235
overs▁	-11.5235
Yuk	-11.5235
handled▁	-11.5236
discontinued▁	-11.5236
rocket▁	-11.5237
Slovenia▁	-11.5237
concentrated▁	-11.5237
relay▁	-11.5238
Barn	-11.5238
vey▁	-11.5238
bills▁	-11.5239
aq	-11.5239
Tang▁	-11.5239
Bau	-11.5243
fake▁	-11.5244
AG▁	-11.5245
Cann	-11.5245
Nadu▁	-11.5245
Learning▁	-11.5247
ν	-11.5251
reflect▁	-11.5251
requiring▁	-11.5251
specified▁	-11.5252
Emma▁	-11.5252
Documentary▁	-11.5252
rou	-11.5253
Novels▁	-11.5253
harsh▁	-11.5253
firmly▁	-11.5254
Ré	-11.526
Angel	-11.5263
plicat	-11.5264
sits▁	-11.5266
Tourist▁	-11.5267
Newport▁	-11.5267
GP▁	-11.5267
Bed	-11.5268
ère▁	-11.5273
8)▁	-11.5275
Kids▁	-11.5278
ο	-11.5279
symbols▁	-11.5279
Burials▁	-11.5279
conducting▁	-11.5279
encountered▁	-11.5279
jumping▁	-11.5279
tron▁	-11.5281
gur	-11.5281
ograph	-11.5283
fucking▁	-11.5283
Gibb	-11.5284
readers▁	-11.5285
0.5▁	-11.5287
Eventually▁	-11.5293
signature▁	-11.5293
heroes▁	-11.5293
prayer▁	-11.5293
hes	-11.5293
lawsuit▁	-11.5294
revolutionary▁	-11.5294
extends▁	-11.5295
protect	-11.5295
uncertain▁	-11.5296
ita	-11.5298
ladies▁	-11.5302
8,000▁	-11.5306
Chelsea▁	-11.5307
Belgrade▁	-11.5308
SO▁	-11.5309
Beat	-11.531
Blue	-11.531
author	-11.5311
Tales▁	-11.5313
Nad	-11.5316
sel▁	-11.5317
bia▁	-11.5318
Endemic▁	-11.5321
fundamental▁	-11.5321
sliding▁	-11.5321
Picture▁	-11.5321
Til	-11.5323
nig	-11.5325
Carol▁	-11.5325
high	-11.5325
Lucy▁	-11.5326
race	-11.533
Wu▁	-11.5334
judicial▁	-11.5335
Planning▁	-11.5336
rough	-11.5336
specialist▁	-11.5337
RI▁	-11.5337
picks▁	-11.5338
zzo▁	-11.5339
1830▁	-11.5341
kun	-11.5342
counting▁	-11.5346
inen▁	-11.5347
accommodate▁	-11.5349
construct▁	-11.5349
strikes▁	-11.5349
2.4▁	-11.5353
Banks▁	-11.5354
68	-11.5354
Devil▁	-11.5356
Raf	-11.5356
kh▁	-11.5357
som▁	-11.5358
kan▁	-11.5362
Publishers▁	-11.5363
assignment▁	-11.5363
victories▁	-11.5363
welfare▁	-11.5363
murders▁	-11.5364
generations▁	-11.5364
Nobel▁	-11.5364
bitch▁	-11.5368
aggregate▁	-11.5369
rolls▁	-11.537
aru▁	-11.5372
Stal	-11.5372
RNA▁	-11.5373
How	-11.5373
endo	-11.5374
13.	-11.5375
Snow▁	-11.5375
Aboriginal▁	-11.5375
LE	-11.5375
aris▁	-11.5376
elevated▁	-11.5377
cliff▁	-11.5378
freestyle▁	-11.5379
Lé	-11.5381
lasting▁	-11.5383
chairs▁	-11.5383
deals▁	-11.5384
ISO▁	-11.5384
vill	-11.5384
Java▁	-11.5387
Cass	-11.5388
TR	-11.5389
Marqu	-11.539
commentary▁	-11.5391
universal▁	-11.5391
humor▁	-11.5393
sweat▁	-11.5394
deb	-11.5395
Hop	-11.5396
Train▁	-11.5397
Sons▁	-11.5402
Mann	-11.5403
predominantly▁	-11.5405
Dynasty▁	-11.5405
localities▁	-11.5406
kind	-11.5406
Lil	-11.5408
delay▁	-11.5411
nomi	-11.5416
cathedral▁	-11.5419
preparing▁	-11.542
chapters▁	-11.542
suits▁	-11.542
Sec	-11.542
signals▁	-11.5422
trophy▁	-11.5423
Preston▁	-11.5424
kil	-11.5425
pent	-11.5425
els	-11.5426
ration	-11.5429
Leon▁	-11.5431
Calgary▁	-11.5434
attractive▁	-11.5434
brilliant▁	-11.5434
improvement▁	-11.5434
volunteer▁	-11.5434
1845▁	-11.5434
CM▁	-11.5435
RE▁	-11.5438
grams▁	-11.544
AI	-11.5442
3/	-11.5443
torial▁	-11.5444
EA▁	-11.5445
occasional▁	-11.5448
screaming▁	-11.5448
Animal▁	-11.5448
shipping▁	-11.5448
henry▁	-11.5452
continental▁	-11.5452
5/	-11.5453
awn▁	-11.5454
Kos	-11.5454
ms	-11.5455
Mind▁	-11.5458
cate	-11.546
cans▁	-11.5462
associations▁	-11.5462
crystal▁	-11.5462
narrowed▁	-11.5462
presenter▁	-11.5462
broadcasts▁	-11.5462
DR▁	-11.5466
Feder	-11.5466
NASCAR▁	-11.5476
Shadow▁	-11.5476
currency▁	-11.5476
dialogue▁	-11.5476
performers▁	-11.5476
yesterday▁	-11.5476
Estonia▁	-11.5477
variations▁	-11.5477
Lyon▁	-11.5478
brow▁	-11.5479
bags▁	-11.5479
barrel▁	-11.548
Harper▁	-11.5481
drops▁	-11.5481
Mid▁	-11.5484
argues▁	-11.5484
eli▁	-11.5484
1812▁	-11.5486
Old	-11.5488
τ	-11.549
examination▁	-11.549
thumb▁	-11.549
Citations▁	-11.549
faded▁	-11.5491
gard▁	-11.5491
achi	-11.5491
kawa▁	-11.5491
hem▁	-11.5492
guilt▁	-11.5493
custom▁	-11.5494
oc▁	-11.5494
65	-11.5499
Hut	-11.55
Carlo▁	-11.5501
reforms▁	-11.5502
quest▁	-11.5502
Past▁	-11.5505
Examples▁	-11.5505
bore▁	-11.5505
Batt	-11.5506
GA▁	-11.5506
Editor▁	-11.5512
Pho	-11.5513
streams▁	-11.5513
imagined▁	-11.5514
codes▁	-11.5515
reactions▁	-11.5517
Win▁	-11.5519
mythology▁	-11.5519
Interior▁	-11.5519
Hopkins▁	-11.5519
Capitol▁	-11.5519
Robertson▁	-11.552
flames▁	-11.552
boxer▁	-11.5521
fame▁	-11.5522
real	-11.5523
Rich▁	-11.5523
Oper	-11.5529
enders▁	-11.5531
tory▁	-11.5531
aus	-11.5532
eros▁	-11.5532
executives▁	-11.5533
fortune▁	-11.5534
pronounced▁	-11.5535
Amb	-11.5535
cello▁	-11.5537
Choice▁	-11.5538
Add	-11.5539
ence	-11.5541
masters▁	-11.5542
endings▁	-11.5542
Kid	-11.5543
joe▁	-11.5546
wash▁	-11.5547
ugh▁	-11.5547
Á	-11.5548
Agricultural▁	-11.5548
Electronic▁	-11.5548
Morrison▁	-11.5548
renewed▁	-11.5548
Jeremy▁	-11.5548
goalkeeper▁	-11.5548
floating▁	-11.5548
hypo	-11.555
sarah▁	-11.5551
curled▁	-11.5554
sail▁	-11.5554
dome▁	-11.5555
united▁	-11.5556
interpreted▁	-11.5559
Fellowship▁	-11.5562
Presbyterian▁	-11.5562
severely▁	-11.5562
diesel▁	-11.5562
diplomat▁	-11.5562
Rhy	-11.5564
sdale▁	-11.5564
lingu	-11.5564
tasks▁	-11.5564
Trav	-11.5565
axis▁	-11.5566
ultra	-11.5567
huh▁	-11.5567
logan▁	-11.5568
PGA▁	-11.5571
-4	-11.5575
Sof	-11.5575
Hurricane▁	-11.5576
continent▁	-11.5576
warriors▁	-11.5576
Salvador▁	-11.5576
borne▁	-11.5578
Herr	-11.5579
consequences▁	-11.5579
Crime▁	-11.5581
fail▁	-11.5582
Merc	-11.5583
disestablishment	-11.5585
igu	-11.5588
Kyle▁	-11.5588
deer▁	-11.559
2.2▁	-11.559
Halifax▁	-11.5591
Sergeant▁	-11.5591
tightened▁	-11.5591
thermal▁	-11.5592
Fantasy▁	-11.5593
Gene▁	-11.5593
caps▁	-11.5601
Lists▁	-11.5602
PP▁	-11.5604
conferences▁	-11.5605
intervention▁	-11.5605
Lodge▁	-11.5605
poured▁	-11.5605
Cavalry▁	-11.5605
offs▁	-11.5606
Guil	-11.5606
Mini	-11.5608
64	-11.5609
clearing▁	-11.561
ule▁	-11.561
Indo▁	-11.5611
Gin	-11.5612
kur	-11.5614
thal	-11.5615
agreements▁	-11.5619
autumn▁	-11.5619
Int	-11.5623
Brooks▁	-11.5624
enstein▁	-11.5625
Bass▁	-11.5626
Marco▁	-11.5626
Match▁	-11.5628
WA▁	-11.5629
PR▁	-11.5632
Testament▁	-11.5634
advocate▁	-11.5634
clenched▁	-11.5634
complicated▁	-11.5634
saxophone▁	-11.5634
democracy▁	-11.5634
psychological▁	-11.5634
Bailey▁	-11.5635
farmer▁	-11.5635
Cornell▁	-11.5635
moni	-11.5637
SV▁	-11.564
iser▁	-11.5641
yi▁	-11.5644
seated▁	-11.5644
Beetles▁	-11.5648
mysterious▁	-11.5648
flashed▁	-11.565
Sisters▁	-11.565
lion▁	-11.565
Call▁	-11.5652
simon▁	-11.5654
Copa▁	-11.5655
shallow▁	-11.566
tech▁	-11.566
ina	-11.566
fence▁	-11.5661
quarter	-11.5662
comprehensive▁	-11.5663
habit▁	-11.5664
etics▁	-11.5664
text	-11.5665
Tir	-11.5666
Neg	-11.5667
National	-11.5668
door	-11.5669
het	-11.567
realm▁	-11.567
impression▁	-11.5671
Singer▁	-11.5671
Take	-11.5672
wyn▁	-11.5673
CR	-11.5675
Dorothy▁	-11.5677
absorbed▁	-11.5677
attraction▁	-11.5678
Tyler▁	-11.568
font▁	-11.5685
nest▁	-11.5688
aea▁	-11.5689
static▁	-11.5691
lily▁	-11.5691
Chancellor▁	-11.5692
segments▁	-11.5692
synthesis▁	-11.5692
Universities▁	-11.5692
grants▁	-11.5695
vo▁	-11.5696
eaten▁	-11.5697
elo▁	-11.5699
Eco	-11.5699
sak	-11.5701
uka▁	-11.5702
Hugo▁	-11.5702
Ship	-11.5704
Glen▁	-11.5705
gram	-11.5705
Boulevard▁	-11.5706
dialect▁	-11.5706
governing▁	-11.5706
siblings▁	-11.5706
separation▁	-11.5707
slavery▁	-11.5707
pad	-11.5708
cared▁	-11.5709
Dum	-11.5711
ester▁	-11.5711
360▁	-11.5711
Loc	-11.5711
Connor▁	-11.5712
bene	-11.5716
petition▁	-11.5719
achievement▁	-11.5721
Kingston▁	-11.5723
demons▁	-11.5723
cast	-11.5727
blog▁	-11.5729
eaux▁	-11.5731
Main	-11.5733
tea	-11.5734
Brother▁	-11.5735
cil	-11.5735
ε	-11.5735
Henderson▁	-11.5735
Producer▁	-11.5735
exterior▁	-11.5735
Version▁	-11.5735
Haz	-11.5736
moderate▁	-11.5736
Caroline▁	-11.5736
ola	-11.5737
hen▁	-11.5742
gues▁	-11.5742
mentions▁	-11.5742
Wer	-11.5744
Fall	-11.5744
Open	-11.5745
Brook	-11.5746
smiles▁	-11.5747
Memphis▁	-11.575
courage▁	-11.575
motorcycle▁	-11.575
sheets▁	-11.5752
gener	-11.5752
hir▁	-11.5754
Zhang▁	-11.5754
73	-11.5754
wave	-11.5757
barb	-11.5757
child	-11.576
visions▁	-11.5763
Yugoslav▁	-11.5765
believing▁	-11.5765
possessed▁	-11.5765
MLB▁	-11.5765
matrix▁	-11.5765
scorer▁	-11.5766
curved▁	-11.5766
Course▁	-11.5766
Nikol	-11.5767
Triple▁	-11.5767
Kab	-11.5768
bark▁	-11.5768
corps▁	-11.5768
Kenny▁	-11.577
sake▁	-11.5771
1843▁	-11.5774
rah▁	-11.5774
Burton▁	-11.5776
1832▁	-11.5778
theatrical▁	-11.5779
songwriters▁	-11.5779
ssel▁	-11.578
Ulster▁	-11.578
Om	-11.5786
figur	-11.5787
nee▁	-11.5789
Hom	-11.5793
quil	-11.5793
ritual▁	-11.5793
oxi	-11.5794
prevented▁	-11.5794
enabled▁	-11.5794
rebels▁	-11.5794
Cornwall▁	-11.5795
seri	-11.5795
resource▁	-11.5795
mach	-11.5795
triple▁	-11.5796
Speed▁	-11.5796
Chuck▁	-11.5796
lus▁	-11.5797
Marl	-11.5798
Colin▁	-11.5799
1,4	-11.5803
Py	-11.5803
criteria▁	-11.5809
followers▁	-11.5809
Letters▁	-11.5809
bacteria▁	-11.5809
provisions▁	-11.581
María▁	-11.5811
surnames▁	-11.5812
Hero▁	-11.5814
poll▁	-11.5815
contr	-11.5816
Present	-11.5816
Too	-11.5821
fi▁	-11.5821
alter▁	-11.5823
array▁	-11.5823
Associate▁	-11.5823
consumer▁	-11.5823
goddess▁	-11.5823
introduce▁	-11.5823
Belfast▁	-11.5826
Interview▁	-11.5828
farms▁	-11.583
cow	-11.583
neutral▁	-11.5832
vis▁	-11.5834
Discovery▁	-11.5838
Lutheran▁	-11.5838
fights▁	-11.5838
raped▁	-11.5838
swear▁	-11.5839
4.5▁	-11.5848
Dale▁	-11.5849
mond	-11.5849
gas	-11.5851
14.	-11.5851
Rh	-11.5852
tes	-11.5852
ophor	-11.5852
Ethiopia▁	-11.5853
consist▁	-11.5853
MS	-11.5853
1,3	-11.5854
origin	-11.5854
Kumar▁	-11.5856
editorial▁	-11.5856
tum	-11.5857
kai▁	-11.5857
altar▁	-11.5859
sulf	-11.5859
eil▁	-11.586
too	-11.586
ifications▁	-11.5861
urus▁	-11.5863
allied▁	-11.5864
pap	-11.5865
cake▁	-11.5865
Chin	-11.5866
clean	-11.5866
excitement▁	-11.5868
ordained▁	-11.5868
nominee▁	-11.5868
cart	-11.587
cycles▁	-11.5872
Kim	-11.5873
inos▁	-11.5874
awa▁	-11.5874
Abdul▁	-11.5875
ph▁	-11.5875
feared▁	-11.5875
strained▁	-11.5875
Heli	-11.5875
2.1▁	-11.5877
discovers▁	-11.5878
Flor	-11.5878
zon	-11.588
casts▁	-11.588
heated▁	-11.5881
companion▁	-11.5882
divorced▁	-11.5882
halfway▁	-11.5882
sucked▁	-11.5882
Rachel▁	-11.5882
toes▁	-11.5886
dawn▁	-11.5886
freight▁	-11.5886
Haven▁	-11.5887
displays▁	-11.5889
ight▁	-11.589
NE▁	-11.589
underwent▁	-11.5891
ń	-11.5897
Belarus▁	-11.5897
circulation▁	-11.5897
Nuclear▁	-11.59
bride▁	-11.5902
contribute▁	-11.5902
Lem	-11.5905
bble▁	-11.5905
recover▁	-11.5906
protecting▁	-11.5906
Cox▁	-11.5908
1836▁	-11.5909
atu	-11.591
entity▁	-11.5911
designers▁	-11.5912
stationed▁	-11.5912
arguing▁	-11.5912
Critics▁	-11.5912
guidance▁	-11.5913
zio▁	-11.5913
McDonald▁	-11.5915
neur	-11.5915
Schu	-11.5915
romance▁	-11.5915
yang▁	-11.5916
ager▁	-11.5921
fasci	-11.5923
varied▁	-11.5923
Nie	-11.5925
Metal▁	-11.5925
meth	-11.5926
neo▁	-11.5926
diocese▁	-11.5927
bounded▁	-11.5927
sexy▁	-11.5927
variants▁	-11.5927
én▁	-11.5929
Kho	-11.593
gather▁	-11.593
Twin▁	-11.5931
20–	-11.5932
hid▁	-11.5933
nier▁	-11.5935
IL▁	-11.594
PO	-11.594
allegedly▁	-11.5942
enormous▁	-11.5942
independently▁	-11.5942
Richards▁	-11.5942
Rabbi▁	-11.5944
Hick	-11.5947
itter▁	-11.5947
oi▁	-11.5947
izzy▁	-11.5952
interaction▁	-11.5952
phyll	-11.5954
н	-11.5956
Being▁	-11.5957
similarly▁	-11.5957
clouds▁	-11.5957
imper	-11.5957
drawings▁	-11.5958
cure▁	-11.5958
glo	-11.5958
Cohen▁	-11.5959
uch▁	-11.5963
transformed▁	-11.5964
nuts▁	-11.5965
3–0▁	-11.5968
bullet▁	-11.5968
Can▁	-11.5968
dim	-11.5969
SD	-11.5971
requirement▁	-11.5972
Rifle▁	-11.5972
libraries▁	-11.5972
Ts	-11.5973
ultimate▁	-11.5974
-4▁	-11.5974
85	-11.5975
manages▁	-11.5977
lighter▁	-11.5981
—	-11.5982
1842▁	-11.5982
entries▁	-11.5985
öl	-11.5986
citizenship▁	-11.5987
scandal▁	-11.5987
bus	-11.5989
Marg	-11.599
kul	-11.5991
abel▁	-11.5991
treating▁	-11.5993
Day	-11.5994
CL▁	-11.5995
16.	-11.5995
mud	-11.5996
ral	-11.5997
Gaelic▁	-11.6001
accomplished▁	-11.6001
developer▁	-11.6001
wounds▁	-11.6001
cfc▁	-11.6002
omo▁	-11.6002
popul	-11.6004
Doug▁	-11.6004
locate▁	-11.6004
Alv	-11.6005
fic	-11.6005
asia▁	-11.6006
Dom	-11.6006
Nick	-11.6015
vertebr	-11.6016
Advisory▁	-11.6016
Seoul▁	-11.6016
warmth▁	-11.6017
TI	-11.6017
-20▁	-11.6017
saint▁	-11.6018
Things▁	-11.6023
strain▁	-11.6023
ilo▁	-11.6024
Wheel	-11.6024
gut▁	-11.6028
ile	-11.6028
UFC▁	-11.603
riot▁	-11.6031
thy	-11.6031
Category▁	-11.6031
Crystal▁	-11.6031
prestigious▁	-11.6031
sailors▁	-11.6031
Tourism▁	-11.6033
Lie	-11.6035
Rab	-11.6035
Martha▁	-11.6036
Globe▁	-11.6037
liga▁	-11.6038
arius▁	-11.604
best	-11.604
eased▁	-11.604
Barnes▁	-11.6042
Matsu	-11.6043
stad▁	-11.6046
acknowledged▁	-11.6047
procedures▁	-11.6047
prompted▁	-11.6047
Inspector▁	-11.6047
Points▁	-11.6047
insects▁	-11.6047
Complex▁	-11.6048
Ans	-11.6051
Sep	-11.6052
manual▁	-11.6053
Pool▁	-11.6057
rim▁	-11.6058
Episcopal▁	-11.6062
Luxembourg▁	-11.6062
allegations▁	-11.6062
approaching▁	-11.6062
imprisonment▁	-11.6062
Windsor▁	-11.6062
Why▁	-11.6062
nationally▁	-11.6065
creates▁	-11.6066
Cut	-11.6066
shoe▁	-11.6069
facts▁	-11.6071
Inside▁	-11.6072
sided▁	-11.6074
Betty▁	-11.6074
09	-11.6075
Edmund▁	-11.6077
beliefs▁	-11.6077
proceeded▁	-11.6077
quantum▁	-11.6077
Reid▁	-11.6078
businesspeople▁	-11.6079
transformation▁	-11.6079
hammer▁	-11.608
Body▁	-11.6081
yce▁	-11.6082
EN▁	-11.6084
quest	-11.6084
preserve▁	-11.6085
mund	-11.6085
conscious▁	-11.6085
cats▁	-11.6089
Monroe▁	-11.6092
invitation▁	-11.6092
eager▁	-11.6093
Liv	-11.6093
sheep▁	-11.6094
Liberation▁	-11.6094
Fran	-11.6094
Ras	-11.6095
Il▁	-11.61
margin	-11.6101
1839▁	-11.6102
shima▁	-11.6106
Database▁	-11.6107
conflicts▁	-11.6107
consultant▁	-11.6107
hesitated▁	-11.6107
potentially▁	-11.6107
acquire▁	-11.6107
draws▁	-11.6107
privately▁	-11.6107
prototype▁	-11.6107
cock	-11.6109
then	-11.6112
cooking▁	-11.6112
aka	-11.612
1835▁	-11.6122
Criminal▁	-11.6122
Kazakhstan▁	-11.6122
algorithm▁	-11.6122
doctoral▁	-11.6122
permit▁	-11.6122
Tap	-11.6123
Lynn▁	-11.6125
USSR▁	-11.6126
interrupt	-11.6127
diet▁	-11.6133
Sche	-11.6133
Achievement▁	-11.6137
Slovakia▁	-11.6137
examined▁	-11.6137
streak▁	-11.6137
faint▁	-11.6137
bastard▁	-11.6138
Count	-11.6138
IF	-11.6139
awake▁	-11.614
mothers▁	-11.6143
Gö	-11.6146
score	-11.6147
Faith▁	-11.6148
atha▁	-11.615
Ring	-11.6151
03	-11.6152
missionary▁	-11.6152
widened▁	-11.6152
vector▁	-11.6152
sharply▁	-11.6154
abil	-11.6155
Mit	-11.616
ès▁	-11.6162
tail	-11.6162
trop	-11.6163
Kay	-11.6164
Nicol	-11.6165
beds▁	-11.6166
atori	-11.6166
LS▁	-11.6167
CDP▁	-11.6167
Mercury▁	-11.6168
behaviour▁	-11.6168
eurs▁	-11.6169
bal▁	-11.6169
iidae▁	-11.6169
Fore	-11.617
senator▁	-11.617
Jesse▁	-11.6171
wishes▁	-11.6172
ced	-11.6174
Ivan	-11.6176
bum	-11.6177
3–2▁	-11.618
éri	-11.6181
Flam	-11.6182
consideration▁	-11.6183
correctly▁	-11.6183
explore▁	-11.6183
inscription▁	-11.6183
voyage▁	-11.6183
eyebrows▁	-11.6183
ico	-11.6183
rider▁	-11.6184
BA	-11.6185
Glenn▁	-11.6186
batting▁	-11.6187
ardo▁	-11.6189
Wis	-11.6192
Wick	-11.6194
beast▁	-11.6198
Medieval▁	-11.6198
monitoring▁	-11.6198
physicist▁	-11.6198
regi	-11.6198
Alternative▁	-11.6198
opti	-11.62
Iceland▁	-11.62
Creative▁	-11.62
Plants▁	-11.6202
clam	-11.6203
vari	-11.6209
Brien▁	-11.6211
there	-11.6212
μ	-11.6213
Analysis▁	-11.6213
Reynolds▁	-11.6213
discrimination▁	-11.6213
dynamics▁	-11.6213
journalism▁	-11.6213
Ernst▁	-11.6214
Baj	-11.6215
Fund	-11.6223
Ellen▁	-11.6224
000▁	-11.6226
Lov	-11.6228
Using▁	-11.6228
banking▁	-11.6228
ferry▁	-11.6229
Malcolm▁	-11.6229
monuments▁	-11.6229
True▁	-11.623
violet▁	-11.6232
way	-11.6232
2.8▁	-11.6232
crimin	-11.6233
Ladies▁	-11.6233
rap▁	-11.6234
roman	-11.6235
Broad	-11.6239
Conc	-11.6239
ignore▁	-11.6244
Winnipeg▁	-11.6244
administrator▁	-11.6244
chuckled▁	-11.6244
ř	-11.6244
enzyme▁	-11.6244
gasped▁	-11.6244
customer▁	-11.6244
ope▁	-11.6245
Carroll▁	-11.6248
edged▁	-11.6248
Andr	-11.6252
Alpha▁	-11.6252
bis	-11.6252
nowhere▁	-11.6254
etz▁	-11.6257
Sud	-11.6259
Istanbul▁	-11.6259
maintains▁	-11.6259
travelling▁	-11.6259
Gos	-11.626
Brighton▁	-11.626
pursued▁	-11.626
Fraser▁	-11.626
Rochester▁	-11.6261
Fai	-11.6262
ans	-11.6262
emily▁	-11.6266
apple▁	-11.6267
Dream	-11.6268
ary	-11.6268
ema	-11.6269
Aur	-11.6271
sack▁	-11.6273
bill	-11.6273
Estate▁	-11.6274
investors▁	-11.6275
Districts▁	-11.6275
Motor	-11.6276
Naples▁	-11.6277
Joel▁	-11.6278
Pos	-11.6278
praise▁	-11.6279
3.0▁	-11.6284
Rosa▁	-11.6289
professionals▁	-11.629
ě	-11.629
NEAT▁	-11.6291
mutual▁	-11.6291
Edgar▁	-11.6291
termin	-11.6292
humanity▁	-11.6292
aba	-11.6294
Bridge	-11.6295
Julius▁	-11.6295
Care▁	-11.6298
bolt▁	-11.6299
Mou	-11.6299
Sei	-11.6301
Turn	-11.6302
Squ	-11.6302
lik	-11.6303
Bee	-11.6305
growled▁	-11.6306
Eurovision▁	-11.6306
Occ	-11.6307
Inter▁	-11.631
crat	-11.631
define▁	-11.6311
19.	-11.6313
kt	-11.6316
Jake▁	-11.6319
navy▁	-11.632
Richardson▁	-11.6321
Heinrich▁	-11.6321
improving▁	-11.6323
vac	-11.6323
practiced▁	-11.6323
07	-11.6324
Chess▁	-11.6324
Than	-11.6324
sunk▁	-11.6327
atum▁	-11.6328
Flu	-11.6331
grove▁	-11.6332
Cali	-11.6333
Tong	-11.6333
irr	-11.6333
overhead▁	-11.6334
74	-11.6337
з	-11.6337
Leipzig▁	-11.6337
revival▁	-11.6337
maid▁	-11.6337
140▁	-11.6338
tales▁	-11.6339
retain▁	-11.6339
tray▁	-11.6342
avo	-11.6343
broad	-11.6349
Link▁	-11.6351
silently▁	-11.6352
parked▁	-11.6353
pursuit▁	-11.6354
noah▁	-11.6356
chains▁	-11.6357
dug▁	-11.6357
particles▁	-11.6359
Iz	-11.6359
BL▁	-11.636
š▁	-11.6361
Laur	-11.6363
interface▁	-11.6367
Palomar▁	-11.6368
necessarily▁	-11.6368
promising▁	-11.6368
screenwriter▁	-11.6368
gross▁	-11.6368
comprising▁	-11.6369
quoted▁	-11.637
Jag	-11.6373
rus▁	-11.6373
collecting▁	-11.6376
Gav	-11.6376
α▁	-11.6378
Map▁	-11.6379
park	-11.6381
Algeria▁	-11.6383
feminist▁	-11.6383
wrestlers▁	-11.6383
mega	-11.6384
Various▁	-11.6385
enlisted▁	-11.6387
Og	-11.6387
halt▁	-11.6389
dys	-11.6393
Hab	-11.6393
14–	-11.6393
umm	-11.6396
ibn▁	-11.6396
enable▁	-11.6398
Tasmania▁	-11.6399
Uruguay▁	-11.6399
educator▁	-11.6399
hausen▁	-11.64
Cairo▁	-11.64
onwards▁	-11.6402
Reform▁	-11.6404
Monte▁	-11.6404
Neill▁	-11.6408
ego	-11.6409
Photo	-11.6412
Rang	-11.6412
Kap	-11.6413
eter▁	-11.6414
Recordings▁	-11.6414
expanding▁	-11.6414
practically▁	-11.6415
offense▁	-11.6415
logically▁	-11.6417
removing▁	-11.6419
160▁	-11.642
numer	-11.642
Edwin▁	-11.6421
Rus	-11.6421
yar	-11.6422
mum▁	-11.6422
itches▁	-11.6422
resolved▁	-11.6423
Collect	-11.643
Heavy▁	-11.643
targeted▁	-11.643
Chiefs▁	-11.643
Mathematics▁	-11.643
powder▁	-11.643
william▁	-11.643
Ox	-11.6433
upstairs▁	-11.6433
express	-11.6435
lie	-11.6436
hill	-11.6436
1.9▁	-11.6437
him	-11.6438
remix▁	-11.6438
elena▁	-11.644
opsis▁	-11.6443
UP▁	-11.6444
Lic	-11.6444
Nacional▁	-11.6446
mathematician▁	-11.6446
Visual▁	-11.6446
900▁	-11.6448
stic	-11.6451
hull▁	-11.6454
joke▁	-11.6454
Brown	-11.6454
opp	-11.6455
Oh▁	-11.6455
ivy▁	-11.6457
ike▁	-11.6461
Officers▁	-11.6461
Plymouth▁	-11.6461
relaxed▁	-11.6461
dollar▁	-11.6462
ught	-11.6462
dubbed▁	-11.6462
Sem	-11.6463
Lad	-11.6464
salv	-11.6465
tre▁	-11.6468
hem	-11.6468
cade▁	-11.647
nav	-11.6473
NH	-11.6477
ι	-11.6477
Budapest▁	-11.6477
Chemistry▁	-11.6477
Napoleon▁	-11.6477
Roll▁	-11.6477
exhausted▁	-11.6477
manuscripts▁	-11.6477
hanna▁	-11.6477
ref▁	-11.6479
lander▁	-11.6484
Ng	-11.6485
Hack	-11.6488
mac▁	-11.6489
dry	-11.6491
Theodore▁	-11.6493
aerial▁	-11.6493
Sheriff▁	-11.6493
nerve▁	-11.6493
solely▁	-11.6494
Adrian▁	-11.6494
uttered▁	-11.6495
Real	-11.6498
loyal▁	-11.6498
guil	-11.65
finite▁	-11.65
lanes▁	-11.6501
endra▁	-11.6505
upcoming▁	-11.6507
Newfoundland▁	-11.6509
legendary▁	-11.6509
suggesting▁	-11.6509
reliable▁	-11.6509
AIDS▁	-11.6509
Springfield▁	-11.651
Inn▁	-11.651
anic▁	-11.651
Loss▁	-11.651
flo	-11.6514
Hydro	-11.6514
music	-11.6515
Kurt▁	-11.6516
duke▁	-11.6519
jud	-11.652
aches▁	-11.652
osaur	-11.652
adi▁	-11.6521
tex▁	-11.6522
chill	-11.6523
secret	-11.6524
Insurance▁	-11.6524
Nevertheless▁	-11.6524
accidentally▁	-11.6524
intermediate▁	-11.6524
б	-11.6524
Generation▁	-11.6525
Raiders▁	-11.6525
trips▁	-11.6525
peaking▁	-11.6527
Pirates▁	-11.6528
ggs▁	-11.6528
Kru	-11.6528
faction▁	-11.6528
hometown▁	-11.653
Pit	-11.653
1500▁	-11.6532
mills▁	-11.6533
Test	-11.6536
96	-11.6537
arched▁	-11.6539
nish	-11.6539
scales▁	-11.6539
ов	-11.654
discipline▁	-11.654
fortress▁	-11.654
OT▁	-11.6541
download▁	-11.6541
AI▁	-11.6541
barrier▁	-11.6541
firm	-11.6542
oids▁	-11.6542
curious▁	-11.6543
nucle	-11.6544
jar▁	-11.6544
Der▁	-11.6546
Lt▁	-11.6548
ange	-11.6549
Hey	-11.655
synonym▁	-11.655
Alle	-11.6551
Sah	-11.6554
†▁	-11.6554
Stro	-11.6555
Clara▁	-11.6556
conspiracy▁	-11.6556
decrease▁	-11.6556
Gibson▁	-11.6556
surgeon▁	-11.6556
pistol▁	-11.6557
bush▁	-11.6557
wee	-11.6557
Adventure▁	-11.6557
tenor▁	-11.6557
Brook▁	-11.6562
Ahmad▁	-11.6563
Presidents▁	-11.6563
pour▁	-11.6564
Amazon▁	-11.6566
ā▁	-11.6568
Continu	-11.6572
cellular▁	-11.6572
Arctic▁	-11.6573
Dylan▁	-11.6573
MBA▁	-11.6576
jerked▁	-11.6577
scop	-11.6578
inci	-11.6582
restore▁	-11.6582
oxide▁	-11.6583
Karen▁	-11.6584
reserved▁	-11.6587
Factory▁	-11.6588
avoided▁	-11.6588
destroying▁	-11.6588
involve▁	-11.6588
horse	-11.6589
compounds▁	-11.6589
Hem	-11.6591
Ast	-11.6593
osh▁	-11.6598
Lea	-11.6598
issi	-11.6599
Contest▁	-11.6599
here	-11.6602
Elliott▁	-11.6604
preliminary▁	-11.6604
recipients▁	-11.6604
Ale	-11.6605
Primera▁	-11.6605
clerk▁	-11.6607
BCE▁	-11.6608
2.7▁	-11.6615
tis	-11.6616
Bry	-11.6616
Administrative▁	-11.6619
achievements▁	-11.6619
Ludwig▁	-11.662
anya▁	-11.662
FBI▁	-11.662
theorem▁	-11.662
Impact▁	-11.662
Song	-11.6621
NY	-11.6621
earth	-11.6623
Biology▁	-11.6625
Hind	-11.6625
ishes▁	-11.6627
deceased▁	-11.6627
cook▁	-11.6628
1834▁	-11.6631
rib	-11.6633
angles▁	-11.6633
Blu	-11.6635
mail	-11.6635
playwright▁	-11.6635
registration▁	-11.6635
agrees▁	-11.6635
You	-11.6636
Directors▁	-11.6636
diving▁	-11.6636
kara▁	-11.6637
disappointed▁	-11.6638
Willie▁	-11.6642
crack▁	-11.6642
cau	-11.6643
bou	-11.6645
agh	-11.6647
essay▁	-11.6648
Emmy▁	-11.6651
doctorate▁	-11.6651
Prote	-11.6651
advisor▁	-11.6651
desired▁	-11.6651
receptor▁	-11.6652
Grammar▁	-11.6652
stepping▁	-11.6652
Kno	-11.6653
Way	-11.6654
crowned▁	-11.6656
duration▁	-11.6656
rio	-11.6657
Jos	-11.6659
lens▁	-11.666
seal▁	-11.666
Hans	-11.6663
iced▁	-11.6666
Ner	-11.6667
Ultimate▁	-11.6667
organisms▁	-11.6668
rulers▁	-11.667
varies▁	-11.6671
ought▁	-11.6672
atta▁	-11.6672
vern	-11.6672
hire▁	-11.6675
ashes▁	-11.6675
Amy▁	-11.6675
cyto	-11.6677
auer▁	-11.6679
lengths▁	-11.6682
guitarists▁	-11.6683
Suffolk▁	-11.6684
operators▁	-11.6684
colours▁	-11.6685
Industries▁	-11.6685
orient	-11.6685
Eye▁	-11.6688
myr	-11.6689
alley▁	-11.669
Medic	-11.6691
Quarter▁	-11.6694
boot▁	-11.6697
Communication▁	-11.6699
Harbour▁	-11.6699
Heroes▁	-11.6699
WWE▁	-11.6699
aftermath▁	-11.6699
deposits▁	-11.6699
backward▁	-11.6701
Lion▁	-11.6702
Non	-11.6702
0.0	-11.6703
matched▁	-11.6705
amine▁	-11.6706
spare▁	-11.6706
spreading▁	-11.6708
face	-11.6712
Frances▁	-11.6712
midnight▁	-11.6713
Clay▁	-11.6715
condemned▁	-11.6716
tornado▁	-11.6716
eventual▁	-11.6716
Path	-11.6716
vinyl▁	-11.6716
Alexandria▁	-11.6717
Make▁	-11.6717
Rocky▁	-11.6717
methyl	-11.6719
lining▁	-11.6721
Mall	-11.6726
circum	-11.6726
130▁	-11.6729
Set▁	-11.6729
Stad	-11.673
Coo	-11.6731
aggressive▁	-11.6732
depicting▁	-11.6732
lecturer▁	-11.6732
researcher▁	-11.6732
democratic▁	-11.6732
lately▁	-11.6732
Indoor▁	-11.6733
armies▁	-11.6735
battle	-11.6735
matt▁	-11.6735
dag	-11.6735
magnet	-11.6737
spa	-11.6738
cot▁	-11.6742
habit	-11.6743
scen	-11.6744
zones▁	-11.6745
С	-11.6748
demanding▁	-11.6748
kisses▁	-11.6748
More	-11.6749
Ring▁	-11.6749
Dow	-11.6753
Jin	-11.6754
180▁	-11.6755
tat	-11.6755
tub	-11.6755
pad▁	-11.6756
uncomfortable▁	-11.6758
lungs▁	-11.6761
wheel	-11.6764
Madagascar▁	-11.6764
nineteenth▁	-11.6764
late	-11.6764
Away▁	-11.6767
Witt	-11.6768
PO▁	-11.6768
emerging▁	-11.6769
avar	-11.6769
maxim	-11.6769
ached▁	-11.677
Mei	-11.6773
Grim	-11.6774
hybrid▁	-11.6774
trim▁	-11.6775
Cord	-11.678
Slovak▁	-11.678
Wednesday▁	-11.678
exploration▁	-11.678
infected▁	-11.678
reflection▁	-11.678
escort▁	-11.678
phan	-11.6781
Am▁	-11.6782
raj▁	-11.6783
team	-11.6785
av▁	-11.6788
see	-11.6791
arc▁	-11.6795
shade▁	-11.6795
Housing▁	-11.6796
Baronet▁	-11.6796
Heavyweight▁	-11.6796
congressional▁	-11.6796
expatriates▁	-11.6796
masculine▁	-11.6796
Andrea▁	-11.6796
depends▁	-11.6797
refuses▁	-11.6798
imagin	-11.6801
Rip	-11.6802
aces▁	-11.6802
Bang	-11.6802
skaya▁	-11.6802
-5	-11.6804
Burke▁	-11.6804
Drag	-11.6811
hosting▁	-11.6811
stained▁	-11.6811
IT	-11.6812
ð	-11.6813
nationwide▁	-11.6813
settling▁	-11.6813
NATO▁	-11.6813
mas▁	-11.6813
transported▁	-11.6813
lung	-11.6814
Santos▁	-11.6816
conquest▁	-11.6816
mouse▁	-11.6819
transit▁	-11.682
space	-11.682
handsome▁	-11.6821
bassist▁	-11.6823
terror▁	-11.6826
?	-11.6826
saw	-11.6826
nee	-11.6828
Minneapolis▁	-11.6829
appreciate▁	-11.6829
ourselves▁	-11.6829
sacrifice▁	-11.6829
specimens▁	-11.6829
breathed▁	-11.6829
southeastern▁	-11.6829
Roads▁	-11.683
horns▁	-11.6831
Palm▁	-11.6832
PL▁	-11.6832
Salem▁	-11.6833
verses▁	-11.6835
Miles▁	-11.6836
ame	-11.6837
Game	-11.6837
Tok	-11.6844
heels▁	-11.6844
Universiade▁	-11.6845
30,000▁	-11.6845
lightning▁	-11.6846
chicken▁	-11.6847
thal▁	-11.6847
breed▁	-11.6848
ija▁	-11.6849
oi	-11.6849
indoor▁	-11.685
Quint	-11.6853
Lon	-11.6857
Wings▁	-11.6859
Telugu▁	-11.6861
ammunition▁	-11.6861
diversity▁	-11.6862
congregation▁	-11.6862
Lords▁	-11.6862
semifinals▁	-11.6862
substance▁	-11.6863
Weis	-11.6863
Sofia▁	-11.6863
nicknamed▁	-11.6864
panels▁	-11.6864
vel▁	-11.6864
HIV▁	-11.6867
kay	-11.6868
CW▁	-11.6869
Dawn▁	-11.6872
zel▁	-11.6877
Louisville▁	-11.6878
Myanmar▁	-11.6878
configuration▁	-11.6878
remarkable▁	-11.6878
probability▁	-11.6878
Plaza▁	-11.6879
Face▁	-11.6882
Kri	-11.6883
alb	-11.6884
lexi	-11.6887
Diana▁	-11.6889
server▁	-11.6889
lier▁	-11.6893
secrets▁	-11.6893
Macedonia▁	-11.6894
collegiate▁	-11.6894
referendum▁	-11.6894
virtually▁	-11.6894
packed▁	-11.6895
MT▁	-11.6895
learns▁	-11.6896
manor▁	-11.6896
richard▁	-11.6901
boy	-11.6902
Nes	-11.6904
Domin	-11.6905
HF▁	-11.6905
iveness▁	-11.6906
speaks▁	-11.6906
enza▁	-11.6908
fu▁	-11.691
favourite▁	-11.691
Archaeological▁	-11.6911
Lancaster▁	-11.6911
Lombard	-11.6911
ст	-11.6911
spine▁	-11.6913
Chor	-11.6913
blew▁	-11.6915
strict	-11.6915
ikh	-11.6918
cement▁	-11.6918
odd	-11.6923
Greatest▁	-11.6927
Retrieved▁	-11.6927
Zimbabwe▁	-11.6927
ensemble▁	-11.6927
feminine▁	-11.6927
satisfaction▁	-11.6927
trunk▁	-11.6927
ozz	-11.6927
wall	-11.6928
Wagner▁	-11.6928
overcome▁	-11.6928
Clar	-11.6931
Roy	-11.6932
determination▁	-11.6932
ladder▁	-11.6933
cav	-11.6933
blank▁	-11.6934
Kid▁	-11.6934
Grass	-11.6935
shan	-11.6936
outcome▁	-11.6936
pec	-11.6939
Portsmouth▁	-11.6943
für▁	-11.6943
massacre▁	-11.6943
portraits▁	-11.6944
Hos	-11.6944
utility▁	-11.6947
rebounds▁	-11.6947
liqu	-11.6948
02	-11.6949
tiles▁	-11.695
wald▁	-11.695
ground	-11.6951
Sebastian▁	-11.6951
anos▁	-11.6956
Trinidad▁	-11.696
dimensions▁	-11.696
judgment▁	-11.696
Canyon▁	-11.696
audiences▁	-11.696
withdrawn▁	-11.696
TD▁	-11.696
Romanized▁	-11.6961
lectures▁	-11.6961
surfaces▁	-11.6961
Style▁	-11.6964
vr	-11.6964
EF▁	-11.6965
sus▁	-11.6965
Aff	-11.6974
DI	-11.6975
ienne▁	-11.6976
Enterprise▁	-11.6976
Speaker▁	-11.6976
occurring▁	-11.6976
twentieth▁	-11.6976
publish▁	-11.6976
Thames▁	-11.6977
bye▁	-11.6977
itude▁	-11.6981
purse▁	-11.6981
izer▁	-11.6983
Lok▁	-11.6983
Sex▁	-11.6984
Robo	-11.6985
print	-11.6986
Watch▁	-11.6989
wich▁	-11.6989
HE	-11.6989
paths▁	-11.6993
favorable▁	-11.6993
[...]
